{"Ġmich": 6031, "Ġstud": 972, "Ġhav": 26139, "ĠAdmiral": 38097, "Ġreporters": 26249, "gines": 12659, "ãģ£": 2970, "Ġcontra": 10742, "ĠWarner": 31769, "Ġlonely": 14236, "ì¿": 34680, "Ġcarn": 23796, "Ġwound": 10999, "Æ°á»Ŀ": 23648, "<|5.36|>": 50632, "graph": 34091, "con": 1671, "app": 1746, "Ġaccelerate": 21341, "Ġlandscapes": 29822, "ĠÃ©tait": 11806, "Ġship": 5374, "ĠMozart": 42653, "room": 2861, "iels": 44189, "Ġrearrange": 39568, "ĠDate": 31805, "Ĉ": 196, "lace": 19837, "Î²": 14836, "Ð½Ð¸ÑĨÑĭ": 48902, "<|25.72|>": 51650, "igail": 44582, "Ġhaar": 39371, "ĠSAP": 27743, "<|12.18|>": 50973, "ĠfrÃ¥": 13237, "Ġinsightful": 46401, "orship": 14752, "Ġmars": 30517, "ĠVeg": 12895, "Ġwindows": 9309, "Ġoverseas": 16274, "aras": 35867, "ishop": 18091, "ĠBuild": 11875, "emia": 14058, "iquÃ©": 27968, "encia": 10974, "Ġworkplace": 15328, "Ġdressing": 17211, "?\",": 29359, "ãģĭãĤī": 11046, "ĠWHAT": 18090, "Ġprediction": 17630, "Ġexperiment": 5120, "Ġmaster": 4505, "ĠChuck": 21607, "minded": 23310, "æ¼Ķ": 31382, "Ġministre": 31122, "Ġliberated": 43304, "ìŀĲë¥¼": 38134, "Ġanswering": 13430, "TION": 7413, "Ġple": 3362, "Ġhip": 8103, "frage": 40449, "Ġarbeitet": 49907, "Ġjong": 38678, "Ġdesar": 21464, "Ġdiarr": 37565, "à¸²à¸ĩ": 26134, "aqu": 23761, "<|6.10|>": 50669, "ĠBond": 23604, "Ġintensity": 13749, "outhern": 8409, "iono": 49020, "Ä±r": 3702, "opard": 22918, "ĠÐ¿Ð¾ÑģÑĤÐ¾": 31299, "ital": 1686, "Ġresidual": 27980, "Ġdevice": 4302, "Ġbiomedical": 49775, "tÄ±": 28163, "ĠSeong": 40333, "ĠAren": 15464, "Ġcontam": 20463, "elli": 41129, "onces": 8498, "Ġactual": 3539, "Ġverme": 40064, "Ġdrauf": 22763, "Ġlub": 15980, "Ġcompuls": 42773, "\"-": 34370, "Ġtoc": 42565, "ĠWiFi": 32885, "Ġëĭ¤ìĸĳíķľ": 49679, "á»ĵng": 35070, "Ġtow": 10966, "Ġcalend": 37022, "ahah": 11562, "ĠFOR": 15174, "Ġwrestling": 19274, "ĠExport": 50130, "Ġsens": 2923, "uya": 37199, "Ġspont": 20795, "iances": 21518, "Ġounce": 29860, "Ġerfahren": 49472, "Ġsingular": 20010, "ial": 831, "ĠUnion": 8133, "Ġbump": 9961, "ĠcÄĥ": 21957, "Ġconquest": 43241, "ĠìŀĪê²Į": 41680, "Ġprophet": 18566, "Ġconference": 7586, "Ġê·¼ëį°": 9907, "connect": 9826, "Fine": 41415, "æĢ¥": 36379, "Ġcosmic": 27614, "Ġdialogue": 10221, "Ġunw": 14853, "Ġunde": 40981, "Ġvillage": 7288, "Ġvita": 32712, "ĠkÃ¼": 24572, "Ġversions": 9606, "Ġpolling": 29518, "Ġproblem": 1154, "Ġeasier": 3571, "ĠKant": 40927, "Ġrecovering": 29180, "Ġvirgin": 26404, "ĠBenn": 29686, "ç¥¨": 41925, "Ġwin": 1942, "Ġjudgement": 33473, "åĹ¯": 21206, "ĠIB": 40385, "Ġaba": 46981, "éģĶ": 33086, "Ġgek": 14037, "Ġglut": 33249, "ĠAbd": 27548, "ä»ĬåĽŀ": 30551, "ĠGentle": 26214, "ĠÎļ": 19233, "ession": 4311, "ematics": 37541, "ĠFantasy": 25503, "AME": 31296, "Ġsupper": 44185, "ĠTin": 47741, "Ġdescribed": 7619, "Ã©ger": 41461, "ðŁĴ": 32220, "gem": 26322, "ÏĥÎµÎ¹": 39320, "Ġantibiotics": 26922, "flight": 43636, "aken": 9846, "ĠI": 286, "ĠSikh": 46657, "Ġinf": 1536, "Ġnosotros": 13863, "Ġinch": 7227, "Ġbehind": 2261, "ĠstÃ¶r": 42554, "founded": 49547, "Ġarrows": 19669, "Ġpumpkin": 17537, "Ġzeigt": 29250, "ìĬ¹": 30426, "ĠÐ·": 1423, "binary": 48621, "ĠAhmad": 35911, "ĠHu": 11874, "Ġdifference": 2649, "these": 42678, "Ġvulnerabilities": 37633, "éĤ£åĢĭ": 20754, "è¿ĺæľī": 35091, "ĠDing": 20558, "rate": 4404, "ê°Ī": 27657, "itÃ©": 5066, "ĠÑĢÐ°ÑģÑģ": 23345, "Ġwithout": 1553, "quito": 14856, "Ġinsign": 34261, "Ġzooming": 48226, "Ġtemu": 33346, "Ġidi": 18014, "Ġhah": 17206, "ÐºÑĥ": 4401, "ĠRemove": 18831, "Ġaccustomed": 35980, "Ġshrim": 13958, "ĠChris": 6688, "Ġgrease": 24867, "Ġmurders": 30479, "ĠKurt": 26168, "ĠÐ¼Ð°Ð³": 27120, "verb": 25809, "ĠBiden": 9877, "ivent": 38683, "Ġtiger": 21432, "<|28.54|>": 51791, "ĠTutaj": 41819, "Ġkilos": 30000, "Ġmask": 6094, "Ġprze": 8325, "Ġmurdered": 18486, "Ġhomework": 14578, "Ġtellement": 28906, "ĠGreg": 11490, "ĠFern": 16675, "iniz": 9328, "ĠÂ»,": 34319, "ĠÐ²ÐµÑĢÑħ": 47758, "ppen": 21278, "Ġprol": 24398, "Ġsnapping": 42727, "Ġaccompl": 6548, "stroke": 42706, "Ġobsolete": 46333, "ĠMyan": 42297, "Ġìłķë¶Ģ": 34659, "nak": 16852, "Ġmuerte": 38497, "ĠHue": 40015, "OWN": 17536, "ĠOracle": 25654, "ÑĥÐ½Ð´": 40278, "Ġoft": 11649, "Ġranch": 22883, "ÑĥÐ±Ð»Ð¸": 37412, "ĠPsychology": 42827, "ula": 3780, "Ġlicensing": 29759, "ÐµÐ½Ð½Ð¾Ð¹": 36203, "Ġillust": 8490, "Ġdownstream": 30621, "Ġinfrast": 6534, "ammers": 48414, "Ġdisappear": 11596, "ĠðĿĺ": 42341, "ĠJAM": 26238, "Ġnice": 1481, "enko": 49737, "zÄħd": 23876, "ien": 1053, "ettle": 28444, "ĠgroÃŁes": 48875, "ĠÈĺi": 41820, "phis": 26153, "<|28.38|>": 51783, "Ġemphasizes": 48856, "Ġdisconnected": 29426, "Back": 28404, "Ġcompan": 3168, "ĠìŀĲê¸°": 37257, "Ġmyself": 2059, "Ġdict": 12569, "Ġgrape": 23978, "Ġetwas": 9569, "Ġpsycho": 33355, "Ġundert": 15564, "Ġautomated": 18473, "Ġunrealistic": 42867, "įãĥ«": 38518, "ĠBrittany": 41067, "Ġdenim": 43535, "Ġencant": 42380, "etto": 23778, "term": 7039, "ĠDieser": 39609, "æĺ¯çļĦ": 30470, "<|9.64|>": 50846, "istic": 3142, "Ġeyeshadow": 34174, "ìĭŃ": 32061, "Ġê²ĥëıĦ": 25942, "Ġdisconnect": 14299, "ĠTag": 11204, "å¤": 1787, "Ġfasc": 7184, "he": 675, "ĠAuckland": 33976, "ener": 7971, "Ġattorney": 13469, "Ġjet": 14452, "Ã½ch": 41845, "ĠNotes": 41360, "ĠAround": 17633, "ologic": 36661, "ĠGym": 38635, "Ġìĸ¸ë": 44014, "ĠÐ¾Ð±": 3348, "Ġ95": 13420, "Ġhebben": 12116, "<|6.36|>": 50682, "ĠEarlier": 24552, "ĠÑĢÐ°Ð¹": 37590, "Ġvaccination": 16498, "Ġpragmatic": 46904, "ĠJohn": 2619, "ris": 5714, "Ġâĺ": 38660, "EC": 8140, "ĠÐ¿Ð¾Ð´": 4095, "Ġvisions": 30746, ".\\": 36350, "Ġsurrounds": 44576, "ĠÐ±ÐµÐ·": 10969, "lat": 14087, "Ġë°ĿíĺĶ": 48437, "ĠFraser": 49119, "Ġtapped": 38693, "<|8.40|>": 50784, "Ġ×ľ×Ķ×Ļ×ķ×ª": 49695, "Ġhearts": 8852, "ĠVin": 15011, "ĠGÃ¼": 38139, "Ġterme": 36285, "Ġgroundbreaking": 42491, "ĠYJ": 49535, "Ġly": 17293, "Ġpiel": 46065, "Ġvino": 48841, "ĠTwe": 47763, "Ġhook": 6328, "Ð¿ÑĢ": 39263, "ape": 41153, "<|12.28|>": 50978, "Ġachei": 44961, "grupp": 37768, "Ã¿Ã¿": 19551, "Ġdisagreement": 38947, "oned": 19009, "Ġcomposition": 12686, "ĠIsland": 7637, "Ġcivilization": 18036, "rimination": 14663, "Ġperspectives": 16766, "formed": 22892, "42": 15628, "ê¸Ģ": 28311, "Ġcarbon": 5954, "íĬ": 5963, "aczego": 39329, "Ġfav": 33801, "Ġassemb": 8438, "Ġcomrades": 42249, "ina": 1426, "ĠPero": 9377, "Ġfabric": 7253, "Ġunderwear": 24941, "porte": 44614, "minist": 4192, "ĠiTunes": 33017, "Ġê¸°ëĭ¤ë": 31431, "Ġmonet": 15556, "Ġdripping": 37460, "Ġconform": 18975, "Ġepis": 2927, "Ġbell": 4549, "ĠBRANDON": 46940, "1": 16, "ĠÐ¿Ð¾Ñģ": 5810, "ĠNight": 10190, "Ġtung": 41880, "Ġperse": 20607, "ĠÐŁÐ¾ÐºÐ°": 38401, "Ġcareers": 16409, "ĠIgor": 40356, "ĠSoviets": 41354, "ĠSick": 43471, "ĠEis": 43174, "Ġcreams": 46573, "Ġconcerns": 7389, "Ġremedies": 47133, "Ġclinician": 45962, "Ġinaccurate": 46443, "ophy": 29087, "<|16.06|>": 51167, "Ġendanger": 31975, "Ġplug": 5452, "Ġmisleading": 36429, "ĠMarines": 39331, "ĠvocÃªs": 10522, "ĠÐ²Ð¾Ð´": 14545, "Ġbola": 41110, "ĠKingdom": 11277, "Ġclassmates": 24964, "Ġinnate": 41766, "Ġmyths": 28205, "ĠTRA": 10841, "Ġ×ĳ×Ľ": 39150, "Give": 31186, "ĠDare": 42320, "ĠYang": 11978, "ĠÑĩÐµÑĢÐµÐ·": 17341, "anno": 13484, "engo": 30362, "Ġacquisition": 21668, "ìĭľê°Ħ": 31099, "Ġarrival": 18365, "Ġlance": 39234, "ãģĦãģĨãģĵãģ¨": 39773, "Ġshoots": 20704, "arest": 17363, "Ġessayer": 32421, "Ġgem": 7173, "Ã¢y": 12108, "Ġnuestras": 32809, "Ġ2019": 6071, "ingen": 12343, "ales": 4229, "Ġteles": 18273, "Ġmoisture": 13814, "Ġoffensive": 15710, "ıħ": 19079, "Ġheight": 6681, "Ġiv": 32412, "èī": 12531, "é£İ": 47209, "Ġsampai": 38569, "ĠLCD": 33158, "ĠPe": 2396, "Ġihan": 36131, "iedy": 16446, "Ġquartz": 48280, "cknow": 7678, "ĠJanet": 26948, "Ġcombines": 29520, "ãģ£ãģ±": 37696, "Ġolvid": 43194, "Ġcontainer": 10129, "Ġspecialized": 19813, "ĠTalent": 44081, "ĠvÃ¤ldigt": 19888, "Ġook": 7839, "è¦ĭ": 10470, "Jim": 36806, "Ġà¤®": 48449, "Ġproductive": 13304, "ĠWright": 25578, "Ð»Ð¸Ð½": 25958, "Ġparole": 26783, "ructured": 46847, "Ġinterest": 1179, "<|11.12|>": 50920, "Ġtrabalhar": 35531, "ĠBrid": 30552, "Ġaspiring": 45405, "Ġcube": 13728, "ss": 3810, "ĠfÃ¼nf": 28723, "<|14.38|>": 51083, "ĠRecords": 31928, "åİ²": 20644, "Ġarriv": 30697, "Ġcommon": 2689, "Ġincap": 30399, "Ġlitigation": 33359, "Ġsytu": 28275, "Huh": 33214, "degree": 34368, "Ġë¨¼ìłĢ": 20749, "Ġ×Ķ×Ļ×Ķ": 32132, "Ġpurs": 7088, "Ġviene": 19561, "Ġsolvent": 33575, "ARON": 43191, "Ġnative": 8470, "los": 9389, "ĠÑī": 9427, "ĠCafe": 35864, "Ø§Ø¶": 46958, "è¾¦": 23626, "hong": 46507, "Ġdoen": 15159, "ibilities": 8261, "colm": 32274, "ĠkÄ±zÄ±m": 37013, "Ġdiv": 3414, "Ġshowing": 4099, "Ġpaper": 3035, "unted": 19015, "Ġgerek": 34736, "acas": 43786, "Ġabsolutamente": 49285, "AT": 2218, "emed": 15485, "amaan": 41270, "wor": 28321, "Ġadministr": 9737, "enting": 49265, "Ġtherm": 8810, "Ã¼n": 3412, "isma": 14795, "Ð°ÐµÐ¼ÑģÑı": 43768, "Ġinstagram": 22102, "Ġfart": 24575, "ĠAud": 8821, "Ġcryptocurrencies": 44369, "amura": 43914, "awan": 41814, "Ġeer": 25937, "Ġpolymer": 20073, "ipe": 6527, "ãĤ¹": 9550, "Ġrenewal": 35516, "Ġzosta": 23154, "ĠÐ¸Ð³": 20713, "iaÅĤ": 8908, "ĠÐ¼Ð°Ð¹": 41860, "wer": 1554, "Ġsurprisingly": 17600, "ĠrÃ©du": 46369, "ĠGuan": 41431, "ĠSarah": 9519, "Ġthrows": 19251, "Ġdang": 21892, "Ġwho": 567, "ĠHousing": 31340, "Ġactivated": 18157, "uras": 12907, "ëĭ¤ê³ł": 7726, "ĠZel": 20952, "ĠKenneth": 33735, "ĠPride": 30319, "ĠÐ½Ð¾ÑĢÐ¼Ð°Ð»ÑĮÐ½Ð¾": 39601, "Ġheart": 1917, "Ġthá»±c": 50183, "ĠUmm": 18918, "Ġproyect": 23832, "ĠOoo": 25547, "ĠëĤĺëĪ": 44263, "Ġfashioned": 40646, "ithe": 45381, "Ġì±ħ": 33623, "ĠPurple": 28483, "ĠBusiness": 10715, "ĠCorps": 20169, "Ġjeder": 19610, "ricanes": 43524, "nosis": 46080, "Ġsharing": 5414, "Ġtransit": 17976, "ĠAlum": 33134, "ĠvÃ¤": 12099, "ĠSV": 31910, "ĠYeon": 30892, "Ġspark": 9908, "bras": 38182, "am": 335, "Ġalien": 12319, "ìłĦìĹĲ": 41169, "ĠAfterwards": 41357, "<|14.62|>": 51095, "Ġaddressed": 13847, "Ã¤tz": 39983, "Ġabsorbing": 38720, "Ġìķ¼": 13450, "Î¼ÎŃ": 27683, "ãģĹãģĦ": 17121, "Ġmenjadi": 39964, "Ġmeasures": 8000, "ÑģÑĥÐ´": 36460, "Ġstrony": 32406, "mana": 14524, "auc": 7113, "ìĬ¤íĥĢ": 44887, "eurs": 20395, "ĠJohns": 37016, "Ġblankets": 38710, "ĠAkbar": 48665, "ĠdescriÃ§Ã£o": 42051, "ĠSTUD": 36988, "Ġstall": 19633, "Ġbody": 1772, "Ġexcluded": 29486, "Ġpoi": 19260, "ĠYin": 33254, "Ġmahd": 44194, "Ġgang": 10145, "Ø§Ø¨": 16758, "ĠÐ½Ð°Ð²": 14192, "Ġmest": 35621, "ĠgÃ©nÃ©ral": 27796, "Î»Î¿": 32043, "Ġneden": 34828, "Ġsubstrate": 27585, "Ġchanged": 3105, "Ġinstit": 4348, "ĠCooking": 36647, "Ġlic": 6169, "okay": 26061, "ĠíĶĮë": 28764, "ĠAÃŃ": 22175, "Ġgears": 20915, "Ġhass": 33690, "ĠRockef": 50178, "Ġë£¨ë": 48512, "ÐºÑĢÐµÑĤ": 48503, "ĠSAM": 9617, "Ġlaude": 48248, "ĠTout": 20453, "man": 1601, "ĠÐ´Ð²": 7196, "ĠfÃ¶rst": 32864, "Ġarbitrary": 23211, "ensing": 22481, "<|27.12|>": 51720, "Books": 48386, "Ġrel": 1039, "Ð¸ÑĤÑģÑı": 8254, "åĳ¼": 38718, "Ġstubborn": 24137, "Ġparagraph": 18865, "æ®": 15976, "Ġequipo": 30048, "Ġcockpit": 35990, "Ġamiga": 45322, "!!!!!!": 50199, "ĠControl": 12912, "ĠBau": 28772, "ÑĢÐ°ÑĦ": 19092, "ĠÐ¿ÑĢÐ¸Ð½ÑĨÐ¸Ð¿": 30147, "Ġbowl": 6571, "ĠScore": 47901, "arb": 31630, "ĠRÃ¼ck": 35001, "Ġlassen": 16168, "Ġnutrition": 14718, "Ġphen": 7279, "Ġhac": 46093, "lance": 37271, "reh": 9017, "ubine": 47866, "Ġdiferentes": 17686, "Ġparticip": 3421, "Ġ09": 48729, "Ġjut": 42079, "<|17.56|>": 51242, "ĠgÃ¶t": 39630, "ĸìĹĲ": 28216, "vt": 49297, "Ġê±°ë": 15805, "Ġforecasting": 44331, "Ġconvey": 16965, "Ġcanceled": 24839, "Ġsimulator": 32974, "ĠÐºÐ¾ÑĤÐ¾ÑĢÐ¾Ðµ": 32000, "Ġspecification": 31256, "íħĮ": 13433, "<|24.72|>": 51600, "Ġsat": 3227, "iet": 1684, "Ġrename": 36741, "Ġdingen": 40870, "¯¼ë": 41267, "ĠEarl": 38936, "Ġê°ĻìĬµëĭĪëĭ¤": 31297, "Ġavailable": 2435, "thy": 28433, "Ġpretend": 11865, "Ġshapes": 10854, "Ġqualquer": 20437, "ĠbÃ¶l": 36413, "ĠcÃ³digo": 44195, "Ġë©Ķë": 42873, "ĠDoctor": 10143, "ĠìŀĪê±°ëĵłìļĶ": 44262, "Ġj": 361, "Ġspeaker": 8145, "ĠIslands": 23492, "Ġgest": 7219, "ĠÐ¢ÑĥÑĤ": 35358, "make": 38705, "Ġ×ľ×§": 45904, "CHEERING": 41294, "Ġdivine": 13678, "Ins": 43984, "ĠnÃŃvel": 41747, "´ī": 44753, "ĠyapÄ±yor": 46427, "Ġoficial": 37189, "Ġsure": 988, "Ġrepresentation": 10290, "Î¼Î¿": 31188, "Ġbaptism": 34352, "Ġsprint": 25075, "only": 25202, "Ġscreaming": 12636, "arbeit": 24024, "ĠÑĤÐµÐ»ÐµÑĦ": 33356, "ĠVictor": 15777, "Ġnegro": 40008, "ĠÑģÐ¾Ð±": 10450, "Ġhast": 6581, "Ġrescue": 13283, "ĠìĹĨìĸ´": 28715, "Ġspectral": 42761, "Ġsuced": 41928, "ĠMarion": 49270, "ĠBrussels": 38717, "ĠCar": 2741, "íķĺëĬĶëį°": 48763, "Ġstun": 11885, "ĠOp": 12011, "ĠTHAT": 15532, "Ġqualified": 15904, "ĠAin": 29672, "Ġscrews": 13050, "Ġumas": 46010, "ÐµÐºÑģ": 38269, "Ġsailed": 49339, "rost": 27494, "Ġoccurring": 18386, "Ġcuanto": 36685, "nicos": 48674, "Ġë§Īë": 25847, "ĵł": 6646, "Ġgrains": 22908, "Ġzap": 14223, "Ġcried": 16266, "ĠJean": 13854, "ìĺĪ": 9170, "Ġrelig": 4039, "performance": 50242, "esso": 5557, "oshi": 17392, "Ġcomplaining": 20740, "Ġmodelling": 42253, "Ġvariance": 21977, "ensation": 35292, "Ġmosque": 31501, "Ġrunway": 26642, "long": 13025, "Ð¸ÑĤÐµÐ»ÑĮ": 7809, "ĠProb": 8736, "Ã¸r": 15499, "ĠMY": 16322, "Ġsinon": 46035, "Ġmattered": 44282, "«": 104, "ĠÎ£": 26408, "ĠNARRATOR": 10160, "lapping": 15639, "ĠÑĢÑĥ": 17292, "ĠÐ²ÑĭÑħÐ¾Ð´": 27142, "Ġbá»ĭ": 32113, "ĠMarkus": 45041, "Ġhandles": 18722, "Ġpetty": 39334, "×ķ×Ŀ": 17333, "Ġcandid": 6268, "ĠOct": 6788, "ç´ļ": 35315, "ìĽĶ": 17295, "ľëıĦ": 17099, "ĠyapmÄ±ÅŁ": 47527, "amt": 16887, "<|25.12|>": 51620, "ĠEE": 33685, "Ġchew": 21200, "ĠWis": 34143, "ĠCultural": 31450, "Ġfreue": 43195, "Ġaparecer": 43336, "ouncer": 14296, "Ġfading": 38644, "Ġparting": 46607, "æĿ¥äºĨ": 34912, "Ġmisinformation": 34238, "Ġsaints": 29546, "Ġunten": 25693, "Ġcontacting": 41482, "ĠHang": 14070, "ern": 1248, "ãĤ²": 46965, "Ġpraised": 31003, "Ġuno": 8526, "Ġcontrovers": 11542, "Ġpug": 47900, "Ġdummy": 35064, "Ġimmersed": 35416, "<|3.48|>": 50538, "Ġreicht": 47000, "Ġbuying": 6382, "æ»¿": 32197, "ĠCatal": 24994, "roll": 3970, "Ġinsurance": 7214, "ĠToo": 11395, "rian": 5501, "ĠType": 15576, "Ġwallpaper": 43293, "Ġaspects": 7270, "ĠìĤ¬ëŀĳ": 22581, "ement": 1712, "izada": 39600, "Ġarrog": 22149, "Ġ2030": 28638, "ĠMad": 5326, "ĠÐ·Ð½Ð°ÐµÑĤÐµ": 29868, "ĠstratÃ©g": 45023, "ception": 7311, "Ġcris": 4661, "ĠÑĢÐ°ÑģÐº": 46666, "ĠDublin": 42323, "Ġahora": 9923, "ĠÐ½ÐµÐ¾Ð±": 27864, "between": 32387, "Ġstandby": 50170, "iac": 13921, "Ġdress": 5231, "Ġdaytime": 31908, "çĸ«": 31670, "Ġcastle": 14114, "ĠContent": 30078, "otle": 30773, "Ġ\"..": 41837, "ĠCou": 26180, "ĠJungle": 44021, "ĠÐ²Ð¸": 28570, "Ġzat": 35802, "Ġfish": 3506, "Ġreli": 19653, "ãĥ¼ãĥĪ": 38551, "Ġkonk": 21428, "VES": 46467, "©´": 2708, "Ġsmashed": 33269, "Ġwithdrawn": 48151, "Ġpleasing": 32798, "Ġschreiben": 48546, "Ġnewcom": 40014, "Ġcourage": 9892, "Ġcartoon": 18569, "ziÄĻkujÄĻ": 29769, "umin": 7112, "relax": 50162, "ĠfÃ¶rs": 30864, "ural": 1807, "ĠÐļÐ¾ÑĢ": 29635, "Ġacademia": 28937, "ëĲĺëĬĶ": 46713, "Ġbirthday": 6154, "ĠìŀĪìľ¼ëĭĪê¹Į": 44489, "les": 904, "Ġestrut": 45899, "ully": 2150, "Ġíķ´ëıĦ": 35776, "ified": 2587, "Ġemployer": 16205, "Ġsharp": 8199, "Ġshy": 12685, "Ġì²ĺ": 16650, "Ġtir": 13807, "Ġdesenvol": 28683, "ĠÏĢÎµÏģÎ¹": 46618, "IL": 4620, "<|15.68|>": 51148, "Ġwelcomed": 23668, "Ġà®ĩ": 12894, "ĠValue": 39352, "Ġbuff": 9204, "uning": 37726, "íķ´ìļĶ": 15788, "osely": 24253, "Ġdwarf": 35527, "play": 2858, "inaire": 38431, "Ġeens": 31246, "Ġ365": 22046, "ĠSabrina": 45439, "Ġ9": 1722, "ĠÑģÑĤÐµÐ½": 48357, "enk": 32160, "ĠÐ²Ñģ": 2852, "hando": 28190, "à¸Ķ": 9345, "Ġtended": 34732, "Ġkennen": 28445, "ĠgÅĤos": 43767, "Ġarticulate": 30305, "ĠNiger": 21489, "ÃŃlia": 23392, "ernen": 25657, "ĠDig": 10976, "ĠStall": 48010, "Ġsag": 15274, "Ġ/": 2460, "Ġapproximately": 10447, "Ġhail": 38157, "phen": 47059, "<|16.74|>": 51201, "ĠABS": 41707, "Ġoyun": 41773, "Ġá": 21879, "ĠHag": 34758, "ĠìķĦë²Ħ": 49972, "irsty": 15941, "ĠMire": 50008, "à¹Ģà¸Ĥ": 45243, "ãģ¨": 3193, "John": 16938, "ĠÐŃÑĤÐ¾ÑĤ": 42054, "ĠScalia": 47899, "Î¯Î½Î±Î¹": 14738, "ãģŃ": 5555, "Ġsoit": 12703, "Î¿Î½": 21731, "Ġsurface": 3753, "Ð¾Ð½Ñĭ": 34829, "Ġolm": 13583, "ĠPerchÃ©": 47978, "uate": 10107, "Ġort": 23564, "Ġindo": 13770, "Ġforum": 17542, "Ġproteins": 15577, "ĠN": 426, "Ġcontraction": 37372, "éģĵ": 6025, "Ġcoco": 21611, "ê´ĳ": 36074, "Ġhal": 7523, "ĠErfolg": 45232, "ĠmÄ±": 9251, "ĠDevice": 50140, "Ġthemes": 13544, "ĠKeller": 48352, "ĠBringing": 45241, "Ġwob": 33775, "ãĥĲãĤ¤": 42282, "Å¼enie": 41118, "Ġbuoy": 42841, "Ġrude": 18895, "Ġcamar": 43764, "ĠÃ³t": 44490, "Ġgitti": 37700, "vable": 17915, "ãģł": 5362, "ĠSimon": 13193, "Ġ53": 21860, "ĠJour": 13483, "ĠSpaÃŁ": 27460, "Ġstealth": 25756, "Ġstan": 27984, "ĠaixÃ²": 16312, "huma": 42043, "ĠComms": 42664, "Ġ140": 21548, "Ġcriticizing": 45474, "ched": 19318, "åı¥": 34592, "asaki": 44366, "ĠRide": 35042, "kil": 33534, "ĠWarning": 45140, "ĠÚ©ÛĮ": 23180, "iced": 4233, "rimin": 16796, "ĠTes": 12262, "ĠChart": 49762, "ĠpaÃŃses": 23070, "Ġpurchases": 26762, "azioni": 27569, "section": 11963, "Ģë¡ľ": 36680, "feeding": 42231, "ĠApps": 32231, "Ġstellen": 24407, "ĠìĹ¬": 5518, "ĠDream": 12105, "Ġasynchron": 42642, "<|sv|>": 50273, "ĠMary": 6059, "ĠRex": 35678, "ĠìłĢíĿ¬": 14594, "ĠaÄŁ": 21294, "éĿ¢": 8833, "Ġ12": 2272, "íĸ": 8697, "Ġcontagious": 40666, "Ġzobaczy": 37273, "Ġgoog": 50061, "ĠMatte": 47544, "produ": 14314, "ĠDharma": 40552, "Ġmounted": 19138, "Ġprofoundly": 39954, "ĠÐķÐ³Ð¾": 32908, "íĦ°ë": 21412, "ĠÐ¿ÑĢÐ¸Ð´ÑĥÐ¼": 45234, "Ġforam": 23102, "Ġlass": 45829, "Both": 24268, "ĠêµĲ": 24915, "Ġstrong": 2068, "ITT": 35582, "Ġcompanion": 22363, "ç¬¬äºĮ": 19693, "Ġeverlasting": 43710, "ĠÐ¢ÐµÐ¿ÐµÑĢÑĮ": 25238, "ella": 9885, "prochen": 23902, "display": 35238, "Ġ×ĳ×¨": 36981, "ĠHaving": 10222, "SPD": 42450, "ĠÐºÐ¾ÑĤÐ¾ÑĢÑĭÐµ": 10381, "Ġshuts": 48590, "è°": 8897, "Ġmarijuana": 24956, "ua": 4398, "ĠmÃ³": 32515, "Ġfertil": 18512, "Ġaboard": 27488, "Ġdiploma": 35770, "Ġreactive": 28897, "ername": 28704, "Bay": 29853, "Ġsculptures": 37544, "ĠMovie": 28766, "xis": 39637, "Ġwrinkles": 34822, "á»ī": 43325, "ĠPlayStation": 20599, "ĠìŀĪì£ł": 34070, "arta": 19061, "Ġboom": 9351, "Ġjointly": 46557, "Ġprograms": 4268, "ector": 20814, "Ġresultados": 36796, "Ġê½": 24378, "ĠrÃ³Å¼": 19637, "Ġquer": 7083, "ĠCR": 14123, "ãĤ½": 42668, "ĠÈ": 36726, "ĠìŀĪëĬĶëį°": 19197, "Ġê·¸ëŁ¬": 14019, "çİĭ": 19940, "ĠDod": 26904, "Ġtarde": 27367, "Ġpewn": 47160, "Ġdodge": 27238, "Ġthinks": 7309, "atable": 31415, "Ġstory": 1657, "<|14.16|>": 51072, "Ġëĵ±": 15722, "Ġbureauc": 26360, "esin": 40697, "edom": 5086, "Ġeraser": 46018, "Ġaudiences": 15479, "ÙĬÙħ": 32640, "Ġslow": 2964, "<|27.64|>": 51746, "ĠÐĿÐ°Ð¿": 28167, "ÄŁlu": 47644, "Ø¹Ùħ": 25957, "ÙĥÙħ": 24793, "kiej": 45145, "Ġtiss": 10080, "Ġim": 566, "Ġreconciliation": 31281, "ìľĦ": 14098, "Ġalmonds": 40973, "odes": 4789, "ĠAct": 3251, "Ġlindo": 48436, "Ġclasse": 32400, "cek": 12135, "ĠrÃ¤tt": 38494, "Ġtheor": 27423, "Ġíĥ": 8675, "hana": 39907, "Ġpartly": 17031, "inki": 41917, "ĠObviously": 7580, "ĠÅº": 50212, "Ġcomedy": 13394, "<|24.36|>": 51582, "ĠKA": 31233, "Ġerase": 23525, "Ġalors": 11246, "icamente": 23653, "Ġadded": 3869, "Ġprecise": 13600, "ĠÑĥÐ²ÐµÑĢ": 32838, "Ġtwin": 18397, "cribe": 8056, "igung": 21034, "ĠLage": 41555, "ĠMile": 47651, "åħ¨": 11319, "ãĤī": 5154, "Ġapost": 19484, "Ġbarley": 47761, "Ġfine": 2489, "ĠCody": 34524, "ĠÐ·Ð°ÑĤÐµÐ¼": 45288, "ĠÅ": 4423, "ĠÑģÑĩÐ¸ÑĤ": 22413, "Ġrecher": 27788, "Ġgeschafft": 45215, "ĠaÅ¼": 48134, "ÑģÑĤÐ°": 11459, "Ġtestoster": 29841, "enc": 22660, "Ġfirearms": 38398, "Ġdismant": 30506, "ĠAdams": 25214, "Ġturnaround": 46114, "semble": 37227, "ĠÎµÏĢ": 26752, "ias": 4609, "Ġbecom": 2683, "Ġinherited": 27091, "Ġbucket": 13058, "ĠÐŁÑĢÐ¾ÑģÑĤÐ¾": 34751, "ĠhistÃ³": 33196, "Ġimmersion": 40348, "Ġawards": 15193, "once": 26015, "\",": 2566, "Ġuncond": 34959, "Ġet": 1030, "uch": 625, "Ġkr": 15913, "enders": 16292, "Ġpresente": 28709, "ĠdemÃ¡s": 34682, "Ġmorals": 46849, "ĠEcu": 40675, "ĠTube": 39313, "ĠFleet": 47821, "ĠGPU": 18407, "ĠÑģÑĭ": 21811, "ĠØ§ÙĦØŃ": 21542, "ĠVill": 14244, "Ġíķ´ì£¼": 23281, "ĠHÃ¤r": 35539, "itty": 10016, "ĠEnfin": 35861, "ĠÑģÐ²Ð¾Ð¸": 25375, "Ġinv": 1048, "ĠìĿĮìĭĿ": 34203, "Ġinadvert": 49152, "izophren": 38695, "rich": 10794, "Ġtraditionally": 19067, "miyor": 28585, "ĠMeanwhile": 13879, "Ġsalah": 41688, "ĠApost": 31467, "woman": 18339, "Ġsupplied": 27625, "odus": 32419, "Ġthere": 456, "ĠObject": 24753, "ĠCanadians": 30053, "who": 13506, "Ġìĺ": 2355, "ĠPark": 4964, "Ġcoll": 1263, "cible": 32128, "Ġbubble": 12212, "ĠsjÃ¤l": 30700, "è¾Ľèĭ¦": 46472, "ĠØ§ÙĦØ°ÙĬ": 43527, "asto": 33869, "Ġhyung": 33216, "Ġreconoc": 43838, "ĠKitty": 36393, "Ġë°ĳ": 37734, "etes": 37996, "aching": 2834, "ĠFuel": 46837, "ĠAllen": 17160, "éļ¾": 46531, "Ð¾Ð·Ð´": 46004, "chluss": 41372, "Ġsmiles": 28083, "ieg": 20408, "Ðĵ": 20784, "Ġë°ľ": 13825, "ĠÑĩÐµÑĢ": 12360, "Ġpolitically": 21154, "ĠYears": 24569, "ĠëĤ®": 38601, "Ġsoda": 17192, "ĠDÃ¡": 49794, "Ġunderscore": 37556, "Ġrecognizing": 18538, "EEP": 32810, "Ġ×ĳ": 11473, "Ġpetit": 9686, "Ġpains": 29774, "Ġker": 19377, "ĠFree": 11551, "Ġelement": 4478, "Ġìĸ": 2417, "ê¸°ìĹĲ": 36855, "rias": 35051, "Ġhelicopter": 19803, "thirds": 38507, "ignment": 41134, "Ġverm": 26319, "Ġunboxing": 26266, "ĠWild": 10904, "Ġdiox": 18982, "éĽ": 6306, "Ġpap": 5806, "ĠCourt": 7873, "ĠAD": 9135, "Ġreorgan": 41203, "ÑĸÑĶ": 46592, "å¦Ĥæŀľ": 13119, "Ġpilgr": 30760, "Ġprosper": 14381, "ĠHebrew": 17895, "Ġhonestly": 6095, "Ġgenerous": 14537, "cies": 4629, "ĠìĿ´ê±°ë¥¼": 46208, "Ġbinary": 17434, "Ġhomem": 30798, "Ġmooi": 38583, "kÄħ": 26304, "Ġinterconnected": 36611, "Ġcalibration": 38732, "Ġsandwiches": 29022, "Ġebenfalls": 48977, "ĠvÃ¥r": 26477, "ivid": 1843, "ĠJer": 8139, "Ġstranger": 18834, "Ð°Ñĩ": 8314, "<|20.14|>": 51371, "ĠKristin": 42189, "ĠElo": 41784, "Ġavatar": 36205, "ĠBrendan": 48484, "Ġpages": 7183, "íļį": 40996, "á»ĭch": 46829, "ĠtÃŃtulo": 43399, "uÃŁ": 43796, "Ġmusique": 34108, "manship": 42782, "gency": 5595, "éĩįè¦ģ": 24928, "Ġjuris": 17785, "ĠJah": 12443, "Ġpana": 47296, "Ġdado": 29568, "boat": 31883, "Ġcab": 5487, "ileri": 45091, "Ġbunker": 39579, "Ġvaleur": 45255, "Ð¾Ð»Ð¶": 21403, "ump": 1420, "´ìĺ": 42978, "ĠPrize": 22604, "ĠÐ¾Ð´Ð½Ð¾Ð³Ð¾": 33828, "ÐºÐ¸Ð²": 48338, "ĠÐ¿Ð¾ÑĪ": 27148, "Ġhusbands": 37835, "Ġatac": 41015, "cture": 42919, "estruct": 43056, "Ġë§Ĳê³ł": 35145, "Ġestado": 18372, "iked": 44070, "Ġdent": 7059, "Ġclass": 1508, "ĠÑģÐ¾Ð±Ð¾Ð¹": 32474, "acular": 14700, "Ġum": 1105, "Ġuninter": 49234, "ĠØ¬": 10874, "<|17.98|>": 51263, "Pl": 33710, "Ġ\"'": 24543, "ç³»": 25368, "Ġdynamic": 8546, "Î¹ÎºÏĮ": 37789, "uous": 12549, "Ġchief": 9588, "Ġsong": 2153, "Ġmacam": 44921, "ĠMER": 47234, "ĠLibya": 36452, "Ġheals": 45653, "Ġdebido": 50003, "ĠÄ°": 6601, "Ġvoid": 22009, "Ġprocure": 26846, "mid": 25394, "<|17.72|>": 51250, "Ġnumbers": 3547, "ĠCoron": 24199, "ĠÑĤÐµÐ±Ðµ": 14656, "Ġfootprints": 45715, "Ġfug": 31838, "Ġdropdown": 47599, "g": 70, "ĠÃ§a": 2788, "Ġbrauchen": 19543, "Ġflown": 34536, "Ġpace": 11638, "ĠIDs": 48212, "ĠcoraÃ§Ã£o": 41408, "ĠMainten": 30437, "âĻ": 3268, "ĠÐ¡ÑĤ": 17483, "tz": 23643, "ĠcanÄ±m": 30535, "Ġreproductive": 33569, "Ġbuttons": 9905, "alities": 16110, "ĠSingle": 31248, "Ġtanta": 40864, "Ġ×ŀ×": 5641, "ĠSheila": 48832, "ĠÐµÑīÐµ": 9910, "Ġturtles": 32422, "ĠTucker": 35581, "ĠÐľÐ£ÐĹÐ«ÐļÐĲ": 25007, "ĠPres": 2718, "Ġpanels": 13419, "grass": 38663, "åĮĹ": 26668, "Ġcameraman": 46858, "ĠÅģ": 36901, "×ķ×ĵ": 10014, "ema": 5619, "emet": 24370, "ĠÐ½Ð¾Ð²ÑĭÐµ": 39232, "Ġ42": 14034, "ĠÑĤÐµÑģÑĤ": 41699, "ĠìĹ¬ìŀĲ": 41768, "ĠRichardson": 48492, "Ġscores": 13444, "ĠKon": 12718, "Ġacabar": 35041, "ĠSec": 3306, "Ġcier": 39769, "ĠbugÃ¼n": 37141, "ĠChairman": 17866, "Ġcure": 13698, "arson": 19358, "Ġkillers": 39369, "Ġwondering": 6359, "Ġfools": 38625, "ĠBug": 23821, "teokbokki": 34357, "ĠVirtual": 23887, "Ġexca": 24933, "Ġìķħ": 43843, "Ġtruly": 4908, "metal": 39857, "Ġbef": 21312, "asta": 12468, "etera": 20269, "ìĹĲìļĶ": 16239, "ç¤¾": 27658, "ĠButler": 27571, "attform": 49952, "âĪ": 30402, "Ġvolley": 30951, "Ġ8": 1649, "ĠÑħÐ¾ÑĩÐµÑĤÑģÑı": 48453, "<|10.68|>": 50898, "Â¿": 25073, "usu": 41083, "Ġãħĭãħĭãħĭ": 49249, "Ġextraordinarily": 34557, "Ġdepiction": 47740, "ĠSke": 32344, "ĠDis": 4208, "ĠGe": 2876, "ÏĢÎµ": 36445, "Ġsorcer": 41349, "Ġcontributes": 32035, "Ġrecom": 23334, "¦´": 15389, "ÐµÑĢÑĤÐ²": 46023, "ì§Ģê°Ģ": 30232, "Ġcott": 11550, "Ġ×ŀ×Ĳ": 26295, "FF": 6345, "ĠÐ²Ð¸Ð´ÐµÐ»Ð¸": 49998, "adura": 25154, "kor": 19339, "Ġstrings": 13985, "zza": 26786, "Ġsteam": 11952, "Ġurban": 9681, "icate": 8700, "Ġgestures": 28475, "Ġfilter": 6608, "Ġellos": 16353, "Ġmob": 4298, "igans": 49088, "denly": 18185, "ĠIntelligence": 27274, "Ġspiritually": 33430, "Ġplugins": 33759, "Ġald": 16798, "Ġcomplaints": 19585, "ersonic": 44725, "Ġles": 1512, "Ph": 24382, "Ð½Ð°Ðº": 20623, "ĠÑĢÐ°Ð²Ð½Ð¾": 27354, "å½±": 16820, "itÃ¤t": 14053, "ĠÐ¥": 9456, "pers": 21819, "Ġsoul": 5133, "Ġvad": 16684, "æĬĬå®ĥ": 42061, "seven": 44476, "èµ°": 9575, "ĠSisters": 43166, "ĠDestiny": 31898, "Ġobsess": 35803, "Ġblev": 37332, "Ð°Ð¹ÑĤ": 23055, "å¾Ĺ": 5916, "Ġthem": 552, "hodou": 43887, "Ter": 43352, "Ġincarcer": 24650, "Ġnetwork": 3209, "Ġattitude": 10157, "osta": 8638, "neath": 7000, "ãģĺãĤĥãģĤ": 31284, "Ġliquid": 6553, "archy": 13988, "ĠitÃŃs": 30924, "ĠdÃ¼ny": 32262, "Ġviolin": 22878, "Ġcapturing": 23384, "Ġwashes": 48616, "bÃ¼r": 49057, "Ġabused": 27075, "Ġ89": 31877, "Ġbik": 26730, "<|4.22|>": 50575, "<|13.52|>": 51040, "igious": 21883, "ĠCO": 3002, "ĠcÃ³d": 40210, "Ġpred": 3852, "ä»£": 19105, "Ġlikely": 3700, "ĠWin": 10427, "Ġnuovo": 49348, "ĠRings": 38543, "Ġeffect": 1802, "ront": 10001, "ĠZukunft": 22782, "ĠTales": 50099, "Ġattacked": 12692, "Ã®": 7517, "alal": 43753, "Ġmatters": 7001, "uel": 3483, "Ġextinct": 35094, "Ġdad": 3546, "SÃŃ": 30463, "Ġpopul": 24017, "Ġrework": 48376, "worthy": 23727, "ĠSac": 19356, "<|10.32|>": 50880, "<|13.36|>": 51032, "Ġtranslation": 12853, "Ġschwier": 27546, "Ġìŀ¬ë": 16526, "Ġszer": 36160, "Ġplenty": 7140, "Ġkitten": 39696, "ĠSell": 44296, "Ã³ria": 15250, "Ġpositioned": 24889, "Ġpoorer": 49740, "Ġselbst": 13053, "ĠdemiÅŁ": 46334, "uy": 7493, "ĠAtt": 7298, "Ġareas": 3179, "¸ë¡ľ": 16270, "<|21.88|>": 51458, "Ġpall": 24075, "ĠAds": 44325, "ĠEso": 27795, "ĠìĨ": 4794, "Ġadminist": 4968, "Ġ(\"": 15618, "×ª×Ĺ": 46200, "Ġmathemat": 11619, "ĠTro": 19406, "Ġcurls": 36950, "ĠÐ¿ÑĢÐµÑģÑĤ": 44481, "Ġcues": 32192, "Ġnotify": 36560, "ĠÃ¶ffentlich": 34603, "Ġsill": 37160, "Ð»Ðµ": 7635, "ÑıÑī": 16076, "ĠmÃ³w": 13489, "Ġtrade": 4923, "Ġepidemic": 20982, "Ġbamboo": 26156, "Ġparachute": 44665, "Ġjon": 49151, "Ġgece": 48173, "ÐµÐ½Ð¸Ñı": 5332, "Ġsoftware": 4722, "ĠLots": 15908, "Ġ×ŀ×ŀ×": 41764, "zyÄĩ": 27150, "ĠdifÃŃ": 16774, "ĠPolizei": 35297, "ĠcÃ¢mera": 43640, "Ġbones": 10491, "Ġstrangers": 22724, "comings": 49886, "ĠLooking": 11053, "ĠTaiwanese": 45187, "leen": 28238, "Ġ102": 45937, "Ð¡Ð¢": 40752, "Ġmittlerweile": 41999, "à¸Ĥ": 20512, "ĠMichelle": 14933, "Ð¢Ð°Ðº": 39005, "ĠOper": 12480, "Ð¾Ð²ÑĭÐµ": 44238, "ĠnasÄ±l": 16963, "arnos": 24979, "Ġsencill": 46749, "ĠAkt": 32850, "psilon": 16592, "gg": 1615, "IT": 3927, "ĠÐµÐ²": 42402, "ahon": 45080, "Ġrealize": 4325, "Ġwiped": 26879, "ĠÐ¿Ð¾Ð¼Ð¾ÑīÑĮÑİ": 36387, "ĠZe": 4853, "ł¤ìļĶ": 45410, "Ġpoz": 21281, "Fr": 40305, "hua": 30107, "ĠHonestly": 12348, "lands": 10230, "Ġë³Ħë¡ľ": 45513, "íĶ¼": 20701, "ativos": 36945, "Ġtoim": 35590, "ĠClub": 11288, "yers": 13917, "éģİåİ»": 36910, "Ġå°ı": 43454, "ietet": 45531, "soft": 13908, "Ġflight": 7018, "Ġexpansion": 11260, "ĠExperiment": 37933, "ĠUP": 20074, "ĠWalter": 21572, "Ġadequate": 20927, "foreign": 49003, "ĠMedia": 14741, "ĠShah": 21159, "Ġpreview": 14281, "ĠMoi": 20256, "è¿½": 39947, "Ġdisciple": 32100, "Ġscri": 5545, "æĪĳçŁ¥éģĵ": 33838, "Ġhuis": 46526, "Ġkidnapping": 47868, "ĠniÃ±o": 42307, "Ġfeliz": 28544, "<|af|>": 50327, "Ġhumanos": 34555, "Ġprefer": 4382, "Ġlady": 7262, "ĠFail": 39094, "Fire": 45651, "ĠVallahi": 35454, "à¹Ģ": 5504, "Ġemerged": 20178, "Ġtransferred": 15809, "Ð¨": 26541, "<|26.12|>": 51670, "ĠAlexandra": 45546, "<|20.26|>": 51377, "Ġprzez": 14064, "Ġìĺ¤": 5175, "ħĦ": 35530, "Ġdramas": 36739, "Ġlantern": 34031, "presented": 36589, "akter": 33557, "Ġà®¤": 18198, "Ġlens": 6765, "ĠëĤ´ì": 25097, "<|da|>": 50285, "Ġestas": 13897, "Ġtrainee": 40350, "ĠDante": 35602, "Ġjsem": 47784, "ĠPatty": 44116, "Ġbede": 22466, "ĠFach": 38213, "ĠÐ²ÑĭÐ³Ð»ÑıÐ´": 30449, "Ġgospel": 14943, "Ġinclude": 4090, "Ġcarrot": 22767, "ĠHUD": 46867, "ĠConservative": 46054, "èģ²": 29454, "Ġalgo": 8655, "Ġperder": 26971, "Ġbricks": 25497, "ÏĦÎ±Î¹": 23259, "ĠHA": 11979, "ÑĥÐºÐ°": 38394, "Ġusing": 1228, "ĠÐ²Ð¾Ð·Ð¼": 18077, "!,": 32652, "ĠÐ¾ÑĤÐ´": 22243, "Ġhood": 13376, "GER": 34389, "Ġdrawer": 24039, "Ġastronauts": 28273, "Ġtheaters": 28887, "Ġballoon": 16994, "<|14.08|>": 51068, "ĠIO": 39839, "Applause": 14650, "be": 650, "Ġdisasters": 27966, "abolic": 26956, "akap": 49904, "ÏħÏĦ": 15009, "ambre": 48230, "ĠÑģÑĤÑĢÐ°Ñħ": 50190, "å¾ŀ": 21068, "<|24.56|>": 51592, "Ġwenig": 20911, "Ġknife": 7976, "á¹£": 24242, "ĠWu": 17287, "rÃ©e": 37735, "Ġmerge": 22183, "iego": 12200, "Ġregistering": 47329, "Ġrid": 3973, "Ġpremise": 22045, "Ġlinking": 25775, "ÏĢÎ¬": 38460, "ĠìĻľë": 33750, "Ð»Ð°Ð³": 25464, "æĶ¯": 24400, "ĠkardeÅŁim": 38070, "Ġëĸł": 43687, "Ġangled": 48843, "owment": 47966, "Ġëĵľ": 35561, "ONEY": 49209, "Ġopioids": 47845, "ICES": 40407, "GI": 26252, "ĠBref": 49957, "ĠHart": 21414, "mate": 13963, "Ġcarbohyd": 26328, "Ġafterlife": 47637, "ĠCharacter": 36786, "urgical": 46736, "uldade": 48504, "Ġmilks": 48773, "Ġcompromised": 32463, "ĠÐ½ÑĢÐ°Ð²": 27564, "áº£n": 31926, "ê±°": 4285, "xy": 12876, "Ġmothers": 17941, "Ġambassador": 25445, "Ġtent": 7054, "ëĭ¤ë": 9835, "iÃ¨me": 24541, "ĠSau": 22557, "Ġsignificantly": 10591, "profits": 32480, "ĠSweet": 14653, "Ġbonded": 41194, "Ġco": 598, "Ġcelery": 37643, "Ġobten": 28326, "ual": 901, "ĠThomas": 8500, "ĠinÃŃcio": 45979, "ĠTap": 13445, "ĠÑıÑĢ": 44016, "Ġquesta": 16540, "ĠìķĦë¬´": 30702, "ĠCath": 8764, "Ġrocky": 33301, "ĠJeÅĽli": 37086, "Ñĭ": 698, "åĬ": 5087, "ĠHead": 11398, "ĠAboriginal": 36577, "Ġemer": 4345, "Ġíķĺê²Į": 44605, "ĠStadium": 32976, "esterol": 21947, "Ġdownt": 11655, "Ġwhipping": 45476, "ĠÑĢÐ°Ð·Ð¼": 47075, "Ġponytail": 49138, "Ġiyi": 16173, "Ġstanie": 40013, "Ġdistracting": 36689, "Ġrobbed": 35772, "<|11.30|>": 50929, "lebr": 3735, "Ġlis": 32670, "ÑĭÑĪ": 12533, "ĠUA": 32765, "ĠìĨĶ": 37255, "ÑĤÐ¾ÑĢÐ°": 26250, "%.": 6856, "ĠEspa": 27907, "Ġlight": 1442, "<|27.76|>": 51752, "Ġinnych": 36286, "Ġnovo": 18246, "Ġtaste": 3939, "ą": 193, "Ġanim": 2383, "Ã¤l": 9063, "çĹħ": 30986, "mus": 18761, "ĠStaats": 33928, "Ġdepending": 5413, "Ġid": 4496, "Ġpersist": 13233, "æĪĲ": 11336, "lam": 4326, "ĠÑģÐµÑĢ": 14490, "<|21.64|>": 51446, "Ġwherever": 8660, "ĠReading": 29766, "Ġcovet": 48497, "Ð¾ÑĩÐµÐ¼Ñĥ": 28807, "phalt": 39910, "ĠRestaurant": 38870, "éģİ": 8816, "ĠIo": 19239, "wehr": 35601, "Ġphoto": 5052, "Ġkaum": 36443, "ĠGaming": 30288, "<|0.86|>": 50407, "Ġparaly": 32645, "Cry": 38477, "ĠstÃ¥r": 37019, "Ġediyor": 30761, "Ġtrata": 31920, "West": 37943, "Ġtheoretical": 20864, "Ø¬": 7435, "Ġps": 18815, "sca": 44239, "Ġchopsticks": 39443, "<|19.62|>": 51345, "Please": 16216, "Ġì±Ħ": 27411, "ĠPRESID": 42508, "Ġtopics": 8378, "Ġtortured": 36166, "have": 24284, "Ġembargo": 23955, "ĠMark": 3934, "ied": 1091, "ÑĨÑĸÑĹ": 34780, "Ã¤hÃ¤n": 24965, "Ġsucceeded": 20263, "Ġsmiling": 16005, "Ġelectrons": 14265, "Ġspoiled": 32439, "val": 3337, "ĤĺëĿ¼": 47495, "Ġib": 39073, "Ġassists": 49416, "ĠKry": 37747, "Ġpost": 2183, "ĠAman": 35466, "Ġ1900": 28898, "Ġdescub": 32592, "Ġnud": 40045, "ĠyapÄ±l": 37009, "ĠErst": 31183, "<|14.76|>": 51102, "<|2.16|>": 50472, "Ġexpressed": 12675, "ĠÐ¡ÐµÑĢÐ³": 38393, "Ġsynergy": 50163, "çĮ": 25266, "ĠFans": 25065, "Ġpriced": 30349, "ĠNine": 18939, "ullen": 32516, "ishops": 48056, "Ġshortest": 31875, "íķĺìĭł": 47022, "ĠìĿ´ìķ¼ê¸°": 37576, "Ġdesigns": 11347, "Ġbize": 28825, "ĠHug": 46892, "ĠEy": 23236, "Ġillusions": 49836, "åĻ¨": 34386, "mb": 2504, "ĠItu": 39109, "<|27.56|>": 51742, ":": 25, "ĠÐºÐ¾Ð¼Ð¿Ð°Ð½Ð¸Ð¸": 44231, "umb": 2860, "ĠSmithson": 44350, "ĠJersey": 16601, "ĠHeaven": 13676, "ĠCyr": 33146, "Ġdol": 17858, "ĠtÃ¤tÃ¤": 50187, "Ġìĸ´ëķĮ": 43884, "<|11.82|>": 50955, "Ġalleine": 37780, "displaystyle": 38993, "ĠBog": 24339, "æĢİéº¼æ¨£": 34253, "ĠÐ´ÐµÐ»Ð°ÑĤÑĮ": 19284, "ĠFriday": 6984, "Ġwears": 20877, "ĠWilly": 42238, "Ġsounded": 17714, "Ġarch": 3912, "ĠHey": 1911, "ĠMate": 27594, "Ġgreater": 5044, "Ġstamps": 30800, "ĠNeigh": 35917, "olis": 16466, "Ġequitable": 33730, "ynÄ±": 25681, "ĠoÄŁlum": 26984, "acle": 7041, "osten": 18946, "<|19.12|>": 51320, "ĠëłĪë": 43927, "iderman": 47811, "Ġabre": 41594, "Ġperformance": 3389, "Ġstrategy": 5206, "arez": 39948, "cros": 42471, "<|26.96|>": 51712, "Ġtyres": 42564, "Ġconverge": 41881, "ĠRochester": 39895, "Ð¼Ñĭ": 25592, "Ġmeditate": 29989, "Ġmassa": 26689, "ĠØ¨": 4724, "ĠSunny": 34665, "Ġsurprise": 6365, "Ġaccomplish": 9021, "Ã¨le": 29844, "Ġresilience": 19980, "Ġce": 1769, "<|5.60|>": 50644, "ĠCrypt": 34809, "<|25.38|>": 51633, "ĠValerie": 46656, "Ġë©ĶìĿ´íģ¬ìĹħ": 31923, "<|9.00|>": 50814, "und": 997, "ĠEngineers": 43950, "uju": 45652, "ĠÑįÐºÐ¾Ð½Ð¾Ð¼": 41800, "Ġshed": 14951, "Ġlequel": 39439, "imbap": 46304, "Ġscenarios": 15077, "æĢ»": 33440, "Ð°Ð¹Ð½": 32920, "ĠjeÅĽli": 25630, "Î´Ïİ": 38022, "Ġbiliyor": 35424, "ĠtÃ¤n": 19790, "ĠdiffÃ©rent": 19384, "Ġdeter": 15092, "ĠktoÅĽ": 32982, "Ġì½Ķë¡ľ": 29716, "Ġfluorescent": 46735, "ĠÐ²Ð¾": 7900, "rit": 3210, "Ġzus": 11548, "pound": 44806, "ĠSara": 18694, "Ġarmor": 13124, "Ġparents": 3152, "<|14.86|>": 51107, "Ġsmell": 4316, "ĠWelcome": 4027, "Ġsympt": 7266, "Ġmon": 1108, "ĠEcuador": 41558, "ìĶ": 9751, "Ġtussen": 50119, "Ġgap": 7417, "Ġdzie": 17953, "odge": 19315, "Ġfurnace": 34046, "Ġembark": 29832, "Ġbreakdown": 18188, "Ġregulated": 26243, "ĠseÃ±or": 22188, "ĠOoh": 7951, "igence": 17644, "<|27.34|>": 51731, "ĠÙħØ«": 50113, "Ġhost": 3975, "Ġbleach": 39631, "Ġodpow": 24314, "ĠPartnership": 49589, "Ġclimbs": 48439, "ĠÑģÑĥÐ¿": 32453, "Ġaims": 24683, "Ġìŀ¡": 16545, "ĠBrexit": 24480, "imb": 17306, "ĠBÃľNDNIS": 25667, "ĠKickstarter": 41288, "Ġcomponent": 6542, "Ġpse": 25505, "Ġzac": 34430, "orta": 36403, "Ġjourneys": 36736, "Ġnuevo": 18591, "Ġmicrobi": 33234, "Ġbenim": 13818, "Ġsuprem": 23710, "ĠMans": 23167, "ëĭ¹íŀĪ": 44180, "Ġnude": 36505, "ocumented": 35739, "áº£i": 18166, "ĠRosen": 33630, "Ġ1966": 39157, "hots": 27495, "ĠQing": 20089, "×Ķ": 2225, "éĥ½": 7182, "Ġcro": 4848, "ĠÐ¸Ñģ": 12410, "worth": 13136, "Ġzien": 23735, "ĠTuc": 42272, "roz": 27857, "Ġnonsense": 14925, "ropri": 5072, "MP": 12224, "ENTE": 30752, "Ġuniformly": 48806, "ĠAgainst": 29995, "Ġllev": 27124, "imiz": 12526, "ìŀĸìķĦìļĶ": 13928, "Ġpasture": 48423, "igne": 26341, "ĠlÃ¶": 25209, "Ġreve": 5174, "ĠTr": 1765, "Ġchann": 2078, "æ·±": 24043, "ĠÐ±ÑĢ": 19603, "ĠbientÃ´t": 34653, "ğ": 219, "ĠKhan": 18136, "Ġì§ĢëĤľ": 26416, "Ġpath": 3100, "Ġpourra": 37753, "ĠChain": 33252, "ĠÑįÑĤÐ¾Ð¼": 10755, "Ġinexpensive": 28382, "Ġspielt": 39778, "Ð½Ð¾Ñģ": 32472, "Ġpodia": 46689, "ãģı": 6134, "ĠHernandez": 47985, "å®īåħ¨": 45466, "Ġgelernt": 49224, "Ġíı¬": 17101, "Ġbalanced": 13902, "ĠOtto": 41716, "xtures": 37610, "Ġcharity": 16863, "Ġfocuses": 16109, "ĠLisa": 12252, "èĢĮå·²": 48420, "zag": 43886, "ëĭ¤": 1235, "imming": 40471, "<|3.16|>": 50522, "<|nl|>": 50271, "ĠextrÃªmement": 38148, "éĢ²": 18214, "itung": 35563, "ffer": 38145, "Ð½ÑıÑı": 41884, "ĠAttack": 22477, "Ġelectrodes": 47824, "ĠperÃŃodo": 44699, "æĢİéº¼è¾¦": 42511, "ĠCCP": 27876, "erver": 38241, "Ġintestines": 44429, "Ġastrolog": 30122, "igu": 16397, "ĠMaintenant": 36931, "ĠInnen": 43617, "ÐµÑĤÐ¸": 42378, "ĠìŀĪì§Ģ": 37693, "Ġprogressive": 16131, "ãģĪãĥ¼": 36697, "Ġscaff": 40889, "ÑĬ": 8515, "ĠMelbourne": 27496, "ĠcÃ³": 6333, "ĠÑįÑĤÑĥ": 18763, "Ġsmiled": 35132, "Ġprofess": 2668, "Ġcredible": 32757, "ĠOD": 48447, "ĠSAN": 49557, "Ġpurpose": 4334, "Ġpollution": 16727, "Ġ×ķ": 7666, "Ġbounce": 15894, "ĠdÃ©p": 27998, "ind": 471, "¡Į": 5475, "ĠÐºÐ¸Ð»": 37028, "Ã¤llt": 25333, "mble": 8737, "Ġnegative": 3671, "<|23.08|>": 51518, "Ġ?": 2506, "Ùĳ": 11703, "inally": 19801, "Ġbother": 8677, "Ġrepres": 2556, "Ġiemand": 48687, "ĠestÃ©": 34584, "Ġseism": 40159, "å°±åĪ°": 45918, "<|23.46|>": 51537, "Fonda": 35286, "Ġdecreasing": 23223, "ĠëĪĪ": 15333, "ĠÑģÐ²Ð¾ÐµÐ³Ð¾": 32325, "ĠAlso": 2743, "é¡Į": 14475, "ĠÑģÐ¼Ð¾Ð³": 32139, "ĠfÃ¼hrt": 39671, "ĠPhase": 24432, "Ġpermettre": 37350, "ĠPenny": 32009, "ĠMacht": 40873, "ìĿ¸": 4215, "ĠÃ©ta": 21325, "Ġtwice": 6091, "Î»Î·": 26836, "58": 20419, "ĠPerez": 47317, "Ġalmond": 29506, "ĠCord": 40267, "NIS": 22460, "Ġspecimen": 34204, "ĠLOVE": 31351, "Ġcareg": 25087, "Ġneglect": 17745, "cono": 45846, "Ġlazy": 14847, "itor": 3029, "<|0.96|>": 50412, "ĠrÃ³": 11416, "æĥľ": 48199, "ĠÃ¤r": 3775, "Ġremote": 8607, "ĠtÃ¤ssÃ¤": 29934, "Ġperimeter": 32404, "ĠHampshire": 35688, "ĠCopper": 47243, "Ġsovereign": 28756, "Ġarthritis": 35956, "<|23.94|>": 51561, "ĠBan": 13850, "Ġneo": 41977, "ĠTob": 26350, "ĠAngie": 48829, "Ġtime": 565, "Ġestre": 36665, "<|24.86|>": 51607, "Ġexpand": 5268, "ĠTransform": 27938, "å°±æľĥ": 47778, "ĠFei": 39587, "ĠÐ´Ð»Ñı": 5561, "ĠStrategy": 40915, "<|14.60|>": 51094, "ĠPoly": 18553, "ordin": 6241, "ÑĤ": 403, "Ġinfluencing": 40396, "Ġlaughing": 5059, "hÃ©sitez": 45587, "åĳĬè¯ī": 44816, "Ġ×¨": 12926, "emaker": 49523, "Ġmotiv": 5426, "ĠLag": 24886, "Ġmismo": 12461, "ĠLISA": 42448, "ĠÐ½Ð°Ð¼": 11401, "ĠgdzieÅĽ": 41359, "ĠPentagon": 36371, "Ġshroud": 50077, "èĥ¡": 43861, "Ġdances": 28322, "ago": 6442, "UE": 16309, "ĠLike": 1743, "Ġsystematically": 39531, "STE": 39285, "Ġmisunderstood": 33870, "tic": 40907, "Ġfavorable": 29557, "Ġedges": 8819, "Ġíķ´ì¤": 29409, "çľĭçľĭ": 22884, "Ġadopting": 32328, "wave": 35461, "Ġfosse": 24528, "ĠÅŁey": 6517, "borne": 23739, "anska": 30074, "Ġpouco": 13920, "Ķ": 242, "Č": 200, "Ġoutfits": 22331, "Ġê´Ģìĭ¬": 47229, "ãģĦãģ¾ãģĹãģŁ": 25910, "Ġmix": 2890, "ĠktÃ³rych": 30382, "Ġkomb": 42925, "Ð°ÑĨÐ¸": 8392, "Ġpokemon": 41161, "Ġorganize": 13859, "ĠOrganization": 23979, "hood": 3809, "Ġheavenly": 29406, "Ġemphasis": 16271, "Ġcolder": 31020, "Ġlimitation": 27432, "åĦ": 12827, "Ġbos": 30641, "ĠDabei": 39606, "aros": 48970, "ĠAtl": 11000, "Ùį": 33608, "Ġfurious": 33470, "ĠThi": 48197, "ĠComedy": 47217, "ĠQui": 27361, "ĠÐ´ÐµÑģÑı": 32233, "Ġtriggers": 22827, "Ġcertific": 12378, "esome": 2988, "Ġhandc": 46175, "felt": 41894, "ĠOptions": 42934, "ĠÅŁu": 17235, "Ġadventurous": 46163, "å°įåĲ§": 47905, "Ġpermis": 44744, "åĤ·": 41323, "ÐµÐ½ÐºÐ¾": 37794, "itsu": 35711, "alles": 37927, "ĠMaur": 26133, "ĠApple": 6373, "<|6.96|>": 50712, "Ġdrawn": 10117, "KEN": 40136, "Ġref": 1895, "ĠSÃ©": 49556, "ĠaÃ§Ä±k": 33282, "ãĤ¸": 14655, "ĠEdu": 31900, "Ġadvertisements": 42897, "Ð½Ð¸Ðº": 9715, "åĮħ": 23305, "<|18.80|>": 51304, "Ð¢Ñĭ": 37206, "ĠBert": 29594, "Ġsearch": 3164, "Ġexcer": 42760, "ĠBeau": 43702, "Ġstandard": 3832, "Ġsubsequent": 19962, "Ġsteamed": 32375, "ìĿ´ìĹĲ": 13030, "Ġproduce": 5258, "Ġnat": 2249, "<|10.38|>": 50883, "Ġdesarroll": 32501, "ìĸ´ê°Ģ": 45017, "Ġ×Ķ×¢": 26507, "Ġait": 31684, "ĠHundreds": 45785, "ĠÑģÑĤÑĢÐ¾": 35860, "ĠìĹ¬ëŁ¬": 31784, "Ġplayground": 24646, "Ġê°ĻìķĦìļĶ": 12196, "Ġpropose": 17421, "Ġconcert": 8543, "Okay": 8297, "Mic": 48831, "ĠAccording": 7328, "ĠFig": 22443, "phere": 6605, "ulpt": 12463, "Ġnouve": 11456, "èĢ": 4450, "Ġìĥī": 22530, "Ġvess": 11800, "Ġslash": 17330, "ĠëĤĺìĺ¨": 34396, "Ġshooter": 24680, "Ġtug": 33543, "Ð½ÑĮ": 18399, "Ġtrouver": 23546, "Ġsalad": 12604, "<|startoftranscript|>": 50258, "Ġfragile": 23847, "Ġpreserve": 15665, "Ġburada": 19167, "Ġê·¸ëĥ¥": 11208, "Ġwant": 528, "ald": 3976, "Ġfreezing": 20200, "Ġexpenditures": 46381, "Ġherb": 22662, "Ġdiab": 33227, "ÑĳÑĤ": 11950, "Ġelectronically": 49677, "Ġgroundwater": 40511, "Ġdefin": 1561, "Ġformul": 49990, "ĠBear": 19836, "Ġnoch": 3514, "INO": 40901, "USIC": 5791, "ìĿ´ìĸ´": 49395, "Ġcommunities": 4456, "ĠVoice": 15229, "Ġlogos": 40654, "ĠMilitary": 28460, "ĠBaum": 40165, "ĠauÃŁer": 39428, "ĠMeghan": 32597, "Ġchá»": 23579, "Ġtire": 11756, "Ġfou": 32012, "ĠKimberly": 39804, "ĠRyu": 41599, "ÐµÐ½Ð½Ð¾": 6855, "Ġcuatro": 28795, "Ġcongrat": 9774, "ĠCommand": 17901, "Ġsupervisor": 24610, "Ġë©": 8514, "è¯´": 8090, "ILL": 8621, "Ķê°Ģ": 13833, "Ġsubsid": 20051, "Ġextent": 8396, "Ð¿ÑĢÐ¸": 48462, "Ã¤n": 4029, "<|27.84|>": 51756, "ĠÑĥÐºÑĢÐ°ÑĹ": 48350, "ĠIde": 13090, "alls": 39655, "Ġacho": 14253, "ê°Ģì§Ģê³ł": 19747, "Ġoriginated": 31129, "ĠÐ±Ð¾Ð»ÑĮ": 7351, "ĠWA": 26915, "ĠMario": 9343, "ÐľÑĭ": 49064, "uranÃ§a": 44214, "Ġhaven": 2378, "ispiel": 11935, "Ġspa": 32543, "Ġprotects": 22583, "Ġpodcast": 7367, "Ġviens": 36421, "ĠãģĿ": 18421, "avaÅŁ": 38733, "ĠÑģÐ²Ð¾Ð¸Ñħ": 30316, "ĠsiinÃ¤": 41464, "Ġcarrots": 21005, "Ġnegotiations": 20476, "Real": 45261, "ĠTul": 33585, "umm": 40879, "anda": 5575, "ĠTonight": 18702, "Ġregulator": 36250, "Ġresonated": 47957, "ÛĮ": 4135, "ĠRICH": 33618, "Ġdevant": 28982, "Ġbom": 7957, "orage": 29226, "<|17.62|>": 51245, "Ġcetera": 11458, "<|th|>": 50289, "Ġexpansive": 46949, "umble": 16473, "ĠSept": 6978, "Ġsha": 3230, "Ġaccus": 11168, "coat": 36788, "oline": 18773, "é¦": 11748, "Ġgigabytes": 42741, "Ġë§İìĿĢ": 18494, "Ġsimult": 13899, "erving": 20186, "azon": 6317, "or": 284, "Å¼eli": 17175, "Ġgamers": 26774, "Ġparfait": 36102, "Ġhabla": 42135, "ĠRepresentative": 33421, "ĠLiv": 31738, "ĠÐ¿Ð¾Ð¼Ð¾Ð³": 27097, "ĠbÃ¥de": 39845, "Ġhidden": 7633, "ĠSex": 29037, "Ġsustainable": 11235, "ĠgroÃŁe": 19691, "Ġhassle": 39526, "<|13.92|>": 51060, "<|10.28|>": 50878, "oughing": 25875, "ĠÏĦÎ¿Ïħ": 13380, "ĠPoll": 31304, "Ġembassy": 38012, "Ġcultiv": 15298, "legt": 22745, "ĠGarage": 47918, "Ġinnovate": 33444, "role": 29114, "assemble": 37319, "Ġbraking": 32140, "Ġsad": 4227, "agner": 22720, "gor": 26465, "ä¿Ŀ": 24302, "Ġacknow": 7791, "Ġlige": 35450, "Ġimpactful": 30842, "ÃŃs": 5113, "Ġour": 527, "<|10.82|>": 50905, "<|0.36|>": 50382, "Ġdivorced": 27670, "<|22.90|>": 51509, "Ġtrucs": 33505, "wash": 38558, "ers": 433, "&": 5, "ĠGrass": 39891, "ĠìŀĳìĹħ": 40316, "llen": 19191, "Ġsponsoring": 30311, "ider": 1438, "auft": 28245, "Ġwah": 31979, "ĠÐ²ÑĭÐ±": 18061, "ĠPac": 10702, "ĠMA": 12191, "UD": 9438, "cam": 14177, "Ġsplash": 25757, "lÄ±": 9811, "ĠÑĢÐ°Ð·ÑĢÐ°Ð±Ð¾ÑĤ": 38976, "Ġì£½": 22303, "suite": 33136, "ĠÑĥÐ²Ð¸Ð´ÐµÑĤÑĮ": 46095, "ĠGol": 36319, "MIN": 42190, "Ġdiver": 18558, "Ġpushing": 7380, "ĠsÃ¶yled": 35909, "omorph": 32702, "iller": 10497, "<|14.50|>": 51089, "ĠLeadership": 30577, "Ġë³´íĨµ": 41701, "Ġattends": 49837, "Ġboss": 5741, "ĠExcellence": 44684, "ĠÐ°Ð±ÑģÐ¾Ð»ÑİÑĤÐ½Ð¾": 35060, "ĠAlt": 15992, "ĠAssassin": 43176, "Ġpredictable": 27737, "Ġinn": 7714, "ĠWall": 9551, "ĠìĹħ": 32892, "quier": 16622, "Ġmere": 8401, "Ġfreuen": 41913, "rum": 6247, "áº¥": 6785, "ÅĤam": 20177, "Ġballot": 21880, "ĠReturn": 24350, "ĠidÃ©": 39227, "ĠAS": 7469, "ĠÑģÐ¸ÑģÑĤ": 21351, "Ġavoid": 5042, "Ġpodstaw": 43443, "Ġprojets": 49830, "ĠMon": 4713, "ĠLar": 11569, "ĠWenn": 7899, "Ã©ri": 12052, "Ã¼yor": 18644, "Ġsideways": 26092, "ĠLuk": 34992, "Ã³d": 17081, "ĠAlej": 44568, "Ġpermitir": 46865, "ask": 3863, "ight": 397, "ices": 1473, "æĻ®": 29993, "ĠÐ¿Ð¾Ð½ÑĢÐ°Ð²": 34752, "ĠRoose": 27349, "OUT": 27276, "ì°©": 29784, "Ġphotographer": 19494, "ĠBer": 5637, "Ġsemi": 12909, "ĠÐ´Ð¾": 5865, "Ġerect": 34201, "ĠISBN": 47874, "Ġhostage": 38434, "ATION": 22528, "ĠÄ°stanbul": 45822, "Ã§os": 26828, "<|7.48|>": 50738, "ĠCreek": 24200, "Ą": 192, "Ġgoverned": 35529, "jek": 27023, "Ġinformed": 11740, "lish": 1933, "ĠManuel": 34362, "Ġwrit": 10912, "ĠÑįÐ½ÐµÑĢÐ³": 40804, "ĠUSSR": 45956, "Ġclips": 13117, "ĠmÃ¬nh": 14526, "85": 19287, "åĭķ": 12572, "oooo": 12506, "Ġledge": 47109, "ö": 178, "Ġczasie": 42667, "ĠRainbow": 29477, "rast": 4148, "Ġarticles": 11290, "ĠSap": 49287, "Ġcry": 3305, "ĠHU": 26887, "Ġstrict": 10910, "ÑĪÑĮ": 18263, "ĠÃ½": 49291, "Ġnoon": 24040, "Ġled": 4684, "Ġlucky": 6356, "ĠÐ²Ð¾ÑģÐ¿": 31143, "Î»Î¹": 48253, "Ġlot": 688, "lude": 32334, "<|27.70|>": 51749, "Ġfuse": 31328, "Ġpes": 9262, "ĠBetty": 30270, "ĠVincent": 28003, "ĠGravity": 49478, "ĠpÃ³ÅĤ": 47907, "Ġequality": 14949, "ĠSkip": 46405, "Ġsavoir": 19345, "ĠRechts": 36597, "Ġsorts": 7527, "ÑĥÑģÐº": 21303, "ĠATM": 46455, "Ġathletic": 22496, "Ġrewards": 17203, "Ġearthqu": 14814, "ĠÃ§Ä±ktÄ±": 48378, "Ġoutlet": 20656, "Ġasse": 5907, "<|12.00|>": 50964, "Ġìŀĳ": 14585, "ager": 3557, "Ġconsegue": 27179, "ĠprÃ©cÃ©d": 48653, "UNT": 41872, "rencies": 25000, "ĠÐ¶ÐµÐ»": 21788, "Ġcollect": 2500, "Ġkamera": 43246, "Ġtaki": 20065, "ĠmÃ¼sste": 42962, "Ġgoing": 516, "ä½łå°±": 41045, "PO": 34885, "ĠRad": 9654, "Ġtour": 3512, "ĠexperiÃªncia": 41238, "Ġdistinction": 16844, "ĠKoh": 30861, "áº·": 19118, "ìķĺë": 36501, "Ġzelf": 26172, "Â»": 5933, "Ġarmp": 44541, "æį": 26075, "asonic": 39460, "Ġå°į": 8748, "Ġstunning": 18550, "Ġmain": 2135, "ĠElvis": 39944, "Ġdarauf": 18654, "ĠBened": 39753, "Ġfert": 10700, "ĠBrandon": 22606, "ĠAdri": 32447, "Ġbit": 857, "ĠÐ¿ÑĢÐ¾ÑĪÐ»": 48596, "ëĲĲ": 49280, "ÑĥÐ¶Ð´": 37044, "ĠMahar": 48498, "á»ķ": 20950, "ĠGoodbye": 15528, "ĠìķĦì§ģ": 22729, "ĠÐŀÐ½": 12409, "kur": 33503, "ĠSanto": 49639, "ĠÑĦ": 4394, "ĠÐ³Ð¾ÑĢÐ¾Ð´Ð°": 45853, "ulously": 25038, "quila": 42232, "ĠÐ¡Ðº": 22965, "Ġfatigue": 20574, "ĠÎ¼": 5337, "Ġastrology": 44385, "Ġreci": 4214, "ĠTwice": 46964, "Ġresearcher": 21751, "ĠSims": 33289, "ãģĿãĤĮãģ¯": 48846, "Å¡e": 42717, "Ġresort": 19606, "oute": 14040, "Ġprevented": 27314, "Ġdetection": 17784, "Ġinstruments": 12190, "ĠCuba": 20604, "<|11.44|>": 50936, "ĠShaw": 27132, "ĠAtlantic": 20233, "ĠHogwarts": 46539, "Ġobjectively": 46067, "ĠÐ¿ÐµÑĢÐµÐº": 38924, "Char": 25291, "ĠHelena": 49294, "Ġsmells": 10036, "ĠAnimal": 24358, "Ġbears": 17276, "cÄĻ": 37965, "Ġ1984": 27127, ".:": 23495, "Ġconstantly": 6460, "Ġgesture": 22252, "ĠsÃ³": 6238, "eking": 38437, "Ġarbit": 14931, "Ġversucht": 36064, "icki": 41356, "process": 41075, "mentation": 19631, "azuje": 43317, "otal": 38180, "Ġreliable": 12924, "å®": 2415, "Ġgaps": 15031, "Ġgracious": 36113, "0000": 33202, "ĠPictures": 45877, "Ġoversee": 46543, "Ġservice": 2643, "ĠJaw": 48547, "ighty": 12452, "jo": 5134, "Ġmystery": 11422, "etzung": 38584, "Ġruh": 36614, "ĠThrow": 22228, "<|8.00|>": 50764, "ĠÐ¾ÑĤÐ½Ð¾": 22079, "Ġgraveyard": 42607, "ÑĤÐ°ÐºÐ¸": 27430, "ĠCec": 38807, "è·¯": 24658, "Ġnaz": 20151, "ĠÑģÑĤÐ¾ÑĢ": 16632, "Ġentertain": 7655, "dim": 13595, "Ġê·¸ëŀĺìĦľ": 8844, "ĠPere": 49349, "Ġìļ¸": 40814, "Ġtranslator": 35223, "ĠuÄŁ": 43222, "hire": 25966, "ç¬¬": 7536, "Ġesque": 28147, "Ġsust": 5402, "Ġconsequences": 10098, "Ġcompt": 15660, "ĠhyvÃ¤": 38526, "Ġqueer": 20323, "Ġdunno": 22751, "anding": 42389, "Ġbigger": 3801, "ĠEpisode": 19882, "Ġcruel": 16022, "Ġbunk": 25125, "Ġblockchain": 17176, "Ġapologise": 50128, "Ġvenue": 21645, "Ġclearer": 26131, "Ġestilo": 37470, "Ġwomb": 34310, "cott": 34000, "Ġretrou": 26311, "à¹Ĥ": 24929, "Ġetme": 34469, "ì§Ģë": 37527, "ìŀ¥ìĿ´": 34202, "Ġbackwards": 12204, "Ġyogurt": 20997, "ģ¼": 29278, "Ġbuds": 33916, "Ġtalkin": 39243, "muffled": 47503, "unting": 14559, "Ð¾Ð´Ðµ": 44156, "Ġmeasuring": 13389, "Ġtoday": 965, "Ġindicate": 13330, "Ġremembering": 20719, "ccoli": 26334, "Ġplantation": 45328, "ĠSmart": 12923, "Î»": 3659, "ĠBrooke": 43092, "kn": 5457, "Ġtab": 4421, "ĠÐºÐ°Ð¼": 21477, "Ġexchanged": 38378, "orts": 3299, "What": 3748, "MÃ¼zik": 11443, "Ã¨": 1462, "zek": 19878, "Ġtraz": 37481, "çĤº": 6344, "ĠëĨ": 10091, "å®¹": 25750, "Ġchewy": 28139, "Ġkw": 23846, "<|20.08|>": 51368, "Ġbuild": 1322, "Ġovat": 31802, "ĠJohann": 34094, "ĠPelosi": 44145, "ĠFL": 24720, "Ġentrepreneurs": 12639, "×ķ×©": 17329, "ĠGuard": 11549, "ãģĶãģĸ": 18528, "<|24.40|>": 51584, "<|13.82|>": 51055, "ĠÑĪÑĤ": 28826, "Ġmahdoll": 45158, "Ġpross": 48794, "Ð½Ð¾Ð²": 8766, "ĠRobot": 29601, "ramer": 44772, "ĠWars": 9818, "ĠpolÃŃt": 14482, "Ġmins": 31539, "though": 3222, "ĠOver": 4886, "hoon": 30429, "Ġaddition": 4500, "Ġpage": 3028, "Ġbroadcast": 9975, "Ġtrains": 16329, "Ġswoje": 29489, "Ġasks": 8962, "Ġmari": 35555, "ĠGerilim": 30687, "ĠUS": 2546, "Ġancora": 30656, "Ġol": 2545, "ĠÐºÐ½Ð¸": 32178, "Ġ1944": 35133, "juna": 44469, "ĠThus": 13827, "tt": 6319, "Ġwatched": 6337, "Ġexcus": 20974, "Ġstakeholder": 43406, "ãħĭ": 5333, "Ġcla": 3583, "iki": 9850, "unes": 15001, "ctions": 3916, "Ġkompl": 24526, "Ġknocks": 40815, "Ġolds": 41972, "imm": 6753, "ĠlazÄ±m": 23951, "Ġtear": 12556, "ĵ¤ìĿĺ": 29990, "Ġempowerment": 34825, "íķĺë": 8037, "Ġë°Ķê¿": 45795, "Ġancestry": 44729, "ĠÏĢÎ¿Î»Ïį": 36047, "Ġrichest": 35098, "ĠImport": 26391, "å°": 1530, "arto": 15864, "é¨": 38168, "Ġraz": 9639, "Ġsopr": 37375, "ĠDenn": 19027, "Ġcuad": 34434, "ĠAwesome": 10391, "Ġenlightened": 36975, "Ġleicht": 28333, "Ð»ÐµÐ¼": 14885, "Ħë§Ī": 21274, "pres": 14508, "æĪ°": 23209, "ĠÐ´ÐµÐ»Ð°ÐµÑĤ": 43109, "ĠJama": 26803, "ĠÄĳÃ¢u": 35433, "Ġrulers": 35009, "Ġparadigm": 24709, "Ġfemme": 27427, "×Ļ×ł": 14946, "åĵĪåĽī": 46562, "Ġsolitary": 44155, "MÃºsica": 38725, "<|6.22|>": 50675, "ĠÐ²Ð¿ÐµÑĢ": 32560, "Ġentropy": 30867, "Ġboxer": 47252, "Ġcass": 21943, "°ĺ": 22196, "ĠÙĩØ°Ø§": 23758, "?": 30, "Ġfade": 21626, "Ġmerci": 30532, "ĠBI": 23524, "ĠWing": 28785, "Ġtant": 12095, "Ġinsanely": 40965, "nolds": 28849, "Ġshiny": 16997, "ÐµÑģ": 2292, "respond": 6663, "Ġgemeins": 22971, "ivol": 21356, "ÅĽmy": 10513, "Ġrelent": 34045, "Ġfrustrated": 15751, "Ġkriegen": 46882, "laud": 7739, "rires": 47313, "Ġforefront": 27287, "in": 259, "ĠTrib": 23304, "Ġelaborate": 20945, "zos": 27681, "ĠzÅĤ": 31614, "ebe": 48593, "ĠMars": 9692, "Ġtrousers": 41463, "ilos": 6136, "Ġactor": 8747, "Ġscheme": 12232, "ĠìĻĦìłĦ": 25587, "Ġedition": 11377, "ĠÐ¸Ð¼": 7604, "ÐºÑĢÐ°": 17364, "yse": 36843, "Ġlyric": 42409, "Ġllega": 40423, "Ġdesserts": 37913, "Ġexploitation": 33122, "<|19.56|>": 51342, "Ġpossibility": 7959, "Ġcolleg": 13300, "Ġdeveloped": 4743, "Stud": 42665, "ĠBit": 9101, "iah": 13984, "åħĥ": 14812, "ĠJournal": 16936, "Ã©rt": 33672, "æĩĤ": 29624, "kiem": 26116, "ä¸Ģ": 2257, "ĠShort": 16881, "Ġtallest": 42075, "ÏĨÎ¿": 46002, "bÃ©": 27166, "Ġheut": 42793, "ĠFinger": 37318, "õ": 177, "ĠCongrats": 40219, "ê¸°ë¥¼": 14000, "ĠGefÃ¼hl": 29715, "ĠBal": 13140, "Ġdestruction": 13563, "å®ī": 16206, "ĠnÄĥm": 38098, "omon": 24488, "Ġzeit": 49367, "Ġorigins": 22721, "ÐŃÑĤÐ¾": 29355, "Ġinputs": 15743, "Se": 10637, "ĠVirus": 39790, "ĠLimited": 43231, "Ġ101": 21055, "Ġrides": 20773, "Ġleve": 33076, "Ġrig": 8329, "ĠØ¨Øª": 39894, "arnish": 40686, "Ġê·¸ëłĩì§Ģ": 32667, "arten": 11719, "Ġcot": 26529, "æľīä¸Ģ": 32241, "Ġsleek": 43464, "æĩī": 20481, "<|2.76|>": 50502, "ĠWayne": 22101, "Ġamor": 15543, "Ġeuro": 14206, "ÑģÑĭ": 48271, "ĠToby": 40223, "Ġwaiver": 42143, "with": 11820, "ĠDiet": 29606, "Ġretard": 42073, "Ġconservatives": 39607, "íľ": 38909, "<|16.38|>": 51183, "åĻ": 21250, "Ġcollected": 11087, "Ġdire": 1264, "oop": 15812, "Ġìĭľê°Ħ": 16648, "Ġstarring": 30701, "Ġrecreational": 37554, "ĠEven": 2754, "ĠCNN": 24859, "ĠSou": 31458, "Ġchia": 45793, "Ġcollab": 44228, "ichtlich": 41971, "Ġsurgical": 26646, "ĠLub": 43781, "Ġquantitative": 27778, "Ġduas": 19463, "Ġancestors": 18069, "wick": 16038, "anyon": 28070, "ĠdeÄŁer": 47584, "Ġpubl": 11227, "Ġmusi": 37587, "ĠÎ¹": 47467, "èŃ¦": 39499, "ĠMarian": 37497, "ĠBi": 13007, "Ġcostly": 28328, "æĮĩ": 25922, "post": 23744, "ĠResponse": 43937, "Ġgreet": 12044, "ĠíĬ¹íŀĪ": 37704, "ĠëķĮë": 9057, "ĠGrade": 44452, "Ġreceiver": 20086, "ju": 8954, "Ã©rence": 41635, "Ġostat": 32686, "Ġsetup": 8657, "arnya": 38039, "ĠCommercial": 47171, "Ġnum": 1031, "opes": 30545, "ÃŃem": 45278, "Ġfences": 45796, "Ġprofessions": 38129, "ĠGee": 39840, "Ð½ÑĥÑĤÑĮ": 23431, "ĠThanksgiving": 21230, "ĠBerry": 34084, "Ġstorytelling": 21479, "Ġdark": 2877, "<|6.28|>": 50678, "ĠìĿ´ìł": 41049, "à¹Ħà¸Ľ": 30739, "ĠCooper": 20355, "Ġstarting": 2891, "Ġbaz": 27147, "Ð°Ð»Ð¾Ð³": 49895, "<|15.20|>": 51124, "ĠMango": 48588, "Ġnow": 586, "ĠbÄĻdÄĻ": 39240, "Ġplywood": 43633, "ìĹĲìĦľ": 4885, "Ġpoly": 6754, "Ã¼tfen": 38655, "ÑĨÐ¸": 3706, "ĠÛĮÛģ": 35324, "ÑĤÑı": 35151, "Ġmujer": 32032, "scheinlich": 25553, "Ġpainters": 48643, "Ġzawsze": 30964, "Ġvedere": 35373, "Ð¾ÑĢÐ¾ÑĪÐ¾": 29931, "Ġenthusiasts": 45873, "Ġhari": 33264, "Ġsuper": 1687, "Ġ71": 30942, "Ġeje": 39564, "ikte": 34165, "è«": 11067, "Ġhij": 10625, "ĠÑĢÐµ": 15492, "ĠNeden": 46565, "Ġmala": 37508, "ĠSakura": 48051, "ĠÎºÎ¹": 47328, "encial": 26567, "ĠRadio": 17296, "åįģ": 20145, "ìĽ": 3860, "ĠIsrael": 5674, "Ġtasted": 25003, "Ġblueberry": 48243, "ĠíĻĶ": 20661, "å¥½": 2131, "Ġstimulate": 31269, "ĠìĹĨê³ł": 48724, "Ġwyst": 48255, "Ġprescription": 22456, "Ġdeadlines": 37548, "Ġobrig": 29126, "Ġpoorly": 22271, "lud": 1471, "ĠÐ¿Ð°Ð»": 40415, "Ġanlat": 27691, "ign": 788, "ĠShape": 49148, "ivals": 17759, "Ġshields": 33466, "Ä±t": 44610, "Ġintermitt": 38548, "Ġdesde": 10188, "Ð»Ð°Ð´": 10396, "ĠconsÃ©qu": 47648, "<|27.82|>": 51755, "ĠannÃ©es": 21203, "Ã§ar": 26378, "believ": 12230, "ches": 3781, "ART": 15118, "xim": 3081, "Ġacceler": 10172, "73": 33396, "+,": 46797, "ë°°": 40591, "ulen": 35671, "<|7.32|>": 50730, "Ġfatto": 23228, "Ġpeg": 17199, "laws": 33476, "ì¢ħ": 17273, "Ġfret": 24189, "ĠMarcel": 34738, "ĠconteÃº": 39065, "ĢëıĦ": 33225, "Ġlower": 3126, "Ð¸Ð½Ð¾Ð²": 27499, "Ġtouchscreen": 46775, "Ġlineup": 26461, "enin": 49939, "Ġconfigure": 22162, "<|7.38|>": 50733, "Ġwide": 4874, "Ġsatur": 21160, "ĠÐ¿ÑĢ": 1285, "ĠBowser": 46102, "ĠìłĢíĿ¬ê°Ģ": 27463, "Ġclue": 13602, "ĠLoren": 37162, "ĠKane": 39161, "Ġoffense": 17834, "Ġteammates": 20461, "Ġwyb": 45780, "ĠLindsay": 35017, "Ġinvestments": 13784, "ĠMediterranean": 27280, "å¢ĥ": 47885, "ĠPhotoshop": 20821, "Ġtestosterone": 33417, "Ġì²ľ": 31076, "Ġaviation": 28831, "ĠTolkien": 48824, "finden": 43270, "Ġrecognition": 11150, "ĠISS": 48534, "Ġimplementation": 11420, "ÑĤÐ¾Ð¼": 17804, "ĠØ§ÙĦÙĦ": 13672, "ĠvidÃ©": 9543, "æ¼Ĥ": 28014, "ĠWorkshop": 48366, "reas": 37868, "Ġgleichen": 49069, "ĠVOICE": 46973, "Ġdoor": 2853, "welling": 34034, "ĠMueller": 38152, "Ġshelf": 15222, "ĠNast": 42185, "Ġto": 281, "ĠAbsolutely": 7021, "ĠReligion": 40127, "Ġlaws": 6064, "hib": 5455, "Ġfale": 26772, "ÐµÐ·Ð´Ðµ": 46683, "ìį¨": 36498, "Ġê·¸ê²Į": 21833, "Ġwol": 20960, "ĠDU": 28423, "ĠÃ¨": 4873, "ĠLINKE": 32445, "<|17.44|>": 51236, "Ġanni": 31164, "orang": 37909, "ĠÑģÐ»": 4766, "Ġconditions": 4487, "Ġflirting": 45777, "Ġneat": 10654, "ĠÐ±Ð¾Ð»ÑĮÑĪ": 12457, "Ġshouted": 37310, "×Ļ×ł×ķ": 39795, "Ġcools": 42883, "Ġcombin": 38514, "Ġundergo": 26426, "Ġtram": 25749, "Ġsurvivor": 25953, "Ġcaptiv": 40769, "Ji": 49096, "<|5.28|>": 50628, "orama": 32988, "Ġpeace": 4336, "ĠmÃ¥ste": 23958, "ell": 898, "Ð½ÐµÐ³Ð¾": 33727, "ĠÐ±ÑĭÑģÑĤÑĢ": 37283, "osto": 22756, "ĠÙĦÙĬ": 32239, "olie": 49448, "Ġstereo": 29029, "ĠÏĦÎ±": 16900, "ienia": 18811, "uÄŁ": 22135, "Ġshad": 5744, "Ġgamma": 15546, "Ġdocumenting": 42360, "Ġìķłë": 42422, "ĠfarklÄ±": 43953, "asy": 5871, "ĠFour": 7451, "cm": 15210, "ĠÐ¼ÐµÐ½ÑĮ": 31752, "<|29.24|>": 51826, "uche": 17545, "<|7.24|>": 50726, "<|am|>": 50334, "<|16.32|>": 51180, "aju": 33166, "ĠOklah": 20872, "Ġcuisine": 25257, "Ġbeef": 9256, "ĠjÃ³": 31390, "ĠSurviv": 48859, "ribution": 30783, "ĠRoss": 16140, "laub": 20798, "<|2.26|>": 50477, "gin": 1494, "Ġclassical": 13735, "SU": 20214, "Ã¼g": 25644, "zz": 4313, "Ġjuicy": 24696, "<|16.12|>": 51170, "Ġmirac": 30686, "ativ": 10662, "ĠKE": 21887, "<|4.32|>": 50580, "ĠActually": 5135, "Ġlaughs": 6197, "ĠElectric": 24677, "Ġgained": 12634, "ĠCivic": 46237, "Ġweaken": 48576, "Ġtemperatures": 12633, "mont": 28720, "wd": 43778, "ulos": 28348, "restrial": 34539, "ÑĥÐ»": 23412, "Ġdentist": 28666, "Ġvenir": 20817, "<|15.18|>": 51123, "ĠÑĤÐ¾ÑĩÐ½Ð¾": 25311, "Ġneurons": 22027, "ending": 2029, "Ġreviewers": 45837, "ible": 964, "Ġëĭ¤ìĿĮ": 13526, "Ġkarma": 28396, "Ġguardian": 30355, "endar": 10292, "ê¿": 30484, "Ġtiver": 31417, "ÐºÐ°Ñı": 14801, "ĠMale": 21080, "ĠUK": 7051, "Ġdebuted": 33392, "<|22.52|>": 51490, "-,": 24246, "Ġskilled": 19690, "<|23.78|>": 51553, "ĠPfizer": 34694, "Ġecht": 13972, "Ġstabilization": 35476, "<|26.18|>": 51673, "ually": 671, "cca": 22394, "ientÃ´t": 33844, "ĠìŀĪëĬĶëį°ìļĶ": 43550, "ĠCEOs": 40736, "<|13.02|>": 51015, "AUDI": 4993, "asÄ±nda": 33119, "ctive": 20221, "yun": 21505, "ĠTamara": 40424, "ĠApril": 6929, "VID": 3958, "å¨ĺ": 31999, "Ġpele": 41615, "Ġkork": 33445, "ĠCHRIS": 17353, "Ġbrunch": 49761, "Ġpope": 42248, "Ġtid": 9422, "Ġpods": 31925, "Ġplace": 1081, "aleÅ¼": 45494, "Ġvib": 11666, "Ġblindness": 46101, "Ġproperties": 7221, "ĠJuda": 35300, "Ġfini": 40634, "Ġgummy": 45617, "ĠÑģÐ¾Ðº": 38419, "raÃ§Ã£o": 37864, "ãģ¨æĢĿãģĦãģ¾ãģĻ": 29707, "ĠÑĤÐ¾ÑĤ": 23900, "Ġmultimedia": 49202, "ĠScout": 33971, "e": 68, "ĠMortal": 45797, "Ġzeggen": 31633, "Ġquiet": 5677, "Ġdonut": 33782, "ĠMobile": 22625, "Ġdever": 40739, "Ġsubmerged": 46985, "ĠOut": 5925, "ouve": 8162, "Ġcoule": 33644, "LO": 20184, "Ġprotect": 2371, "Ġstrikes": 16750, "Ġintegrated": 10919, "iantly": 42580, "ĠProjekt": 34804, "ĠGPS": 19462, "Ġrational": 15090, "Ġred": 2182, "iscilla": 49413, "Ð¸ÑģÐ»": 47105, "ĠET": 36953, "Ġcogn": 11786, "£¼ë": 47412, "Ġjard": 46153, "Ġliksom": 35308, "ĠGom": 46961, "ĠTudo": 29871, "ujÄħc": 44733, "à¯Ī.": 48993, "dimensional": 18759, "Ġframed": 30420, "hes": 8076, "environ": 46848, "ĠMain": 12383, "ì§Ģë§ī": 21256, "Ġnewest": 17569, "lie": 6302, "Ġdispute": 25379, "Ġkullan": 27443, "ĠSingh": 27529, "centered": 36814, "Ġlaten": 36335, "Ġnoget": 34574, "Ġbest": 1151, "ĠÐĿÐ¾Ð²": 36062, "esto": 18465, "Ġillustrate": 23221, "ì§Ģê³ł": 11213, "Ġpled": 34263, "Ġchop": 7931, "Ġpromptly": 48594, "Ġaut": 1476, "ĠwaÅ¼ne": 46110, "Ġuso": 22728, "éģĭ": 32772, "Ġë°Ľê³ł": 48130, "Ġãģ¦": 23822, "Ġsitu": 2054, "æļ": 23826, "ĠìŀĳìĿĢ": 45870, "ĠhabÃŃan": 44466, "<|21.62|>": 51445, "iel": 1187, "ĠczÄĻÅĽÄĩ": 47149, "<|21.52|>": 51440, "Ġestab": 3947, "ĠTD": 42606, "iji": 26539, "bula": 37775, "Ġgathering": 13519, "omen": 4726, "Ġasta": 43405, "Ġcole": 45139, "ĠMade": 18330, "charger": 48942, "Ġintox": 40809, "ĠgÃ¤": 37612, "ĠBash": 43068, "Ãºde": 34458, "Ġgraves": 31664, "âĢ¦!": 41742, "ĠÐĺ": 3272, "Ġå°įä¸įå°į": 35164, "å£ĵ": 45964, "hmm": 10250, "ĠÎ¼ÎŃ": 27730, "ÐµÑģÑĤÐ½Ð¾": 28779, "Ġdeaths": 13027, "Ġseja": 13459, "aj": 1805, "íı": 13248, "<|29.14|>": 51821, "Ġpersonnes": 16246, "Ġproduct": 1674, "ĠRA": 14626, "Ġdisproportion": 28734, "Ġtowel": 15755, "ĠSah": 18280, "Ġpoisonous": 37376, "æıĽ": 36338, "DIE": 17521, "ĠBath": 36167, "vit": 10398, "íĴ": 11055, "çĪ¶": 34131, "Ġhanding": 34774, "çºĮ": 29583, "NÃ£o": 48204, "Ġsilhouette": 38275, "íĸĪëĭ¤": 42520, "ĠehkÃ¤": 47559, "æ¯Ľ": 39057, "Ġráº¥t": 25147, "ĠMcMahon": 48187, "ĠBurke": 37396, "Ġswatch": 42362, "gh": 9030, "Ġclear": 1850, "ivable": 34376, "Ġrusty": 45394, "×ľ×ľ": 46148, "imo": 6934, "aye": 33449, "cciones": 35560, "Ġtags": 18632, "Ġbundle": 24438, "Ġinnoc": 10843, "Ġfim": 31603, "Ġarrives": 20116, "ĠCOB": 34812, "ordnung": 31829, "ê±°ë": 7325, "Ġairpl": 13781, "ĠCu": 13205, "Oh": 3756, "Ġblue": 3344, "Ġacquiring": 37374, "ssa": 39516, "ĠMcDonald": 16889, "ìĦ¯": 37526, "win": 9136, "Ġmechanics": 12939, "Ġboils": 35049, "Ã¨ve": 31397, "Ġmoins": 13099, "Ġseb": 48049, "Ġnan": 14067, "Ġtiáº¿p": 48667, "Ġally": 23356, "Ġreach": 2524, "çĶ": 3526, "ĠIr": 9151, "Ġmira": 30286, "ĠTak": 9118, "fect": 1836, "Ġcamping": 19470, "Ġslightest": 41040, "Ġdiferen": 18959, "Ġoggi": 34768, "Ġtraumatic": 26456, "Ġirrational": 39914, "Ġvous": 2630, "Ġcá»": 9613, "ĠìĹĨëĬĶ": 20986, "Ġcompliments": 35468, "ventional": 46105, "Ġabdominal": 38701, "ĠDreams": 41887, "rÃ¤": 11397, "Ġneuro": 16499, "Ġmunicipality": 44186, "lee": 14238, "ĠCollege": 6745, "Ġaccuse": 43610, "owing": 9637, "Ġvoulez": 29072, "Ġwidgets": 43355, "çªģ": 40859, "ring": 2937, "è¼ĥ": 23915, "Ġnostro": 35779, "ĠìĹ°ìĬµ": 35901, "ãģ»ãģ©": 29050, "êµ¬ëĤĺ": 23816, "å¥¹": 15555, "æİ¨": 33597, "ĠâĢ¦": 5799, "æĬķ": 37094, "taa": 43695, "Ġpesticides": 39015, "Ġo": 277, "ÅĽwiad": 37750, "Ġbuckle": 37686, "ĠSquare": 16463, "<|15.74|>": 51151, "ĠGuinea": 46793, "<|12.44|>": 50986, "<|20.62|>": 51395, "Ġih": 5096, "Ġisolate": 25660, "bridge": 18249, "ìħ¨ìĸ´ìļĶ": 40095, "Ġdall": 43351, "Ãªte": 12943, "æĸ¹": 9249, "Ay": 31983, "Ġconvers": 2615, "Ġnigga": 41626, "Ġsamp": 34098, "Ġdisturb": 18071, "ĠÐ¿Ð¾ÑĤÐµÑĢ": 39363, "Ġunpl": 32816, "Ġhydrated": 44960, "erus": 37287, "Ġinsulin": 21587, "Ġmr": 33660, "eti": 24566, "sold": 45537, "ieli": 23099, "į¼": 21709, "stand": 1115, "<|20.28|>": 51378, "Ġrh": 33418, "Ġkindergarten": 26671, "Ġ1988": 27816, "ĵ¤ìĿĢ": 22571, "Ġniye": 30493, "bew": 47465, "Ġpursuing": 20222, "Ġexerc": 4057, "Ġmessage": 3636, "ĠrÃ©g": 17563, "ĠSter": 33539, "Ġcascade": 50080, "Ġsnacks": 16160, "ì¡´": 46808, "ĠMOD": 38113, "çĽ¸": 15106, "ÐºÑĢ": 22274, "Ð½Ð¸ÑĤÑĮ": 31087, "Ġfinancial": 4669, "my": 2226, "ĠTP": 44462, "Ġvit": 9467, "ĠScan": 41177, "Ġtoch": 22587, "Ġãģ¾ãģĻ": 45194, "Over": 33093, "á»ģn": 26871, "ĠPreviously": 33606, "<|18.34|>": 51281, "ìĽĲ": 7573, "<|4.92|>": 50610, "ĠAdult": 47987, "ĮëıĦ": 33723, "Ġparsley": 33632, "Ġapenas": 18561, "ĠGerm": 3848, "impression": 36107, "ÑĢÑĥÑĪ": 28841, "inhas": 28881, "ĠEthiopia": 39445, "ĠmÃ¼sst": 49481, "éĤ": 3023, "Ġcable": 8220, "ĠÐ½Ð°Ð¿": 9011, "åı²": 45399, "<|17.00|>": 51214, "Ġprzygot": 35914, "ĠSexual": 45449, "Ġbree": 20082, "nim": 39223, "inga": 41705, "ÃŃb": 49662, "Ġsymptoms": 8332, "ĠMonst": 39768, "ĠIC": 14360, "ĠAffordable": 41337, "ĠAristotle": 42368, "Ġceremony": 12813, "Ġaquarium": 30149, "ĠRevelation": 28979, "Ġlaut": 44330, "Ġindust": 2735, "åķĬ": 4905, "ny": 1634, "Ġroute": 7955, "Ġroses": 28620, "rah": 15688, "Ġhaul": 21167, "åĺī": 49899, "amed": 3475, "ĠíĻķìĿ¸": 31288, "Ð°Ð¶Ðµ": 9475, "ĠMustang": 37115, "wier": 40717, "Ð°ÑģÑĤÑĮ": 31789, "ĠServer": 25684, "<|9.22|>": 50825, "Ġpresenter": 35594, "user": 18088, "ĠForces": 27445, "Ġunlikely": 17518, "ĠBalance": 41899, "Ġ1954": 46590, "Go": 12104, "Ġfactual": 48029, "ĠÑĢÐ¾Ð»": 26725, "ç¬ĳ": 11600, "Ġcohort": 28902, "ĠanvÃ¤nd": 41559, "tÄ±r": 20637, "hesion": 38571, "ĠRolle": 35376, "Ãĵ": 42672, "Ġbolt": 13436, "ijd": 14675, "Ġmight": 1062, "Ġlegal": 5089, "Ġë¬¼ë": 26561, "Ġbun": 6702, "walker": 38980, "ĠSelbst": 29712, "Ġsummoned": 40791, "ĠÐ±ÑĥÐº": 36761, "<|5.96|>": 50662, "Ð°ÑĪÐ°": 34461, "Ġcapsule": 29247, "Ġentrepreneur": 14307, "<|25.24|>": 51626, "Ġcompose": 35925, "ĠIh": 10485, "ishna": 20348, "vie": 12702, "ĠíĨµ": 17006, "įĺ": 8092, "Ĥľ": 16662, "illes": 14835, "ĠDES": 27083, "estion": 31342, "Ġhacia": 21365, "ĠìĦ¸ë": 32143, "ĠRi": 33668, "ĠMia": 28545, "ĠUz": 38564, "ork": 1284, "ĠSus": 9545, "Ġregel": 40504, "Ġ×Ķ×©": 22537, "ĠElder": 28390, "Ġthreatens": 47511, "atal": 40478, "ĠSoc": 43627, "Ġlabeled": 21335, "Ġbunun": 31697, "Ġcommunicate": 7890, "ĠSleep": 19383, "Ġê²Į": 7845, "Ġthreaten": 29864, "ĠTR": 15176, "Ġpued": 10947, "<|1.80|>": 50454, "Ġwilt": 45357, "logo": 38212, "Ġspos": 20443, "Ġsprite": 43848, "ĠEn": 2193, "kÄĻ": 15724, "Ġmond": 17606, "Ġglowing": 27064, "Ġintend": 19759, "à¸¹à¹Ī": 37805, "ĠIncred": 27792, "II": 9503, "<|1.14|>": 50421, "Ġnord": 39284, "ĠKund": 49759, "ĠStage": 25907, "ĠÐ¾ÑĤÐº": 12799, "bourne": 24905, "Ġcrews": 31477, "Ġspelling": 22254, "ĠÑĢÐ°Ð·Ð»Ð¸Ñĩ": 40140, "Ġportrayed": 29845, "Ġdivor": 11861, "åĲ": 2392, "Ġindustries": 13284, "Ġtecnologia": 44905, "ĠCelt": 44591, "ĠWebb": 49649, "Ġdepri": 27095, "ÑģÑĤÑĢÑĥÐº": 36526, "Ġê°Ģê²©": 41162, "á¹Ľá¹£": 34726, "ĠDiscovery": 34129, "Ġpops": 16795, "Ġimported": 25524, "Ġvam": 41864, "Ġvelocity": 9269, "Ġunst": 18799, "Ġdul": 44012, "Ġthickness": 14855, "Ã¼s": 16608, "Ġregulations": 12563, "arent": 1898, "ĠMercury": 31780, "ĠOM": 16954, "Ġtoute": 14953, "ĠGET": 28091, "Ġä¸Ģ": 26923, "Ġsatell": 11997, "ĠTub": 48258, "ilation": 16067, "Ġ×Ĳ×Ĺ": 20505, "Ġsocieties": 19329, "Ġsoil": 6704, "Ġ2003": 16416, "rov": 24088, "ĠPierce": 45432, "×Ļ×ĸ": 41460, "aign": 4897, "Ġel": 806, "ĠSam": 4832, "ĠFriends": 14042, "ĠGa": 10384, "ĠéĤ£": 18625, "Ġerg": 26585, "ê±´": 10619, "oding": 8616, "åıĪ": 17047, "hog": 27084, "Ġsubtract": 16390, "Ġknown": 2570, "ĠVic": 33316, "Ġconsidering": 8079, "Ġpil": 6429, "Ġunanimously": 48733, "bull": 37290, "ioso": 23540, "Ġdescribes": 15626, "ĠKomment": 33708, "Ġdetective": 25571, "ĠLate": 31220, "Ġdeu": 25661, "Ġsolved": 13041, "Ġorbital": 27677, "ynasty": 22181, "chmal": 25751, "ĠRepl": 47762, "inator": 31927, "Ġmelan": 47969, "ĠGear": 26810, "ynn": 48959, "Ġpuisse": 42363, "Ġbecoming": 5617, "æ²Ĵ": 4913, "Ġberries": 29898, "ĠXbox": 14544, "Ġsyllables": 45364, "ĠÑĥÐ¶Ð°Ñģ": 44973, "<|3.60|>": 50544, "olith": 29131, "ledge": 3042, "ĠBuilt": 49822, "ĠEmperor": 17913, "Ġstaffing": 38918, "æľĢ": 8661, "Ġmilitar": 30653, "link": 22473, "Ġmum": 14697, "à¹Ģà¸ŀ": 50189, "å¥¶": 42525, "¨¸ëĭĪ": 46355, "Ġstos": 43581, "ÑĪ": 1198, "Ġswinging": 29500, "Ġtrilogy": 34030, "orest": 38620, "ĠÃĵ": 35232, "âĸ": 39984, "Ġoverhead": 19922, "edy": 6038, "oup": 1250, "Ġketo": 44299, "Ġdetails": 4365, "ĠStephen": 13391, "ĠPRES": 30247, "ĠRic": 21215, "LAU": 4633, "Ġcurrencies": 36886, "ĠëŃĲê°Ģ": 39713, "Ġproducts": 3383, "ĠTiger": 22025, "Ġpersonne": 17219, "Ġtiden": 44302, "Ġtablespoon": 22398, "ĠAnk": 42483, "ipper": 15124, "Ġcoke": 33659, "Ġyourself": 1803, "Ġ×Ķ×ł": 35743, "hos": 17631, "ÐµÑĤÑĢÐ¾Ð²": 35852, "Ġ1992": 23952, "Ġoverview": 12492, "ìľ¼ë¡ľ": 4130, "Ġshred": 21567, "Ġprepar": 8231, "load": 2907, "vag": 42586, "ippi": 18626, "Ġ×ŀ×Ķ": 16929, "ĠBueno": 16046, "Ġcontinuously": 15684, "Ġearrings": 31902, "ĠSword": 27070, "SE": 5879, "Ġrevenue": 9324, "ĠMud": 39231, "ĠrelaÃ§Ã£o": 28177, "ĠApr": 6305, "pson": 16962, "manuel": 31385, "çķ«": 43822, "ĠEnvironment": 35354, "ĠÐ¿ÐµÑĢÑģÐ¾Ð½": 33399, "ĠShow": 6895, "Ġcontamination": 33012, "01": 10607, "Acc": 47943, "<|15.16|>": 51122, "ĠVors": 31438, "ĠRah": 17844, "æ½": 35622, "Ġvol": 1996, "Ġadaptation": 21549, "Ġswitching": 16493, "íķľë": 25643, "¡Ń": 42087, "ĠIPO": 50220, "Ġfocusing": 8416, "annt": 39878, "Ġsticks": 12518, "Ġsubmarine": 33995, "Ġoverweight": 40523, "ĠdÃ¼r": 23637, "ä¾ĭãģĪãģ°": 46629, "ĠKIRBY": 34553, "amment": 20619, "mom": 42544, "ĠSudan": 36013, "ĠAvo": 36175, "Ġmacht": 10857, "66": 15237, "çĶŁæ´»": 49958, "Ġeducation": 3309, "Ġmicroscop": 30483, "Ġregeneration": 43813, "ĠFacebook": 4384, "ĠÐ²ÐµÑīÐ¸": 43050, "Ġhinten": 36417, "arter": 13631, "esc": 37890, "ĠMilliarden": 44784, "ov": 5179, "ĠAww": 22007, "Ġswiftly": 49891, "ĠIdea": 47245, "ĠÐĲÑĢ": 32091, "Ġmoistur": 21531, "...)": 10050, "ernt": 46165, "ĠmatiÃ¨re": 46600, "ĠStar": 5705, "Ġroommate": 31692, "Ġresearched": 37098, "Ġíŀĺë": 22042, "ãģ®": 2972, "Ġmiel": 41392, "ĠDOM": 35727, "~~~": 20409, "Ġë°Ģ": 38813, "Ġplayer": 4256, "iev": 9037, "Ġlaboratories": 41013, "ĠwspÃ³l": 47148, "ify": 2505, "Ġdelle": 16485, "Ġsinister": 45727, "ĠGoo": 47609, "Ġparch": 35765, "ĠÐ¼Ð¸Ðº": 43712, "Ġcircumstances": 9121, "Ġbrinc": 46545, "Ġlakh": 33314, "ç©º": 23322, "Ġminorities": 30373, "Ġstret": 27678, "tsÃ¥": 25441, "develop": 35464, "Ġtired": 5868, "ĠChanging": 45773, "Ġnation": 4790, "Ġsupply": 5847, "Ġbul": 6493, "Ġczego": 36559, "?ãĢį": 30949, "<|29.20|>": 51824, "ĠzdjÄĻ": 49026, "Sub": 39582, "ounter": 47489, "Ġovertime": 29863, "ĠLIAM": 13194, "Ġwake": 6634, "ĠmogÄĻ": 41737, "Ġdiscard": 31597, "ZZ": 30108, "^": 61, "Ð¤": 35753, "³Ð¾": 1444, "ĠAU": 7171, "ÑĸÑĢ": 36154, "Ġstored": 12187, "Ġminutes": 2077, "enne": 13295, "ŀĻ": 34284, "Ġcensus": 23725, "<|1.26|>": 50427, "<|18.20|>": 51274, "ÑĩÐ¸ÑĤ": 9607, "Ġidentities": 24239, "Ġstacked": 28867, "cave": 50126, "Ġmeist": 36894, "Ġexamined": 30972, "Ġhy": 2477, "ĠLower": 25523, "Ġonboard": 24033, "ĠÐ½Ð°ÑħÐ¾Ð´Ð¸ÑĤÑģÑı": 34366, "ordo": 23872, "Ġcompute": 14722, "åĬł": 9990, "ĠÍ¡": 38040, "Cause": 7585, "Ġwithhold": 48867, "Ġcloses": 24157, "Ġlibrarians": 48803, "Ġzoning": 37184, "Ġ74": 28868, "ĠMills": 44277, "ÑĸÐ±": 42732, "ĠLana": 48750, "Ġintentions": 19354, "Ġexport": 10725, "Ġconducted": 13809, "ìĸ´ë¥¼": 47487, "Ġmedian": 26779, "Ġskills": 3942, "Ġprominent": 17034, "ija": 20642, "ÙĦØ¨": 46152, "Ġintest": 21098, "ĠtÃ¶": 37064, "ultur": 26099, "ĠMotorola": 45871, "Ġlouder": 22717, "áº¡": 5890, "ĠSurv": 40716, "ÑģÐºÐ¸Ñħ": 25698, "ounty": 33450, "ĠInd": 2333, "Ġafternoon": 6499, "Ġstructure": 3877, "Ġbreathing": 9570, "Ġfantas": 31255, "Angel": 43643, "ĠGlad": 28301, "mee": 42952, "ĠâĻ«": 3846, "Ġ1998": 21404, "ĠdÃ©couvrir": 47756, "ĠÐ¼ÐµÑĪ": 44874, "ĠCraft": 29991, "ysics": 41732, "36": 11309, "ĠDocument": 37684, "ĠCur": 7907, "Ġhipp": 27745, "Ġbao": 45296, "color": 23851, "ĠNuclear": 42528, "ĠÐºÐ°Ð´": 42650, "ĠBefore": 4546, "HAEL": 21413, "Ð°ÑĤÐµÐ»ÑĮÐ½Ð¾": 20279, "ĠEspecially": 8545, "ä½ľ": 11914, "Ġtourist": 19806, "Ġpreparations": 34122, "ennial": 29705, "Ġserves": 13451, "jÃ¤n": 48365, "ĠEdinburgh": 41215, "ĠSyria": 13314, "Ġdisturbed": 30558, "Ġíķ´ìļĶ": 25744, "Ġìĸ´ì¨Įëĵł": 49856, "×ķ×ļ": 39832, "ãĥ³ãĤ¿": 34337, "Ġgrin": 49179, "Ġhist": 1758, "Ġëħ": 8727, "ÑıÐ»Ð°": 37394, "Ġsavior": 41327, "ghan": 10897, "Ð°ÐºÑĤÐµÑĢ": 38659, "ĠÄĳá»Ļng": 46880, "Ġshortly": 13392, "Ġknew": 2586, "Ġdetta": 48888, "<|25.00|>": 51614, "Î´": 8385, "Ġconvection": 49080, "Ġassisting": 40368, "ĠOlÃ¡": 41811, "comfort": 27289, "Ġcharts": 17767, "ĠTri": 10931, "Ġmafia": 36412, "Ġei": 14020, "Ġcharismatic": 41109, "Ġsyst": 20274, "aÄĩ": 43379, "Ġsabia": 36388, "ĠPolicy": 21708, "ÐµÑĦ": 23854, "Ġprocesso": 27939, "Ġstake": 10407, "onen": 32923, "Ã¶ff": 30453, "Ġadaptations": 44465, "ÑĢÐ¸": 4679, "è¡¨ç¤º": 40053, "ĠÐ½Ð¾Ð²": 10022, "Ġgefunden": 36923, "à®ķà®³": 15094, "çĦ¶åĲİ": 26636, "ĠDrake": 27465, "Ġheats": 41035, "Ġphotons": 40209, "Ġdisposable": 41578, "Ġmarketing": 6370, "ĠfÃ¼r": 2959, "fert": 34784, "<|28.80|>": 51804, "Ġbottoms": 43413, "Ġbowel": 40094, "Ġorbiting": 48985, "ĠBre": 7090, "ìĦľë": 38296, "Ġalm": 18667, "Ġlearn": 1466, "Î¿Î¹": 19264, "Ġsymmetrical": 40360, "ĠSPD": 19572, "äºĨ": 2289, "Ġboiling": 16208, "ĠJK": 35973, "Ð²ÐµÐ´": 32965, "ĠBAR": 27952, "chien": 33972, "Ġincredible": 4651, "Ġsucked": 26503, "ĠEmer": 18477, "ĠBall": 10744, "ĠHard": 11817, "ÑģÑĤÐ°Ð²": 6938, "Ġhurdle": 47423, "Ġmerry": 41545, "Ġsurrend": 36862, "Ġdich": 10390, "ĠClerk": 45175, "Ġgebru": 33857, "iquement": 27703, "ĠestÃ¡": 3192, "ĠÐ°Ð´": 27705, "Ġselect": 3048, "ãģĦãģŁ": 17679, "ĠGÃ¼n": 50225, "ĠClass": 9471, "ķĦ": 33889, "Ġsumm": 8367, "¦Ń": 32903, "ierz": 34602, "Ġ×ŀ×Ĳ×": 45686, "ade": 762, "×©×ķ×ĳ": 49641, "Rich": 44654, "Ġstap": 27284, "<|20.58|>": 51393, "lines": 11045, "<|19.30|>": 51329, "<|8.06|>": 50767, "ĠStu": 25203, "<|26.98|>": 51713, "Ġgor": 24012, "ë³": 10708, "å¾ħãģ£ãģ¦": 33393, "lect": 1809, "Ġcovid": 25616, "ĠChemical": 42754, "Ġë§¤ë": 34638, "Ġreinforcing": 48262, "Ġmolt": 10739, "Ġsnack": 13288, "¬ë¥¼": 43773, "IVE": 34146, "Ġbastards": 49346, "rows": 28251, "Ġpeeling": 39926, "Ä±z": 4041, "Ġdonations": 22705, "Ġbelong": 5784, "Ġsprink": 30885, "<|tk|>": 50341, "AND": 8070, "Ġkinetic": 27135, "ĠÐĴÑģÑĳ": 29661, "Sal": 39013, "ĠCav": 28066, "Ġrhy": 8740, "iennent": 28977, "ĠVielen": 22502, "ÑħÐ¾Ð´": 5280, "che": 1876, "Ġacontecer": 35011, "ÐµÑĩÑĮ": 36111, "Ġmeet": 1677, "ĠRey": 17547, "ĠrÃ³wnieÅ¼": 20532, "Ġpuede": 8919, "Ä±ÄŁ": 7366, "éĢĻä¸Ģ": 32260, "frist": 48754, "ĠNobel": 24611, "Ġhecho": 13064, "Ġcrane": 36345, "Ġsuchen": 44470, "Ġì°": 5122, "Ġembarrassed": 16843, "Ġreadily": 26336, "Ġlog": 3565, "Ð³Ð¾": 4567, "Ġcau": 42951, "Ġmermaid": 43146, "Ã¢ce": 27988, "ç¿»": 42716, "ĠBroad": 14074, "Ġach": 2800, "Ġvidare": 49324, "paid": 35035, "ĠÐĴÐ¸Ð´": 42888, "Ġbooth": 20912, "ĠLearning": 15205, "ĠKrsna": 33035, "åĥı": 12760, "Ġbarriers": 13565, "å¦Ĥä½ķ": 43526, "Ġsamurai": 48144, "que": 1077, "?!?": 38825, "moon": 33895, "ĠPeninsula": 40922, "andin": 37563, "imes": 1532, "Ġfaith": 4522, "ĠSnake": 33885, "ĠPolit": 13812, "okrat": 19795, "ĠÑĢÐ¾Ð·": 20681, "ãģĵ": 3503, "Ġdraws": 20045, "Ġspeeds": 16411, "Ġproducers": 16080, "ibt": 13651, "Ġabilities": 11582, "ĠTON": 25867, "ĠÐľÑĭ": 12726, "ĠlÃłm": 22319, "Ġjeito": 31478, "Å¼e": 2875, "ĠÐ¿ÐµÑĢÐµÑħÐ¾Ð´": 46888, "Ġdispatch": 36729, "Ġoftentimes": 18349, "ĠOnline": 16930, "Ġnotice": 3449, "Ġworks": 1985, "encer": 16542, "ancing": 8779, "ìļ©": 8761, "ÄŁer": 19119, "ĠPhew": 46679, "Ġëĭ¬ë": 20738, "ëıĦ": 3744, "éŁ": 13665, "<|10.42|>": 50885, "otzdem": 23934, "Ġsci": 2180, "Ġcolonial": 19066, "Ġzrob": 44399, "ĠGoPro": 30259, "Ġuntil": 1826, "Ã¢u": 24325, "Ġhep": 26299, "ĠYoutube": 12132, "uÃ©": 42423, "CROSSTALK": 39721, "Ġfreakin": 39571, "ĠWOODR": 24265, "ĠCentral": 9701, "Ġretirement": 15189, "<|4.48|>": 50588, "Ġdice": 10313, "âĢĭ": 3134, "Ġcane": 27518, "DC": 25619, "ĠCornell": 43257, "ĠEntscheidung": 44667, "Ġsing": 1522, "Ġìĺ·": 30880, "Ġlengths": 26329, "Ġmoonlight": 48058, "Ñī": 2000, "150": 20120, "Ġimagin": 23427, "Ġpresentation": 5860, "ĳ×": 4349, "ĠJay": 11146, "Ġworkforce": 14201, "ÑįÑĤ": 11967, "Ð°Ñı": 4251, "Ġfertile": 43509, "Ġë²ķ": 31461, "ĠÐ¼Ð¾Ð¶ÐµÐ¼": 28815, "á»": 1297, "ppo": 27000, "íĤ¨": 37035, "Ã¨re": 4212, "ĠGem": 22894, "ĠÐ·Ð°ÑĢ": 17821, "ĠTe": 1989, "ĠICU": 38123, "Ġtej": 12573, "ĠnhÃ¢n": 47931, "ĠFew": 33468, "<|6.48|>": 50688, "kach": 41326, "Î³Î¿": 40761, "ĠYea": 21145, "Ġmillones": 22416, "Ġcomplac": 49546, "Ġagreements": 21422, "Ġjourney": 4671, "ĠEntre": 27979, "ĠConsole": 44152, "åĳĢ": 15348, "Ġinforming": 43969, "Ġ300": 6641, "Ġjumping": 11233, "ãĥĥ": 8276, "à¤¯": 48268, "ĠëıĮ": 20555, "icating": 30541, "ĠNicole": 18532, "iley": 12062, "Ġnorm": 2026, "íĻĶ": 11604, "ĠMinist": 32196, "<|21.18|>": 51423, "Ġdiff": 7593, "Ġcomplic": 16060, "ĠStudy": 27039, "Ġgrandparents": 21876, "fÃ¶r": 15610, "Ġpsyche": 50223, "reshold": 14214, "Ġflavors": 16303, "å¤ł": 31649, "rett": 14313, "Ġrevisit": 32676, "Ġmaneira": 30255, "×Ļ×ļ": 25988, "ãħİ": 15944, "ĠiÃ§er": 33913, "Ġreaching": 9906, "Ġrepresent": 2906, "ĠtÃªte": 24661, "Ð°ÑĨÐ¸Ñı": 21235, "ĠSanders": 21734, "!!]": 46990, "version": 29153, "Ġpowdered": 35615, "Ġavait": 11853, "Ġhammer": 13017, "Ġastonishing": 35264, "ë¬¼": 28386, "Ð¸Ð»ÑĮ": 7094, "ĠÐºÐ¾ÑĪ": 46774, "<|21.44|>": 51436, "Ang": 23156, "Ġwitness": 7286, "Ã¨ce": 30236, "ĠMonday": 8138, "Ġez": 25220, "ĠÐ½Ð¸ÑĩÐµÐ³Ð¾": 16630, "zuge": 46285, "ĠProm": 15833, "<|26.74|>": 51701, "<|15.90|>": 51159, "<|11.02|>": 50915, "ë¯¸": 36372, "ching": 17354, "Ġdecide": 4536, "<|mn|>": 50314, "<|14.88|>": 51108, "five": 18621, "éĢļ": 19550, "åľĭ": 8053, "ssen": 8718, "ĠSim": 3998, "Ġfiction": 13266, "Ġcloth": 13619, "Ġczasu": 40860, "Ġì«": 37453, "ĠS": 318, "Ġpol": 1180, "Ġbrethren": 47854, "ĠMcCarthy": 44085, "Ġpinch": 14614, "Ġfac": 1915, "ulars": 42891, "ĠTok": 11036, "Ġpaljon": 34824, "Ġbenchmarks": 43751, "Ġamerican": 31229, "ĠÐ´": 1070, "Ġsed": 9643, "ĠSolo": 26452, "ĠSanta": 9933, "Ġmanifestation": 29550, "km": 17950, "æİ°": 29336, "ĠReady": 9944, "Ġmetros": 34761, "Ġwaffle": 44328, "ĠChina": 3533, "ĠLav": 30966, "Ġvanished": 37518, "Ġprosecut": 21015, "Ð°Ð½Ð¸Ð¹": 28204, "Ġrepresentatives": 18628, "Ġmetaph": 30946, "Ġinsights": 14310, "Ġillusion": 18854, "elijk": 19592, "Ġsub": 1422, "till": 47189, "ë°ķ": 40903, "ĠMythical": 44566, "ĠHad": 12298, "Ġpacket": 20300, "Ġquar": 4723, "¥¼": 2429, "Ġsen": 3151, "ĠÐ·Ð´Ð¾ÑĢÐ¾Ð²": 29638, "Ġexperimental": 17069, "Ġcasi": 22567, "ÐºÐ¾Ð»ÑĮ": 35724, "Ġstart": 722, "Ġrelev": 25916, "Ġceramic": 29996, "Ġdiamond": 16059, "Ġappli": 33330, "Ġchassis": 28262, "Ġels": 10302, "ĠMarriage": 49593, "Ġwonder": 2441, "The": 2278, "heits": 24260, "Ġ1972": 32952, "å·²ç¶ĵ": 25338, "<|1.20|>": 50424, "Ġgot": 658, "ĠHalloween": 13860, "à¤": 3941, "Ġflakes": 35392, "Ġtaco": 34101, "<|2.72|>": 50500, "<|22.50|>": 51489, "berry": 9099, "Ġhappier": 20423, "Ġvec": 42021, "Ġà¸ģ": 44579, "ĠSL": 22999, "Ã¼llt": 49976, "Ġbh": 41221, "medi": 3130, "Ð¾ÑĢÐ¾ÑĤ": 37040, "ollar": 30486, "Ġenters": 18780, "ĠCre": 9549, "ĠFa": 12710, "Ġsel": 5851, "ereal": 46036, "Ġfrick": 46756, "umph": 24963, "Ġpequ": 26758, "ĠÐŁÑĢÐ¸": 22059, "ê²¬": 34020, "Ġdefinitions": 21988, "Ġquindi": 15727, "ĠTalking": 22445, "Ġlighter": 11546, "Ġë°°": 14155, "Ġrhet": 24182, "itionally": 15899, "anie": 7155, "ĠPort": 6733, "Ġpossessions": 40623, "Ġopportun": 2070, "Ġft": 31842, "Ġsmoking": 14055, "Ġhein": 16464, "ÑĢÐ¸Ð¼": 42200, "owany": 23341, "Ė": 210, "ĠJeju": 42966, "anging": 9741, "Ġhack": 10339, "ĠSER": 36772, "Ġvictorious": 42557, "Ġtested": 8246, "ĠMostly": 29035, "ĠDuring": 6842, "fallen": 24425, "ĠÑģÑĤÐ°Ð½": 27214, "Ġtweeted": 25646, "Ġjackets": 34612, "Ġproced": 6682, "ĠShooting": 45739, "Ġloops": 16121, "ĠJanuary": 7061, "Ġxi": 36800, "Ġyarn": 11400, "Ġadvancing": 27267, "allen": 31181, "spl": 46535, "ĠpÅĤ": 28695, "Ġdancing": 8898, "ìľ¼": 10307, "glich": 8856, "ĠFreeman": 42163, "Ġconquered": 32695, "Ġconvention": 10286, "Ġpicnic": 32137, "ĠElla": 29261, "ĠBrain": 29783, "apan": 3140, "ĠDev": 9096, "Ġelection": 6618, "code": 22332, "ul": 425, "é«Ķ": 23987, "Ġì´ī": 47783, "ĠPOL": 45682, "W": 54, "ĠìĿ¸íĦ°ë": 47491, "pez": 15144, "yeon": 13842, "atore": 43148, "Ġmillenn": 21362, "Ġhizo": 28803, "Ġperk": 38839, "Ġfully": 4498, "hews": 46415, "ĠSorry": 4919, "itters": 38873, "à¸¹": 13687, "anner": 9805, "Ġsaf": 3597, "Ġinferior": 24249, "Ġligne": 34207, "Ġroom": 1808, "ĠëĥĦ": 43250, "ĠJES": 49350, "ĠAnat": 42628, "ĠStell": 37364, "Ġtoothbrush": 37568, "Ġtom": 2916, "Ġbutcher": 41579, "Ð½Ð¸ÐºÐ¾Ð¼": 43882, "ÑĥÑģÐ°": 45735, "Ġwonderful": 3715, "eno": 5808, "ĠCohen": 32968, "iable": 9364, "ĠyÃ¼zden": 33454, "mir": 19834, "Ã¹": 5035, "food": 35549, "Ġresponded": 15806, "éļ»": 47857, "karang": 28847, "crosstalk": 49782, "ë¥": 33106, "udo": 6207, "à¤¾": 17937, "ĠCraig": 19732, "55": 13622, "Ġsubsidy": 49636, "Ġaccomplishments": 25943, "etics": 15793, "cot": 48477, "Ġpoverty": 10958, "Ġcoil": 22225, "Ġstip": 37001, "Ð¸ÑĤÐµ": 5878, "ĠÐ²Ð´": 25507, "Ġocean": 7810, "Ġrealm": 15355, "Conf": 43874, "ì½Ķ": 29872, "Ġvested": 49317, "Ġteas": 11488, "Ġdates": 11691, "ĠÐ¾Ð±ÑıÐ·Ð°ÑĤÐµÐ»ÑĮÐ½Ð¾": 35515, "Ġwrapped": 14226, "Ġunbedingt": 41211, "ÑĥÐ»ÑĮÑĤ": 19615, "ĠbÃ¶rjar": 49534, "Ġpurp": 3527, "Ġolho": 50147, "<|14.44|>": 51086, "Ġmultip": 3311, "IS": 2343, "<|0.34|>": 50381, "<|2.82|>": 50505, "unciation": 17477, "Ġneh": 40857, "<|id|>": 50275, "nai": 44661, "gies": 25480, "<|9.80|>": 50854, "Ġgoed": 16987, "Ġfragrance": 25826, "ĠÑħÐ¾ÑĢÐ¾ÑĪÐ¸Ð¹": 48917, "Ġkrijgen": 43460, "Ġdoctors": 8778, "ĠRUS": 43719, "ê±": 4261, "Ġreducing": 12245, "ĠÐ¿ÐµÑĩ": 44875, "<|1.78|>": 50453, "Ġtapi": 23901, "Įëį°": 50158, "ĠIb": 40790, "ĠÐºÐ½Ð¾Ð¿": 40450, "<|tl|>": 50348, "ÑĢÑĥÑĤ": 47220, "Ġconsum": 3978, "Ġclimbed": 28691, "Ġfunktioniert": 26160, "Ġcommitting": 26659, "ĠëĽ°": 44380, "liamo": 49926, "V": 53, "Ġunsett": 43964, "ĠBrown": 8030, "Ġoll": 37995, "Ġinad": 42148, "Would": 35256, "Ġdifficile": 26607, "Ġpatterns": 8294, "Ġë©Ķ": 34810, "Ġadvertising": 13097, "ender": 3216, "Ġunanim": 29710, "Ġtransformation": 9887, "Ġabbrevi": 35839, "ĠDefence": 43291, "este": 8887, "Ġdid": 630, "ĠÐ²ÑģÐµÐ¼": 21042, "kl": 7837, "Ġcarbohydrate": 47048, "ĠRece": 41962, "ĠÐŁÐµÑĢÐ²": 34182, "Ġenhan": 15780, "ĠÑģÐ´ÐµÐ»Ð°Ð»Ð¸": 44780, "ĠÄĳÃ¢y": 20199, "Ġrecognizes": 26564, "Ġìłĳì¢ħ": 32840, "Ġgre": 6066, "Ġextra": 2857, "UNKNOWN": 47774, "Ġå¿«": 42598, "Ġlegitimate": 17956, "abil": 5177, "íķ©": 26640, "ĠGul": 43314, "Ġthu": 40295, "eral": 2790, "Ġminutos": 19421, "comb": 38763, "ĠTravis": 24430, "Ġcontag": 28525, "ĠGrace": 15742, "ãģĿ": 5040, "¾": 122, "ĠO": 422, "Ġplayable": 37146, "ĠFlag": 37461, "ĠKann": 29074, "Ġboast": 46988, "Ġeast": 10648, "ìķĻ": 48808, "Ja": 19111, "Ġvandaag": 41901, "ĠMeredith": 29737, "Ġdiscussions": 11088, "Ġportion": 8044, "nesday": 10362, "ĠApache": 46597, "¹ł": 19211, "<|17.32|>": 51230, "Ġwires": 15537, "Ġafect": 30626, "isierung": 32531, "ĠEK": 46078, "Ġleuke": 45970, "ĠìĦłë°°": 49122, "Ġparecer": 44885, "ÑĤÑĥ": 13549, "ensa": 23364, "Ġpirate": 27424, "ĠHarmon": 40599, "Ġshaken": 40971, "apor": 13345, "Ġíķĺ": 3369, "´ìĭ¬": 28569, "Ġelevate": 33054, "Ġseriously": 6638, "ĠLady": 11256, "åŀĭ": 39823, "Ġoverthrow": 46924, "Ġpackets": 30364, "Ġpipes": 21882, "ĠgÃ¼n": 14472, "Ġthey": 436, "atoire": 45575, "aho": 25825, "Ġpigeon": 37886, "ÎµÎ¯": 15903, "Ġrecent": 5162, "niejsze": 44258, "Ġmasks": 11830, "Ð¡": 8068, "Ġrely": 10687, "ĠWhat": 708, "è£Ŀ": 44453, "çģ«": 26171, "chutz": 34816, "ĠChar": 4327, "Ġprzed": 18334, "Ġolhar": 37446, "ĠCarbon": 31453, "Ġbrac": 17848, "HH": 7499, "To": 13342, "Ġprobation": 41821, "ĠSUPER": 49342, "Ġdonor": 25493, "ĠëĬĲëĤ": 11796, "<|11.22|>": 50925, "Ġunve": 31009, "Ġcrunchy": 24942, "ĠOok": 50081, "Ġprzy": 6501, "ĠÑģÐ¸Ð¼": 38994, "ĠçľŁçļĦ": 32790, "Ġbonus": 10882, "ĠÐ¿ÑĢÐ¾Ð³ÑĢÐ°Ð¼": 29043, "Ġgift": 5306, "Ġwieder": 6216, "Ġcoop": 13215, "........": 18097, "Ġharm": 6491, "olic": 7940, "Ġsmartphone": 13307, "ĠÐµÐ¹": 30075, "ĠFranz": 33084, "HAM": 47035, "ERS": 14451, "Ġ×Ķ×Ļ×Ĳ": 35422, "Ġê·¸ëłĩì£ł": 34410, "Ġsemb": 20775, "nous": 47008, "Ġ×©×ł": 30222, "<|11.76|>": 50952, "ĠCommittee": 11556, "Che": 15683, "ĠÐ´Ð¾Ñģ": 41126, "Ð¾Ð±ÑĢÐ°Ð·": 38613, "ancer": 28347, "ĠÐ±ÑĭÐ»Ð¾": 8060, "dro": 45869, "åı¯èĥ½": 16657, "ĠÐ²Ð¸Ð´": 6504, "ĠMegan": 21332, "abul": 14057, "ĠThem": 37354, "ĠPolski": 44589, "<|1.38|>": 50433, "Ġwilling": 4950, "rak": 11272, "elsius": 20301, "ĠWant": 11773, "ĠMimi": 46709, "ĠShak": 47459, "Ġdeixa": 26208, "Ġcel": 9277, "Ġyeux": 36163, "Ġsending": 7750, "Ġtelevision": 8815, "Ġorganisms": 22110, "ĠThr": 41645, "èĲ": 10674, "leb": 28512, "ĠConsider": 17416, "thren": 40300, "Ġunserer": 20965, "ÑģÐ¾Ð½": 25932, "Ġsic": 33579, "bene": 41605, "Ġprotocols": 20618, "ow": 305, "formation": 8663, "Ġespec": 31620, "ricting": 37714, "Îµ": 2080, "cro": 23401, "Ġwindow": 4910, "ĠÐĴÑģÐµ": 18029, "woÅĽÄĩ": 48847, "ĠCrit": 23202, "<|25.86|>": 51657, "Ġsemaine": 28681, "ali": 5103, "Ġprivate": 4551, "Ġxu": 41104, "ĠParadise": 35053, "Ġshout": 8043, "Ġvolunteered": 41213, "ĠRif": 48549, "ĠWhoops": 45263, "ĠSanskrit": 44392, "Ġforehead": 20472, "Ġscout": 34392, "ĠHour": 38369, "ĠReporter": 26520, "iziert": 43590, "Ġpreserv": 45905, "Ġpork": 10208, "Ġangular": 24413, "ĠlÃ¡": 7453, "Ġproject": 1716, "ieties": 19084, "Ġpotatoes": 11811, "Ġreduces": 18081, "Ġrounds": 13757, "Ġë´Ĳ": 15507, "ĠDef": 9548, "ĠproblÃ¨me": 21111, "Ġpromotion": 15783, "Ġotra": 13623, "au": 1459, "Ġultra": 14808, "Ġpronouns": 35883, "immune": 49031, "ĠCommunity": 10421, "ĠExpress": 20212, "<|1.58|>": 50443, "Ġtelefon": 26812, "ĠSpencer": 31996, "Ġanytime": 13038, "both": 18151, "ĠScr": 34944, "million": 40388, "Ġslightly": 4748, "Ġexplains": 13948, "Ġcompensation": 19644, "ĠVision": 25170, "rebbe": 39487, "Ġguarante": 14203, "Ġfrost": 19623, "Ġbenut": 38424, "Ġ×©×ŀ×": 36327, "Ġlong": 938, "ãħł": 23518, "ters": 1559, "Ġnood": 8422, "§": 100, "ĠGew": 19063, "Ä±yoruz": 24459, "arms": 19537, "07": 16231, "ĠPis": 43263, "<|12.60|>": 50994, "Ġoso": 19116, "Ġpeacefully": 36485, "ĠKivol": 27506, "ĠNSA": 47299, "Ġconsequence": 18326, "Ġpsy": 31673, "hh": 3454, "Ġpelos": 38304, "Ġdurant": 43941, "ĠëŃĶ": 43972, "ĠdÃ©pl": 47687, "ĠEstate": 48097, "Ġpsychiatric": 40123, "Ð°ÑĢ": 2222, "Ġpouring": 20450, "Ġfica": 16868, "Ġlagi": 17742, "<|24.44|>": 51586, "ĠGothic": 47143, "ong": 556, "sy": 3187, "Ġwarten": 46907, "B": 33, "ĠInstitute": 9446, "Chr": 11644, "estones": 34853, "ĠGrund": 13941, "Ð¸ÑĤÐµÐ»ÐµÐ¹": 29952, "ĠÐ´Ð²Ð¸Ð¶": 30473, "ĠFuÃŁball": 49487, "Ġconjug": 29456, "ĠWarriors": 40161, "Ġchildren": 2227, "Ã¦r": 32011, "Ġegal": 31528, "ues": 1247, "ĠZig": 50004, "TC": 18238, "Ġfee": 12054, "Ġliver": 15019, "sty": 25134, "Ġapostles": 39397, "ij": 1718, "Ġattributes": 17212, "ĠManagement": 14781, "Ġchega": 40157, "houses": 29578, "Ġwhere": 689, "Ġexceptionally": 37807, "ĠÐ»ÑİÐ±Ð»Ñİ": 44683, "Ġamplify": 41174, "ulum": 11560, "ÐµÑģÑĤ": 5740, "Ġskull": 11743, "ĠBiology": 48132, "ÙĦÙħ": 19528, "igning": 9676, "Ġpuzzle": 12805, "Ġfemmes": 27997, "ãĤ": 824, "tera": 23833, "ĠSamuel": 23036, "ãģĺãĤĥ": 15339, "åĲĽ": 24168, "lifting": 34724, "Ġsafely": 11750, "Something": 45431, "Ġsubur": 23519, "Ó": 143, "ĠEduc": 9517, "celand": 27673, "Ġobedient": 42541, "itel": 38906, "ĠKeeping": 30187, "ĠÑģÑĥ": 18272, "Ġstumbled": 36668, "åĳ½": 25236, "Ġcrim": 7857, "OM": 5251, "isin": 33787, "Ġmovement": 3963, "Ġbillion": 5218, "ĠAntwort": 34693, "enn": 1857, "Ġhull": 32335, "Ġmile": 12620, "Ġmeats": 38106, "Ġworldview": 41141, "Ġdisappoint": 8505, "Ġlane": 12705, "Ġenhanced": 21191, "<|29.10|>": 51819, "Ġherself": 7530, "<|15.94|>": 51161, "Ġtours": 22911, "thing": 825, "Ġtransportation": 11328, "Ġelectrode": 38346, "©´ìĦľ": 9332, "ĠvocÃª": 2723, "Î¼Îµ": 9104, "dt": 39488, "Ġdois": 11854, "Ġshut": 5309, "ĠpÅĻ": 31631, "Katie": 41776, "Ġstatistical": 22820, "Ġcollaps": 16567, "kill": 34213, "Ġexponential": 21510, "Ġub": 26709, "ĠFi": 38245, "cake": 13994, "Ġcontinues": 6515, "Ġdecks": 32607, "Ġunnatural": 43470, "ĠÑģÐ»Ð¾Ð¶Ð½Ð¾": 41016, "<|18.12|>": 51270, "çı¾åľ¨": 12648, "<|4.38|>": 50583, "Ġ`": 28279, "çµ": 6948, "ĠTu": 7836, "Ġterce": 41385, "Ġgl": 1563, "ier": 811, "ĠEsther": 37731, "ĠNora": 45741, "ruction": 3826, "ĠScript": 15675, "ĠÐ¾Ð´Ð½Ð¾": 30387, "Ġfps": 44981, "ĠSalut": 33559, "brig": 21674, "Ġsatu": 27679, "eszcze": 14143, "Ġ750": 31682, "Ãºlt": 43447, "Ġwprowad": 46733, "nÄĽ": 31617, "Ã©t": 4051, "ĠÐ´ÑĢÑĥÐ·": 23577, "ĠFloyd": 28494, "bu": 6021, "ĠìŀĪëĤĺ": 48178, "Ġmusicians": 16916, "Ġuniverse": 6445, "Ġsegu": 8878, "è¿ĺ": 14852, "any": 1325, "ĠLynch": 32345, "oph": 5317, "Ġìĸ´ëĬĲ": 34918, "ĠprÃ³pria": 39608, "Ġmedication": 13851, "Ġrage": 20133, "ĠIndian": 6427, "Ġtransitions": 23767, "Ġcollide": 49093, "Ġcrumbs": 42675, "Ġbug": 7426, "Ġabol": 23183, "ĠÐ¶Ð¸Ð·Ð½Ð¸": 21415, "ĠDemocrat": 27827, "Ġorph": 23896, "ĠPI": 27176, "Ġwithin": 1951, "Ġem": 846, "Ġextensive": 13246, "AJ": 36404, "Ġcondition": 4188, "Ġprogresses": 41929, "omme": 15117, "Ġadulthood": 42328, "Ġtester": 36101, "ĠMayo": 46406, "Ġste": 2126, "ording": 3357, "issent": 25450, "ĠÐ´Ð¾Ð²": 20124, "ä¸Ģä¸ª": 20182, "<|6.76|>": 50702, "Ġgeldi": 22121, "ĠGuid": 49036, "ĠAncient": 28352, "ãĤĬ": 5095, "athon": 18660, "ĠìĦľë": 32558, "aeda": 43973, "Ġantibodies": 28356, "Ġ×Ĳ×ª": 9625, "ĠWells": 36363, "ĠGiul": 38679, "ĠFaz": 33154, "Ġbicycle": 20888, "ĠPersonality": 44523, "Å«": 19056, "Ġspricht": 42088, "å¤§çļĦ": 39156, "Ġsings": 23250, "Ġsod": 15047, "ĠÐ¿ÐµÑĢÐµÐ¿": 48702, "ank": 657, "Ġalphabet": 23339, "Ġcamouflage": 47625, "Ġstaging": 41085, "ped": 3452, "anche": 22806, "fel": 29874, "bell": 7100, "Ġpoquito": 28229, "éĴ": 25153, "<|17.66|>": 51247, "Ġfallait": 49170, "ãĥ³ãĥįãĥ«": 40500, "Ġturbulent": 41697, "Ġsympathy": 33240, "Ãµ": 5536, "ĠGuin": 44117, "Ġprocedural": 43951, "Ġsoils": 31324, "ĠuÅ¾": 46803, "Ġconfir": 9186, "omas": 7092, "ĠÐ¿ÑĢÐ¸Ð²": 13398, "Min": 30031, "ĠIls": 17979, "LAUGHTER": 11734, "ĠÅ¾e": 25178, "Īë¬´ë": 27532, "ĠëĭĪ": 35362, "ĠRoberts": 20919, "ĠLiberal": 36020, "stellen": 17538, "Ġwhopping": 50043, "ÑĢÐµ": 17066, "Ã¶d": 29747, "ĠASMR": 31300, "Ġalltid": 45861, "ĠÐķÑģÑĤÑĮ": 30547, "Ġquite": 1596, "Ġolacak": 23172, "Ø§Øª": 9307, "Ġlearnt": 18991, "Ġteenager": 21440, "orsa": 38822, "ĠMuch": 12313, "<|27.46|>": 51737, "Ġbueno": 11974, "ĠØŁ": 45520, "åį¡": 32681, "Ġë¶Ħëĵ¤ìĿĢ": 40821, "ĠÐ½Ð°Ð·": 15006, "Ġgrams": 11899, "letter": 21248, "Del": 40848, "<|21.20|>": 51424, "Æ°Æ¡ng": 24605, "width": 21271, "RIA": 41125, "Ġpup": 19784, "ĠdÃ¼rfen": 29493, "Ġmig": 6186, "ĠSeite": 19748, "berish": 43189, "assung": 40828, "¨¹": 26741, "Ġmo": 705, "ĠgefÃ¤hr": 41484, "inal": 2071, "ĠMilky": 38465, "<|10.24|>": 50876, "ÑģÐµ": 28340, "uded": 23285, "Ø§ÙĬ": 47302, "ĠÑģÐ¾Ð³": 33255, "ĠTool": 15934, "ĠBabylon": 30278, "Ġhugely": 27417, "ĠÐ½Ð°Ð±": 22499, "ĠÐ³Ð¾Ð´": 9182, "ĠPresent": 33253, "ĠFuck": 10965, "Ð³Ð¾ÑĤÐ¾Ð²": 25965, "ĠSavage": 46699, "ieht": 39850, "ĠChase": 21384, "Connie": 38102, "from": 20579, "Ġmaple": 31191, "olen": 11940, "Ġrun": 1190, "Ġê¸°": 7047, "etheless": 21051, "×¢": 7924, "Ð¸Ð½Ð¸": 20303, "izens": 31586, "hadow": 31933, "<|22.06|>": 51467, "ĠSeems": 22524, "Ġìļ´ëıĻ": 33541, "Ã¤ngen": 43921, "Ġyoung": 2037, "ctional": 41048, "ĠÑģÐµÐ±Ñı": 15403, "wig": 33313, "Ġdub": 18540, "Ġlabels": 16949, "ly": 356, "ĠGiven": 18600, "íķ": 817, "iums": 47954, "Ġopioid": 32837, "Ð½Ð¸Ðµ": 30923, "ëĭ¤ëĬĶ": 10520, "viol": 23566, "Ġnearby": 11184, "ĠØ¨ÙĬÙĨ": 49374, "äº¬": 31375, "ĠIvan": 28893, "anan": 29915, "<|29.08|>": 51818, "Ġannoun": 4262, "Ġeven": 754, "Ġinfrastructure": 6896, "Ġfen": 26830, "Ġendorsed": 50094, "Ġmulher": 33211, "ĠYan": 13633, "phonetic": 43226, "ĠAmer": 22597, "ĠReese": 49474, "known": 6861, "Ġidle": 30650, "Ġkomun": 45359, "ĠSchl": 16420, "Ġthrown": 11732, "Ġ79": 32803, "Ġaccurate": 8559, "ĠKw": 43432, "Ð¾Ð²Ð°Ð»Ð¸": 37651, "ocur": 20885, "ulf": 5757, "ÐµÐ½Ð½Ð°Ñı": 41994, "ĠCathy": 39799, "Ġchoosing": 10875, "Ġlit": 7997, "ĕ": 209, "ĠÑĩÐµÐ»Ð¾Ð²ÐµÐº": 11326, "ĠPizza": 24469, "APP": 8749, "ĠBirmingham": 34673, "Ġstudying": 7601, "esting": 8714, "Ġearnest": 48171, "iman": 25504, "ĠUNC": 44886, "Ġneighbourhood": 30471, "Ġnhi": 20575, "ĠDAR": 49274, "Ġexisting": 6741, "Ð»ÑİÑĩ": 11833, "ĠÐºÐ°ÑĢ": 13560, "A": 32, "ĠSequ": 46859, "Ġplu": 44373, "Ġtigers": 47949, "ph": 950, "Ġearning": 12353, "ox": 5230, "(?)": 20396, "ensed": 16332, "çı": 8434, "ĠProvost": 45426, "Ġkana": 42372, "ĠMartha": 27787, "ĠNic": 14776, "Ġrotates": 42133, "Ġanch": 12723, "Ġsponsorship": 42922, "Ġsubdiv": 45331, "Ġestate": 9749, "ÑĢÐ¸ÑģÑĤ": 39085, "Ġsame": 912, "Ġcreamy": 23215, "writer": 23681, "ĠÎ»ÎŃ": 36148, "ĠÐĹÐµÐ¼": 42604, "Ġenergia": 29469, "Ġpassword": 11524, "ĠWhole": 30336, "Ġdemocrats": 47665, "Ġtota": 40066, "ĠBeweg": 46757, "ĠMusk": 26019, "ĠmontÃ³n": 45259, "×": 147, "ĠÐºÐ¾Ð»Ð¸": 49672, "esen": 17403, "Ġmessages": 7897, "Ġgrup": 12740, "ittel": 47265, "Ġpluck": 41514, "iliÅĽmy": 43912, "Ġscarcity": 44181, "ĠAaa": 35820, "ucha": 26042, "Ġcres": 20964, "ute": 1169, "Ġdeber": 29671, "able": 712, "ãģ¡ãĤĩ": 17411, "Ġmagnesium": 32950, "Ġstur": 29249, "ĠMiy": 26195, "Ġwied": 46894, "ĠÏĦÎ·Î½": 17309, "Ġkys": 35573, "Ã®tre": 25011, "åĨĨ": 38812, "Ġredef": 38818, "Ã¨ces": 44778, "ÐºÐ°Ð¼Ð¸": 22379, "Ġkam": 9727, "<|21.96|>": 51462, "Ġbesser": 18021, "Ġreform": 8290, "Ġenh": 10944, "ĠPey": 36206, "Ġproduces": 14725, "Ġextremely": 4664, "ĠÐ²Ð¿Ð¾Ð»Ð½Ðµ": 46780, "ĠRichard": 9809, "affle": 29264, "ĠMansion": 45572, "ĠíĽĦë³´": 40089, "Ġìĸĺ": 11098, "Ð³Ð¾ÑĢ": 45628, "ĠWid": 28331, "Ġmontre": 44132, "iro": 5182, "ì£ł": 5837, "ĠÐ¸Ð½ÑĦÐ¾ÑĢÐ¼": 29117, "Ġpivotal": 39078, "Ġdez": 45057, "Ġquizzes": 48955, "ĠBecky": 30059, "iedz": 15338, "ĠbaÅŁ": 8694, "Ġstad": 38408, "Ġlobbying": 47142, "Ġmatter": 1871, "Ġskateboard": 32204, "ëĬĶ": 1098, "Ġadul": 26885, "Ġstove": 19263, "Ġstub": 20266, "ĠìĿĺ": 14389, "mal": 5579, "×Ļ×Ľ": 27958, "ĠëĤ´ìĿ¼": 42831, "èħ": 21184, "Ġerrors": 13603, "Ġë§ĪìĬ¤íģ": 47872, "Ġpointless": 32824, "it": 270, "Ġsava": 44908, "Ġcelui": 22829, "Ġpool": 7005, "Ġclosely": 8185, "ĠÐ¿ÑĢÐµÐ´ÑģÑĤÐ°Ð²": 27167, "Ġlotta": 38144, "ĠLemon": 35404, "Ġrash": 40357, "Ġappl": 4988, "ĠCuriosity": 48998, "ĠMmm": 12146, "acaÄŁÄ±m": 16763, "Ġclipping": 49320, "Ġtrips": 16051, "ÐµÑĢÑħ": 26937, "ÑĨÑĸ": 12857, "à¸²à¸¢": 23398, "ĠId": 11506, "Ġwants": 2738, "ivity": 4253, "Ġfet": 15136, "ĠkhÃ´ng": 11415, "rek": 20012, "Ġround": 3098, "ì°®": 16783, "Ġremains": 7023, "ĠInternational": 9157, "Ġincl": 37070, "Ġriver": 6810, "ĠHD": 12149, "Ġdesem": 38850, "Ð³Ð»ÑıÐ´": 22232, "ĠMos": 19430, "<|29.50|>": 51839, "Ġoppos": 4665, "they": 13162, "Ġíĸ": 11988, "Ġfasten": 38716, "fit": 6845, "Ġbilingual": 48757, "ĠLatinos": 48413, "iami": 15568, "Ã©m": 4011, "ĠSTEP": 28143, "Ġì²Ń": 24902, "icial": 14730, "ÐºÐ¾ÑĹ": 48939, "ables": 2965, "ĠState": 4533, "Ġetwa": 28369, "unch": 1680, "Ġgente": 3788, "Ġnieu": 26829, "Ġtháº¿": 27100, "æ¯Ķ": 11706, "Ãºa": 46362, "hang": 23850, "×ķ×¡": 24622, "<|2.14|>": 50471, "ĠÑĤÑĢÐ¸": 22068, "<|14.04|>": 51066, "Ġencore": 10122, "Ãºsica": 14372, "Ġextreme": 8084, "Ġgetting": 1242, "ðĿ": 10933, "ĠNote": 11633, "Ġgrow": 1852, "Ġdescob": 31700, "lungs": 49876, "Ġmakan": 46616, "ê¸°ìŀĲ": 18862, "Ġdentro": 10856, "ĠÐ¿ÑĢÐ¸": 5082, "ĠBrooks": 33493, "Ġintimidated": 40234, "ator": 1639, "Ġchoice": 3922, "Ġsolving": 12606, "Ġtet": 23319, "half": 25461, "ĠEar": 3929, "Ġwestern": 13231, "Ġcounselor": 27851, "icher": 14934, "Ġchoses": 14488, "Ġtamanho": 45645, "ĠComb": 25939, "leader": 47716, "Ġjump": 3012, "æĶ": 5917, "ĠChev": 44236, "Ġnotification": 11554, "ĠMoses": 17580, "Ġcatchy": 47168, "ĠNether": 18313, "ĠRed": 4477, "ĠHen": 8651, "Ġunique": 3845, "ĠJenna": 35391, "Ġjum": 29067, "Ġku": 17807, "ilen": 17471, "niej": 10402, "ĠÅ¾": 17305, "ĠPacific": 13335, "ĠìŀĪìľ¼ë©´": 35783, "Ġleads": 6689, "ĠVince": 34876, "valuation": 46504, "Ġëħ¸": 29158, "Ð¸ÑĤÐ°": 30816, "ĠAlert": 44939, "Ġearthly": 46262, "ĠVideo": 9777, "Ġrenting": 40598, "cieÅ¼": 40082, "eping": 10921, "sol": 30926, "driver": 23609, "Ġseguridad": 35415, "ĠHBO": 37409, "ÑįÑĤÐ¾Ð¼Ñĥ": 12920, "Ġginger": 14966, "utet": 20364, "Ġdownloading": 32529, "ĠÑħÐ¾ÑĤÐµÐ»": 27688, "ient": 1196, "cking": 25723, "Ġstages": 10232, "Ġdlatego": 32205, "´Ĳ": 16808, "ĠWriting": 32774, "Ġgradually": 13145, "ĠAlexa": 22595, "Ġtokens": 22667, "ĠwiÄĻc": 16677, "ĠÐ¿ÐµÑĢÐ²": 11922, "Ð»ÐµÐºÑĤ": 21579, "ĠGla": 47895, "Ġpromotes": 36015, "EZ": 42329, "Ġmungkin": 32633, "Ġvotre": 10087, "³Ģ": 43858, "Ġoss": 19508, "urers": 14198, "ate": 473, "ĠìĬ": 6955, "ĠSud": 12323, "Ġaccessories": 18207, "Ġbottle": 7817, "atha": 29441, "Ġí": 1175, "Ġsiete": 40719, "Ġny": 18052, "Ġsiguiente": 25666, "dogs": 42008, "<|18.38|>": 51283, "Ġwip": 15887, "pu": 34859, "åı«": 19855, "cal": 9895, "Ġpublishers": 30421, "mie": 25210, "agn": 4535, "Ġevitar": 31326, "ĠKÃ¶rper": 33501, "ĠSettings": 27286, "Ġunderstands": 15146, "Ġtransitioning": 33777, "ĠDart": 30271, "Ġuprising": 49144, "Ġtelephone": 19800, "ĠVID": 47619, "Ġlease": 24961, "ãĥĥãĥĪ": 31978, "Ġou": 2820, "ĠExactly": 7587, "ĠRick": 11224, "Ġcontainers": 17089, "ĠBerlin": 13848, "Ġvariant": 17501, "ĠÐ·Ð½Ð°ÐºÐ¾Ð¼": 40909, "ĠHebrews": 44604, "Ġnickel": 30542, "hope": 47485, "ĠNos": 18749, "Ġgee": 24105, "Ġpasa": 20260, "playful": 41092, "Ġdeterminant": 41296, "Ġrequis": 49878, "Ġguidelines": 12470, "niejs": 30295, "Ġgol": 9988, "Ġrozum": 48797, "Ġata": 48639, "ĠBS": 27253, "ikal": 41216, "Ġcurt": 28087, "åĸľæŃ¡": 21385, "ĠSut": 40492, "ĠGor": 26144, "ÐµÐ½Ð¸Ð¹": 17271, "<|22.34|>": 51481, "ĠìŀĪê³łìļĶ": 44426, "<|10.90|>": 50909, "ĵľëĬĶ": 29609, "Ġusability": 46878, "pta": 47366, "ĠBeing": 8891, "<|23.76|>": 51552, "Ġcran": 39685, "ĠHindus": 49726, "Ġdragging": 24385, "Äģ": 5610, "éľĢ": 32535, "ÑĤÐ¾Ð±Ñĭ": 7331, "åİŁ": 19683, "ĠolduÄŁunu": 28619, "Ġcentury": 4901, "ĠComme": 24308, "Ġleakage": 47799, "Ġbuilding": 2390, "<|12.74|>": 51001, "Ġmiser": 17725, "JO": 37523, "Ġmodeled": 37140, "ÐµÐ½Ð½Ñı": 25568, "Ġbecame": 3062, "Ġswirl": 30310, "antee": 10527, "Ġattackers": 45129, "Ġwhirl": 35706, "Ġautobi": 45747, "Ġvalleys": 45614, "Ġceiling": 13655, "à¹Ĩ": 31333, "Ġdoivent": 44341, "é©¬": 49970, "ĠT": 314, "à¸ļ": 10196, "Ðĸ": 28308, "": 50256, "ê°Ħ": 5989, "Ð½ÐµÑģ": 28302, "Ġproductivity": 15604, "Ã¼zik": 10920, "Ã©lior": 44795, "Ġnegativity": 39297, "Ġchoking": 48540, "Ġlawmakers": 40988, "ĠÑįÐ¿": 43985, "Ġassign": 6269, "ĠVet": 50111, "Ð¸ÑĢÐ¾Ð²Ð°ÑĤÑĮ": 26411, "06": 12791, "Ġbrut": 12603, "æ©ĭ": 36473, "Ġvendo": 33152, "Ġcontacted": 21546, "ÐµÐ¼ÑģÑı": 40811, "hn": 12071, "Ġ78": 26369, "Ġforeground": 32058, "ĠRid": 30619, "96": 22962, "riment": 30591, "åį³": 39127, "ĠpÃ©n": 49880, "oyo": 26251, "Ġê·¸ê±°": 23075, "ently": 2276, "Ġding": 21211, "Ġundergoing": 40033, "ÑıÑĤÑĮ": 8773, "ĠActiv": 28550, "ĠCrus": 34484, "prem": 29403, "Ġsuck": 9967, "Ġbeter": 45425, "Ġdefending": 21377, "ido": 2925, "Ġsubsidies": 38523, "Ġgoin": 21582, "nÃ©": 15055, "Ġdefe": 7486, "ritos": 42887, "Ġruining": 38938, "ĠEntonces": 15097, "Jess": 27604, "íĥĢ": 25439, "Ġskate": 18237, "ĠæīĢä»¥": 45168, "Ġjust": 445, "Ġopacity": 41693, "ilate": 48104, "Ġairports": 36561, "ĠÑĤÐµÐ¼": 12532, "ĠQuindi": 32534, "Ġvid": 7217, "acon": 18181, "ä¸Īå¤«": 39642, "Ð°Ð½ÑĤ": 15073, "ĠÑģÐ¸ÑģÑĤÐµÐ¼Ð°": 48123, "Ġmart": 12396, "Ġinvent": 7962, "ãģĭãģ£ãģŁ": 25785, "ĠPiet": 41970, "ĠW": 343, "Ġbureaucracy": 44671, "Ġislands": 17402, "Ġrhetoric": 29604, "Ġeste": 4065, "¹": 117, "ä½łä»¬": 29806, "OL": 5046, "ĠImprove": 46366, "ĠKorea": 6307, "ÐµÐ·Ð¶": 32682, "ĠÑģÐ´": 48001, "<|29.16|>": 51822, "Ġtopp": 48433, "kg": 18302, "ĠÐ¿ÑĢÐ¾ÑĦÐµÑģÑģ": 43624, "åĪ°": 4511, "Ġsym": 6697, "ĠlÃ¤ng": 22566, "Ġguests": 9804, "Ġìĸ´": 9076, "ãģ§ãĤĤ": 17783, "Ġglaub": 23210, "ĠTinder": 49341, "ĠãĢĲ": 26308, "ĠGarlic": 41124, "Ġheritage": 16040, "ĠJahres": 44360, "Î»Î¬": 30717, "ĠStat": 16249, "years": 34569, "Ð½Ð°ÐºÐ¾Ð¼": 45051, "Ġosob": 41518, "<|16.00|>": 51164, "Ġami": 33206, "ÐµÐ½Ð½Ð¾Ðµ": 48061, "Ġmaravil": 41009, "Ġstimul": 14572, "ÑģÑĤÐ²Ðµ": 24966, "Ġstructured": 18519, "Ġskill": 5389, "ĠÐ´Ð°Ð»": 22500, "Ġrad": 2843, "Ġnie": 2838, "<|25.32|>": 51630, "iled": 7292, "Ġtra": 944, "Ġadjusting": 23559, "Ã¡d": 32512, "Ġdisposition": 40293, "Ġborrowed": 26805, "ĠMayor": 13925, "apers": 14441, "ĠBe": 879, "ĠnÃ¥got": 36586, "Ġconvolution": 45216, "ĠConsumer": 39494, "Ġsyll": 20223, "ĠHail": 32495, "ĠGalile": 46576, "Could": 46497, "à¶": 16204, "ĠÐ·Ð°Ð¿": 10333, "Ġexpanding": 14702, "Ġmathematic": 32811, "æľĥ": 6236, "Ġwz": 24809, "Ã³mo": 20436, "Ġmall": 16026, "ĠÑĥÐ´Ð°ÑĢ": 39047, "å¤§ä¸Īå¤«": 44537, "Ġbroch": 48147, "ĠìĺĨ": 29095, "ĠDeutschland": 14802, "ĠCyber": 22935, "Ġëĭ¤ìĿĮìĹĲ": 28232, "æ°ĳ": 16113, "æ£Ĵ": 23514, "ĠEthereum": 26894, "ARK": 36402, "Ġrealistically": 40734, ".......": 43807, "Work": 28846, "Ġdifferentiate": 23203, "Ãªme": 5069, "itutional": 41859, "!âĢĭ": 15267, "Ġsiempre": 12758, "Ġtrat": 21507, "open": 15752, "ĠObserv": 42547, "Ġturb": 18252, "ĠGuill": 48149, "Ġslot": 14747, "ĠURL": 12905, "iente": 8413, "zinho": 31282, "Ġ175": 41165, "ĳ¥": 42815, "Ġpigs": 24380, "Ġ×©×Ķ": 19208, "Ġpossible": 1944, "pot": 17698, "ĠRet": 11495, "<|5.54|>": 50641, "igns": 42636, "REE": 44542, "ĠÑģÑĤÑĢ": 18425, "wing": 7904, "Ġbuilt": 3094, "icorn": 23115, "ĠCy": 10295, "Ġ-\"": 20841, "á¸": 32478, "en": 268, "ĠAlone": 42056, "Ġtiny": 5870, "mad": 16413, "ÑıÐµÑĤ": 27516, "ĠSullivan": 37226, "Ïĩ": 7597, "<|20.74|>": 51401, "Ġsoldier": 15632, "íķĻêµĲ": 48359, "ĠAlison": 41001, "inations": 10325, "æķ": 7017, "BRUNO": 18468, "yty": 41944, "ĠHandy": 47006, "Ġgoosebumps": 48305, "ĮëŁ¬": 39530, "ê²ĮìļĶ": 10142, "Ġmeets": 13961, "Ġtoilets": 37691, "ele": 16884, "Ġallocated": 29772, "Ġsets": 6352, "Ġcurry": 18123, "ublique": 42105, "Ġsmaller": 4356, "ĠMonsieur": 34941, "Ġfus": 34326, "Lo": 31645, "ĠPF": 43402, "ieth": 38449, "ept": 5250, "ĠÑģÑĤÐ°Ð»Ð°": 44503, "Ġconfronted": 31257, "ĠWitness": 41366, "ĠBreat": 20093, "Ð¾Ð»ÑĮ": 2765, "Ġultrasound": 40895, "Ġmale": 7133, "ĠRecht": 36840, "aya": 4427, "Ð¾Ð¶Ð°Ð»ÑĥÐ¹": 24752, "Ġfutur": 25840, "Americ": 11755, "Ġselection": 9450, "ĠÐ½Ð°ÑģÑĤÐ¾Ð»ÑĮÐºÐ¾": 47779, "ĠSDK": 37135, "Ð¾ÑĦ": 48645, "ĠÐ²Ð¸Ð½": 49847, "Ġtribes": 19035, "Ġkok": 28376, "Ġcurvature": 37638, "Ð¾Ñĩ": 4492, "Ġludzie": 37025, "Ġresilient": 23699, "Ġfeat": 15425, "Ġcombos": 44079, "Ġare": 366, "Ġcrush": 10321, "ãģłãģĳ": 36215, "Ġdiffusion": 25242, "ĠmiÄĻdzy": 33964, "Ġtell": 980, "<|11.52|>": 50940, "ĠSchÃ¼ler": 39776, "Ġvolume": 5523, "Ġnarratives": 28016, "Ġrider": 25419, "Ġcapture": 7983, "è®Ĭ": 26327, "yani": 49812, "Ġcryst": 17035, "Ġfonction": 20172, "ĠZoom": 13453, "Ġrisks": 10888, "ĠintÃ©ress": 23243, "str": 9733, "assemb": 29386, "Ð»Ð¾": 4610, "Ġvur": 40797, "å°Ĩ": 45456, "achi": 21791, "icem": 46343, "Ġquickest": 49403, "Ġgrazing": 48112, "Ġfight": 2092, "ÏĥÎ¹": 29756, "ĠGhost": 16323, "Ġconnector": 19127, "Ġcaring": 15365, "Ġworsh": 35366, "ĠCertainly": 16628, "prÃ©s": 34002, "ĠhiÃ§": 15169, "ĠÐ¼ÐµÑĢ": 48231, "wach": 50038, "Ġcage": 17302, "×Ļ×©": 16732, "Ġendorse": 29228, "Ġticks": 42475, "Ġmanners": 34672, "too": 32599, "emment": 20329, "Ġproprio": 28203, "aciÃ³n": 3482, "iamente": 16855, "Ġpourtant": 47856, "Ġespecialmente": 41546, "ĠNiet": 36583, "Ġknee": 9434, "Ġconclude": 16886, "ĠCOR": 43137, "ĠCell": 28859, "Ġfeeling": 2633, "Ġtengan": 46874, "ìĽĮìĦľ": 43601, "Ġjunto": 24663, "Ġwindshield": 39996, "Ġelites": 44678, "Ġoppress": 50240, "Ġà®®": 16504, "Ã¼rÃ¼": 26481, "Ġpersones": 46232, "Ġconsistently": 14961, "ĠSand": 7985, "Ġextracting": 49844, "Ġingred": 5621, "èª¿": 32943, "ĠCommissioner": 25410, "Ġfresh": 4451, "Ġinfected": 15414, "ĠIndependence": 33631, "rip": 8400, "Ġ×Ļ×©": 20592, "Ġgrandmother": 14317, "ĠPv": 41896, "Ġpuedan": 41241, "Ä±yorsun": 17520, "Ġexpression": 6114, "Ð¾Ð²Ð°Ð½": 44967, "ĠDanke": 26508, "Ġdere": 15969, "ĠÑģÐ¾Ð±ÑģÑĤÐ²ÐµÐ½": 44177, "Ġnecess": 2688, "Ġmoje": 36383, "iento": 7814, "Ġunderest": 24612, "yu": 17623, "ĠDrama": 45406, "Ġemoji": 31595, "nego": 11858, "actions": 12299, "reto": 47330, "etts": 18498, "ĠRama": 39828, "çľŁçļĦæĺ¯": 45698, "ĠTitans": 45574, "Ġcaveat": 43012, "ciÃ³": 19609, "ensive": 2953, "mam": 23678, "Ġseva": 42465, "Ġresidential": 17389, "pis": 40516, "ĠMal": 5746, "ĠFuÃŁ": 31419, "ĠCoke": 32996, "Ġridiculously": 41358, "ĠTor": 7160, "erkt": 49015, "Ġcor": 1181, "Ġpractical": 8496, "ĠìłĦ": 6831, "ĠEff": 34192, "lide": 31264, "iter": 1681, "å·²": 15701, "art": 446, "ĠdeÄŁil": 9920, "×ĳ": 5838, "Ġdelivers": 24860, "Ġforming": 15745, "eez": 22544, "ĠUtah": 20226, "Ġìĭ¤í": 37403, "ĠMcL": 38922, "Ġgebracht": 40744, "ĠMovement": 26523, "Ġë§ĽìŀĪ": 13441, "ĠPow": 14762, "Ġsih": 25821, "ãģĦãģ¾ãģĻ": 11267, "ĠConnor": 33133, "ĠJack": 4718, "ĠÐ½Ð°": 1470, "ĠGI": 26634, "Ã§e": 32115, "Ġbott": 2274, "ordu": 28655, "mania": 37268, "PR": 15958, "Ġjokes": 14439, "Ġë´¤": 20727, "Ġpilots": 21506, "Ġrapidly": 12910, "beiter": 29565, "Ġmetabolism": 31190, "Lu": 45908, "Ġslate": 39118, "Ġburst": 12712, "ĠAnyone": 14643, "ler": 1918, "ĠEine": 17664, "Ġoutdoors": 20980, "ifen": 25076, "Ġillnesses": 30791, "Ġdefense": 7654, "ĠStarting": 16217, "zna": 35458, "ĠWohn": 22741, "Ġdebt": 7831, "Ġprofitability": 46249, "ugg": 3562, "Ġcovered": 5343, "unken": 39071, "Ġ1942": 37549, "Ġbien": 3610, "Ġpelvis": 34617, "ĠMIDI": 41474, "ĠListen": 7501, "Ġstartup": 18578, "Ġforeign": 5329, "ĠJonathan": 15471, "æ¨¡": 41908, "<|24.64|>": 51596, "ĠÐ´Ð¾ÐºÑĥÐ¼": 43031, "Ġoccasions": 20641, "Ġpharmacy": 30639, "âĢĶâĢĶ": 35702, "covery": 21352, "Ġverified": 31197, "Ġrepet": 13645, "Ġclosed": 5395, "Ġpatreon": 33161, "Ġaper": 43139, "emo": 36221, "Ġjournalist": 17277, "æĹ¥": 6890, "Ãī": 14891, "ĠAO": 40684, "ĠÐŁÑĢÐµÐ´": 46825, "ãĥ§": 28579, "ĠÑģÑİÐ´Ð°": 25306, "æİĴ": 44647, "Ġpin": 5447, "Ġbisschen": 10763, "Ġende": 19099, "Ġmening": 46890, "rect": 2554, "ĠQuarter": 43794, "Ġchercher": 38747, "can": 7035, "Ġsafest": 37558, "Ġweigh": 13843, "Â»,": 21606, "ĠSega": 32114, "Ġcredit": 5397, "TA": 8241, "Por": 24907, "Ġeffic": 4703, "Ġfemale": 6556, "ĠVerf": 24583, "port": 2707, "ĠEsto": 20880, "Ġlake": 11001, "à¹Ģà¸¥à¸¢": 38294, "Rel": 49029, "×ķ×ŀ": 32273, "ifications": 7833, "Ġtraffic": 6419, "ĠJews": 11041, "Ġanniversary": 12962, "ĠHein": 32789, "Ġfaculty": 6389, "Ġcheckpoint": 42269, "Ġkurz": 20465, "Ġcrib": 47163, "Ġhor": 2569, "Ġbore": 26002, "rising": 42125, "ìĹ¬ë": 39020, "ath": 998, "ata": 3274, "ĠÑĤÐ¾Ð»ÑĮÐºÐ¾": 9008, "cong": 40275, "Ġdramat": 42749, "powered": 27178, "ivery": 8549, "íĥľ": 20141, "Ġseats": 11069, "ĠÎ¤Î¿": 44524, "Ġdestroy": 5293, "Ġliquidity": 33131, "Ġmaison": 28511, "Ġpeaceful": 13962, "Ġtranquil": 35337, "<|0.80|>": 50404, "Ġmá»Ľi": 37328, "Fih": 17468, "Ġcomer": 16510, "ĠÐ¾ÑĤÐ½Ð¾ÑĪ": 30708, "F": 37, "Ġartist": 5748, "Ġlesson": 6898, "ĠÐ¿Ð¸Ñģ": 39739, "Ġready": 1919, "ĠBooks": 33843, "eches": 27789, "Ġstruggling": 9314, "å°ĳ": 15686, "ÃŃn": 10973, "<|13.80|>": 51054, "Ġpien": 26274, "Ġpacing": 43285, "ĠbÃ¤ttre": 44842, "Ġdurchaus": 42840, "Ġvra": 6070, "Ġescuela": 47817, "å¼ł": 44059, "Ġgrat": 10158, "Ġearbuds": 40441, "Ġtemat": 32954, "ie": 414, "Ġbull": 4693, "Ġpigeons": 48297, "iad": 38069, "Ġdibuj": 46621, "ĠWard": 23794, "Ġfranc": 30514, "ĠëĦ¤ê°Ģ": 41714, "Ġur": 4038, "kum": 49576, "Ġelect": 2185, "Ġëī": 32086, "Ġabnorm": 47104, "Ġara": 15186, "Ġabonn": 40676, "´ëıĻ": 30580, "<|23.16|>": 51522, "<|4.16|>": 50572, "<|13.70|>": 51049, "Ġako": 43567, "ĶĶìĸ´": 40803, "Ġì§Ģ": 4704, "Ġsuffering": 7755, "ĠWhatever": 8541, "Ġtema": 15854, "Ġourselves": 4175, "ĠOrd": 29388, "ĠJen": 9228, "tering": 34200, "Ġwheel": 5589, "æĢİ": 7627, "ĠIron": 13720, "ingle": 26209, "ãģŁãģĦ": 20699, "ĠBes": 8190, "Ġbrief": 5353, "Ġfucked": 22518, "ĠNiss": 36009, "Ġviewer": 16767, "age": 609, "ctors": 5547, "Ġey": 9817, "Ġthee": 24800, "ĠIrene": 40834, "<|notimestamps|>": 50363, "world": 13217, "Ã¤h": 6860, "Ġnimmt": 38891, "Ġlarger": 4833, "oping": 26125, "ĠVid": 31185, "<|21.00|>": 51414, "Ð¾Ð²Ð¾ÑĢ": 6362, "Ġcaracter": 28760, "metro": 45400, "Il": 37961, "Ġaudit": 17748, "ĠÐ´Ð²Ð°": 18505, "Ġinvoke": 41117, "Ġprzyp": 41780, "iden": 4380, "loc": 5842, "éłŃ": 19921, "ĠmÃ©g": 43510, "Ġmodes": 14068, "Ġphones": 10216, "Ġohh": 50101, "Ġpelig": 43839, "ĠHom": 20903, "ĠSAS": 33441, "Ġlovers": 22697, "<|25.96|>": 51662, "ĠRachel": 14246, "ÑĤÑĢÐ°": 37397, "illions": 46279, "ÐµÑģÑĤÑĮ": 30704, "Ġesfuer": 49213, "usto": 48260, "rix": 6579, "arial": 44745, "ĠZhong": 41664, "Ġ3000": 20984, "!...": 34205, "Ġopinions": 11819, "onz": 21972, "<|11.84|>": 50956, "aining": 3686, "inho": 7775, "more": 3138, "ĠForever": 30703, "Ġdusty": 41973, "ĠHigher": 31997, "ľł": 27144, "ĠStra": 12875, "Ġwitch": 14867, "Ġwszyst": 10998, "ìĵ": 49140, "<|1.12|>": 50420, "Ġrepetitive": 29404, "Ġexceeds": 43305, "ontec": 35444, "Ġmac": 7912, "Ġunders": 16692, "ĠSolar": 22385, "Ġì¶Ķ": 17435, "ĠiPh": 42048, "Ġmustn": 42818, "Ġrev": 3698, "ĠAnglo": 49570, "íķĺê²Į": 8601, "Ġ108": 41342, "cellence": 17379, "igmat": 46496, "ĠcomentÃ¡rios": 43739, "ĠWillie": 39912, "Ġconcealer": 30672, "ĠJahren": 13080, "etical": 27800, "road": 8417, "ĠOliv": 42477, "ĠBaz": 42220, "ĠChef": 14447, "ĠROB": 38506, "view": 1759, "ÙĥÙĪÙĨ": 30544, "laughing": 4986, "Ġrij": 47237, "Ġsnapshot": 30163, "Ġremain": 6222, "ĠÐ¾Ñģ": 8940, "Ġtransmission": 11574, "Ġempre": 43223, "Ġclap": 20760, "ution": 1448, "bardziej": 40392, "Ġvom": 10135, "igma": 16150, "åĩº": 7781, "Ġintroduces": 31472, "Ġusually": 2673, "Ġringing": 18423, "Ġesempio": 33627, "Ġsounds": 3263, "Ġsquad": 15310, "ĠìĹ¬ëŁ¬ë¶Ħ": 14707, "ĠHond": 45260, "vl": 42977, "ĠWellness": 50166, "oder": 19866, "ĠPersonal": 25317, "ĠplutÃ´t": 20856, "ĠTy": 5569, "'T": 18010, "Ġmanufacturing": 11096, "Ġtravelled": 31844, "Ġpeas": 24494, "ĠUmwelt": 48900, "mother": 11930, "Ġspe": 768, "Americans": 34860, "Ġresides": 47157, "ĠParticip": 35247, "rupt": 5428, "ĠÐ°Ð¼ÐµÑĢÐ¸ÐºÐ°Ð½": 46263, "ublik": 48620, "ìĭľì£ł": 37822, "ĠKo": 10509, "Ġtherapies": 32814, "ĠDi": 8789, "ĠGolden": 13410, "Ġvalu": 7332, "Ð½Ð¸Ñĩ": 27996, "ĠgÃ¼Ã§": 48015, "Ġsurviving": 24948, "ĠBRIAN": 31434, "cuss": 2169, "Ġasteroids": 50230, "tes": 7269, "¨¸": 17817, "ĠAlm": 14344, "ĠmeillÃ¤": 45211, "Ġfrozen": 12496, "Ġbare": 6949, "ÃŃcia": 30050, "Ġoder": 4513, "ĠFahr": 19843, "ĠÐ¢Ð°Ðº": 8770, "<|ar|>": 50272, "uin": 9445, "<|22.64|>": 51496, "<|ur|>": 50290, "ĠStephanie": 18634, "hhh": 12614, "Ġdevelopments": 20862, "Ġticket": 10550, "Ä±Ä±": 35734, "quarters": 17313, "ĠTibetan": 44963, "Ġgia": 39689, "ĠWashington": 6149, "Ð°ÑĩÐµ": 24923, "ìķ¡": 46461, "Ġupset": 8340, "Ġconscient": 44507, "Ġremark": 7942, "ĠTheir": 6710, "ìĦł": 12421, "Ð¾Ð½ÐµÑĨ": 38944, "apple": 21316, "Ġestrogen": 44754, "çĽ´": 16186, "ĠScientific": 47437, "ĠBij": 41809, "Ġmachine": 3479, "ĠperquÃ¨": 16839, "<|12.82|>": 51005, "ĠHoney": 16187, "ĠFourier": 36810, "Ġrelativ": 21960, "ĠIsaac": 22505, "Ġmanifested": 42775, "Ġain": 7862, "ahahaha": 30284, "Ġfella": 49820, "Ã¼cht": 36458, "Ġstealing": 19757, "vity": 23110, "ĠÎ·": 18231, "ĠSad": 12269, "ientras": 22148, "Ġjoining": 5549, "Ġorganism": 24128, "ãĤĪ": 5591, "Ġundertaking": 39250, "<|6.74|>": 50701, "æ¨¹": 47169, "å¥ĩ": 26907, "wire": 42689, "ä¸į": 1960, "Ġêµ¬ë": 17386, "<|28.00|>": 51764, "Ġterritorial": 34888, "Ġserving": 8148, "Ġblowing": 15068, "<|29.18|>": 51823, "onsin": 17358, "Ġtri": 1376, "Ġmeisten": 29708, "zel": 12971, "Ġbooking": 34424, "Ġoppression": 27337, "Ġpenser": 38940, "Ġhomepage": 31301, "Ġperformed": 10332, "ĠÐ²Ð¸Ð´ÐµÐ¾": 15589, "ultural": 11056, "Ġqueda": 23314, "ĠAmerican": 2665, "Ġrejected": 15749, "ĠBarn": 21605, "¥´ì": 41390, "Ġreasons": 4112, "<|7.00|>": 50714, "ĠMight": 23964, "ĠØ¨Ùĩ": 39627, "Ġdiminished": 40206, "Ġlicence": 49047, "ĠÑĢÐ°Ð´": 26622, "ëĭĪëĭ¤": 1972, "Ġsleepy": 24908, "è¬Ľ": 11932, "ĠMunicip": 47606, "Ġcheer": 12581, "ÎµÎ¹ÏĤ": 21878, "ìĦĿ": 17075, "DS": 11844, "Ġbanks": 10237, "Ġstoryt": 17541, "ults": 33361, "bone": 19782, "Ġdecir": 10235, "Ġcos": 3792, "Ġadvanced": 7339, "ĠTre": 8648, "ĠiP": 5180, "Ġbog": 26132, "īìŀ¥": 14547, "ĠRT": 21797, "Ġbackups": 50160, "Ġdernier": 29332, "Ġremovable": 44060, "Ġvalley": 17636, "ĠFrank": 6823, "ĠSIM": 24738, "ĠUni": 35191, "LING": 41717, "æĵ": 13167, "ĠSW": 20346, "æĿ¾": 36897, "ĠCurtis": 42140, "ĠSever": 19635, "ĠWILLIAM": 32613, "ontin": 23039, "ĠLex": 24086, "ĠPastor": 34289, "Ġpartir": 13906, "ØŃØ¯": 24401, "Ġ×Ĳ×": 4142, "Ġexagger": 19123, "ìľ¼ë©´": 10819, "Ġpre": 659, "Ġatrav": 33325, "Fe": 29341, "ĠÐºÐ»Ð°ÑģÑģ": 26197, "Ġterrit": 8673, "Ġinit": 3157, "Ġgamer": 30266, "èī¯": 33950, "Ġclerk": 31402, "coming": 6590, "Ġans": 1567, "TS": 7327, "Ġtopic": 4829, "arken": 38962, "Ġcongratulate": 24353, "Ġdemon": 14283, "annon": 16138, "é¡Ĩ": 43954, "ĠtrÃ¨s": 5732, "Ġconveniently": 44375, "vised": 24420, "Ġexhibits": 39205, "Ġsubmitted": 14405, "Ġcommunion": 42808, "ortic": 48816, "Î¿ÏĤ": 22281, "Ġhelicop": 16061, "bility": 39802, "Ġspeakers": 9518, "ben": 1799, "wi": 6253, "Ġgenerate": 8460, "íĺ¸": 14705, "ÑĥÐµÐ¼": 33096, "ZY": 26888, "Ġheating": 15082, "ĠYork": 3609, "ĠBob": 6085, "Ġacknowled": 15195, "ĠPoppy": 47996, "Ġburger": 16393, "Ġstrategic": 10924, "2019": 30620, "äºķ": 31989, "Ġinstr": 5488, "Ep": 47617, "ume": 2540, "!*": 32854, "ĠAmericans": 6280, "ĠJur": 27544, "ĠÎ½Î±": 9083, "ĠGather": 39841, "ĠÏĥÎµ": 23814, "Ġsmoothie": 36328, "Ġoutra": 12301, "Ġsingles": 36334, "Ġmop": 48106, "Ġcompatible": 18218, "Note": 49250, "atre": 10837, "Ġeconomic": 4836, "ãģ¾ãģĹãĤĩãģĨ": 26513, "<|29.42|>": 51835, "<|20.24|>": 51376, "ĠSans": 21504, "Ð¸ÑĤÐµÑģÑĮ": 35334, "ĠìĤ´ì": 15482, "Ġcaste": 39262, "ĠBrady": 31773, "ĠMilwaukee": 35321, "Ġsubsequently": 26514, "Ġgrading": 35540, "Ġcountry": 1941, "ĠMits": 40897, "ennen": 16043, "ĠPuis": 30033, "ĠHank": 26427, "'D": 41063, "Ġstinky": 46449, "Ġyearly": 39102, "<|24.54|>": 51591, "ĠDeaf": 31389, "Ġwondered": 17055, "Ġburaya": 33548, "ĠDri": 19150, "psy": 29182, "ĠFor": 1171, "Ġglaube": 13756, "ĠSouth": 4242, "Str": 45324, "ĠPaw": 33551, "ĠPray": 36365, "ĠPat": 4379, "Ġ×ľ×Ķ": 13995, "ĠEffects": 34515, "ĠkÃ¤n": 48293, "à¸Ńà¸ģ": 37484, "çĵľ": 36727, "ĠOmega": 27645, "ĠANDREW": 34504, "Ġciudad": 24329, "Ġharmonic": 32270, "ĠRS": 25855, "!</": 39373, "Ġseating": 32430, "mos": 3415, "ĠtrÃªn": 33187, "ÐµÐ´Ð¸Ð½": 30741, "area": 35425, "eee": 37954, "friends": 29027, "Ġdiscrimin": 20828, "ond": 684, "ĠMATT": 6291, "ĠÑĢÐµÑĪÐ¸Ð»": 44240, "ĠWorlds": 43003, "Ġfossil": 18737, "ĠInnov": 22203, "Ġfrequencies": 20250, "Ð°Ð»": 1218, "izione": 35740, "é»¨": 33175, "ĠLima": 50217, "sil": 30605, "ëĭ´": 35021, "ativas": 35725, "Ġadviser": 43547, "ĠBott": 28479, "Ġ×ĳ×ĵ": 49959, "ley": 3420, "Ġxen": 49773, "Ġse": 369, "ĠHot": 9423, "Ġbytes": 36088, "Ġretired": 16776, "ĠSpe": 3550, "ĠGef": 17873, "Ġdumping": 42224, "ĠÑĤÐ°": 18752, "vey": 5603, "ĠBren": 31200, "ĠBronze": 44916, "ĠNer": 36536, "ĠÐ¾ÑĤÐ²ÐµÑĤ": 25284, "ĠWasser": 17351, "ĠMeet": 22963, "mÄ±ÅŁ": 11370, "ĠBack": 5833, "Ġmacro": 18887, "Julia": 49727, "ĠsÃ¤ga": 28013, "ĠAKA": 45933, "Ġclubs": 15428, "76": 25026, "Ġflor": 37342, "Åį": 27243, "Ðŀ": 7876, "Ġsleeps": 37991, "Ġempt": 6113, "stop": 13559, "Ġenvironments": 12388, "ĠEliot": 44023, "Ġcomfortably": 25101, "Ð¾Ð¼Ð¸Ð½Ð°": 40983, "ĠHert": 41898, "Ġalmighty": 47534, "ĠWHO": 23256, "Ġabruptly": 49642, "AI": 48698, "Ġasymm": 37277, "Ġdisg": 14116, "Ġlien": 32553, "anken": 18493, "<|13.42|>": 51035, "Ïī": 5733, "Ġwiden": 32552, "ìĿ´": 1129, "ougher": 26955, "Ġcaval": 32805, "å½": 7391, "Ġshuttle": 26728, "ĠElect": 12575, "ienza": 42331, "ĠPVC": 46700, "ĠÑĢÐ¾Ð´": 17925, "Ġklass": 42917, "Ġepoxy": 45397, "idian": 34681, "íĭ": 13473, "Voiceover": 14631, "Ġbroom": 41544, "Ġtherapeut": 26126, "Ġacadem": 19267, "Ġcraving": 27320, "ĠArk": 16427, "Ġballet": 30512, "Ġcooldown": 40782, "Ġrigor": 42191, "Ġhavia": 28855, "astern": 32579, "ĠCE": 28109, "driving": 47094, "ĠJR": 32849, "ĠUI": 15682, "Ġreuse": 26225, "åĢ": 2122, "íĺķ": 17453, "Ġ×Ķ×ĵ": 32740, "ropol": 24832, "OSS": 35683, "ravel": 33085, "ĠSuzuki": 49457, "ÐµÐ½ÐµÑĢ": 41758, "ĠTry": 6526, "ĠÃ¶z": 27010, "Ġtamb": 3629, "Ġknives": 26279, "<|7.40|>": 50734, "ĠÐ¿ÑĢÐµÐ´Ð»Ð¾Ð¶": 40373, "Ġkons": 27896, "Å³": 28102, "Ġbehand": 43122, "ĠUnd": 2719, "nych": 9399, "Ġcompreh": 10753, "Ġfavors": 40554, "ĠíĨłë": 47955, "Ġer": 1189, "inn": 7729, "ĠMusic": 7609, "ĠRod": 11097, "ĠíĤ": 21959, "ĠSapp": 46814, "ç§": 8204, "ĠOh": 876, "oit": 27845, "ĠRiley": 31373, "Ġsoort": 43168, "ĠëĤ": 2079, "ĠGlÃ¼ck": 33508, "Ġseeks": 28840, "Ġtechn": 1537, "Ġliter": 2733, "Ġstatute": 24774, "ĠÙĪØ§ÙĦ": 16070, "ISE": 19413, "Ġsubjects": 13066, "Ġenthalpy": 48869, "ĠTechnology": 15037, "haft": 25127, "ĠEric": 9336, "Ġillustrated": 33875, "jekt": 14930, "cheerful": 45685, "Ġteria": 45530, "Ġexploit": 25924, "Ġchanting": 35775, "Ġlions": 32564, "oard": 25774, "Ġsuggesting": 18094, "Ġì°¨": 15391, "Ġfo": 726, "Ġjoint": 7225, "ĠwÃ¤re": 14558, "Ġcraz": 46348, "ĠWyoming": 30810, "Ġorganisation": 18641, "ĠÐ´Ð°Ð½": 19582, "ä¸ĸçķĮ": 24486, "ĠCaro": 37265, "ë¦¬": 18735, "Ġfrank": 10455, "Ùĩ": 3224, "Ġkimse": 42005, "ĠWorth": 37228, "ĠCastle": 21076, "ĠFT": 46675, "Ġapologized": 47815, "ograf": 19815, "Ġaver": 18247, "ronic": 10011, "grad": 7165, "Ġrud": 32109, "<|14.54|>": 51091, "ë³´ëĭ¤": 28804, "Ġabsorbs": 40745, "<|lt|>": 50293, "Ġgehe": 34252, "ĠJoo": 35169, "Ġê°Ĳ": 10892, "ĠKap": 21216, "ĠAN": 5252, "ĠÑĦÐ¾ÑĤÐ¾Ð³ÑĢÐ°ÑĦ": 40855, "ĠÑħÐ»": 45566, "Ġone": 472, "Ġdatos": 27721, "Ġgoals": 5493, "ĠIDE": 40930, "Ġolmas": 40307, "<|29.64|>": 51846, "ycz": 17466, "ĠCoca": 32719, "ights": 5761, "ĠHung": 15063, "Ġequilib": 14204, "isco": 8610, "ĠÎ³": 10643, "Ġheld": 5167, "asted": 34440, "Ġexercise": 5380, "Ġdomains": 25514, "Ġx": 2031, "Ġcelebrity": 18597, "mem": 17886, "Ġtools": 3873, "ometimes": 45890, "Ġ250": 11650, "ä¸įå°į": 15779, "ĠCareer": 31690, "Ġke": 803, "Ġoperating": 7447, "Ġlista": 27764, "Ġcord": 12250, "ĠÐ²Ð°Ñģ": 10655, "ĠìķŀìĹĲ": 42004, "å¹": 3509, "taking": 48625, "eron": 16308, "Ġceased": 49917, "unku": 49910, "Ġnegotiation": 27573, "ĠBird": 15931, "Ġtemporada": 41983, "ĠCenter": 5169, "ĠAdministration": 17187, "Ġ196": 7998, "Ġdeclaration": 27606, "aire": 9020, "ÑıÑĤÑĮÑģÑı": 40986, "lightly": 44872, "Ġestablished": 7545, "NY": 27647, "ĠCle": 8834, "×ķ×Ľ": 24925, "Ġtails": 28537, "ĠWaar": 43123, "rium": 13015, "ĠSUBSCRI": 32563, "ĠSubs": 37471, "Ġcounterparts": 33287, "Ġrecoil": 42053, "Ġultimately": 6284, "Ã©d": 7811, "Ġfeasible": 26648, "ĠChat": 27503, "ĠÐ½Ð°Ð¿ÑĢ": 18296, "Ġstiffness": 37759, "Ġknots": 27426, "Ġê´Ģëł¨": 42660, "Ġ2016": 6549, "ĠÐ°ÑĢ": 16643, "Ġkasih": 35894, "<|2.40|>": 50484, "Ġflows": 12867, "ĠÐ½Ð°Ð¹": 19235, "ĠParker": 20155, "ĠNana": 37087, "Ġmaken": 24703, "Ġtrabajo": 18099, "ĠPRI": 47555, "ÑģÐ»Ð¸": 5734, "Ġhypert": 37488, "izes": 5660, "Ä±l": 5492, "emetery": 25558, "Ġsilos": 48893, "electronic": 33128, "<|23.48|>": 51538, "enÃ§a": 48866, "ç»ı": 30276, "Ġhostel": 48879, "Ġromance": 19064, "ãģĵãģĨ": 22159, "Ġbeing": 885, "a": 64, "ĠController": 44969, "xter": 36671, "Con": 9838, "Ġail": 48283, "Ġflav": 37737, "ber": 607, "ĠUhh": 29365, "Ġë°¥": 26479, "llo": 1913, "ific": 1089, "Ġelements": 4959, "Ġstrap": 18359, "Ġconse": 4425, "Ġsaves": 19155, "Ġneuroscience": 42762, "Ġcinema": 17178, "Ġepilepsy": 49680, "Ġfall": 2100, "ceed": 4357, "Ġafterwards": 10543, "Ġexplo": 12382, "Ġcalculating": 28258, "otic": 9411, "Ð¾ÑĢÑĭ": 42342, "Ġvida": 7644, "<|5.86|>": 50657, "ÑĥÐ½Ðº": 26533, "Ġcens": 19019, "ĠMichel": 23709, "rez": 17693, "Ġãģ¡": 44692, "Ġcorrid": 20322, "åĳ¢": 6240, "ĠSi": 4909, "ĠBraun": 46939, "Ġdisregard": 44493, "appro": 35821, "Ġcode": 3089, "Ġ×ĳ×Ĳ×": 33167, "Ġdespite": 7228, "Ġë§ĲìĿĦ": 39692, "fte": 16268, "ian": 952, "ieves": 28648, "Ð¾Ð½Ð¾Ð¼": 22563, "ĠNP": 38611, "ĠOst": 34140, "ĠOperation": 27946, "ĠÐ¾ÑģÐ²": 46403, "altet": 39931, "Ġpetite": 18319, "ĠÃ¥r": 19525, "inet": 21370, "ĠÃĩ": 6256, "ĠFlo": 15153, "Ġactive": 4967, "lass": 14549, "ĠLa": 2369, "Ð½Ð¾Ð¼": 9950, "Ġfunction": 2445, "ĠFREE": 48511, "Ġopportunities": 4786, "ÃŃamos": 16275, "Ġincreasing": 5662, "Ġmaterial": 2527, "Ġguarding": 44077, "Ġdevast": 13959, ")]": 8245, "ĠnÄĽ": 46911, "ÑĸÐ»ÑĮ": 16651, "Ġsign": 1465, "Ġcinematic": 32250, "Ġsinful": 41861, "Ð°Ð±": 3771, "ĠDat": 9315, "Ġ450": 26034, "Ġbarbecue": 21877, "Ġtreatments": 15795, "Ġrenewed": 30228, "Ġsá»ĳ": 44983, "lerde": 40893, "ĠìķĮëł¤": 38654, "ĠBetter": 15753, "Ġflattering": 49722, "Ind": 21790, "you": 5616, "Ġcros": 28108, "ĠRepe": 24927, "enden": 8896, "Ġability": 3485, "Ġcompared": 5347, "irable": 21493, "kaar": 34399, "Ġgi": 1735, "Ġscratching": 29699, "Ġ('": 50254, "ØªÙĩ": 47395, "ľëıĻ": 38667, "Ġobstacles": 17735, "MC": 39261, "Ġvirtues": 41106, "Ġhistorically": 16180, "Ġincreases": 8637, "Ġdir": 4746, "æŁ¥": 42623, "Christian": 46580, "Ġbracelets": 48795, "ĠCarla": 41325, "ĠÐ¿ÑĢÐ¸Ð¼": 31806, "ĠTeil": 16357, "ulas": 16968, "ĠGos": 41272, "Ġcoins": 13561, "ĠÐ¿ÑĢÐ°Ð²": 10615, "ĠKag": 48751, "NT": 30817, "ĠÐ¿Ð¾Ð»ÑĥÑĩÐ¸Ð»Ð¾ÑģÑĮ": 44405, "Ġplain": 11121, "ĠOliver": 23440, "åĲĮ": 13089, "licht": 20238, "ĠDonkey": 44217, "Ġdidnt": 38634, "ĠJIM": 37650, "Ġcultures": 12951, "Ġded": 4172, "Ġclarify": 17594, "istance": 20829, "uding": 33703, "u": 84, "ughing": 2974, "inter": 5106, "Ġmicrophones": 30495, "Music": 8710, "ĠMTV": 43924, "Ġtroph": 45583, "Ġmanufacturer": 18022, "Ġponto": 17936, "å¤§å®¶": 6868, "Ġbluff": 44191, "ĠÐ½ÐµÐ¹": 23227, "ĠThats": 30085, "Ġrein": 6561, "itness": 6394, "Ġheel": 9430, "ĠLehrer": 49718, "<|6.98|>": 50713, "<|15.52|>": 51140, "Ġthá»ĥ": 24491, "æĪĳæĺ¯": 15914, "ĠÐ´Ð¾Ð¼": 13049, "ĠÐ¢Ð¾": 16047, "Ġkitty": 33026, "à¹Ģà¸£": 24185, "hab": 7821, "Ġintroduction": 9339, "Ġneglected": 32701, "Ġportrait": 17126, "Ġmag": 2258, "Ġstruck": 13159, "Ġprompted": 31042, "Ġflush": 19568, "ĠDort": 32308, "istÃ¤": 24954, "ĠChi": 17730, "ĠWilliam": 6740, "ĠÃĸ": 9158, "LY": 10940, "Ġpole": 13208, "Ġneue": 16842, "Ġshirts": 20832, "ĠëĶ°ëĿ¼": 24453, "ĠYOU": 7928, "ÑĭÑħ": 7205, "ĠÐ¼Ð¾Ð³Ñĥ": 22951, "ãģ§ãģĹãģŁ": 40882, "Ġvisited": 11220, "ĠIndust": 16018, "Ed": 27061, "Lee": 39548, "ĠdÃ©b": 36529, "Ġenc": 2058, "Ġdeity": 37939, "Ġdoctr": 46040, "ìĦ¤": 32610, "ĠRegister": 43167, "Ġhatten": 20441, "Ġabbiamo": 22815, "ĠJudah": 46828, "ĠÐ½Ð°ÑĢÐ¾Ð´": 32583, "ĠMerci": 19856, "ĠëĪĦë": 30225, "ĠSamantha": 33521, "Ġgoverno": 34685, "Ġenqu": 21304, "ĠCPR": 47536, "Ġarche": 37897, "ĠChad": 22268, "Ġbargaining": 42108, "ĠBengal": 50221, "Ġrhe": 50100, "ĠMartin": 9184, "Ġbanda": 38727, "ĠÃ¡": 7352, "ĠRÃ©p": 41587, "Ð°Ð·Ð´": 48799, "Ġwitches": 43467, "ĠCort": 28522, "Ġveteran": 18324, "ĠëĽ": 40589, "Ġ41": 18173, "leans": 24008, "ĠVirgin": 9281, "Ġsemantic": 47982, "Ġrelying": 24140, "Ġprejud": 23121, "Ġmun": 11864, "ãģĪãĤĭ": 44547, "ĠRip": 34677, "Ġlimited": 5567, "Ġbash": 46183, "ĠKimchi": 38428, "ĠAlan": 16442, "Ð°ÑĢÐ¸Ñī": 43028, "Ġpasar": 25344, "Ġshameful": 49600, "ĠShel": 24415, "Ġmisin": 32333, "ĠAugust": 6897, "ĠëĨĵ": 28747, "Ġpregnancy": 16120, "lining": 31079, "ifiers": 23463, "Ġpowin": 27310, "Ĭ¤": 19426, "Ġpioneers": 47381, "cient": 5412, "å¿ĥ": 7945, "Ġelkaar": 35930, "Ġsport": 7282, "riet": 20782, "ĠÂ»": 8793, "<|27.94|>": 51761, "Ġincident": 9348, "eles": 6972, "Sil": 34384, "ĠìĦłë": 22218, "éļ¨": 48890, "everyone": 36060, "éĢĻåĢĭ": 6287, "ĠatrÃ¡s": 22906, "ĠdiffÃ©rents": 33948, "ĠArab": 8625, "Ð²Ð¸Ð³": 49405, "By": 27690, "Ïħ": 3226, "RNA": 37377, "ìŁģ": 42095, "ories": 2083, "Ġjewel": 16010, "jego": 39738, "Ġaftermath": 34095, "iesz": 15347, "ĠYo": 7616, "Ġdurante": 14427, "ĠLoop": 45660, "ĠSergio": 45078, "Ġsoph": 12582, "bled": 18320, "actly": 46831, "ĠPeter": 6508, "Ġoverwhelming": 13373, "Ġsecurity": 3825, "Ġtheater": 10612, "<|10.10|>": 50869, "ĠTraditional": 46738, "pering": 20055, "Ġdesk": 10026, "Ġadvis": 10280, "<|0.20|>": 50374, "ç¬¬äºĮåĢĭ": 49085, "ĠÐ¼Ð¾Ð³Ð»Ð¸": 37118, "Ġunfolding": 44586, "ĠPaige": 45177, "60": 4550, "ĠKollegen": 23713, "ĠSunday": 7776, "iani": 21309, "ĠiÃ§": 6058, "ĠStro": 42196, "wiet": 39083, "Ġsyllabus": 48077, "ĠÙĥØ§ÙĨ": 25961, "Ġimmer": 5578, "Ġcanvas": 16267, "ĠwÅĤaÅĽci": 40112, "Ġoccasional": 31644, "Ġìĸ´ìłľ": 39247, "ĠPremiere": 39724, "Ġtiene": 7066, "Ġhighlighter": 40455, "Ġbestimmt": 46871, "Ġrecovered": 19542, "uni": 24307, "Ġleben": 26392, "***": 13684, "Ġgrands": 33298, "ucker": 15032, "Ġbuys": 28153, "ĠforÃ§a": 32878, "ĠUnity": 27913, "ĠExchange": 31169, "ĠÐ¸Ð³ÑĢÑĭ": 36183, "ĠSecond": 5736, "Ġmoving": 2684, "Ġvegetation": 28769, "sterreich": 34111, "Ġ1940": 24158, "ĠNobody": 9297, "away": 10318, "rup": 11976, "Ð°Ð½Ð¸Ð¸": 16426, "Ġmilieu": 34276, "abile": 33288, "Ġdecentralized": 32870, "DO": 26649, "Ġvoter": 21722, "Ġrappers": 45025, "joint": 48613, "ĠVC": 41922, "zers": 41698, "space": 24824, "Ġlumps": 44948, "<|28.58|>": 51793, "Ġ3": 805, "ĠUniversal": 22617, "Ġdelays": 28610, "ops": 3370, "prove": 46955, "ĠHer": 3204, "Ġaument": 17128, "Ġadvocate": 14608, "imated": 33008, "Ġsixty": 21390, "Ġradi": 16335, "ĠJorge": 36875, "Ġpast": 1791, "ĠBible": 6544, "vin": 4796, "--------": 22781, "98": 22516, "<|26.44|>": 51686, "æĭ¿": 24351, "uestas": 47794, "ilst": 15177, "ĠCollabor": 44483, "¤ë¡ľ": 38214, "Ġcolor": 2017, "ĺëıĦ": 8226, "50": 2803, "Ġmisschien": 42047, "sek": 26141, "Ġredirect": 29066, "Ġnossos": 35378, "Ġendlich": 32574, "ä¾Ĩèªª": 36979, "issÃ¤": 38354, "dam": 10170, "ashing": 11077, "Ġupgrad": 17789, "53": 19584, "ĠMidwest": 33483, "Ġap": 1882, "Ġserait": 23139, "ĠCurt": 26587, "ãģĿãģ®": 20564, "immers": 43107, "é¤": 22217, "Ġê±°ê¸°": 25191, "weisen": 40196, "hop": 9050, "Ġigen": 31305, "Ġrelaxation": 30315, "ĠMichigan": 11925, "ĠWoah": 19668, "Ġdetailed": 9942, "ĠwÃ¤r": 45779, "Ġmov": 2402, "ĠÐºÐ°Ð·": 37408, "Ġdads": 41798, "mesi": 30314, "ĠVine": 40569, "ĠMoÅ¼": 44736, "Ġsecurities": 38597, "ÐµÐ»Ð¾Ð²": 9294, "ĠìķĦë¬´ë": 29907, "ĠCanton": 44170, "Ġoverhe": 29807, "Ġburied": 14101, "Ġsna": 14528, "Ġpaperwork": 27953, "ĠLibr": 12006, "Ġreacting": 25817, "Ġanimals": 4882, "ĠERIC": 36137, "ĠNoise": 44821, "aid": 17810, "ĠÐ²ÐµÐ´": 35126, "ĠMotion": 27771, "Ġpropia": 40464, "Ġconect": 30458, "ë§Į": 5978, "pl": 564, "apo": 37615, "ardon": 14848, "Ġsenator": 24664, "ĠIndonesia": 16879, "Ġogr": 34416, "ĠLy": 12687, "åĢį": 35477, "Ġaperture": 29848, "Ð½Ð¸ÑĨ": 36787, "ãģªãĤĭ": 29218, "Ġed": 1257, "ĠNothing": 6693, "Ġfon": 17290, "ĠÎ¶": 36544, "Ġassumption": 15302, "Ġpleasures": 48627, "Ġjog": 9464, "ide": 482, "itat": 14032, "Ġshift": 5513, "Ġsprinkle": 24745, "grund": 23701, "Ġpoison": 10836, "ĳ": 239, "rus": 13783, "Ġrequired": 4739, "Ġeighth": 19495, "ĠZhang": 17729, "Ġrookie": 36299, "ĠStanding": 33655, "¶Ģë¶Ħ": 49288, "à¸¢": 7044, "bres": 46823, "Ġworkshop": 13541, "´ìĭ": 17058, "ÑģÑĤÐ°Ð½Ð¾Ð²": 39834, "bir": 10119, "uses": 8355, "Ġdura": 43416, "Ġinduce": 41263, "hour": 18048, "uyorum": 41277, "Ġguer": 14486, "oss": 772, "Ġpropag": 12425, "ĠStanford": 20374, "Ġglass": 4276, "Ty": 22464, "Ġmen": 1706, "è¾": 9830, "Ġsuc": 1965, "Ġdonn": 33258, "Ġtops": 22836, "Ġkidna": 20673, "Ļ": 247, "vÃ¤r": 48631, "ĠBunu": 35919, "Ġfent": 39395, "uer": 5486, "Ġlegally": 21106, "Ġmad": 5244, "çľŁ": 6303, "<|27.36|>": 51732, "ĠCAP": 33636, "hd": 20272, "Ġ@": 10428, "ĠìĬ¤í": 11196, "ĠJoy": 15571, "Ġappeal": 13668, "Ġsymp": 13240, "leness": 45887, "ĠSchweiz": 46834, "Ġgelir": 44011, "Ġesquer": 40428, "ìŀ¬": 16666, "Ġbegins": 7338, "âĤ": 37781, "amet": 49083, "ÑĪÐ¸Ðµ": 35202, "ouvert": 43315, "<|5.24|>": 50626, "æ¬": 5988, "Ġsupp": 1003, "licting": 36580, "udd": 26656, "ĠResearchers": 43555, "zony": 44479, "parable": 42012, "ĠBoom": 15523, "cher": 6759, "ctic": 15518, "Ġobjetos": 49605, "ats": 1720, "<|26.50|>": 51689, "Ġapplauding": 15865, "Ġworld": 1002, "Ġë°ĺë": 23142, "acions": 43724, "ĠíķĺëĬĶ": 10914, "pert": 15346, "Ġef": 31482, "ĠÐ¿ÑĢÐ¾Ð±Ð»ÐµÐ¼Ñĭ": 44340, "Ġlange": 18131, "ĠAK": 24789, "ollow": 49082, "ĠaÃ±ad": 44980, "ĠQuando": 18725, "ĠUFO": 28318, "anst": 41384, "Ġìĸ´ëĸ¡": 39593, "Ġhave": 362, "æł¼": 30921, "Ġcrochets": 27115, "æ°£": 24090, "kad": 34985, "Ġopportunity": 2650, "shit": 19186, "ĠChill": 41368, "Ġìłķ": 4980, "Ġmural": 40595, "osphere": 44877, "Ġê³łë": 18556, "Ġwtedy": 26959, "oot": 6259, "Ġperpet": 16211, "ĠbÃ©": 15807, "Ġcorrupted": 39480, "Ġrehabil": 26043, "Ġkeyboard": 10186, "ĠIF": 26080, "å¦¹": 37562, "Ġozone": 46769, "rado": 14974, "æĩ": 13183, "<|19.00|>": 51314, "imore": 21917, "Ġetern": 10533, "ÑĤÐ¾ÑıÑī": 29132, "uÃ§Ã£o": 36770, "Ġfullness": 45262, "ĠÐ¿ÑĢÐ¾Ð¸ÑģÑħÐ¾Ð´Ð¸ÑĤ": 28548, "ĠNHS": 22693, "Ġguaranteed": 18031, "Musik": 43417, "ĠÅŁeyi": 31735, "Ã±as": 32448, "ratic": 25198, "Ġsweaty": 36044, "zan": 21238, "æĥħ": 10570, "ìŀ¥": 4573, "Ġrealizes": 29316, "Ġrows": 13241, "ĠNF": 13576, "ĠíķĺëĭĪê¹Į": 47490, "Ġln": 44166, "ĠZ": 1176, "Ġventure": 18474, "Ġbaking": 12102, "ĠnegÃ³": 31008, "ĠÑĤÐµÐ±Ñı": 12644, "Ġmay": 815, "Ġexplain": 2903, "utt": 13478, "flowing": 43955, "Ãªts": 44309, "Ġspilled": 37833, "Ġtherefore": 4412, "Ġprobe": 22715, "ĠÐĽÑİÐ±": 47369, "ĠInsp": 32671, "Ġfamille": 28123, "Ġdenominator": 20687, "Ġinterim": 33500, "Ð»ÑĥÑĩ": 41497, "uar": 20766, "ĠmayorÃŃa": 35342, "ĠKem": 30097, "agua": 48692, "Ġestrat": 42746, "ĠServ": 6213, "eln": 9878, "ĠIranian": 24934, "Ġnationwide": 29102, "Ġvictory": 9812, "Ġkita": 8965, "CI": 25240, "Ġdanced": 32909, "Ġlifetime": 11364, "ÑĥÑĪ": 8288, "Ġmonkey": 17847, "Ġquasi": 20954, "j": 73, "ÃľND": 23195, "ennes": 42886, "MAN": 11866, "Ġtai": 20499, "Ġaggrav": 47339, "Ġwanting": 7935, "ĠìĤ´ìķĦ": 46978, "Ġcontribution": 13150, "ĠtÃ©lÃ©": 24254, "Ġproceeds": 32280, "Ġentry": 8729, "ĠJUSTIN": 41987, "ÑĤÐ¾ÑĢÑĭ": 38749, "Ġchoose": 2826, "pel": 20071, "Ã¤nde": 26973, "<|15.76|>": 51152, "hoe": 33810, "voir": 8823, "achel": 8188, "åºĹ": 22469, "<|1.50|>": 50439, "Ġvirt": 4480, "Ġconsult": 7189, "ĠÅĤ": 25387, "Ġbluetooth": 48225, "uggling": 29921, "ĠìĪľê°Ħ": 44588, "ĠRap": 16184, "çķª": 33118, "Af": 32104, "ä»ĺ": 41469, "ĠKurd": 32305, "iff": 3661, "Ġfacto": 42225, "ĠMittel": 35079, "Ġru": 5420, "issa": 10138, "ê´Ģ": 18472, "Ġprotests": 20174, "Ġmasters": 19294, "ĠprÃ©c": 23107, "Ġìŀĺë": 24041, "fruit": 33564, "ĠSel": 10736, "ĠDA": 9578, "Ġcontacts": 15836, "Ġfooled": 33372, "ĠKEVIN": 50006, "ĠìĨį": 18663, "<|22.46|>": 51487, "Î·": 3835, "Ġexternal": 8320, "Ġproblemas": 20720, "att": 1591, "ĠTaj": 44837, "ĠÐ±Ð»": 16709, "Ġrecipients": 32440, "Ġgreat": 869, "Ġspace": 1901, "Ġclin": 5538, "Ġmount": 3746, "Ġpsychologists": 41562, "ç·´": 47027, "Ġraids": 45740, "Ġdungeons": 48347, "Ġviendo": 34506, "ĠÐ¾ÑĤÐ´ÐµÐ»": 50176, "oween": 13589, "¬´ë": 21046, "Singing": 36354, "ĠLegion": 33024, "<|9.68|>": 50848, "Ġprobiot": 45710, "ĠìĦ±": 14409, "Ø§ÙĨ": 7649, "Ġlisted": 10052, "ĠjakÄħ": 46719, "Ġquais": 44075, "ĠErm": 45794, "Ġeverything": 1203, "Ġinfin": 7193, "Ġgalera": 31912, "Ġlek": 30863, "íķľíħĮ": 15863, "eland": 15280, "ìĬ¤": 7785, "Ġ>>>": 13793, "Ġtimelines": 45886, "Ġ....": 13368, "Ġperpend": 26095, "ĠthÃ©": 30448, "Ġwife": 3836, "ĠWool": 46307, "ĠgÃ¶rÃ¼n": 49676, "Ġaside": 7359, "Ð¸Ð±Ð¾": 17597, "Ġverf": 40660, "Ġiz": 14736, "Ã©l": 8025, "Ġê¸": 4291, "Ġprovides": 6417, "<|21.72|>": 51450, "æĺ¯éĢĻæ¨£": 49603, "ĠAbb": 32673, "Ġolarak": 17728, "<|13.14|>": 51021, "Ð°Ð·": 1990, "Ġtable": 3199, "æĪĳè¦ģ": 32186, "Ġoutright": 35189, "Ġsmarter": 20294, "ĠBour": 35866, "hips": 7640, "ì§Ģë¥¼": 29003, "Ġconstructive": 30223, "Ġissues": 2663, "Ġlata": 46722, "Ġfand": 38138, "Ġox": 5976, "tar": 23480, "chan": 3484, "Ġsigui": 39578, "Ġiced": 46091, "ĠWo": 6622, "charge": 13604, "ĠSilence": 34570, "ĠVeronica": 43498, "Ġspielen": 30950, "Ġãģ©": 34994, "ĠvÃ¤r": 28187, "Ġindustri": 49005, "Ġoval": 37175, "À": 124, "Ġgenes": 14424, "Ġhometown": 22112, "Ġmamm": 19033, "Ġpeak": 10651, "ĠÐºÐ°ÐºÐ¸Ñħ": 44178, "ĠMÃªme": 42027, "ĠPhillips": 24565, "In": 4575, "cool": 28155, "Ġdou": 2482, "Ġìĸ´ëł¤": 32289, "Ġaa": 40079, "ienie": 27385, "ĠImmedi": 32157, "Ġëĵ£": 32877, "Ġrainbow": 18526, "Ġcomprised": 38062, "Ġrá»ĵi": 19908, "dess": 13628, "Ġawaken": 43566, "acak": 10508, "asil": 13353, "Ġformatting": 39366, "uencia": 47377, "ìĭ¬": 12766, "<|2.06|>": 50467, "Ġdisplaced": 33692, "íĽĪ": 35715, "ĠPain": 24943, "Ġconquer": 24136, "Ġëª¨ìĸĳ": 45254, "ĠCouncillors": 44912, "Ġjapanese": 49508, "Ġliberation": 27736, "ãģĿãĤĵãģª": 46346, "ÑĨÐ¸Ð¿": 27663, "ĠÐºÐ¾Ð³Ð¾": 28985, "ĠFalse": 50040, "Ġìļ°ìĻĢ": 36963, "Ġveter": 8901, "ĠiÃ§in": 8457, "02": 12756, "ĠzwiÄħz": 27741, "ips": 2600, "ization": 2144, "Ġsnare": 45018, "amar": 45207, "ĠÐºÑĢÑĥ": 26970, "Ġincorporated": 21654, "Ġattract": 5049, "ĠmilhÃµes": 39252, "ĠMAS": 42129, "itud": 21875, "Ġfloss": 49697, "Ġinvite": 7980, "ĠRX": 46197, "ãģĨ": 2646, "Ġdataset": 28872, "ĠcrianÃ§a": 43300, "mitt": 15548, "Ġlet": 718, "<|10.88|>": 50908, "Ġtrouve": 19359, "Ġpoco": 10639, "ĠJA": 26401, "ĠHarper": 37216, "Ġê³¨ë": 42142, "Ġë¬": 4509, "Ġskin": 3178, "Ð½Ð¸ÐºÐ°": 19411, "dire": 18267, "Ġhop": 3818, "ĠStupid": 37659, "ugo": 20746, "bie": 7392, "æľĿ": 46610, "burgh": 21898, "ĠfÃ¶ret": 47099, "Ġetmek": 46005, "laugh": 33181, "fu": 14127, "Ð½ÑıÑĤÑĮ": 35824, "Ġindu": 13716, "Ġveto": 42910, "inees": 27558, "Ġpriest": 15703, "Ġmesela": 45814, "<|fr|>": 50265, "Ġ180": 11971, "appelle": 25543, "ĠÃ§ok": 7343, "ĠEng": 2469, "Ġsloppy": 43684, "Ġoyster": 32005, "ĠÐ»ÐµÑģ": 42548, "god": 21787, "ĠCompet": 32216, "ĠLiebe": 28790, "Ð´Ð¾": 36091, "Ġoutset": 44618, "bian": 20196, "Ġstuffing": 36046, "Ġmanagers": 14084, "ĠSolid": 26664, "ifie": 42726, "Ġdeep": 2452, "ĠÃ©gal": 19540, "Ġsucceeding": 47912, "<|18.64|>": 51296, "inals": 33961, "ĠKill": 17526, "Ġaquela": 25996, "Pr": 30519, "Ġswamp": 31724, "rones": 25562, "ĠJennifer": 14351, "Ġfingerprint": 30715, "Ġslam": 25617, "Ġsáº½": 17208, "ĠìĽĲëŀĺ": 25169, "laughs": 3608, "ê°ģ": 7387, "ĠJasmine": 36224, "ê·¼": 17904, "inhos": 29140, "Ġseven": 3407, "Ġutilities": 30482, "Ġlith": 26324, "ICEOVER": 31992, "production": 40827, "Ġì±": 14097, "hora": 7013, "<|0.08|>": 50368, "viv": 27810, "Ġirrit": 16029, "Ġsabe": 12275, "Ġyeah": 1338, "ĠìĿ´ê±°": 7075, "Ð¸ÐµÐ¹": 48580, "Ġarrangements": 22435, "Ð½ÐµÐ¼": 23977, "hhhh": 15242, "ĠRay": 10883, "Ġsack": 33209, "Ġexpects": 33280, "ì¹ĺ": 8464, "Ġhomelessness": 28791, "ufact": 5563, "Ã¼d": 47731, "etric": 17475, "Ġhaird": 41954, "ÐµÑĤ": 1094, "ĠKe": 3189, "essa": 8391, "ãĤĢ": 33350, "ĠCDU": 19181, "Ġdec": 979, "eliness": 25307, "ĠFire": 7652, "ke": 330, "ĠBilly": 18179, "ĠìŀĪì§Ģë§Į": 49355, "éĶĻ": 29900, "Ġdeeply": 8760, "Ð¾Ð»Ð°": 44342, "uf": 2947, "Ġwa": 5406, "Ġmystical": 40565, "å¥½åĲ§": 40221, "Ġalive": 5465, "Ġdevoted": 21815, "ĠYaz": 44962, "âĢİ": 27867, "ĠLiz": 16480, "ĠPont": 41127, "Ġlira": 47723, "<|19.90|>": 51359, "Ġvac": 2842, "Ġcommand": 5622, "Ġtonight": 4440, "Ġhears": 25688, "Ġwore": 13857, "Ġbisc": 23261, "Ġrisen": 28614, "ĠVeget": 28092, "Ġpenalty": 16263, "ceÄŁim": 16807, "fox": 38416, "ĠAmbassador": 28506, "ification": 3774, "ĠÐ½Ð°Ðº": 20955, "mpfen": 45316, "Ġawful": 11232, "Ġrepeats": 35038, "Ġblog": 6968, "remlin": 47154, "ĠDE": 10113, "Ġtyr": 41108, "ĠFlug": 33326, "..'": 47145, "Ġelectromagnetic": 32214, "Ġrapping": 44333, "exp": 15952, "ĠReverend": 44896, "Ġinterrupting": 49455, "Ġartifact": 34806, "Med": 42954, "inction": 12987, "Ġfig": 2147, "Ġdog": 3000, "Ġtextured": 48656, "lington": 45996, "Ġspecified": 22206, "wij": 36652, "Ġstats": 18152, "ë¶ĢíĦ°": 39149, "Ġspaghetti": 28556, "ÃľNDNIS": 23222, "Ġmoisturizer": 47588, "Sound": 44830, "çĪ±": 27324, "ĠBattle": 11846, "ĠLAN": 37387, "Ġdio": 31965, "Ġfils": 46190, "essment": 38471, "izations": 14455, "ĠWoods": 31559, "Ġanalytics": 15370, "ĠAgriculture": 35966, "Ġhigh": 1090, "×ĵ": 7514, "ĠkÃ¶t": 32629, "Ġvul": 7452, "oz": 15151, "íķĺê¸°": 22700, "Ġfib": 13116, "Ġbasis": 5143, "ĠStatistics": 49226, "ĠSri": 25120, "ĠÑĨ": 5188, "uuuu": 43779, "igan": 9552, "ĠRED": 39346, "Ġbande": 46836, "ĠÐ¡Ð¾": 40156, "eniz": 40372, "Ġankle": 21999, "<|17.50|>": 51239, "ĠPok": 14958, "Ġlo": 450, "hower": 48780, "Ġbegun": 16009, "ĠCube": 33003, "Ġviolence": 6270, "ĠPhoenix": 18383, "ĠrÃ©alitÃ©": 35677, "arsh": 7064, "Ġinh": 47707, "Ġpoop": 17153, "ĠSmooth": 42404, "Ġcongestion": 40816, "ĠEating": 29234, "ĠFolks": 39275, "Ġtrusts": 45358, "hot": 12194, "ĠNu": 13612, "standing": 8618, "ĠSI": 29083, "bo": 1763, "å¥½äºĨ": 12621, "ĠpreÃ§o": 42295, "<|10.00|>": 50864, "×ķ×ł×Ļ×Ŀ": 47210, "Ġneighbours": 35548, "prom": 28722, "esser": 14239, "ĠNou": 28843, "Ġpictured": 49896, "ĠÐ¼ÐµÐ½ÐµÐµ": 38264, "ĠMessi": 42969, "æĶ¶çľĭ": 34333, "Ġwildly": 34731, "izo": 19055, "ĠØªÙĪ": 33427, "lement": 3054, "erne": 48135, "uz": 3334, "Ġcomfortable": 4619, "Ġelectronics": 20611, "Ġunfortunately": 7015, "ĠÄ°ns": 45379, "ĠSmile": 38499, "written": 26859, "etchup": 26399, "ĠBow": 12903, "zuf": 39467, "ä¸": 940, "Ġsilk": 24395, "Ġtaller": 22406, "Ġcustoms": 27330, "ĠHund": 43361, "?!\"": 35271, "Ġapp": 724, "Ġconsiderations": 24070, "Ġstatistic": 29588, "Ġwatery": 43015, "ì§Ħì§ľ": 47700, "otte": 13079, "ĠÐ´Ð°": 8995, "Ġconditioning": 21901, "ĠAquÃŃ": 24386, "STALK": 39557, "Ġsystematic": 27249, "ĠìĿ´ìĥģ": 20362, "some": 23189, "Ġshear": 24082, "ĠPork": 33159, "Ġvoltar": 36291, "iology": 46457, "ives": 1539, "Ġsmoked": 27205, "Ġyan": 17700, "38": 12625, "ĠCopenh": 50135, "Ġtoggle": 31225, "ĠQuebec": 38903, "zd": 31278, "cze": 9680, "ĠÐ²Ð¾Ð¹": 26055, "Ġcartridge": 27753, "istent": 25367, "ĠJeÅ¼eli": 35090, "Ġutil": 4976, "éª": 49657, "ãģªãģ®ãģ§": 47275, "ookie": 39611, "Ġmasses": 23935, "Ġscrewdriver": 27282, "pg": 49861, "ĠLeaf": 32290, "ĠMol": 28278, "Ġa": 257, "Ġsteep": 16841, "ÑıÑĤ": 4558, "anka": 21729, "Ġenlightenment": 34661, "<|1.56|>": 50442, "<|14.00|>": 51064, "Ġwo": 6020, "Ġrails": 27649, "Ġestaban": 36713, "Ġstalk": 21789, "amat": 39143, "ĠAndre": 20667, "éĸĢ": 37232, "Ġwireless": 14720, "êµ¬ë": 11545, "ĠÑģÐ°Ð¼Ð¾Ð¼": 22108, "Ġcases": 3331, "\".": 1883, "Ġkho": 49627, "Ð°Ð½ÑĤÐ¸": 47483, "dz": 28168, "ĠEmmanuel": 44421, "Ġlegends": 27695, "cry": 46555, "ĠCaucas": 44941, "Ġaged": 21213, "Ġlibr": 4939, "ç´¯": 43656, "iyoruz": 26233, "ĠAch": 15847, "violent": 48473, "ĠBeim": 45113, "Ð¾Ð±ÑīÐµ": 12605, "ĠÑĤÐ¾Ð±Ð¾Ð¹": 38068, "ĠAnders": 33988, "æĥħæ³ģ": 39391, "Ùģ": 5172, "Ġeurop": 22139, "ĠOke": 29094, "Ġnotwend": 41308, "Ġdonating": 36686, "Ġmeaningless": 33232, "æĪĳè·Łä½ł": 34012, "Ġbey": 39977, "ĠThere": 821, "Ġalliances": 45855, "Ġescort": 37353, "ĠBak": 12063, "Ġarise": 20288, "olf": 7491, "Ġhers": 6820, "Ġyo": 5290, "Ã³": 812, "Ð¾Ð¶Ð°Ð»": 18327, "ifs": 18290, "Ġowners": 7710, "ulin": 17701, "Ġcertificate": 15953, "alla": 10352, "zust": 37677, "organ": 12372, "ident": 1078, "ëĲ": 25041, "ĠAutom": 24619, "Ġscrutiny": 38615, "whel": 8746, "ĠMaxwell": 39594, "Ġaccelerator": 39889, "Ġdevastating": 21280, "Ġstains": 40733, "bumps": 41655, "appropri": 21771, "Yo": 27728, "Ġê³łìĸĳ": 48105, "·¨": 24435, "ijo": 24510, "Ġwoven": 39221, "Ġeru": 20999, "Ġlum": 24635, "Ġfourth": 6409, "íĸĪìĸ´": 36756, "ĠViol": 24383, "ĠìĤ¬ëŀĮë": 18078, "iary": 29104, "Ġrecipe": 6782, "Ġdel": 1103, "ĠCAR": 15939, "ÑĤÐµÑĢÐµÑģ": 45453, "ìķĦë": 23733, "ĠÑħ": 3490, "ĠQuinn": 36723, "N": 45, "Ġdiagonal": 21539, "adece": 25978, "<|5.00|>": 50614, "ciendo": 16830, "Ġmoment": 1623, "Ġtheta": 9725, "ĠKarma": 39063, "FR": 34658, "Ġnutrient": 32694, "Ġconsiders": 33095, "stru": 30615, "hake": 34593, "ĠÐ²Ð¼ÐµÑģÑĤÐµ": 26905, "Ġê³ĦìĨį": 17551, "Ġgoodies": 44072, "Ġexclusive": 13005, "Ġscooter": 30441, "Ġswo": 13291, "Ġimagined": 16590, "Ġapprentice": 40207, "l": 75, "Ġpri": 1790, "Ġsimplest": 22811, "ĠTyp": 17722, "ĠBlind": 34126, "ĠdeÄŁ": 7725, "Ġfire": 2610, "Ġkant": 44055, "Ġpattern": 5102, "ĠAlexander": 14845, "ĠgÃ¼": 18148, "ĠLeaders": 24256, "HS": 12527, "Ġarriving": 22436, "Ġminer": 18746, "ĠPeterson": 36943, "Ġultras": 37072, "Ġbeating": 13497, "Ġpersecution": 36878, "ĠNor": 6966, "ĠDee": 38894, "IRE": 30263, "Ġíı": 9250, "ĠTwitter": 5794, "ĠAmeric": 1656, "Ġgeen": 21773, "yrics": 11381, "uc": 1311, "Ġdist": 1483, "Ġestimated": 14109, "Ġtents": 39283, "Ġneurot": 43286, "à¹ģà¸ķ": 41250, "ĠÐ¿ÑĢÐ¾Ð³": 20192, "Ġbio": 12198, "ĠHonors": 48801, "Ġstir": 8946, "Ġslots": 24266, "anu": 48136, "Ġ×Ķ×Ĵ": 36386, "<|3.84|>": 50556, "Ġparal": 26009, "ĠPresident": 3117, "Ġmens": 10923, "ĠEvangel": 36635, "ĠAllies": 44949, "Ġindustrial": 9987, "Ġpouch": 27781, "Ã£y": 49205, "Ġimplemented": 12270, "ĠWel": 3778, "ungen": 5084, "ILY": 36980, "Ġsnapped": 41396, "Ġkilomet": 9677, "Ġcurric": 13179, "Ġpreservation": 27257, "Ġshedding": 49934, "aries": 4889, "Ġjam": 7872, "ĠÐ¶ÐµÐ½": 21349, "eties": 43469, "Ġwhoa": 13310, "Ġforth": 5220, "Ġcerv": 39543, "Ĥ¬": 9915, "<|14.68|>": 51098, "<|28.32|>": 51780, "igkeiten": 37545, "Ġ×Ķ×ĸ": 32888, "Ġdiagnosed": 16899, "oons": 16450, "fore": 845, "Ġmotives": 39812, "ĠZw": 29385, "ĠOra": 43672, "Ġembrace": 14038, "utan": 30624, "ma": 1696, "avant": 35034, "ktop": 13031, "Ġadvisor": 19161, "ĠKopf": 28231, "iceless": 41817, "ĠJonah": 42353, "ĠboÅŁ": 37636, "Ġencoding": 43430, "Ġdrie": 50049, "speaks": 31016, "èª°": 20757, "Ġambiguity": 46519, "Ġfranch": 13002, "vy": 11869, "exc": 27855, "Ã¼k": 8370, "Ġtumors": 38466, "Ġacademically": 48944, "Ġsponge": 23134, "odynam": 21399, "ĠìĤ¬ë": 6606, "owa": 5528, "ĠSom": 12297, "Ġwriter": 9936, "ousse": 28521, "ciu": 30795, "æ¬¸": 18387, "iÃ©n": 5770, "ĠÐŁÐ¾ÑįÑĤÐ¾Ð¼Ñĥ": 22318, "Ġradish": 31136, "Ġfor": 337, "<|24.14|>": 51571, "ĠSTEPHAN": 46423, "<|17.34|>": 51231, "Ġtragic": 20385, "aked": 7301, "Ġsenior": 7965, "Ġro": 744, "ĠTerry": 21983, "Ġvoters": 14073, "Ġniet": 6899, "Ġla": 635, "Ġtreasures": 31548, "ä»ĸçļĦ": 31309, "å®ĥçļĦ": 45224, "Ġparticles": 10007, "åıĭ": 14765, "Ġlands": 5949, "ĠchÃŃnh": 42178, "Ġ2020": 4808, "×ľ×Ļ": 42468, "ĠKindern": 43987, "ĠmyÃ¶s": 23623, "åķı": 11361, "ield": 1789, "ÑĪÐ¸Ð¹": 24958, "ĠBuffalo": 33855, "Ġearnings": 20548, "Ġ×Ĳ×ĸ": 25624, "ads": 5834, "lung": 17850, "Ã¼lme": 38050, "Ġaggress": 8939, "ĠBRI": 27466, "ĠAns": 14590, "ĠMack": 24295, "Ġrow": 5386, "Ġreply": 16972, "ìĿ´ëĤĺ": 21672, "immt": 15314, "Ġtheological": 40725, "Ġcollective": 12590, "Ġbandwidth": 23647, "ĠZimmer": 37243, "Ġtare": 49423, "afar": 47030, "Ġeffects": 5065, "bows": 21118, "Ð¸Ð»Ð¾ÑģÑĮ": 16773, "Ġbrow": 19299, "estens": 42624, "utors": 30751, "energetic": 44970, "Ġsummit": 21564, "Ġjours": 20724, "ujin": 37005, "à®®": 6980, "Ġjaw": 18162, "ĠU": 624, "ĠBoulder": 48052, "cko": 41416, "è¶": 9759, "rÃ¤ge": 40917, "Ġconfiguration": 11694, "ĠSull": 34901, "Ġdoit": 19193, "Ġaston": 25687, "Ġcoach": 6560, "Ġunlock": 11634, "ĠÐ±Ð°Ð³": 45165, "ĠChung": 38314, "ĠYoon": 27893, "Ġlethal": 34562, "rose": 37841, "Ġinhale": 22071, "Ġimplant": 28309, "naments": 23680, "nehmen": 14669, "ĠSpec": 20484, "uki": 11788, "nymi": 31813, "ĠTreasury": 34113, "<|is|>": 50311, "...": 485, "Ġë¦¬ë": 31427, "ĠPut": 4935, "°ëį°": 14494, "Ġcopy": 5055, "ĠÐºÐ¾ÑĤÐ¾ÑĢÐ¾Ð¹": 29452, "ĠÐ½Ð¸ÐºÐ°Ðº": 23127, "à®¯": 8491, "oba": 19481, "erd": 7783, "Ġ58": 21786, "Ġgameplay": 11421, "Ġpocket": 8963, "Ġoro": 45150, "ĠarkadaÅŁlar": 27550, "ica": 2262, "Ġrevital": 42457, "Ġsushi": 23022, "Ġì²ĺìĿĮ": 18736, "Ġfrust": 7454, "Ġrav": 32987, "Ġdirectly": 3838, "ĠEins": 22790, "Ġakhir": 49843, "ertas": 49215, "ÐºÐ¸Ð¼": 30884, "Ġtougher": 30298, "Ġtoss": 14432, "ts": 1373, "åĳ": 3606, "ĠdÃ©f": 30456, "Ġfaktiskt": 35988, "Ġsuicidal": 43243, "à¯Ĩ": 16789, "<|24.52|>": 51590, "ĠtÄĻ": 32489, "ĠSurvey": 33365, "à´": 46503, "town": 30401, "aient": 21368, "direct": 44868, "Ġchama": 40954, "DD": 20818, "Ġster": 18924, "Ġsharply": 42893, "Ġwahr": 21628, "Ġp": 280, "Õ«": 35188, "Ġinsight": 11269, "Ġdon": 500, "ĠWhoa": 7521, "ĠHighway": 30911, "Ġzor": 22304, "udes": 10131, "ĠStones": 49982, "ĠHm": 17989, "ĠDuch": 44267, "Ġhemos": 15396, "ÑıÐ²": 12998, "ĠUkrain": 21481, "hone": 6487, "Ġfuckin": 20022, "Ġchannel": 2269, "Ġacted": 20359, "Ġapplauds": 20783, "ĠÐ³ÑĢÑĥ": 47553, "Ġvielen": 19885, "Ġsparks": 44102, "Ġheightened": 46154, "Ġcray": 33073, "Ġrefusing": 37289, "Ġresponders": 37542, "inky": 22998, "Ġmiss": 1713, "Ġayr": 35767, "Ġdriveway": 38276, "ĠLOOK": 45648, "Ġmulticultural": 47684, "åīĽ": 16940, "Ġomin": 46812, "usalem": 14992, "ĠÃ´ng": 34835, "Ġhurdles": 48387, "Ġcompelled": 40021, "Ġelections": 12870, "Ġdeviation": 25163, "ibo": 27776, "Rec": 48883, "ãĤĮãĤĭ": 35367, "act": 578, "Ġgenerously": 48983, "Ġintellig": 5613, "ĠPool": 46188, "bt": 4517, "ĠSee": 3008, "ĠVR": 13722, "erman": 11821, "ĠcaÅĤe": 47631, "cle": 2160, "Ġsigh": 29472, "mar": 6209, "Ġcud": 40287, "ĠSTACK": 49114, "ÐµÑĢÐ³": 19480, "Ġautomotive": 32866, "ĠBeij": 18995, "Ġmauvais": 50018, "Ġsollen": 24713, "emary": 37529, "ĠÏĥÏħ": 23415, "Ġfarmer": 17891, "okes": 8606, "ĠAndroid": 8853, "Ġgrabbed": 18607, "Ġtaking": 1940, "Ġdominant": 15657, "Ã¡nt": 27525, "Ġcommission": 9221, "ĪëıĦ": 22616, "ough": 581, "Ġprioritize": 25164, "Ġrelated": 4077, "liches": 45502, "uko": 39476, "ĠÐĹÐ°": 22391, "´ë¥¼": 35101, "PP": 17755, "Ġpers": 868, "uga": 19364, "Ġefforts": 6484, "ĠGrammy": 47332, "ĠKons": 48163, "¡°": 6010, "Ġtraum": 16790, "ĠDatab": 40461, "ĠCycl": 49173, "Ġsnail": 42555, "Ġgrabs": 30028, "Ġmucho": 9824, "opol": 19946, "ust": 381, "Ġplut": 18419, "ĠHit": 9217, "Ġtightly": 21952, "Ġneighbor": 5987, "ĠHealthy": 37733, "Ġvote": 4740, "aren": 4484, "orf": 28030, "Ġretra": 49356, "Ġconsulting": 23682, "Ġbeep": 28678, "beit": 9407, "<|11.00|>": 50914, "Ne": 15496, "Ġdose": 14041, "åĪ©": 23700, "ĠXiaomi": 33806, "iffe": 31387, "Ġdescent": 23475, "Ġexposing": 33178, "Ġcanonical": 46491, "ĠsituaÃ§Ã£o": 36768, "Ġpiano": 9211, "iza": 13427, "where": 1992, "Ġcreat": 1428, "ìĬ¤ëŁ½": 38898, "ilated": 45678, "Ġtocar": 35631, "Ġdesigned": 4761, "ĠHessen": 24951, "pur": 35801, "ĠRabb": 36753, "Ġdinosaur": 23627, "ĠÐ³Ð¾Ð»": 14932, "Ġmajors": 31770, "Ġwasher": 29304, "respons": 28930, "Ġevolves": 43737, "ĠCommission": 10766, "ĠdifÃŃcil": 17258, "ĠÐ°Ð»Ðµ": 46923, "ĠìłľìĿ¼": 23090, "iern": 49584, "ĠDetective": 35210, "ĠCinema": 42502, "ì¹´ë": 29748, "sm": 10817, "Ġwegen": 32855, "à®¿": 4516, "Ġder": 1163, "Ġmiejsce": 38122, "Ġword": 1349, "Ġpartnering": 31290, "ĠSouls": 30258, "Ġsuited": 24736, "rama": 29762, "è«ĸ": 29340, "ĠSomehow": 28357, "ĠEvans": 30055, "ĠÑģÑĤÐ°Ð½Ð¾Ð²Ð¸ÑĤÑģÑı": 44799, "iell": 32562, "ĠtÃ©cnica": 45411, "ĠÐ´Ð¾Ð»Ð¶ÐµÐ½": 25718, "Ġapplicable": 21142, "ĠChand": 32244, "eun": 34566, "ĠÛģÛĮÚº": 38904, "Ġspeaking": 4124, "Ġrubber": 11593, "hell": 21288, "Ġbitter": 13871, "Ġforgiving": 37701, "agles": 33300, "laim": 10970, "Ġstyles": 13273, "Ġcaric": 45732, "Ġbegitu": 49707, "Ġcompleted": 7365, "ä»ĸ": 5000, "Ġlittle": 707, "ĠSchritt": 33062, "ĠCarrie": 34654, "Ġride": 5077, "Ġviews": 6809, "Ġyards": 18685, "ĠColonel": 28478, "Ġdescription": 3855, "Ġwarnings": 30009, "sect": 9632, "enen": 20317, "Ġreportedly": 23989, "Ġ×ĳ×¡": 40188, "Thanks": 27917, "Ġlieber": 38252, "Ġrepro": 35257, "æĿĳ": 39553, "Ġmiscon": 27631, "ueprint": 29017, "Ġlleg": 11234, "Ġnotion": 10710, "ĠEck": 46354, "íĺ¼": 35731, "Ġgrote": 39928, "Ġlinha": 33768, "<|26.28|>": 51678, "Ġbulun": 48419, "ĠJudas": 49632, "Ġtransport": 5495, "Cor": 29020, "Ġviewpoint": 35248, "ĠKeys": 43733, "ĠLater": 11965, "upp": 10504, "put": 2582, "Ð¸ÑĩÐµÑģÐºÐ¸Ñħ": 38911, "ĠÐ´ÐµÐ¹ÑģÑĤÐ²": 17136, "Ġnih": 27438, "Ġstomach": 9665, "ĠPoland": 15950, "Ġhighlighting": 26551, "ĠÑģÐº": 5239, "gam": 33815, "Ġcontrollers": 26903, "arias": 35027, "Ġboosting": 43117, "obe": 20524, "Ġangry": 6884, "ĠPar": 3457, "ĠÏĥÏĦÎ¿": 20702, "ad": 345, "Ġhelper": 36133, "Ġdrivers": 11590, "đ": 205, "stem": 1099, "Ġruim": 33871, "Ġaccidents": 23875, "Ġbatter": 4220, "Ġnella": 23878, "Ġviewed": 19174, "ĠAhh": 17116, "ja": 2938, "isce": 49596, "Ġagreeing": 36900, "Ġproduto": 45823, "Ġmilj": 41128, "ĠSend": 17908, "Ġestran": 49461, "Ġcontin": 1421, "Ġheroes": 12332, "Ġfundamental": 8088, "Ġsah": 19292, "Ġhot": 2368, "Ġãģķ": 47231, "ente": 1576, "é¦¬": 29098, "Ġtobacco": 22994, "enta": 8938, "Ġallowing": 8293, "å®Ī": 48480, "Ã½": 11822, "Ġpar": 971, "éĮ¢": 29483, "Ġsos": 27226, "Ġcouples": 20368, "weis": 35033, "bel": 5390, "ĠÎ®": 24841, "ordon": 17328, "Ġcomes": 1487, "ĠÐ¶Ðµ": 6151, "éģİä¾Ĩ": 49950, "Ġexperienced": 6751, "ĠTipp": 42102, "elim": 23205, "Ġhanno": 26595, "Î¼Î¬": 34079, "Ġones": 2306, "Ġpolynom": 22560, "ĠÏī": 46653, "ĠPerquÃ¨": 46133, "Ġfree": 1737, "Ġese": 10167, "adaÅŁ": 16363, "Ġpriorit": 14846, "åĤ": 11518, "Ġnaszym": 48094, "ĠBlake": 23451, "Ġpierwszy": 34016, "Ġballots": 36410, "Ġë¯¸": 10795, "éļĽ": 34837, "Ġnighttime": 38595, "ĠbÃ¡sicamente": 48282, "Ġreferrals": 47444, "Ġmassively": 29379, "Ġpurse": 28345, "Ġsuch": 1270, "Ġpromotional": 41790, "Ġmissions": 13744, "Ġ84": 29018, "Ġbonito": 31209, "MANDARIN": 40911, "lls": 43909, "Unis": 39489, "Ġcourses": 7712, "air": 1246, "ĠOil": 23545, "Ġtay": 39224, "ises": 3598, "<|26.60|>": 51694, "wear": 15087, "Ġnaked": 15791, "Ġcomic": 13900, "Ġerror": 6713, "ĠKarl": 20405, "èªŀ": 31348, "å¾Īå¥½": 23801, "ordum": 41627, "Ġdynam": 5999, "Ġpreserved": 22242, "ĠÎ±Î½": 25715, "Ġpareil": 46020, "Ġsanit": 24533, "Ġderechos": 47508, "Ġverg": 20209, "Ġandare": 42742, "Ġprag": 33394, "Ð²Ð¾Ð½": 39672, "Ã¢l": 40106, "ĠÑģÐ»Ð¾Ð²Ð¾": 43272, "ĠÃīl": 34325, "Ġcutest": 46582, "Ġcast": 4193, "ĠÐ¿ÑĢÐ¸Ðº": 25492, "ĠFebruary": 8711, "ĠCampbell": 25914, "ĠKennedy": 16517, "ĠMultiple": 40056, "luk": 42563, "ends": 2581, "Ġdebug": 24083, "Ġcriticisms": 48519, "inars": 24627, "Ġvine": 12755, "Ġteeth": 7798, "ĠGerald": 38332, "Ġbezpie": 47153, "Ġ2006": 14062, "Ġpresidency": 26702, "ÑĭÑģ": 29476, "Ġsá»±": 33602, "êº": 44008, "Ġcollege": 3859, "Ġappearances": 29174, "Ã¤g": 50041, "ENN": 14364, "ĠE": 462, "Ġprivately": 31919, "Ġtransc": 43800, "Úº": 11616, "å®ĮäºĨ": 41665, "Ġshove": 35648, "Łģ": 38067, "ende": 5445, "ĠSTE": 20039, "ĠTran": 42971, "ĠRita": 32672, "Ġpike": 36242, "ÃŃcios": 49564, "richten": 40825, "ĠScient": 18944, "Ġ×ľ×ł×ķ": 44946, "cciÃ³n": 14735, "ç¹¼": 36666, "sama": 37275, "å¸Į": 26496, "Ġmosquitoes": 39394, "ĠApa": 37831, "ĠTreaty": 35920, "Ġesqu": 34611, "Ġsteals": 46962, "Ä±ÄŁÄ±nÄ±": 33007, "Ġleftovers": 43011, "immen": 32076, "ĠÑģÐ¾Ð´ÐµÑĢÐ¶": 48206, "Ġbipartisan": 31954, "estre": 41135, "Ġturkey": 21551, "Ġwines": 35970, "Ġknitting": 25498, "Ġrecurs": 20560, "<|3.96|>": 50562, "Ġfeet": 3521, "Ġpesso": 6818, "Ġworden": 14054, "Ġsacrifice": 11521, "HO": 22585, "Ġbuckets": 32191, "ause": 5241, "Ġpitching": 37499, "ÑĥÑĤ": 3767, "Ġtrzy": 34573, "Ġinequalities": 41874, "ĠwÃ¼n": 30841, "Ġalleen": 32259, "occ": 43280, "ĠFaith": 23642, "ĠìĪĺ": 4446, "Ġmau": 22074, "Ġlin": 22896, "irtschaft": 32896, "ĠDemon": 29683, "zione": 19706, "ragon": 25997, "Ġscanned": 45089, "ĠZhen": 27042, "Ġsheet": 8193, "CU": 25864, "×£": 38261, "lesh": 11802, "Ġbal": 3119, "ologne": 44162, "ĠhazÄ±r": 29573, "Ġheat": 3738, "ĠíĻľ": 42194, "ĠCities": 36672, "ĠMaker": 35096, "Ġmellan": 46494, "Ġesa": 11342, "Ġcompleting": 19472, "ĠSit": 14523, "<|0.60|>": 50394, "ÐµÐ½ÑĤÐ¸": 50091, "ìĻĶ": 19304, "ĠÑģÐµÐ¼ÑĮ": 36735, "UC": 23967, "Ġpulley": 48399, "ignty": 26919, "ãģ§ãģĻãģŃ": 14277, "<": 27, "ĠDNS": 35153, "ĠÐ¿Ð¾Ð´ÑĤ": 46103, "Ġentertainment": 12393, "Ġreh": 22355, "Ġtegen": 30945, "ĠDepression": 33044, "ĠÐºÐ»ÑİÑĩ": 43398, "Ġcellular": 29267, "Ġwarmth": 24737, "Ġsummer": 4266, "ĠGate": 21913, "Ġklim": 36816, "itute": 6559, "ìĸ´ìļĶ": 4213, "ĠâĪĴ": 48554, "<|8.54|>": 50791, "Ġconf": 1497, "Ġdecipher": 49859, "<|29.70|>": 51849, "Ġactress": 15410, "Ġtemas": 40284, "Ġguns": 10153, "ĠCG": 38007, "ĠÐ¿Ð¾ÐµÑħ": 49519, "Ġgewesen": 27653, "ise": 908, "obi": 19293, "ĠAnt": 5130, "wort": 13802, "backs": 17758, "Ġdamn": 8151, "ĠSeÃ±or": 35054, "ĠkrÃ³": 42366, "Ġreached": 6488, "growth": 49747, "ĠBaltimore": 22749, "Sur": 36616, "Ġbombers": 50055, "Ġdisapp": 4518, "Ð½Ð¾Ð¼Ñĥ": 20109, "oming": 10539, "Ġcompound": 14154, "Ŀ¼ëıĦ": 25574, "Ġdowntime": 49648, "ĥ¥": 10408, "top": 19337, "Ġë¨¹ëĬĶ": 30616, "cie": 4260, "qui": 18170, "Ġfirefighters": 37218, "ÑĸÐ·": 28933, "Ġusando": 29798, "Ġrivals": 33303, "Ġapps": 7733, "ustering": 48673, "Ġinten": 43094, "bing": 4324, "Ġworkouts": 28300, "ĠaÃŃ": 7461, "Ġpandemic": 5388, "ÑģÐ»ÐµÐ´": 35637, "!!)": 33826, "ĠOn": 1282, "Ġpillars": 26729, "Ġnogle": 48713, "Ġwydaje": 49165, "oufl": 36503, "strong": 28063, "clock": 9023, "Ġsurprises": 22655, "ĠDylan": 28160, "Ġbaru": 36171, "ĠÐ¼Ð¸ÑĢ": 20536, "ĠHoe": 33979, "ĠChristina": 25466, "æĭ¬": 40322, "Ġnehme": 48276, "ĠÐ´ÑĢÑĥÐ³Ð°": 47392, "Ġattain": 23766, "Ġenvol": 49995, "ĠZam": 45492, "Ġlur": 35583, "ĠRate": 49583, "re": 265, "Ġapprendre": 46609, "Ġquest": 866, "ĠDeborah": 39695, "ĠìĺĽ": 44298, "Ġfell": 5696, "Save": 46899, "Ġsanity": 47892, "ource": 2948, "Ġrec": 850, "']": 48038, "Ġdesperation": 48980, "ĠÐ²ÑĭÐ´": 47535, "Ġemployers": 16744, "ĠImpact": 31005, "aster": 1727, "Ġbrowser": 11185, "ãģĳ": 7625, "ì¦ĺ": 23092, "Ġbor": 14828, "ĠReact": 30644, "Ġlongtime": 44363, "ÑĤÑĮ": 1283, "BLEEP": 34542, "Ġresult": 1874, "Ġfertig": 31362, "ĠCreed": 39103, "Ġpriests": 27192, "Ġsnug": 37069, "æķĪ": 43076, "Ġ34": 12790, "ette": 3007, "Ġfluctuations": 45276, "Ġgets": 2170, "Ġknowledgeable": 33800, "prints": 25788, "íĮĮ": 17974, "energy": 49016, "akis": 39128, "ĠãĤĪ": 49879, "ĠÐ¾ÐºÐ°Ð·": 28833, "ĠÃ¼brigens": 38215, "ĠDong": 13609, "à®¤": 4742, "Ġclot": 48587, "ĠÐ¾Ð±ÑĢÐ°Ð·": 17938, "Ãły": 9524, "ĠPope": 19291, "Ġtas": 8023, "gression": 13338, "Ġfaded": 36352, "ĠVenezuela": 24153, "imer": 9713, "éĮ²": 43777, "roe": 36177, "ĠPlate": 46043, "Ġconcentrations": 33512, "<|6.60|>": 50694, "ÈĻ": 10355, "Ġsentimental": 42823, "Ġsinn": 47066, "Ġcorre": 29731, "ĠÐ³Ð¾Ð²Ð¾ÑĢÑıÑĤ": 33374, "Ġcowork": 31998, "Ġabusive": 32828, "Ð¼": 919, "Ġnam": 8835, "å¾Īå¤ļ": 20778, "Ġswallowed": 41769, "FL": 31455, "Ġscholars": 8553, "tense": 39595, "ĠJAKE": 45452, "Ġsollte": 18042, "Ġdni": 46125, "ĠFer": 10728, "Ġprinces": 41536, "Ġmandates": 48662, "¸": 116, "Ġresign": 27471, "Ġacquire": 20001, "facing": 44046, "ography": 5820, "Ġfiring": 16045, "ĠLebens": 21530, "Ġenjoys": 29750, "ĠìķĮìķĦ": 32352, "ìŀĪ": 8425, "ĠMÃ¶glichkeiten": 42627, "Ġselv": 33277, "liche": 10185, "ĠÐ±Ð»Ð¾Ðº": 42222, "ĠÐ½ÐµÑĤ": 9916, "Ã¼tzen": 42049, "ê²łìĸ´ìļĶ": 30826, "Ġmeno": 40236, "éļª": 49753, "Ġpolite": 25171, "Ġdiye": 12968, "Ġidiot": 14270, "erv": 1978, "ĠÑģÐ¸Ð»ÑĮ": 34158, "Ã³w": 3901, "ĠNursing": 42655, "ĠRoom": 19190, "yas": 39472, "Ġepid": 13510, "Ġmolten": 44845, "ĠÑģÐ¾Ð²ÐµÑĢÑĪ": 26227, "pra": 43255, "Ġell": 8284, "Ġcarbs": 30801, "ĠTibet": 28884, "estone": 19098, "19": 3405, "low": 14107, "Ġtechnically": 12120, "Ġavent": 36399, "Ġdifferently": 7614, "ĠMoment": 19093, "ĠHulk": 30167, "Ġlorsque": 40629, "Ġpierwsze": 45994, "Ġenhancement": 40776, "ĠBridge": 18917, "Ġsle": 2426, "tr": 6903, "<|25.42|>": 51635, "Ġensuite": 25080, "à¸£à¸°": 47376, "Ġmarketers": 48003, "Ġivory": 49218, "ĠHills": 25663, "Ġgosp": 37250, "Ġkepada": 45598, "ĠPlan": 8112, "ÐµÑĢÐµ": 23498, "Ġstarve": 46755, "Ġëĸ": 13320, "ĠAgent": 27174, "ĠDist": 9840, "íĺĶ": 37770, "ŀĮ": 22855, "Ð¾Ð»ÑĮÐºÐ¾": 5737, "ÐµÐ½Ð´": 23769, "ĠÐµÑīÑĳ": 13993, "íĻĺ": 31253, "ĠDon": 1468, "ãģĽãģ¦": 47745, "Ġcorpse": 30324, "uity": 21757, "Ġholistic": 30334, "ç·": 12608, "ĠÃ¤nd": 24981, "ĠQuiet": 32193, "rove": 32467, "etÃ©": 41739, "Ġunjust": 37046, "Ġmotivating": 41066, "?)": 4827, "Ġrefreshing": 19772, "ĠìľłíĬľë": 39163, "ĠJUL": 40820, "Ġmis": 3346, "Ġchatting": 24654, "Ġsurveillance": 18475, "ĠBen": 3964, "ampoo": 25168, "Ġexperiencing": 11139, "ists": 1751, "word": 7462, "Ġhub": 11838, "<|3.04|>": 50516, "Ùĭ": 14111, "Ġpedest": 20497, "æ¬Ĭ": 40212, "Ġadmired": 39987, "Ð¿Ð¾Ð»Ð½Ðµ": 43968, "ĠìĪĺë": 22297, "ĠÎŃÏĩ": 21807, "oy": 939, "Ġstatt": 25675, "Ð§": 17519, "Ġforemost": 18864, "Ġhousehold": 9888, "æ±Ł": 41796, "ĠCensus": 34273, "ĠÐ¿Ð¾Ð´Ð³Ð¾ÑĤÐ¾Ð²": 49914, "Ġpotencial": 48265, "Ġscreenshots": 40661, "Ġcups": 13381, "got": 13178, "é¬": 32506, "ĠÐ¸ÑĤÐ¾Ð³Ðµ": 44063, "Ġaffiliated": 42174, "Frank": 47566, "ĠAlcohol": 48779, "Ġshortages": 46765, "Ġcomentarios": 36842, "Ġcitoy": 47652, "Ġobjetivo": 29809, "Ġflooding": 24132, "ĠDraw": 20386, "Ġbound": 5472, "Ð°Ð²Ð°Ð¹": 46745, "asing": 3349, "Ġtouching": 11175, "Ġvá»ģ": 25652, "Ġapply": 3079, "Ġrobe": 37213, "og": 664, "Ġevacuation": 42740, "ĠÑģÐ¸Ð»": 24776, "ĠBeng": 29425, "ĠArgh": 45851, "Ġê°Ģ": 4147, "onsense": 13039, "ĠBold": 48954, "ĠprÃ³": 8565, "Ġ[âĻª": 44529, "Ġage": 3205, "Ġ120": 10411, "Ġfak": 33647, "ĠClan": 45117, "Ġinspector": 34564, "ĠOntario": 19673, "Ġhorrifying": 40227, "ar": 289, "iss": 891, "åº¦": 13127, "Ġowes": 50028, "aped": 18653, "Ġdistributor": 49192, "usters": 17181, "ĠIdi": 40187, "Ġinjured": 13408, "Ġrange": 3613, "hyd": 21591, "obs": 16537, "Ġspatula": 33072, "ĠKenya": 31011, "Ġwives": 24936, "ĠGovern": 5515, "ĠJas": 34023, "åĪĩ": 23632, "ĠHouse": 4928, "Ġlistener": 31569, "bringing": 44992, "xual": 13418, "ĠRein": 42116, "Ġperceive": 20281, "w": 86, "juk": 31140, "bly": 25021, "Ð»Ð¸Ð²Ð¾": 36719, "ĠAnything": 11998, "ĠBusan": 43538, "Ġnumer": 7866, "Ø§Ø¦": 16373, "ĠShirley": 43275, "§Ĳ": 39122, "Ġinflam": 15987, "adÄ±m": 33324, "<|1.16|>": 50422, "ĠspÃ©cial": 34141, "ĠÐļÐ°ÑĢ": 43923, "Ġbios": 36997, "ĠShakespeare": 22825, "parents": 19901, "lardan": 41188, "Ġprawd": 41175, "Ġkij": 26106, "ĠAAA": 34347, "Ġê´ĳ": 26517, "Ġseniors": 21069, "Ġ×ĳ×Ĳ": 38400, "ĠíĻķ": 12619, "Ġdrastic": 36821, "osaurus": 49366, "Ġhemp": 48266, "Ġdeleted": 22981, "ÑĮÐµ": 46176, "bit": 5260, "Ġserge": 46463, "ĠÐ±ÑĭÐ²": 28951, "Ġ76": 24733, "Ġdecorating": 39172, "æĦı": 9042, "ĠPend": 38048, "Ġlacks": 31132, "Ġsind": 3290, "Ġfi": 15848, "six": 35066, "orsch": 27457, "ĠHong": 8868, "åıª": 14003, "Ġcollagen": 40444, "angi": 43481, "ĠCF": 21792, "Ġtransform": 4088, "ĠFifth": 33588, "Ġgram": 21353, "ìĭ¤í": 41712, "Ġtou": 10095, "ãĥİ": 34501, "ĠLond": 6735, "ĠChange": 15060, "<|9.04|>": 50816, "arrive": 47614, "Beifall": 14551, "ĠCarney": 29351, "Ġpatiently": 49001, "owski": 21866, "ĠGonz": 28458, "Ġaccommodation": 27363, "<|12.34|>": 50981, "isation": 7623, "åĵĪåĵĪ": 15964, "Ġstaircase": 35359, "Ġcrocod": 32727, "mun": 23717, "ĠGuatem": 39462, "Ġhistorical": 8584, "ilantro": 41160, "Ġmorality": 29106, "ä»ĬæĹ¥ãģ¯": 43791, "ĠDw": 41448, "Ġbenchmark": 18927, "Ġadorable": 18698, "ĠJulia": 18551, "Ġà®¨": 12669, "ĠÐ¾Ð±Ñī": 17224, "Ġ210": 42692, "Ġshading": 30556, "<|9.52|>": 50840, "<|21.46|>": 51437, "ung": 1063, "ibles": 14428, "Ġpud": 14166, "Ġdominating": 43306, "Ġprogressively": 46667, "Ġawake": 15994, "Ġtoolbox": 44593, "?âĢĭ": 20096, "Ġ×¡": 19713, "good": 21753, "Make": 35650, "Ġacceptable": 15513, "ection": 10183, "<|10.36|>": 50882, "Ġvisits": 17753, "Ġinspection": 22085, "ĠOnu": 46420, "Ġproper": 2296, "Ġquestion": 1168, "Ġkosten": 44115, "Ġearlier": 3071, "ĠGIS": 47860, "Ġevangel": 24546, "Ġfill": 2836, "Ġreplaces": 46734, "Ġcredits": 16816, "ĠBoot": 37263, "isch": 5494, "alts": 49489, "ĠPalace": 19121, "ĠWak": 45077, "Ġuplift": 45407, "Ġmine": 3892, "ĠinvestigaciÃ³n": 48919, "Ġfridge": 13023, "Ġìĵ": 11647, "Ġfascinated": 24597, "ĠwaÅ¼": 27777, "Ġintervention": 13176, "ĠMedicare": 19583, "icut": 28097, "Ġhallway": 23903, "Ġflour": 7693, "ĠDais": 31109, "Ġbeds": 18068, "<|0.44|>": 50386, "ibilidad": 33989, "Ġindications": 44450, "ĠConst": 8574, "Ġlunar": 32581, "osi": 21521, "Ġmigrants": 31263, "èµ·ä¾Ĩ": 21670, "lah": 14918, "Ġmemor": 10560, "Ġpity": 21103, "orian": 37832, "ĠQUESTION": 8557, "Ġprzypadku": 41955, "Ġspray": 8519, "ëĭ¬ë": 38209, "Ġsuffers": 33776, "Ġconstraints": 18491, "ç¨®": 16516, "Ġdz": 9758, "ĠlÃł": 3684, "GU": 32298, "yard": 13862, "ĠestÃ¡s": 24389, "Ġdecomposition": 48356, "ĠCred": 47560, "ĠOu": 11710, "ĠID": 7348, "Ġrappelle": 43736, "Ġfluct": 23448, "aller": 22414, "ĠÐ°Ð±ÑģÐ¾Ð»ÑİÑĤ": 32078, "<|zh|>": 50260, "Ġprevalence": 42583, "ĠåĪĨ": 45903, "Ġcover": 2060, "Do": 7653, "Ġamigo": 24671, "Ġdefic": 19248, "Ġestablish": 8327, "Ġquantum": 13018, "ĠLÃ¶s": 34642, "ĠIn": 682, "ĠLaink": 47195, "ĠRoll": 9926, "<|8.86|>": 50807, "ĠÂ»:": 40795, "Dave": 34075, "Ġorchestra": 25280, "ER": 1598, "iyi": 40541, "ĠHelen": 26294, "Ġenvy": 30530, "<|15.12|>": 51120, "Ġsogenan": 37467, "Ġremembers": 26228, "ĠRe": 1300, "bal": 2645, "äººæ°ĳ": 44894, "Ġpakai": 49062, "ĠvÃ¦re": 27458, "ĠInvestig": 42030, "ĠPaste": 43827, "Ġadjacent": 24441, "ĠProv": 15685, "onymous": 18092, "Ġscam": 26917, "elling": 11073, "Ġendure": 24732, "Ġetap": 47634, "ãħĭãħĭ": 6444, "ĠSham": 42912, "ipse": 48041, "ĠÐ½Ð¸": 13686, "ĠLabor": 17250, "Ġlanz": 38363, "Ġexact": 1900, "ĠVil": 35653, "prise": 8900, "ĠAlliance": 21859, "ĠRead": 17604, "luded": 44412, "string": 37045, "Ġcapable": 8189, "Ù¾": 27779, "Ġmonopol": 47721, "Ġaka": 28042, "ĠwÅĤa": 12326, "ĠÑĥÐ±": 13853, "ĠYU": 33471, "Ġoversight": 29146, "ĠprzedsiÄĻbior": 43477, "huh": 18710, "ĠSure": 4894, "<|19.58|>": 51343, "ĠViele": 36022, "ĠSyd": 19918, "ĠEsp": 24978, "wall": 16256, "istically": 20458, "Ġdiving": 20241, "ĠØ§": 1975, "Ġdisappe": 6657, "social": 48600, "Ġëĸ¨": 27436, "ĠmÃ¨re": 35935, "ĠDuo": 46123, "<|20.18|>": 51373, "Ġprivileged": 25293, "Ã´n": 17140, "ulus": 26107, "Ġpublished": 6572, "ÑĥÑİÑĤ": 23588, "Ġlowering": 28124, "ĠCover": 19106, "Ġleak": 17143, "ĠDustin": 46782, "Ġif": 498, "Ġhumility": 27106, "ubby": 35654, "ëĭ": 832, "Ġepidemi": 35761, "Ġkanssa": 49054, "Ġsare": 38706, "ĠÐ½Ð°Ð¶": 35675, "Ġtreats": 19566, "phoria": 50107, "Ġstudio": 6811, "ĠÐ§ÑĤÐ¾": 13169, "Ġinforms": 45320, "Ġpermet": 20696, "Ġtehd": 44812, "Ġcontracts": 13952, "leigh": 45533, "crew": 28909, "æ¦": 22989, "Ã¶l": 13072, "ĠPlease": 2555, "Ġsentir": 23963, "Ġpertama": 49109, "ĠFrom": 3358, "Ġguided": 19663, "Ġshock": 5588, "Ġadapting": 34942, "Ġbuy": 2256, "Ġencontrar": 17525, "Ġrenew": 10162, "Ġkto": 23780, "ëıĻ": 23056, "Ġdeal": 2028, "ĠMcC": 12061, "Ġconfigur": 22192, "Ġanno": 46277, "rok": 31621, "NS": 42003, "Ġclassic": 7230, "ĠMP": 14146, "Ġsemaines": 40715, "Ge": 22766, "Ġhold": 1797, "ĠIncredible": 35261, "ĠBilder": 44719, "Ġpreparedness": 48445, "Ġhelp": 854, "Ġcoherent": 36239, "ìĬµëĭĪê¹Į": 32443, "Ġ×ľ×Ĳ×": 45087, "x": 87, "<|el|>": 50281, "<|17.22|>": 51225, "<|7.44|>": 50736, "Ġtornado": 27935, "LC": 14766, "ĠDeath": 13703, "Ġc": 269, "ĠScrew": 42630, "Ò": 142, "<|17.10|>": 51219, "lights": 20827, "Ġinstability": 34379, "Ġoptimize": 19719, "Ġgrupos": 33758, "Ġmusic": 1318, "ĠØ¹ÙĨ": 18871, "Ġmeva": 40530, "eft": 14450, "Ġ×Ķ×ĳ×": 43974, "Ġepsilon": 17889, "ĠAllez": 29616, "ĠDad": 5639, "Ð¸ÑĩÐµÐ³Ð¾": 14636, "Ġod": 3611, "ĠschÃ¶n": 13527, "Ġconsent": 14546, "Ġhazardous": 40020, "à¨": 44770, "à¸ĵ": 38206, "ĠDiskuss": 45963, "Ġwork": 589, "Ġinverse": 17340, "Ġyep": 18633, "ĠScale": 42999, "ĠSergeant": 31149, "vu": 32257, "ď": 203, "Ġaggressive": 10762, "Ð²ÐµÑĤ": 10828, "tier": 25402, "ĠLebanon": 29532, "Ġnatur": 26389, "Ġhabit": 7164, "Ġintim": 13148, "ĠSonic": 14290, "Ġneighboring": 31521, "Ġapproved": 10826, "GS": 24446, "ìĭľ": 3833, "jeong": 45942, "Ġretreat": 15505, "Ġsteadily": 36129, "Ġmemories": 8495, "xton": 44798, "Ġheavens": 26011, "Ġiniti": 6265, "Ġnano": 30129, "Ġhelt": 24821, "Ã³ÅĤ": 16181, "Ġfeatures": 4122, "ĠRicardo": 42634, ",\"": 2494, "ĠYep": 7010, "ĠMohammad": 43939, "Ġinserted": 27992, "oti": 8206, "Ã¡ch": 39569, "Ġoffset": 18687, "ĠìķĬëĬĶ": 34790, "Ġwij": 24770, "Ġsis": 26288, "ĠcrÃ©er": 32062, "Ġë½": 28744, ".ï¿½": 42521, "ĠalgÃºn": 26300, "ĠJACK": 40281, "ĠTeam": 7606, "Ġmot": 2184, "infl": 27850, "Ġ1958": 45868, "ĠSpike": 46286, "Ġrods": 32761, "Ġupp": 11775, "ĠAmazon": 6795, "eyed": 37860, "ĠVMware": 40146, "Ġincome": 5742, "ĠPare": 31189, "Ġsubir": 34785, "Ġubiqu": 43868, "ĠTim": 7172, "ury": 2598, "wegen": 13683, "ł¸": 14264, "jadi": 30574, "×Ĳ": 7972, "ê»ĺìĦľ": 47208, "Ġgezeigt": 48661, "ĠXiao": 13134, "inh": 10085, "Ġgibi": 11033, "Ð½Ð¸Ð·": 29951, "autres": 16752, "æľī": 2412, "ĠVegas": 15841, "ool": 1092, "Ġkleiner": 39496, "Ġakan": 16281, "ĠCroatia": 50186, "urate": 33144, "Ġhospitalized": 42340, "Ġremove": 4159, "è¿ĺæĺ¯": 45726, "atus": 37926, "uly": 3540, "Ġwir": 1987, "Ġê´ľì°®": 18286, "Ġvel": 14610, "techn": 29113, "ĠÐ´ÐµÑĢÐ¶": 27565, "ĠMoÅ¼e": 43774, "emit": 31443, "ì¦Ŀ": 28970, "ĠÐ¿ÑĢÐµÐ¿": 47510, "ĠhÃ¡": 16448, "ĠSays": 36780, "æ³ķ": 11148, "Ġsurvivors": 18369, "ALI": 11566, "ĠSuk": 37898, "ĠTol": 21402, "Ġ19": 1294, "Ġmotivated": 14515, "å¢": 24228, "Ġobst": 9579, "Ġprove": 7081, "ffic": 3341, "irm": 3692, "ĠmÃ¥": 10254, "Ġhitting": 8850, "Ġspoil": 18630, "Ð»ÑıÐµÑĤÑģÑı": 21336, "Ġloudly": 22958, "ĠÑĥÐ²Ð¸Ð´": 21974, "ĠTask": 30428, "owania": 21308, "lara": 17736, "Ġdurch": 7131, "Ġshoulder": 7948, "Ġjemand": 21717, "Ġtravers": 23149, "Ġattended": 15990, "ĠEmily": 15034, "Ġstickers": 21019, "Ġahh": 28612, "depth": 25478, "ĠÃ®": 11300, "program": 32726, "Ġandere": 10490, "Ġeater": 40362, "Ġrock": 3727, "sten": 6266, "Ġnavig": 7407, "hero": 16218, "Ġquir": 35645, "Ġredu": 2783, "ì§ķ": 38974, "ĠÐ³Ð¾Ð²Ð¾ÑĢÐ¸Ð»": 39801, "lled": 5929, "Ġoverwhelmingly": 42926, "Ġclicking": 9697, "Ġspecialize": 37938, "ÙĦØ©": 37977, "pered": 40004, "onom": 12481, "uct": 11130, "friendly": 22864, "Ġëĵ¤ìĸ´ì": 20744, "ĠSab": 13915, "y": 88, "ispering": 35237, "ĠIndustrial": 32059, "ĠSty": 30415, "Ġadvent": 7045, "íĹ": 16653, "Ġgrill": 16492, "Time": 22233, "kie": 22872, "è¸": 41166, "icias": 48042, "ouv": 22941, "Ġmitigation": 32649, "els": 1625, "Ġucz": 35403, "Ð½Ð¸ÑĨÑĥ": 49343, "DA": 7509, "Ġvibrations": 32339, "ĠHawk": 42219, "Ġheadlines": 23867, "aug": 20056, "Ġricht": 22136, "Ġunderwater": 20967, "ĠÐ¿ÑĢÐ¸Ð»": 34770, "Ġmeme": 21701, "ĠJaneiro": 44711, "ĠGender": 48039, "éĢĻåĢĭæĺ¯": 41427, "Ġspar": 45954, "alen": 21745, "Ġtalent": 8301, "Ġschauen": 25672, "ĠLee": 6957, "Ġanticipated": 23267, "Ġmountain": 6937, "Ġclinical": 9115, "ees": 4031, "Ġmedicine": 7195, "Ġcoordinating": 37824, "ĠHand": 8854, "Gu": 25627, "Ġrepair": 10535, "Ġbrother": 3708, "Ġinjection": 22873, "æĻĤåĢĻ": 14010, "Ġpou": 5043, "Ã¡rias": 24952, "Ġlocking": 23954, "iritual": 47923, "ologically": 17157, "Ġprettier": 36825, "holm": 32479, "ISTINCT": 40578, "Ġenabled": 15172, "å¸": 4845, "Ġdrafted": 36288, "encies": 6464, "Ġdeveloping": 6416, "name": 16344, "Ġoverst": 48834, "ĠPaÅĦst": 25189, "ê²ĥëıĦ": 47450, "Ġfrequently": 10374, "ĠÐ¿ÑĢÐ¸ÑĪ": 22448, "Ð¾Ð²Ð°Ð½Ð¸Ðµ": 36136, "phin": 48522, "Ġpositivity": 35198, "Ġado": 22450, "Ġrepairing": 46158, "Ġcrystal": 13662, "ĠSimply": 19596, "Ġloneliness": 28144, "ĠPerson": 8443, "ĠSEE": 44712, "reme": 5301, "Ġhacker": 38155, "Ġunforgettable": 46194, "ĠBian": 39509, "akers": 19552, "ĠWalking": 26964, "Ġparticul": 21861, "way": 676, "iamo": 7415, "Ġgent": 16108, "<|2.10|>": 50469, "Ð²Ð¸": 43726, "Ġblunt": 32246, ">>": 893, "KN": 34559, "Sim": 39392, "Ġhill": 10997, "Ġsalt": 5139, "Ġwith": 365, "ãģ¹": 28043, "omie": 40120, "ĠMarch": 6129, "ĠAstron": 36819, "Î¿ÏħÏĤ": 29395, "Ġkang": 47898, "Ġbl": 888, "ĠÐºÑĢÐ°Ð¹": 39584, "Ġempres": 13627, "çµ¦": 17798, "Ġkisses": 35850, "ĠBean": 38454, "ĠDH": 28606, "ä»İ": 35630, "ĠÐ¿ÑĢÐµÐ·Ð¸Ð´": 49529, "fol": 7082, "é©": 24023, "ÑĭÐ²Ð°ÑĤÑĮ": 25265, "ĠMurray": 27291, "ubl": 32144, "Ġproportion": 16068, "Ġ...": 1097, "Ġfixed": 6806, "69": 30908, "Ġrape": 22846, "Ġreop": 28994, "ĠHolo": 24298, "Ġimmin": 40728, "ĠÐĳÑĭ": 44804, "ĠÐ½Ð°Ð¿Ð¸Ñģ": 30442, "Ġrelief": 10915, "Ġcuriosity": 18769, "Ġont": 6592, "Ġhands": 2377, "omet": 649, "Ð¾ÑĩÐµ": 39649, "<|28.14|>": 51771, "uru": 8739, "active": 12596, "ĠnÃ¥gra": 40842, "ĠLabs": 40047, "ussia": 39942, "Ġtrending": 28692, "Ġmid": 2062, "ëħĦ": 12092, "ĠXX": 27050, "Ġparameter": 13075, "Ġdeclined": 29213, "ĠÐºÐ¾Ð½ÑĨ": 33495, "acion": 18803, "ĠMaybe": 2704, "Ġcomet": 33696, "ÑıÑĤÐ°": 25741, "but": 5955, "ĠUkraine": 14081, "çĻ¾": 31906, "ĠFront": 17348, "ĠService": 9561, "Ġchilling": 31047, "ĠBomb": 25463, "cream": 30277, "Ġbloom": 26899, "Ġmotherboard": 32916, "bros": 29781, "ruce": 41158, "Right": 16964, "Ð°Ðº": 1272, "ĠIst": 12810, "Ġdisinfect": 33334, "Ġthor": 11588, "ĠChoice": 37080, "Ġhommes": 34795, "bach": 32096, "oscope": 41659, "Ġcommissions": 38912, "ĠEvent": 13222, "umer": 15583, "ĠmÃ¡s": 3573, "mercial": 39260, "ennis": 11307, "ĠNg": 21198, "Ġeliminates": 49893, "wohl": 33849, "Ġwerde": 24866, "arc": 40088, "Ġcontroversial": 17323, "Ġmonkeys": 29534, "yn": 2534, "tÄ±m": 41186, "wic": 22295, "ĠSusan": 15160, "Ã¦": 7303, "ĠBlend": 44836, "IO": 15167, "Ġpussy": 40169, "Ġvy": 44766, "Ġdisturbing": 21903, "ĠÑģÐ¿ÐµÑĨÐ¸": 25665, "<|so|>": 50326, "Ġë³": 2818, "Ġshutting": 36057, "aide": 41980, "ĠÐ¼Ð¾Ñī": 39218, "ĠsposÃ³b": 22904, "ĠKnock": 34017, "Ġelse": 1646, "Ġavenue": 39230, "Ð°ÑģÑĤÐ²": 47541, "isations": 47791, "<|24.94|>": 51611, "Ġclos": 2611, "Ġvariability": 35709, "Ġdigo": 22990, "Ġvenge": 38008, "uggage": 27159, "Ġrecur": 18680, "ĠMarly": 50129, "ĠÐ´Ð¾Ð±Ð°Ð²": 23856, "Ġconventions": 33520, "'S": 11460, "Ġwakes": 29610, "ĠDLC": 30272, "otechnology": 43594, "Ġvivre": 34248, "ĠChall": 14398, "à®±à®¤": 46532, "Ġzas": 26530, "Ġhydrogen": 12697, "ĠMother": 8931, "ĠLanguage": 24445, "ĠCalm": 23086, "çĶľ": 40536, "ĠFord": 11961, "Ġparag": 17372, "Ġmiraculous": 41101, "éĸĭå¿ĥ": 37809, "ĠÑģÑĤÐ¾Ð»ÑĮÐºÐ¾": 50156, "Ġlact": 34042, "AUDIO": 29937, "ii": 5597, "?.": 27552, "Ġfuturo": 23953, "nothing": 49518, "ĠmÃ¶chten": 49699, "æ£": 16407, "Ġvez": 5715, "Ġfilho": 36919, "Ġmarried": 5259, "Ġplural": 25377, "Ġeventual": 33160, "Ġwys": 27062, "ilda": 34121, "ĠLin": 9355, "Ġrubbing": 29770, "ĠAfrica": 7349, "bul": 12176, "ĠCOSTA": 36537, "Ġplat": 3403, "ĠØ³ÛĴ": 34190, "maya": 24600, "Ġobjects": 6565, "<|6.66|>": 50697, "Ġreclaim": 40074, "ãģĦãģĦ": 13806, "Ġcharger": 22213, "<|11.40|>": 50934, "Ġlapt": 9183, "ugi": 24780, "Ġstanding": 4877, "ĠJessica": 15570, "ugar": 8307, "Ð¼Ð¾": 20455, "ĠHej": 44567, "Ġintrodu": 2814, "Ġsechs": 41945, "Ġlearner": 33347, "åı¸": 32981, "DER": 30500, "Ġgeht": 7095, "Ġscales": 17408, "Ġcob": 39527, "ĠVorte": 46968, "Ġtomorrow": 4153, "Ġloan": 10529, "ĠrÃ©se": 34044, "ĠMillion": 33959, "Ġamount": 2372, "ĠnumÃ©ro": 49525, "Ġwizard": 25807, "ĠDou": 13200, "ĠÐ´ÐµÑģÑıÑĤ": 45884, "Ġdiagn": 7234, "enda": 7639, "Ġprone": 25806, "Ġwom": 1579, "RIS": 9698, "ĠProfess": 7487, "rendo": 46501, "Ġfort": 5009, "éĮ¯": 13133, "ëĭ¬": 24673, "ĠJa": 3530, "Ġapology": 28006, "Ġintersection": 15236, "ĠÐ·Ð½Ð°ÐµÑĤ": 39986, "ĠÐ¼ÐµÑģÑı": 29329, "ĠMiami": 18367, "ĠTax": 23263, "ĠPues": 22386, "Ġspectrum": 11143, "acha": 27442, "Ð¸ÐºÐ¾Ð²": 31041, "pei": 46238, "ĠVP": 35812, "ĠCoast": 14960, "ĠìĿ´ê±°ëĬĶ": 24535, "www": 17919, "Ġveramente": 50079, "Ġabstract": 12649, "Ġconscious": 6648, "Ġglobally": 18958, "Ġschlim": 37260, "Ġkeywords": 21009, "uard": 16981, "Ġmicrob": 49713, "ĠÑĢÐ°ÑģÑģÐº": 17399, "ĠMistress": 48509, "Ġshocks": 37066, "Ġhe": 415, "Ġtakes": 2516, "<|4.42|>": 50585, "ĠSpicy": 35999, "ĠÑģÐ°Ð¼Ð¾Ðµ": 25676, "Ġaccount": 2696, "ĠCard": 11877, "Ġcomparison": 9660, "łĪìĿ´": 38845, "urance": 5683, "aines": 19295, "ĠÚ©Ûģ": 33491, "Ġseg": 3896, "Ġhomeowners": 39868, "ĠChristians": 12254, "Ġcracked": 25140, "ellen": 8581, "Ġhots": 36121, "Ġreadiness": 34954, "è©": 6716, "Ġ96": 24124, "ĠaÃ§": 12930, "amb": 2173, "ĠDynam": 22947, "Ġquero": 18738, "ĠÃ¡r": 35349, "ĠJi": 9702, "Ġwok": 40022, "<|22.40|>": 51484, "Ġboots": 15194, "Ġë°©ë²ķ": 31656, "Ġbinding": 17359, "Ġprow": 45553, "Ġspring": 5587, "Ġweather": 5503, "ĠMCU": 39415, "Ġadapted": 20871, "Ġscen": 4191, "ĠÐĿÐ°": 11245, "Ð¾Ð³Ð¾Ð´": 46928, "ĠÑģÑĤ": 3266, "Ġeffectivement": 40126, "ĠÑħÐ¾ÑĩÐµÑĤ": 42175, "Ġsediment": 32362, "ĠKwang": 46561, "ĠÐ³ÑĢÑĥÐ¿": 27530, "levant": 25638, "Ġvariations": 17840, "rare": 35559, "ĠBuch": 25818, "Ġsang": 9980, "ĠIni": 28929, "Ġcoloring": 23198, "Ġvog": 31273, "ĠÑĢÐ°Ð·Ð²": 20019, "ĠSammy": 44316, "ĠSolomon": 32209, "Ġbulk": 16139, "ĠKrank": 48896, "Ġelephants": 33015, "plings": 26921, "ĠMont": 7947, "<|10.80|>": 50904, "imize": 43890, "áº§n": 18241, "Ġtitles": 12992, "Ġznaczy": 36584, "Ġtemporarily": 23750, "Ġawhile": 22224, "Ġelephant": 19791, "ĠMonte": 38105, "Ġnothin": 47562, "<|4.82|>": 50605, "ĠÐ¼Ð¾": 9971, "çīĩ": 16668, "Ġjest": 3492, "ĠNacht": 31133, "å": 161, "¦¬ê³ł": 7290, "Ð¸Ð»Ð°ÑģÑĮ": 19522, "lingen": 39900, "nament": 10934, "è·Łå¤§å®¶": 47349, "Ð¾Ð´Ñĥ": 35749, "Ãłi": 21971, "ĠPAUL": 26379, "ĠReason": 39693, "Ġdegradation": 40519, "<|9.48|>": 50838, "integr": 31131, "<|10.60|>": 50894, "ä¸ĢçĤ¹": 49042, "Ġcruising": 42180, "Ð´Ñĥ": 9031, "rando": 19845, "<|8.28|>": 50778, "ippers": 31323, "å¦Ĥ": 8238, "ĠíıŃ": 35663, "ä¸įåĪ°": 35728, "Ġdistintos": 49337, "ĠAcho": 40731, "ĠGeorgetown": 34848, "ĠReid": 46912, "enti": 23012, "Ġdebated": 42212, "rops": 49715, "ĠAven": 13573, "ĠÐĿÐ¾": 7264, "Ġyelled": 38023, "ĠUM": 31335, "ĠLÃ¶sung": 46934, "ĠGil": 17654, "Ġmiserable": 22321, "å½±çīĩ": 25373, "Ġhistorian": 25139, "ÐµÐºÐ¾ÑĤÐ¾ÑĢ": 23961, "quez": 39009, "ÑĦÐ¾ÑĢÐ¼": 18190, "Ġthriller": 43009, "nies": 40549, "Ġshaft": 18467, "Ġsqueezed": 39470, "Ġmerch": 12618, "nar": 20062, "uciones": 46649, "icans": 34332, "ĠNÃ£o": 8010, "Happy": 31496, "Ġidea": 1558, "arner": 22916, "ĠSingapore": 14491, "ãĤĥ": 9051, "Ð¸ÑĤ": 1635, "Ġstitches": 13184, "core": 12352, "icar": 7953, "Ġadd": 909, "uts": 3648, "Grand": 45076, "Ġstinks": 50114, "Ġnewsp": 10202, "Ġprojeto": 40679, "ĠLewis": 17412, "iÃ£o": 24660, "Ġconversation": 3761, "Ġtransistor": 34750, "ador": 5409, "Ġsound": 1626, "ì²´ê°Ģ": 39881, "Ġconsist": 4603, "Ġbic": 34472, "<|12.46|>": 50987, "Ġlogic": 9952, "ency": 3020, "ĠÑĢÐ¾Ð»ÑĮ": 49189, "Ġprend": 9866, "Ġgrouping": 40149, "Ġdarf": 19374, "Ġtraps": 24173, "ĠQuick": 12101, "ole": 4812, "Ġeveryone": 1518, "ëĲĺ": 22826, "Ġfame": 16874, "Ġtemos": 14247, "bright": 21553, "Ġfries": 20733, "ĠQueensborough": 40722, "motion": 44968, "ĠCanon": 27666, "Ã¤mÃ¤": 20962, "iemand": 39362, "æĵļ": 36841, "Ġcrave": 46875, "ĠHope": 6483, "ĠcommunautÃ©": 49056, "Ġgadget": 38090, "Ġimp": 704, "auge": 16558, "åĶ±": 39861, "Ã©s": 2191, "Ġenrich": 18849, "Ġdemonstrated": 18772, "ÑĦ": 3619, "Î¬Î»": 39650, "ooooo": 47116, "Ġpneumonia": 43097, "Ġdro": 3789, "Ġverdad": 13692, "ĠsÃ¼r": 48014, "å®®": 39194, "Ġê°Ģì§Ģê³ł": 21361, "ÄħÅ¼": 27242, "Ġtote": 49019, "Ġdivergence": 47387, "Ġinnovation": 8504, "æĺ¨": 47404, "Ã¡s": 2490, "Ø£ÙĨ": 33456, "Ġblocking": 17776, "Ġcalor": 31575, "Ġgrandchildren": 28112, "ĠBrend": 25425, "aval": 46868, "ÐºÑĥÑģ": 24306, "Ġlevels": 4358, "à¤°": 25411, "ĠKH": 34854, "CH": 5462, "otz": 18530, "Ġsuddenly": 5800, "Ġescape": 7615, "ala": 5159, "kap": 34334, "onda": 12233, "Ġoysters": 42296, "weh": 40630, "ĠExtension": 37034, "ĠplÃ¶tzlich": 49033, "Ġvaig": 26571, "ĠZhao": 25132, "ĠYani": 14262, "Ġdem": 1371, "irting": 36575, "ĠRise": 34482, "ĠÐ·Ð°Ð³": 25770, "Ġvas": 11481, "hoot": 24467, "izaciÃ³n": 27603, "Ġinternal": 6920, "ĠIT": 6783, "<|8.78|>": 50803, "ĠHeath": 46622, "mut": 38326, "Î´Î±": 40409, "Der": 49853, "ÙĬØ©": 10632, "ĠÎ¤": 20838, "ankind": 40588, "Ġsortie": 45662, "ĠHe": 634, "ĠConservation": 40131, "Ops": 36179, "Ġgroceries": 31391, "ì¼Ģ": 36940, "Ġconsisted": 38227, "control": 40905, "Ġrevive": 36292, "ĠSaying": 34087, "leich": 8445, "<|9.58|>": 50843, "Ġpopulation": 4415, "Ġintegration": 10980, "ĠSafety": 21340, "Ġrefin": 44395, "ĠSR": 20840, "Ġeditorial": 33412, "liga": 25668, "Ġpet": 3817, "Ġinterpreted": 26749, "ÐµÑĩ": 4310, "jenigen": 48176, "æŃ»": 16989, "ĠAlter": 32608, "éĤ£ä¸ª": 43083, "abouts": 41620, "Ġwissen": 16331, "uing": 9635, "Ġherum": 49675, "kek": 41888, "Ġdigit": 14293, "ĠFox": 11388, "ìĨ¡": 18739, "Ġgarant": 22251, "ĠAge": 16280, "à¸Ħà¸Ļ": 41404, "ĠStein": 29453, "Ġtercer": 38103, "ĠÐ±Ð°ÑĢ": 36766, "Ġagu": 34438, "Ġinfluences": 21222, "Ã¥t": 45845, "Ġcep": 45026, "ĠTALIESIN": 13787, "ĠGamb": 44643, "Ġexecutives": 28485, "Ġbanc": 39612, "Ġê°ĢìĦľ": 35312, "ĠBarbara": 19214, "ĠCAM": 27040, "ÖĤ": 38565, "Ġtrash": 11321, "Ġvert": 6509, "isÃ©": 22118, "ĠRos": 11144, "Ġscreening": 17732, "Ġ×ª": 13965, "chodzi": 34616, "Ġadministrator": 25529, "Ġproxy": 29690, "Ġìłľ": 4424, "Ġfemin": 11155, "Ġtelescop": 37085, "ĠÐŁÐ¾Ð´": 23120, "Ġentails": 50133, "ĳĲë": 45193, "wu": 30627, "ĠDamen": 21131, "ĠÙĩØ°Ùĩ": 29538, "pa": 4306, "remo": 44172, "ska": 20771, "Ġplead": 48642, "Ġtiempo": 11772, "Ġletter": 5063, "ĠAnn": 8860, "linear": 28263, "ĠAny": 2639, "Ġmatrix": 8141, "visible": 48990, "ĠBing": 30755, "ĠSams": 12666, "Ġfarewell": 35442, "Da": 32409, "ĠÐ´ÐµÐ»Ð°ÑİÑĤ": 48732, "ĠÎºÎ¬": 26751, "cr": 10757, "Ã¼gen": 45336, "Hy": 38792, "Ġchronic": 14493, "Ġterritory": 11360, "Ġattracts": 37026, ",,": 20387, "ÙĪØ¯": 23328, "Ġcruise": 17754, "ĠPB": 24056, "leben": 41467, "Ġlump": 25551, "ĠTribe": 44984, "Ġcongregation": 34782, "muÅŁ": 30378, "ĠOthers": 20277, "Ġchin": 14210, "ìķĮ": 48234, "feit": 37434, "ĠCongress": 6426, "ĠÐ¯": 4857, "Ġclaiming": 19232, "Ġtangent": 27747, "ĠMunich": 40601, "ĠÑģÐµÐ¼": 20933, "ĠFPS": 26429, "ato": 2513, "Ġwaterproof": 27974, "ĠSEN": 47770, "Ġstuff": 1507, "ĠTiere": 38810, "ĠsociÃ©tÃ©": 32120, "ì¤Ħ": 23620, "Ġmuk": 31475, "ĠÐ°Ð²ÑĤÐ¾Ð¼": 27669, "Ġbending": 22487, "Ġpottery": 45272, "Ġlook": 574, "Don": 7450, "kten": 47120, "Ġelementary": 16429, "Ġdedi": 19731, "feld": 25115, "Ġtowns": 18104, "Ġaccomp": 18037, "ĠÐ¾ÑģÑĤÐ°Ð²": 25969, "Ġinterject": 46787, "cember": 7432, "ĠAdditionally": 19927, "Ġqueen": 12206, "Ġteaspoon": 17237, "Ġscientific": 8134, "Ġidentifier": 45690, "Ġkan": 4608, "ÐŃ": 22757, "Ġterrorists": 28330, "ĠShannon": 28974, "Ġdudes": 27717, "Ġhug": 8777, "ĠunterstÃ¼tzen": 43081, "ĠëĲĺëĬĶ": 18650, "asser": 12129, "à¹ī": 4750, "Ġmembr": 15595, "ullie": 27206, "Ġproperty": 4707, "oked": 9511, "Ġtre": 2192, "Ġpossibilities": 12178, "ĠArrow": 40269, "Ġaffirmative": 45270, "Ġpropre": 35221, "ãĥĿ": 34718, "Ġmarshmallow": 43896, "hr": 1703, "<|9.90|>": 50859, "Ġkilled": 4652, "<|25.66|>": 51647, "ĠBETH": 36480, "olics": 33763, "Ġ×ĳ×ŀ×": 31776, "Ġvs": 12041, "ĠQUES": 8521, "Ġbesar": 48327, "é¢": 12501, "unts": 21253, "ĠUb": 30230, "Ġaf": 3238, "<|3.02|>": 50515, "<|24.66|>": 51597, "stoff": 23636, "è¾¦æ³ķ": 40072, "<|ru|>": 50263, "ep": 595, "Ġcontradiction": 34937, "Ġalleviate": 42701, "ĠScriptures": 46522, "utto": 28698, "Ġroster": 29892, "Ġfalar": 13536, "Ġpada": 26069, "Ġtoo": 886, "ĠShepherd": 43395, "Ġstreets": 8481, "<|12.54|>": 50991, "Ġvalt": 45912, "end": 521, "ĠPsal": 26150, "ĠCAN": 22931, "Ġphysical": 4001, "Ġsafeguard": 40153, "uyu": 42694, "Ð¸Ð¼Ð¾ÑģÑĤÑĮ": 49514, "Ġrewrite": 28132, "<|16.82|>": 51205, "<|16.34|>": 51181, "æº": 16084, "ê³¡": 36636, "Ġgovernors": 36571, "æĵĬ": 37813, "Ġdest": 2677, "ĠRonaldo": 46132, "ĠWarsaw": 41662, "³": 111, "ĠAsian": 10645, "ĠDash": 23453, "Ġpipe": 11240, "ERE": 16069, "Ġwillingly": 44675, "ĠJana": 49164, "Ġbitches": 42094, "Ġess": 2097, "ĠìķĪë": 9658, "oin": 14312, "ĠPal": 6116, "Ĥĺë": 14886, "å¹²": 26111, "Ġdiligently": 49013, "=\"#": 34106, "Ġdeserted": 47983, "ĠGott": 19133, "Ġadvert": 7756, "ĠEverest": 47591, "resser": 37278, "ĠlibertÃ©": 49158, "Ġrant": 45332, "Ġazul": 39580, "Ġvast": 8369, "Ġpolity": 36066, "ĠWill": 3099, "ÐµÑģÑģ": 13254, "Ġdiferencia": 38844, "Ġspread": 3974, "Ġkalo": 40257, "list": 8264, "Ġsubm": 8286, "Ġnada": 8096, "Ġbever": 46524, "ĠÑģÑĤÐ°Ð»Ð¸": 39029, "Ġessen": 41749, "<|6.72|>": 50700, "<|10.98|>": 50913, "ìĸ´ë": 6540, "Ġleagues": 48429, "Ġconcentration": 9856, "ĠMandal": 49869, "Ġattitudes": 25853, "Ġ1975": 32454, "éĢĻäºĽ": 29869, "Ġpharmaceutical": 27130, "iggs": 32555, "Ġbehavior": 5223, "ĠìĮ": 35792, "Ġsegregated": 47370, "Ġcontaminated": 34492, "ĠÐºÐ¾Ð¿": 42399, "Ġfermentation": 43161, "ĠVER": 27686, "Ġaffects": 11807, "Ð¢": 8556, "rod": 11452, "ĠNormally": 17424, "ĠÏĢÎ¬": 31967, "Ġreservoir": 26316, "ĠsÄ±k": 30046, "ĠTrinity": 33121, "Ġstab": 16343, "pet": 7275, "ace": 617, "Ġcontrols": 9003, "iso": 19227, "įĶëĿ¼ê³łìļĶ": 21261, "ĠÐ¿ÑĢÐµÐ´Ð»Ð°Ð³": 46841, "Baby": 39767, "ĠheiÃŁ": 39124, "ëĬĺ": 7822, "ĠÑħÐ¾ÑĢÐ¾ÑĪÐ¾": 16977, "ĠPortugal": 23011, "Ġdefeat": 11785, "Ġhvis": 45427, "Ġrecru": 9372, "pool": 17374, "isiej": 50117, "Ġapplicants": 28767, "Ġsurely": 11468, "Ġfragments": 29197, "Ġcollections": 16641, "ultan": 19911, "Ġpredominantly": 29893, "veland": 27028, "Ġdetto": 41031, "Ġfacts": 9130, "åħ©": 16313, "Ġinfl": 9922, "ç´ł": 37204, "iks": 23292, "ĠDallas": 22923, "ĠIslamic": 17970, "ĠEnsuite": 37366, "þ": 186, "Ġdokument": 40858, "Ġmound": 49034, "Ġchunks": 24004, "Ġkrie": 25766, "ĠposiciÃ³n": 46595, "nad": 36567, "ĠBrothers": 19886, "Ġbothers": 33980, "<|11.10|>": 50919, "Jason": 38267, "wend": 20128, "ÏĦÎ±Î½": 26263, "¦": 99, "Ġwszystk": 14615, "per": 610, "attutto": 48285, "Ġmarca": 30582, "Ġintensely": 43235, "Ġqual": 4101, "ĠEliz": 11991, "ĠMeter": 38054, "TE": 13639, "respace": 45245, "<|6.34|>": 50681, "Ġarb": 25613, "Ġtheo": 40594, "ĠCalendar": 43583, "Ġtwists": 35290, "oples": 15661, "ĠAur": 26945, "ĠÐ±ÑĭÐ»Ð°": 13640, "Ġcooker": 31476, "sam": 19988, "ĠScandin": 42403, "Ġprends": 46750, "Ġquieres": 29839, "ĠNevertheless": 26554, "ĠOnePlus": 41352, "Ú": 150, "Ġcontact": 3385, "Ġdenken": 28780, "Ġpets": 19897, "ĠëĲĺëĬĶëį°": 36436, "êµĲ": 18084, "Ġprecisamente": 44901, "ĠÑįÐºÑģÐ¿": 29030, "Ïģ": 2805, "hst": 38857, "Ġglide": 41848, "Ġsola": 34162, "oule": 26757, "Ġdignity": 19672, "oriented": 27414, "Ġsqueez": 22390, "Ġglucose": 23997, "ä¸ª": 7549, "ucht": 10084, "Ġdamaging": 25342, "ĠYun": 18007, "ãģĭ": 3703, "esehen": 18380, "ĠÐ½Ñĸ": 46645, "Ġacet": 37848, "Ġfrontline": 38033, "ense": 1288, "ĠÐ¿Ð¾Ð½ÑıÐ»": 37975, "ĠSpirit": 7218, "Ġacid": 8258, "ä¾": 3254, "ê°Ĳ": 13664, "Ġthesis": 22288, "Very": 31733, "Ð»Ð°ÑĢ": 23988, "ĠâĢ¢": 13937, "Ġgreatness": 31196, "<|18.26|>": 51277, "Ġ×ľ×Ļ": 29948, "Ġspells": 25053, "Home": 47974, "Was": 30974, "ĠkarÅŁÄ±": 31653, "Ġdiagnose": 36238, "Ġpersonality": 9033, "ĠAdemÃ¡s": 34621, "ĠUne": 16701, "ÙĥØ§ÙĨ": 41361, "Ġ52": 18079, "Ð°ÑĤÐ¸Ð²": 30875, "ĠPeg": 28007, "Ġpunya": 32781, "Ġloop": 6367, "Ġëħ¹": 36906, "Ġcomplex": 3997, "ĠCanvas": 25725, "<|17.70|>": 51249, "ãĤ¿": 12144, "Ġquil": 31619, "å¾Īæľī": 49295, "Ġmarkets": 8383, "Ġcirca": 45972, "Ġschedul": 12000, "Ġton": 2952, "Ġvisualization": 25801, "Ġprayer": 8767, "Ġwen": 11472, "Ġsubjective": 25972, "Ġrecibir": 49703, "Ġemployees": 6619, "one": 546, "ĠJames": 5678, "ming": 2810, "Ġadam": 16368, "ĠØ´ÙĬ": 44049, "ĠCJ": 42285, "Ġrivers": 18361, "Ġdeeds": 24539, "Ġ1994": 22736, "Ġdevrait": 43356, "ÙĲÙĳ": 42903, "ĠGer": 9409, "Ġ--": 1350, "ĠBrook": 13945, "ĠBayern": 29163, "Ġmakeup": 6567, "rences": 38983, "Bu": 28110, "ĠND": 40709, "fir": 42382, "<|11.04|>": 50916, "ĠPotter": 18115, "<|10.64|>": 50896, "Ġminute": 3456, "ĠëıĮìķĦ": 26761, "ĠTil": 45141, "æĪĸèĢħ": 31148, "Ġentitled": 17838, "ĠPho": 14936, "asive": 23686, "ĠInf": 11537, "Ġbachelor": 25947, "ĠÐ¿Ð¾ÑģÑĤÐ¾ÑıÐ½Ð½Ð¾": 41548, "æĲ": 22220, "Ġfilled": 6412, "Ġrectangle": 21930, "ĠÐ´Ð²Ð¸Ð³": 30618, "Ġoriginally": 7993, "ometown": 21462, "ĠPure": 29474, "Ġfolk": 15748, "Ġtechnological": 18439, "CR": 18547, "Ġstarts": 3719, "<|29.22|>": 51825, "ĠquÃ©": 8057, "ÏĮÏĤ": 30599, "Ġautant": 34081, "ÑĢÐ¸Ð¿": 50125, "Ġvicinity": 42387, "Us": 29211, "ihi": 48747, "Ġsil": 3425, "Ġtechnicians": 40885, "Ġnegotiating": 30396, "ĠÙĦ": 5296, "ĠHappiness": 46224, "Ġpassar": 20630, "ĠGenesis": 20587, "Ġwink": 44212, "Ġenforcement": 11475, "illance": 17223, "ĠSH": 7405, "<|19.50|>": 51339, "Ġheels": 19502, "ãĥĻ": 45290, "cribed": 18732, "ĠJade": 37021, "Ġdific": 29615, "<|no|>": 50288, "Ġsotto": 43754, "bike": 30283, "åįķ": 47446, "ĠÑģÑĤÐ°ÑĤÑĮ": 36415, "Ð°Ð½Ð¸Ñĩ": 44819, "æ³¨": 26432, "chair": 17892, "Ġrecognised": 36802, "Ġbeverage": 35519, "hrlich": 34188, "inder": 5669, "Ġappreciated": 17169, "Ġdroite": 37321, "Ġaccumulate": 33384, "bon": 4351, "ĠFuj": 43915, "temps": 30537, "ĠLion": 21704, "¦½ëĭĪëĭ¤": 34328, "ãģªãģĦ": 9311, "Ġneatly": 36634, "Ġdeg": 2821, "ys": 749, "Ġauf": 2501, "ĠKeith": 20613, "ĠproducciÃ³n": 48586, "Ġcake": 5908, "Ġridic": 9276, "<|19.20|>": 51324, "ĠGuang": 35815, "Ġchá»ĭ": 45167, "Ġlove": 959, "Ġforg": 3667, "ÖĢ": 25119, "ĠVerse": 31640, "Ġfrase": 38406, "Ġaudience": 4034, "ì§Ŀ": 28624, "åļ": 29593, "<|18.28|>": 51278, "20": 2009, "Ġuphold": 34451, "ĠtravÃ©s": 24463, "Ġinsult": 15285, "Ġcellphone": 42524, "Ð½Ð¾Ðµ": 6126, "ìĭ¤íŀĪ": 48065, "Ġdenn": 10471, "Ã¤tzlich": 33373, "Ġsk": 1110, "Ġdrops": 11438, "ed": 292, "uso": 24431, "Ġcoat": 10690, "Ġstyl": 23736, "ing": 278, "ĠmÅĤ": 40770, "ook": 1212, "Ġcharm": 18904, "ĠBelarus": 35855, "<|17.96|>": 51262, "<|10.16|>": 50872, "alted": 35906, "Ġreplied": 20345, "Ġplus": 1804, "Ġlegit": 10275, "ĠEller": 45719, "ppings": 28968, "Ġstron": 45766, "ĠPrim": 19671, "Ä±lmÄ±ÅŁ": 48871, "Ð¸Ð²Ð°ÑĤÑĮ": 20566, "seat": 43152, "ĠSoph": 18921, "Ġshirt": 8336, "Ġalgunas": 27316, "Ġprod": 15792, "Ġìĸ¼": 22142, "Ġlidt": 40574, "ĠMadonna": 49540, "Ġdull": 23471, "LA": 11435, "ĠAR": 8943, "ÐµÑĤÐ°": 20513, "ĠUrs": 41303, "found": 17493, "wich": 9669, "Ġhijo": 38390, "Ġfiguring": 15213, "isions": 4252, "ÎŃ": 5554, "lei": 35436, "Ġcreature": 12797, "Ġpresentations": 18964, "Ġgraduation": 15652, "Ġ2009": 11453, "Ġappeals": 32603, "ÏĦÏĮ": 49778, "ĠÐĲÐ»ÐµÐºÑģ": 32228, "Ġmah": 29926, "ĠGespr": 38746, "ĠSAY": 42948, "Ġwallet": 16599, "ievous": 42111, "ĠAlong": 17457, "GAN": 27699, "ISA": 26183, "ĠZo": 10337, "ĠBreakfast": 45371, "ĠWords": 32857, "Ð¼Ð¾ÑĤÑĢÐ¸ÑĤÐµ": 36469, "åĵĪåĵĪåĵĪ": 45809, "jud": 9218, "ĠCrunch": 44233, "Ġdoubles": 31634, "gt": 10463, "SINGING": 29859, "ĠHenry": 11085, "ting": 783, "YO": 28821, "Ġpunch": 8135, "Ġëª©": 20433, "Ġcomputed": 40610, "Ġreleases": 16952, "ĠQian": 32461, "--\"": 32778, "Ġìĸ´ëĸ": 7768, "onds": 10166, "Ġextraordinary": 10581, "ĠÐ¡ÐµÐ³Ð¾Ð´Ð½Ñı": 35913, "ĠÙĩÙĬ": 39896, "MS": 10288, "ĠEntwick": 29397, "culus": 36002, "Ġwish": 3172, "ĠMI": 13696, "Ġwaits": 40597, "<|4.46|>": 50587, "Ġobl": 23740, "erin": 31602, "Ġfailing": 18223, "ĠìĻĦìĦ±": 41867, "Ġestuv": 49777, "Ġseus": 17004, "Ġcruelty": 40145, "als": 1124, "Ġbroker": 26502, "åŃ¸": 21372, "<|28.96|>": 51812, "Ġretir": 34906, "ĠDriving": 44028, "ĠÂ½": 32653, "ÑĥÑĢ": 7489, "Ġwax": 17352, "ÑĥÐ²Ð°ÑĤÐ¸": 36303, "ID": 2777, "ØµÙĦ": 36520, "éŃ": 20149, "Ġpolls": 24264, "Ġearliest": 20573, "ĠBUT": 23073, "Įëĵł": 47353, "Ġimmersive": 35409, "ĠcomeÃ§ou": 37393, "Ġecosystem": 11311, "ĠMul": 29960, "ĠGreet": 18678, "ĠTIME": 36096, "åıĹ": 23151, "Ġpolicies": 7657, "Ġinvolve": 9494, "Ġsupreme": 27756, "ĠSharing": 49060, "16": 6866, "Ġplaneta": 34186, "Ġbored": 13521, "Ġhomes": 7388, "ĠFilm": 13801, "ĠÄĳá»ĭ": 42063, "ĠSwedish": 23523, "Ġpronounce": 19567, "Ġoranges": 35474, "borough": 24987, "eremiah": 38200, "ĠMuito": 31824, "<|22.38|>": 51483, "Ġcontinually": 22277, "illi": 31922, "Ġgramm": 17570, "Ġaccelerated": 29763, "Ġbene": 2537, "ĠÐļÑģÑĤÐ°ÑĤÐ¸": 39883, "igen": 3213, "ĠRusia": 48520, "çĿĢ": 20708, "ocks": 35507, "<|20.70|>": 51399, "Ġsubt": 7257, "<|hi|>": 50276, "Ġairport": 10155, "Ġcolleague": 13532, "åıĸ": 29436, "ĠÑĩÑĥÐ²": 22472, "Ġwastewater": 46418, "fficiency": 49086, "Ġappliances": 35480, "ç§ģ": 20083, "Ġtrauma": 11407, "orters": 12168, "ĠLeft": 16405, "ĠZhu": 31680, "ĠFres": 42618, "ificaciÃ³n": 40802, "ĠAhmed": 39189, "ĠALL": 14824, "station": 19159, "other": 802, "ĠRonald": 27397, "Ġquatro": 30583, "minute": 18256, "Ġpersistent": 24315, "ĠGrowth": 48345, "inaudible": 6436, "Ġniew": 43622, "osen": 6441, "Ġbatteries": 13070, "Ð¾ÑĩÐºÐ¸": 32775, "Ã¤Ã¤n": 11718, "ĠbyÄĩ": 15069, "ĠAJ": 32759, "Ġaumento": 43600, "Ġrecommending": 30559, "Ġnearest": 23831, "ĠìĥĿê°ģ": 8594, "uger": 44953, "Ġschool": 1395, "Î¼Î±ÏĦÎ±": 40370, "ĠGente": 38799, "ĠLeist": 39577, "Ġsino": 18108, "ÑģÑĤÑĮ": 3167, "orde": 15127, "Ġvoy": 7552, "Ġwors": 47567, "ĠWarren": 20538, "Ġesca": 12663, "ĠFound": 8207, "Ġpytanie": 36610, "ugal": 17812, "è¦º": 9463, "Ġdisposal": 26400, "Ġê·¸ëŀĺ": 7080, "ĠÐ¿ÑĢÐµÐ·": 39838, "ĠTransport": 22309, "Ġergon": 42735, "ĠHollywood": 11628, "<|12.02|>": 50965, "oker": 16722, "ĠÐĶÐ¶": 23792, "rid": 8558, "Ġachie": 3538, "ãĥ£": 17233, "ĠÐ¿ÑĢÐ¸Ð³Ð¾ÑĤÐ¾Ð²": 49630, "ĠMorris": 23619, "More": 33986, "Ġrequ": 1724, "Little": 42929, "Ġhaciendo": 20509, "Ġspectacle": 37303, "Ġsne": 9244, "this": 11176, "Ġrespected": 20020, "ak": 514, "Ġqueries": 24109, "Ð¾Ð·Ð¼": 29977, "Ġwelcome": 2928, "å¦Ĥæŀľä½ł": 45669, "exhales": 47782, "Ġsides": 4881, "ĠDownload": 32282, "Ġ==": 4141, "Ġfuzzy": 34710, "Ġalternating": 40062, "ĠMc": 4050, "Ġaltered": 28783, "ĠPurd": 41632, "ĠÐ´Ð¾Ð»Ð¶Ð½Ð°": 40129, "ĠRend": 48174, "Ġcampa": 37597, "oki": 17056, "Ġshouting": 20382, "ettre": 40681, "Ð¿Ð¸Ñģ": 19730, "ĠVo": 7518, "ldigt": 19341, "adh": 46908, "olly": 7403, "Ġfilmed": 15133, "ĠalguÃ©m": 27052, "ĠGonzalez": 46708, "Ġons": 18818, "Ġcarb": 12143, "Ġquint": 40006, "ĠÑģÐ»ÑĥÑĩÐ°Ð¹": 40181, "Ġfear": 4240, "ĠIceland": 28004, "Ġpartner": 4975, "ĠVM": 18038, "Ø§Ø¯": 18513, "Ġdock": 20929, "åĲĦä½į": 22073, "ĠChanel": 42698, "ĠJW": 49885, "ĠVictoria": 16656, "adÄ±": 35287, "naudible": 20474, "Ġelectroly": 39197, "Ġresist": 4597, "itated": 18266, "Ġfaz": 4375, "Ġmanos": 36650, "Ġcommitment": 8371, "pts": 39280, "Ġtourists": 20273, "ĠPress": 6776, "ĠMosc": 17213, "Ġalar": 27597, "¡Ģ": 42229, "Ġsunscreen": 30304, "Ġinherent": 26387, "ĠKanye": 37654, "Ġdiameter": 14196, "Ġident": 2473, "<|18.18|>": 51273, "ought": 930, "Ġpresum": 18028, "oln": 14110, "à¹ģ": 11851, "Ġtuber": 39847, "Ø¯Ø§": 28259, "ĠRandy": 23993, "Ġpolitiques": 46267, "ìĬ¤ë¥¼": 35967, "ando": 1806, "ë¡Ŀ": 15016, "Ġiterate": 44497, "umping": 35313, "Ġbrushes": 23260, "ãĤŃ": 15535, "Ġbanging": 36982, "ĠíĸĪ": 8154, "olor": 36182, "Ġsetzt": 49099, "ĠKay": 14179, "Ġìľ": 4916, "laus": 22590, "Ġchcia": 26497, "phr": 44598, "Ġencuentra": 43274, "ĠLie": 11197, "ially": 2270, "Ġimmediately": 4258, "×Ľ×©": 39725, "athan": 9390, "ĠÙĪØ§": 36764, "à¤¸": 45938, "ĠlÃ¤nger": 40935, "ĠCEO": 9282, "pipe": 50042, "ÑĢÐ°ÑĤÑĮ": 30260, "ä¸Ĭ": 5708, "ĠDie": 3229, "ounding": 24625, "Ġroutines": 33827, "Ġcompat": 13147, "500": 7526, "Ġprescribe": 49292, "ui": 3077, "ĠAlban": 41547, "Ġapr": 10992, "phony": 28616, "isode": 14172, "ĠMoss": 39591, "ĠAnalysis": 38172, "stairs": 10899, "ĠtÃ´i": 22336, "Ġìĺ¤ë¹ł": 33398, "Ġinternationally": 24422, "ĠKak": 36775, "Ġprojections": 32371, "Ġtoma": 39728, "Ġsymmetry": 25440, "Ġinfection": 11764, "Ġ1959": 45608, "Ġsizing": 45435, "é¡ĺãģĦ": 26079, "ĠdeÄŁiÅŁ": 30435, "ĠGuerra": 45725, "æ¥": 13387, "ĠSamsung": 13173, "Ġantib": 11533, "ìĪĺë": 25361, "Ġcatast": 19754, "Ġgrandes": 16640, "Ġbullets": 20132, "Ġcompanies": 3431, "Ġign": 5335, "ĠÃ¢": 20621, "Ġadjective": 44129, "AK": 5340, "ĠbÃ¼tÃ¼n": 27977, "34": 12249, "olÃ©": 47530, "aÄŁÄ±": 42247, "ĠÐĴÐ¾ÑĤ": 9756, "Ð¸": 435, "ĠWij": 46721, "ĠlÃ³g": 48475, "Ġê·¸ëłĩ": 13773, "ĠCourtney": 33489, "Ġhostile": 27312, "ĠPhil": 7777, "ĠSea": 11352, "å¾Ģ": 29510, "Ġbrag": 41995, "rob": 16614, "ĠZusammen": 29442, "<|21.30|>": 51429, "venue": 29307, "Ġsubmissions": 40429, "ĠdostÄĻp": 48209, "inel": 40952, "<|7.92|>": 50760, "<|18.70|>": 51299, "ĠSew": 42697, "Ġzo": 5721, "Ġjuste": 13016, "Ġrept": 29143, "Ġvivid": 23603, "ĠDest": 16339, "Ġtief": 45100, "Ġutility": 14877, "ĠÐĿÐ°Ð´Ð¾": 48562, "ĠWald": 29223, "Ã©n": 3516, "Ġregen": 33909, "ĠÐ³ÐµÑĢÐ¾": 35279, "zess": 37575, "Ġpract": 1927, "Ġ1965": 33809, "ĠOne": 1485, "lad": 9290, "ĠbÃ¶yle": 11018, "Ġclassroom": 7419, "Ġpassage": 11497, "ĠMedicine": 20338, "ìĪł": 21619, "Ġpolynomial": 26110, "<|17.64|>": 51246, "Ġanne": 22256, "Ġanti": 6061, "Ġdean": 31120, "Ġdishwasher": 38009, "åĬłæ²¹": 19310, "Ġunglaub": 49087, "ĠAustral": 5273, "ĠSaint": 12902, "Ġsubscribers": 11092, "Ġturbulence": 48612, "ithm": 32674, "olutions": 15892, "áºŃy": 24706, "iga": 9900, "ĠNord": 16229, "ficiente": 26863, "Ġaltro": 40924, "á¸¥": 39887, "ĠTing": 43196, "ĠDec": 12427, "Ġrema": 28986, "ĠHuman": 10294, "Ġranging": 25532, "Ġkul": 27576, "ĠEngland": 8196, "ĠMikey": 42344, "Ġreflect": 5031, "ĠSilicon": 25351, "hak": 37253, "Ġelder": 12995, "ĠCenters": 41911, "Ġworkspace": 32706, "AMA": 38136, "ĠThursday": 10383, "astre": 49199, "ĠTrung": 40555, "Ġspeech": 6218, "æ³ģ": 30772, "ig": 328, "ĠIz": 30296, "ĠHolding": 40818, "ÙĪØ¹": 45367, "<|16.22|>": 51175, "è¦ĸ": 27333, "×Ļ×ľ×ķ": 42997, "ìª½": 16094, "Ġtransforming": 27210, "ĠOak": 19692, "Ġlors": 20653, "Ġstellar": 42333, "...</": 41341, "Ġinadequate": 42107, "Ġtemplates": 21165, "erez": 28735, "æŀľ": 9319, "Ġë³´ëĭĪê¹Į": 25612, "Ã¤nn": 24507, "Ġsleep": 2817, "åľ": 2523, "Ġstopping": 12767, "ĠHub": 18986, "Â«": 36784, "Ġsatisfactory": 48614, "ĠGORDON": 35269, "Ġziet": 39827, "ãģĦãģ¤": 40162, "Ġsuperhero": 19428, "Ġplugged": 25679, "Ģ": 222, "Ġcelebrated": 19366, "Ġbru": 25267, "å°įä¸įå°į": 22550, "Did": 17648, "ifiques": 48463, "Ġmachen": 7069, "ishi": 27537, "Ġnumerous": 12546, "Ġfirefight": 25256, "æĤ": 14696, "alten": 23276, "emitism": 49208, "ĠÐ´Ð¾ÑģÑĤ": 34543, "ãĥł": 32026, "ocre": 42454, "emie": 32163, "ĠÐ·Ð°ÑĤ": 25880, "ĠViktor": 46844, "acyj": 31285, "Ġjan": 25442, "ĠLatin": 10803, "Ġadequately": 41822, "Ġ×Ķ×ª": 25579, ".\"": 889, "Ġpersonalities": 25308, "Ġcentigrade": 44731, "hee": 14600, "show": 34436, "Ġmasked": 45249, "Ġentreg": 32843, "ĠBeyond": 19707, "Ġhvad": 48160, "įĶ": 19666, "akukan": 42774, "Ġpee": 21343, "Ġdemise": 45982, "ĠTracy": 33724, "Ġkole": 18303, "Ġrecords": 7724, "§ī": 47422, "Ġ50": 2625, "Ġmargins": 30317, "ĠA": 316, "ì²ĺëŁ¼": 19881, "thm": 10194, "Ġcasts": 41921, "ĠÑģÐ¿": 5307, "Ġbaskets": 42853, "ĠÐ²Ð°Ð¶Ð½Ð¾": 38851, "Ġgw": 29255, "ĠëįĶë": 46389, "Mc": 46716, "ĠCalvin": 28025, "ĠÐ±ÑĥÐ´ÑĥÑĤ": 20393, "ĠaixÃŃ": 40217, "ĠpoczÄħt": 34397, "Ã¬nh": 10116, "Ġsophom": 32931, "ĠMyanmar": 42725, "<|11.74|>": 50951, "ĠMaurice": 49041, "ĠWong": 41638, "Ġrapper": 26457, "ĠMens": 7364, "Ġdared": 44564, "Ġgeme": 18111, "Ġcapacitance": 50241, "Ġê°ĻìĿĢ": 10005, "åĬłåħ¥": 43878, "Ġsentido": 19850, "Ġcares": 12310, "Ġreps": 27007, "Ġdiscounts": 37930, "Ġflock": 34819, "hÃµes": 31819, "outine": 45075, "å¯¦": 10376, "Ġlength": 4641, "Ġbelli": 48006, "ĠNeg": 19103, "<|13.74|>": 51051, "<|3.36|>": 50532, "Ġporn": 19444, "ĠBOB": 43765, "×ª×Ļ": 22100, "<|28.06|>": 51767, "Ġcorrectly": 8944, "ĠSpark": 23424, "Ġmysterious": 13831, "ĠsÄħ": 9015, "Ġscra": 13943, "Ġdarn": 29063, "Ã¼p": 42693, "Ġgri": 17865, "å°±": 3111, "emin": 20008, "Ð½Ð¸ÑĤ": 47264, "ĠXL": 37210, "ãģ¯": 3065, "ĠFederation": 27237, "Ġdebating": 40647, "Play": 24262, "Ġhare": 39921, "Ã¼yorsun": 41353, "Ġannoying": 11304, "ĠGlory": 28524, "Ġconsumer": 9711, "Ġshines": 28056, "Ä±yÄ±": 48684, "è°ģ": 33556, "åĵª": 17028, "soo": 27970, "Ġcomm": 800, "Ġmegap": 34733, "Mart": 29612, "ĠOrb": 44329, "<|13.66|>": 51047, "ãģĺãĤĥãģªãģĦ": 40323, "ĠAunque": 45068, "Ġexplores": 45473, "Ġupsetting": 44109, "Ġ×": 877, "Ġcybersecurity": 38765, "Ã±a": 12150, "Ġjudgments": 40337, "ĠArchives": 39258, "×Ļ×Ł": 15938, "Ġcousin": 16207, "gga": 33462, "ÐĶ": 8442, "compl": 43856, "built": 23018, "ĠÐ¼Ð°Ð»Ð¾": 37450, "à¯į": 2133, "FA": 19684, "Ġ×Ļ": 8128, "ãĤ·ãĥ«ãĤ¯": 31238, "Ġincompet": 41602, "eros": 16771, "Ġbeside": 15726, "ĠteÅ¼": 9516, "Ġenvisioned": 47733, "Ġrepublic": 18535, "Ġexpecting": 9650, "dar": 20327, "ł¤ê³ł": 18914, "Ġfootsteps": 26883, "Ġgrandson": 31657, "enes": 25973, "ĠÐ´Ð°Ð»ÑĮÑĪÐµ": 26814, "Ġmil": 1962, "aint": 5114, "ĠÐĿÐĲ": 44416, "Ġunits": 6815, "Ġangel": 14250, "Ġapprox": 28080, "Ġdesc": 7471, "Ġ×ŀ×ĵ": 36631, "Ġvalidated": 40693, "Ġsurround": 6262, "ĠÐ¾Ð¿ÑĢÐµÐ´": 26961, "Ġprodu": 1082, "Ð¸ÐºÐ°": 17286, "Ġregistered": 13968, "Ĭ¨": 21588, "ivel": 36504, "Ġproudly": 33522, "ĠTypically": 23129, "ĠGRA": 26121, "ologist": 9201, "ĠVanc": 26417, "Ð°ÑģÑĤ": 9941, "Ġlab": 2715, "ĠOC": 42278, "Ġediyorum": 39203, "Ġenergized": 49231, "SP": 27921, "Ġspider": 17614, "Ġcoc": 21047, "</": 3433, "Ġpenetrate": 36307, "Ġá¼": 34519, "oe": 7921, "Ġpac": 15165, "ĠItÃŃs": 47806, "Ġrebuild": 16877, "ĠRegard": 16613, "aban": 18165, "Ġunreal": 25754, "Ġcaminho": 37215, "å¯Į": 47564, "Ġvideo": 960, "Ġsau": 17828, "Ġleb": 17111, "Ġmotivational": 48186, "ĠSprings": 33065, "Brien": 47999, "ĠApplication": 39512, "ĠFE": 31778, "ĠÐ·Ð½Ð°ÑĤÑĮ": 49997, "ĠìĹ": 2087, "ĠHoriz": 42141, "di": 4504, "Ġfamili": 42155, "ìĽĮìļĶ": 35837, "ball": 3129, "ĠsaÃ§": 48679, "ĠÐ´ÐµÐ²": 20572, "ĠÐ¾Ð¿Ð¸ÑģÐ°Ð½Ð¸Ð¸": 48303, "Ġtransparen": 16165, "Ġfout": 41907, "Ġfalling": 7440, "ĠRoh": 27490, "ĠkÃ¤": 16563, "Ġsupervision": 32675, "Ġobsessed": 16923, "Ġlogar": 41473, "Ġkl": 9671, "ĠHarbor": 33740, "aws": 12282, "ĠSome": 2188, "ĠOptim": 35013, "uce": 4176, "×ľ": 3072, "ÏģÎ¯": 24296, "Ġshow": 855, "åĢĻ": 11238, "niÄĻ": 35938, "Ġdisparity": 47415, "Ġabsence": 17145, "Ġreunion": 34720, "Ġ×Ĳ×ĳ×ľ": 30186, "Ġreceber": 42748, "Ġhice": 50026, "ĠGeor": 27909, "Bye": 32825, "Ġclearing": 23937, "urry": 30614, "Ġheck": 12872, "Ã¤hr": 12021, "osaic": 42261, "<|26.90|>": 51709, "otive": 22459, "Ð°ÑĢÑĭ": 48632, "alin": 24861, "ersch": 22300, "Ġresignation": 49494, "ĠÐ½ÐµÐ²": 21224, "ĠPrecis": 48746, "Ġ1996": 22690, "ĠTrustee": 34373, "its": 1208, "è¨Ń": 39035, "Ġexile": 37984, "Ġchemicals": 16152, "ĠArnold": 30406, "ĠGarcia": 33738, "Ġuniforms": 37235, "Ġradius": 15845, "Ġmnie": 17661, "ĠGuardian": 27684, "Ġíķľëį°": 49780, "ĠwyglÄħda": 32015, "Ġprecious": 12406, "MB": 47554, "Ġearly": 2440, "ĠLou": 7272, "¤ë¥¼": 38309, "Ġrigid": 22195, "ĠsÃ¶yle": 16928, "Ġmeditating": 46850, "Ġwebs": 2859, "Aud": 15591, "Ġmorb": 46510, "ĠÑģÑĤÐ°Ð½Ð¾Ð²": 32003, "Tell": 36152, "ä¸¤": 36257, "ÐµÑĢÐ¶": 11306, "Ġcandies": 43877, "Ġnurt": 23705, "ĠPhar": 45050, "Ġfluids": 33033, "Ġmg": 49566, "erve": 3768, "<|25.64|>": 51646, "çī": 6935, "Ġsincer": 30220, "Ġspir": 10733, "ĠDal": 17357, "Ġpersonnel": 14988, "iesta": 38804, "py": 8200, "ĠLori": 32698, "Ġjars": 38239, "ĠTampa": 40583, "ini": 3812, "ĠcÃ¹ng": 45701, "ĠMig": 18951, "ä½¿": 22982, "ĠIstanbul": 36340, "ìľ¼ë©´ìĦľ": 47884, "Ġobe": 36346, "Ġíļ¨": 33571, "Ġboost": 9194, "Ġpercussion": 44430, "ĠTest": 9279, "resh": 3644, "Ġdemonstrating": 29889, "Ġtrous": 34156, "onsieur": 22293, "Ġpoisoned": 36677, "Ġbund": 13882, "eil": 30684, "gery": 7337, "Ġjustification": 31591, "Ġpastors": 42452, "ĠheiÃŁt": 13139, "onas": 38027, "Ġrela": 5195, "mot": 29778, "ĠYak": 31484, "Ġir": 3418, "ĠBitte": 42890, "ĠOffic": 11511, "Ê": 134, "Ġmushroom": 12094, "ĠÑģÐ²Ð¾": 6989, "´ë": 1327, "urable": 25863, "Ġchor": 14965, "atility": 20758, "Ġengage": 4683, "Ġculprit": 39220, "ĠBlue": 8510, "itchens": 47314, "Ġconnot": 46371, "ĠHaven": 23770, "Ġthis": 341, "Ġgrieving": 48454, "ativity": 30142, "ambled": 43390, "Ġyere": 42044, "ÑĳÐ¼": 12868, "ìłĦë": 49730, "ĠÐ²ÑģÑı": 24614, "Ġscares": 35721, "ĠJazz": 32213, "æĬ±": 38382, "esian": 42434, "ì": 168, "ĠRy": 13654, "Ġdepos": 19930, "prend": 32725, "<|16.40|>": 51184, "ĠÑģÐºÐ°Ð·Ð°Ð»": 24980, "Ġ×Ķ×ĳ": 49052, "ĠNaruhodou": 44658, "Ġkunnen": 18377, "iada": 39018, "Ġskulle": 20750, "ĠACE": 44606, "Ġdarum": 27313, "Ġeher": 24332, "ĠãģĿãĤĮ": 47765, "ă": 191, "Ġdisrespectful": 47750, "isis": 28436, "eless": 4272, "Ġlent": 23556, "ĠStella": 45073, "Ġunion": 11671, "Ġcentral": 5777, "ĠKlar": 44893, "alsa": 24816, "ĠSicherheit": 38778, "áº¡t": 44664, "ĠHall": 5434, "Ġskins": 27888, "arÄ±": 18318, "ĠLehr": 29943, "west": 8750, "Ġkilograms": 30690, "Ġoportunidad": 42794, "åĨ·": 32499, "Ġeso": 7287, "Ġdwar": 24524, "Well": 6271, "Ġtofu": 21419, "Ð¸ÑģÐ°": 50019, "Ġanger": 10240, "ĠHmm": 8239, "payers": 35087, "Ġpoints": 2793, "Ġbadges": 43894, "iceps": 35552, "Ġthirsty": 28115, "culosis": 49379, "ĠWake": 21062, "ĠIreland": 15880, "è¾¹": 40503, "Ġmonitor": 6002, "ĠDro": 35305, "Ġbod": 16737, "urgence": 44607, "Ġdij": 47709, "ignon": 41846, "ĠAda": 32276, "Ġdurable": 22308, "¿": 123, "ÎµÎ¹": 6452, "poque": 34995, "Ġ04": 50022, "ĠPoint": 12387, "ĠHat": 15867, "Ġ330": 45374, "æ¯į": 35744, "Ġdemands": 15107, "ç¨ĭ": 29649, "Ġacontec": 35846, "æł¹": 31337, "Ġmiracles": 24685, "ãĥ»ãĥ»": 9509, "ĠAH": 25888, "iciary": 38801, "åħ¶å¯¦": 14139, "ĠnhÆ°": 16228, "Ġmerde": 45772, "Ġcorrected": 31687, "å¯": 4510, "Ġtopl": 41017, "Ġapresent": 36181, "ielle": 16033, "Ġunhealthy": 29147, "Ġdemokrat": 49432, "zi": 3992, "ÑģÐºÐ¾Ð»ÑĮÐºÐ¾": 18471, "cur": 14112, "Ġ55": 12330, "Ġunter": 8662, "Ġrepetition": 30432, "×Ļ×Ķ": 11920, "Ð°ÑĢÐ´": 49009, "ĠrÃ©cup": 43113, "ĠHao": 36702, "Ġupcoming": 11500, "Ġabdomen": 36494, "endy": 18642, "ĠAaron": 14018, "Ġpillow": 18581, "Ġempez": 18730, "Ġë¶Ģë": 10201, "Ġsociales": 29623, "ĠOP": 23324, "arrator": 7215, "meno": 43232, "ĠHass": 32711, "ìĻĢ": 7590, "Ġwollt": 45826, "Ġyummy": 18576, "ìľł": 19062, "Ġprelim": 26414, "ĠnÆ°á»Ľc": 30728, "<|15.92|>": 51160, "Ġstem": 12312, "Ġmarine": 20246, "Ġverses": 17316, "sters": 10130, "Ġcompet": 2850, "uir": 34498, "Ġappreci": 3616, "ĠÐ¼Ð¾Ð¶ÐµÑĤ": 8689, "ĠTerra": 25366, "Ġalong": 2051, "dens": 32468, "Ġtilted": 43229, "ľë¥¼": 20087, "ĠPur": 14682, "Ġbefore": 949, "Ġcaliber": 41946, "ÐµÐ¹ÑĩÐ°Ñģ": 8427, "Ġtoilet": 11137, "Ġbills": 12433, "ĠCon": 2656, "Ġgenere": 41553, "ìĽĥìĿĮ": 39615, "ÑĢÐ°Ð²Ð»Ñı": 26086, "Ã¼hren": 29540, "Ġexpressions": 15277, "Ġauthentication": 26643, "ĠDrag": 8832, "Ġofficer": 8456, "Ġcertificates": 32941, "colored": 42820, "à®ª": 8012, "Ġphysic": 27903, "ĠâĻª": 931, "ĠKy": 12237, "Ġuh": 2232, "ĠConserv": 26870, "Ġeden": 47727, "ITY": 28853, "Ïį": 6956, "<|0.64|>": 50396, "houette": 28191, "Ġsamb": 47822, "Ġparall": 8069, "Ar": 10683, "ĠLet": 961, "ĠChildren": 13354, "Ġmissile": 19321, "Ġmedios": 46017, "erta": 22765, "Ġcatastrophic": 34915, "nica": 32687, "<|2.96|>": 50512, "Ġwrestler": 47557, "Ġtravelling": 20515, "Ġcliche": 46705, "Ġarrangement": 17620, "Ġtissue": 12404, "Ġdoable": 41183, "ĠUnknown": 32766, "heet": 38164, "Ġdiagon": 17405, "My": 8506, "Ġprovinces": 32873, "Ġintegr": 3572, "ĠHaupt": 30573, "Ġilluminated": 48577, "Ð°Ð¶": 3234, "ĠvÃ¶llig": 35670, "ikit": 48183, "Ġëľ¨": 38766, "Ġhemen": 32466, "ĠPap": 15919, "ĠDell": 33319, "First": 27454, "Ġquarantine": 18138, "important": 41654, "cile": 28886, "Ġpetits": 26487, "Ġhin": 14102, "Ġgallon": 30339, "ĠØ£ÙĪ": 34051, "Ġhugging": 41706, "cemos": 38173, "ìĿ¸ë": 10574, "beitet": 32401, "Ġsu": 459, "aza": 12257, "Ġzen": 37097, "Ġë¹Ħ": 10079, "ĠChampionships": 46917, "à¸Ńà¸°": 36419, "Ġfluff": 41533, "Ð»ÑĮ": 6762, "ĠINF": 35971, "ead": 2056, "BRUN": 17442, "Ġcookie": 14417, "Ġheadaches": 35046, "Ġcal": 2104, "Ġcáº£": 22227, "Ġbuffer": 21762, "icism": 26356, "ela": 4053, "ãģĪãģĪ": 39643, "orders": 10400, "Ġcame": 1361, "Ġsignatures": 32322, "Ð¸Ñİ": 17023, "ĠExplorer": 31895, "Ġchords": 21733, "len": 6698, "Ġhttps": 34426, "Ġcloudy": 33060, "Ġbeats": 16447, "Ġhas": 575, "chte": 10553, "ugu": 13705, "ocado": 21636, "Ġstraighten": 32777, "ãĤĵãģ§ãģĻ": 27113, "GH": 4269, "ĠCauc": 44044, "Ġ1600": 36885, "ĠMitgl": 44167, "ĠÑİ": 29488, "ĠÄĩ": 45854, "Ġpublication": 19953, "Ġogni": 33189, "Ġpreocup": 23080, "Team": 38588, "Ġconcern": 3136, "asz": 19601, "ĠSehr": 32028, "ospheric": 25145, "Ġprejudice": 34260, "Ġcucumber": 28725, "æ¸": 9592, "ĠÐ´ÐµÐ¹ÑģÑĤÐ²Ð¸ÑĤÐµÐ»ÑĮÐ½Ð¾": 27208, "æĺŁ": 20682, "ĠDracula": 48950, "Ġreconstruction": 31565, "Ġvotes": 12068, "ĠMustafa": 37229, "lean": 28499, "ĠRomania": 36678, "ĠÙħÛĮÚº": 27875, "ĠmogÄħ": 34123, "ĠiT": 30882, "ĠëıĮë": 34324, "ĠTell": 5115, "Ġbreakout": 30067, "Ġdong": 33079, "ining": 1760, "êµ": 3359, "Ġacknowledged": 27262, "ĠÑģÐ¸ÑĤÑĥ": 27840, "Ġprovocative": 47663, "Ġredist": 36198, "ĠChan": 16064, "Ġsemicondu": 36924, "ĠëĤĺìĻĶ": 26374, "oubt": 26705, "ÑĢÐ°Ñģ": 17184, "Ġaccelerating": 34391, "à®´": 26853, "Ġyes": 2086, "Ġadministration": 7236, "Ġconsequently": 47259, "ãģĬãģ£": 49693, "Ġinclined": 28173, "itely": 1959, "Ġgentleman": 15761, "ĠZack": 36034, "ł×ķ": 32219, "ĠRudolph": 47292, "ograph": 3108, "edi": 10323, "Ġhorizon": 18046, "Ġë§ī": 14438, "ĠOakland": 34868, "ĠParece": 45419, "éĢ": 2215, "ĠDrink": 24529, "<|3.08|>": 50518, "<|28.20|>": 51774, "mpre": 6516, "Ġfluent": 40799, "Ġnah": 17170, "Ġchip": 11409, "<|24.68|>": 51598, "Ġê¹Ķë": 48693, "ĠBrian": 10765, "Ġfinest": 28141, "à³": 24998, "achine": 34922, "Ġexpire": 45447, "ĠKommunen": 42566, "ĠEnviron": 19286, "Ġbenef": 3070, "emp": 15970, "cycl": 34080, "ĠFollowing": 19192, "ÐłÐĺ": 45683, "Ġnext": 958, "Ġgrocery": 14410, "Ġconfidential": 27054, "ĠDesde": 37985, "Ġoils": 22177, "Ġcalculated": 15598, "Ð¾ÐºÐ¾Ð¹": 29667, "ä¸įçĶ¨": 24384, "<|8.72|>": 50800, "Ġadmiration": 44597, "ÐµÐ´ÑĮ": 16878, "×Ļ×§": 20530, "ĠLÃ¤ndern": 48321, "Ġmisma": 24946, "ĠMacron": 32806, "Ġunsure": 32486, "Ġassets": 9769, "Ġnecessary": 4818, "leme": 47240, "ORD": 13748, "Ġdeepest": 28288, "arel": 37675, "Ġsooner": 15324, "Øº": 17082, "Ġmesma": 21921, "Ġbubb": 13045, "Ġmandated": 47563, "ÏĢÎ¿": 11188, "Ġmedal": 21364, "ãģĳãģ©": 21891, "ĠMein": 18382, "Ġpess": 35895, "ELI": 12349, "ĠLouis": 9763, "jÅĽÄĩ": 44536, "Ġterrifying": 18106, "ĠFun": 11166, "ĠSilva": 50171, "ibly": 3545, "Ġsafe": 3273, "plate": 37008, "Ġchimney": 45920, "Tube": 41173, "ÑĤÐ¾ÑĢ": 2542, "<|12.12|>": 50970, "Ġhum": 1484, "ĠÎ¸Î±": 18828, "ospel": 11190, "ĠPenguin": 49562, "Ġdx": 30017, "Ġallez": 18146, "ìłģìĿ¸": 17495, "ĠÐ¿Ð¾Ð³Ð¾Ð²Ð¾ÑĢ": 38858, "à¥į": 27099, "<|27.44|>": 51736, "Ġresources": 3593, "<|4.02|>": 50565, "Ġfinde": 17841, "Ġprocess": 1399, "venir": 21955, "alog": 44434, "aluable": 38060, "ĠGhana": 38779, "Ġreflected": 15502, "ĠPalestine": 33030, "Ġfacilities": 9406, "ĠPatt": 46332, "LED": 23459, "hist": 33236, "Ġbrill": 8695, "ĠÐ±Ð¾Ð³": 33001, "ĠRep": 3696, "Ġterminals": 38579, "Ġ×Ķ×ŀ×": 17270, "amine": 18929, "holders": 12916, "ĠFeld": 42677, "ĠMemphis": 26743, "Ġpun": 4468, "Ġwhile": 1339, "Ġeasy": 1858, "ĠEve": 15544, "Ġturmoil": 44554, "ÐµÐ²Ð¸Ñĩ": 42110, "non": 30092, "Ġloca": 47965, "<|15.66|>": 51147, "funded": 43589, "ĠnÃ¥r": 36522, "ĠHus": 21282, "Ġbackstory": 36899, "ì³Ĳ": 31318, "ÏģÎ¿Ïį": 43103, "Ġ^": 18956, "Ġrats": 25691, "Ġfruition": 48738, "ĠÐ¿Ð¾ÑĤÑĢÐµÐ±": 40529, "æģŃåĸľ": 42179, "Ġ86": 26687, "Ð": 140, "ĠLO": 15731, "Ġbulbs": 32871, "ĠNvidia": 46284, "ĠComo": 11913, "ãģĿãģĨãģł": 39471, "Ġearns": 46936, "Ġbask": 34055, "èħ³": 49595, "Ġfiling": 26854, "ĠCanada": 6309, "ĠChr": 1721, "ĠÐ¼ÐµÐ¶Ð´Ñĥ": 24098, "ength": 4206, "Ġkite": 38867, "ision": 1991, "ĠBus": 8006, "Ġsimplistic": 44199, "Ġpredicted": 19147, "Ã©nergie": 44154, "see": 17109, "ĠCosta": 28440, "ĠANNOUNCER": 35629, "Ġbouncing": 27380, "Ġimportante": 9416, "Ġspecific": 2685, "åĽ½": 16086, "Ġinvestigate": 15013, "Ġvikt": 26737, "Ġadrenaline": 35649, "Ġdisappointed": 13856, "ĠFerr": 25443, "ĠPakistani": 50253, "ĠãĢĮ": 21675, "ĠPompe": 38527, "Ġhygiene": 29541, "ĠDarrin": 47368, "æĻļä¸Ĭ": 50157, "ĠLevi": 33987, "<|20.82|>": 51405, "ĠasÃŃ": 8582, "ÑĸÐ»": 35432, "ati": 6908, "cultural": 50155, "Ġì§ģ": 19224, "Ġarriba": 28469, "Ġthá»©": 47269, "ĠÑĤÐ¸": 39317, "Ø¯Ùħ": 40448, "Ġmelting": 20493, "Ġjakby": 28976, "ä½łåľ¨": 41410, "ĠWire": 32598, "gypt": 9176, "ĠCru": 13586, "Ġ]": 4183, "ÑĥÑģÐ¾Ð²": 48346, "iere": 14412, "ĠÑĤÐ°ÐºÑĥÑİ": 42456, "<|28.08|>": 51768, "Ġknead": 28602, "Ġuneasy": 48589,
[...]
