{"éĢĻæ¨£åŃĲ": 24842, "Ġbra": 1548, "Ġapparatus": 38573, "ĠBoo": 23351, "Ġadm": 5910, "Ġdis": 717, "ĠjÄħ": 35692, "rib": 2024, "Ġpled": 34263, "AG": 50228, "schein": 23672, "å¥½åĲĥ": 34669, "Ð¸Ñī": 22280, "Ġtravels": 19863, "Ġrozp": 47576, "Ġreorgan": 41203, "ĠÐ¼Ð°Ð»Ð¾": 37450, "ws": 14358, "ĠBrave": 38545, "Ġcommissioner": 33678, "Ġeditor": 9839, "<|17.10|>": 51219, "<|17.98|>": 51263, "ĠUber": 21839, "ĠíĹĪíĮĿ": 41756, "ĠSherman": 45130, "ä¸Ģ": 2257, "Ġsynthetic": 23420, "<|11.06|>": 50917, "ĠFail": 39094, "Ġrub": 5915, "ĠSlo": 22497, "Ġtendencies": 45488, "Ġmoney": 1460, "ĠTier": 24224, "Ġverify": 16888, "Ġxu": 41104, "Ġspac": 39404, "Ġblush": 25218, "ĠHands": 21369, "Ġpag": 11812, "Ġmitad": 46895, "alla": 10352, "body": 1067, "Ġcoincidence": 22137, "Ġbuen": 30037, "ĠPop": 10215, "Ġgry": 41974, "ĠCommons": 34894, "á¹": 10804, "ott": 1521, "ĠÐŁÐ¾ÐºÐ°": 38401, "ĠÐ¿ÑģÐ¸Ñħ": 44159, "Ġfazla": 30611, "Ġaffair": 22987, "Ġink": 11276, "Ġnotified": 18013, "Ġdeterminant": 41296, "fficiency": 49086, "Ø±Ùĥ": 31747, "ĠNative": 15093, "Ġtopic": 4829, "Ġjedem": 36538, "Ġangles": 14708, "Ð°Ð½Ð¸Ðµ": 9633, "Ġsinon": 46035, "ĠPotter": 18115, "Ġseria": 20809, "Ġinfer": 13596, "ãĤĮãģŁ": 35478, "ĠArin": 24209, "Ġeinges": 49821, "ENTS": 49751, "Ġnickname": 21641, "terior": 10872, "Ġexplosion": 15673, "<|4.34|>": 50581, "Ġguer": 14486, "ä»Ĭå¹´": 38937, "Fr": 40305, "Ġbesteht": 43680, "Ġdirectional": 42242, "²ķ": 30610, "ĠProject": 9849, "arth": 18352, "Ġultras": 37072, "ĠMIT": 13100, "Ġscenario": 9005, "Ġvallahi": 45338, "Ġworkflows": 43461, "ĠAc": 5097, "Ġreiter": 25211, "Ġdisciplines": 21919, "Na": 33824, "Ġinitiation": 43569, "],": 10599, "ĠPunkt": 25487, "asp": 9375, "Ġperiod": 2896, "ĠBeijing": 20240, "Ġtale": 17172, "Ġgr": 677, "Ġarche": 37897, "Ġknots": 27426, "ĠallÃ¡": 30642, "Ġglance": 21094, "<|0.78|>": 50403, "ĠPione": 48844, "oren": 10948, "Ġflexible": 11358, "riz": 24959, "emit": 31443, "ç¤º": 25696, "angel": 14282, "VO": 20664, "ĠHarr": 13321, "à¯ĭ": 18169, "ĠNXT": 38414, "<|6.16|>": 50672, "Ġdozen": 16654, "Ġ280": 41229, "Ġcrush": 10321, "ytes": 43673, "Ġìĺ¤ëĬ": 36791, "6": 21, "ĠLong": 8282, "Ġdenkt": 38658, "ĠÐ½Ð¾Ð²": 10022, "Ġes": 785, "Ã¶t": 12082, "Ġairborne": 49278, "ãģµãģµ": 44520, "Ġamplitude": 27433, "<|9.86|>": 50857, "ĠìĿ´ëłĩê²Į": 5483, "<|23.08|>": 51518, "Too": 40980, "å¸Į": 26496, "ĠSunday": 7776, "ĠKill": 17526, "Ġund": 674, "Ġelaborate": 20945, "Ġunlike": 8343, "Ġdecay": 21039, "Ġimpress": 6729, "ĠÎµ": 5958, "è¿İ": 17699, "Ġcompletes": 36362, "ĠProtest": 27259, "Ġdistributor": 49192, "mon": 3317, "Ġclog": 34455, "<|fa|>": 50300, "Ġinteg": 16200, "Ġstoring": 26085, "Ġdurum": 35218, "Ãłi": 21971, "Ġíķ´ìķ¼": 20556, "allah": 13492, "Ġtaki": 20065, "Ġstems": 27600, "Ġirregular": 29349, "Ġcoke": 33659, "Ġreservations": 40222, "<|22.88|>": 51508, "Ġread": 1401, "á»«ng": 39121, "Ġespecially": 2318, "ĠDA": 9578, "Ġmounts": 40982, "Ġjumps": 16704, "ricular": 42750, "Ġdecimal": 26601, "ĠVeg": 12895, "Î½Î¿": 17444, "Ġmotivations": 39034, "Ġinteresting": 1880, "Ġtranqu": 17640, "Ġreinst": 35056, "ĠApplication": 39512, "Ġsymptoms": 8332, "ĠPLAYING": 9871, "pres": 14508, "David": 18371, "Ġenemy": 5945, "ãĤĭ": 4895, "chin": 32167, "ura": 2991, "Ġ(": 522, "eeee": 21893, "Ġeleven": 21090, "Ġestr": 35680, "Ġpar": 971, "Ġzoo": 25347, "Ġsweep": 22169, "Ġturret": 34544, "Ġprotective": 16314, "Ġcal": 2104, "Ġexposed": 9495, "ĠAaron": 14018, "èŃ°": 24686, "<|0.38|>": 50383, "Ġà¶": 35139, "Ġìĭłê¸°": 47958, "Ġgord": 42443, "íĪ¬": 40147, "film": 37023, "Qu": 8547, "ematics": 37541, "Ġoffen": 35253, "Ġvars": 46130, "įĶëĿ¼ê³łìļĶ": 21261, "ĠLena": 41549, "Ġdzisiaj": 25772, "Ġmama": 18775, "ĠText": 18643, "ĠØ§ÙĦØ±": 34892, "è°¢": 11340, "iera": 10609, "Ġpueblo": 33764, "Ġperto": 42855, "vent": 2475, "ĠìŀĪë": 23549, "Ġsizin": 36312, "ahon": 45080, "Ġbelong": 5784, "Ġoutdoor": 15942, "á»ĩc": 36566, "cor": 19558, "<|11.00|>": 50914, "ados": 4181, "Ġris": 2253, "KI": 27731, "ĠTHERE": 40562, "yrics": 11381, "ĠÐ´ÐµÐ»Ð¾": 26444, "ÙĤØ¯": 28543, "ĠPÃ¥": 45133, "ĠNg": 21198, "Ġtower": 10567, "Ġswatch": 42362, "ìĿ´ìĬ¤": 28334, "ĠÐ¿ÑĢÐ¾ÑĦÐµÑģÑģ": 43624, "Ġfurther": 3052, "Ġdeveloped": 4743, "CI": 25240, "ĠHol": 11086, "ĠDana": 23759, "ulsion": 22973, "Ġbear": 6155, "ĠResearchers": 43555, "Ġmorning": 2446, "Ġentrepreneurial": 33094, "Ġtwenty": 7699, "×¨×ļ": 48214, "ĠAdam": 7938, "<|16.34|>": 51181, "lem": 10386, "Ġupdated": 10588, "ĠChampionships": 46917, "Ġplats": 48328, "orders": 10400, "ĠëıĦ": 10701, "ĠDENNIS": 47172, "Ð¾Ð´Ð°": 22758, "ãĢĮ": 3246, "OSH": 26255, "¦¬ëĬĶ": 20896, "Ġcommanders": 42932, "Ġmour": 22235, "Ġdetails": 4365, "íĺĦ": 16756, "Ãłng": 26653, "Ġbater": 25735, "Bre": 43034, "ãģŃ": 5555, "azione": 12928, "Ġeyelid": 39386, "ĠPS": 8168, "dar": 20327, "ĠBroad": 14074, "Ġspir": 10733, "ĠVR": 13722, "Ġquarter": 6555, "<|12.22|>": 50975, "niejsze": 44258, "å½±": 16820, "Ġness": 39787, "odu": 34873, "Ġbureaucracy": 44671, "Ġrestriction": 29529, "ĠGroup": 10500, "Ġdeepest": 28288, "Ġdecks": 32607, "Ġsystems": 3652, "ĠÐ¼ÑĥÐ·Ñĭ": 34249, "èµ°äºĨ": 35267, "Ġnovo": 18246, "DB": 27735, "ĠMediterranean": 27280, "ĠMajesty": 10665, "Med": 42954, "ĠCha": 12374, "ĠÅº": 50212, "ĠSection": 21804, "ĠGrandpa": 27139, "lated": 38539, "yen": 16580, "Ġtheir": 641, "usi": 33016, "ĠQueen": 10077, "èªįçĤº": 39450, "ĠÐ¿Ð¾Ð¿ÑĢÐ¾Ð±": 34089, "bell": 7100, "æ²¡": 10062, "ĠKi": 17459, "ĠOm": 9757, "Ġmarch": 8368, "á»§": 28903, "Ġshot": 3347, "Ġstunned": 35394, "ĠAvant": 44822, "alten": 23276, "Ġvehicles": 8948, "ingers": 40180, "ĠTang": 22063, "Ġnegro": 40008, "ricting": 37714, "ĠEarl": 38936, "people": 21123, "<|3.06|>": 50517, "ĠNBC": 31504, "ĠLightning": 28848, "Ġproceeds": 32280, "à¸·": 14164, "Ġanticipated": 23267, "Ġì¤ĳ": 7596, "Ġcuff": 35997, "Ġë¶Ħëĵ¤ìĿ´": 36029, "Ġnoisy": 24518, "ĠBecca": 33148, "ĠBar": 4156, "Ð½Ð¾Ð²Ð°": 30742, "Ġhead": 1378, "Ġê°ĸ": 27668, "<|13.80|>": 51054, "Ġmodify": 16927, "Ġgovern": 1980, "éĹ®é¢ĺ": 34069, "Ġcomplementary": 40705, "Ġparap": 36992, "è¬Ŀ": 6350, "itionally": 15899, "åĪ¥": 16158, "Ġrankings": 36550, "Vict": 39981, "ĠCohen": 32968, "Ġë§ĪìĿĮ": 20477, "ãģªãģĦ": 9311, "gasp": 42267, "Ġobviously": 2745, "ĠìłķíĻķ": 47930, "ĠFrench": 5522, "ĠPolize": 30735, "ammad": 15481, "Ġtomar": 22048, "wave": 35461, "ĠÑĢÐ°ÑģÑĤ": 31274, "Ġveloc": 7806, "ucch": 32621, "Ġtyle": 39293, "Ġwasn": 2067, "Ġwarfare": 24490, "'M": 25310, "Ġsoil": 6704, "icon": 11911, "ĠOcean": 18101, "AUL": 22624, "Mon": 32498, "Ġsek": 17215, "Ġbuffer": 21762, "<|2.64|>": 50496, "Ġíķ´ìĦľ": 17705, "arse": 11668, "Ġcounter": 5682, "55": 13622, "ĠGall": 14588, "duino": 36262, "Ġthoughts": 4598, "Ø¤": 33604, "Camer": 39027, "code": 22332, "Ġaccord": 18640, "Ġpost": 2183, "Ġencounter": 8593, "ĠImp": 8270, "abb": 10797, "Ġvoltage": 8352, "Ġfurious": 33470, "Ġwarnings": 30009, "kward": 10618, "Ġaik": 37537, "Ġhttp": 37428, "ĠnÃºmeros": 36545, "Ġdeadlines": 37548, "ØŃØª": 33753, "ĠAfghanistan": 13658, "REW": 26543, "Ġà®ī": 23656, "cup": 16794, "Ġposts": 12300, "ĠLaden": 45555, "Ð¸Ð²ÐµÑĤ": 31259, "ĠUnf": 8170, "esc": 37890, "Ġscrutiny": 38615, "Ġtw": 683, "IL": 4620, "Ġcommission": 9221, "ĠBrain": 29783, "Ġvoice": 3177, "ĠFol": 15255, "Ġemotions": 8462, "US": 3447, "ĠKath": 20067, "ÄĻd": 6298, "Ġdonating": 36686, "<|16.98|>": 51213, "ĠResources": 29706, "Ġpeek": 19604, "acial": 25980, "ĠYou": 509, "Ġpronunciation": 23338, "Ġpasti": 48145, "avors": 11759, "Ġcustomer": 5474, "illon": 30961, "urm": 26717, "çĸ": 18140, "ĠCreed": 39103, "ä½łä»¬": 29806, "Ġelle": 8404, "Ġexpl": 1490, "Ð¾ÑĹ": 49065, "<|29.52|>": 51840, "Ġvideos": 2145, "ãģĿ": 5040, "ĠBudget": 33751, "Ġinstinct": 16556, "Ġchá»ī": 33566, "ĠHayÄ±r": 30102, "3": 18, "Ġaccompanying": 43648, "Ã³g": 14047, "Ġordinary": 10547, "Î³Î¿": 40761, "parent": 38321, "ĠPriv": 39691, "ÐµÑĩÐµÐ½Ð¸Ðµ": 44274, "Ġaugment": 29919, "Ġpista": 49516, "ĠSilicon": 25351, "Ġcomun": 11040, "æĥ": 4799, "Ġintertw": 44400, "General": 46302, "ĠRYAN": 32354, "Ġê±°ìĺĪìļĶ": 14050, "íĽĪ": 35715, "Ð¿ÐµÑĢÐ²": 44488, "Ġeventual": 33160, "Ġincom": 14036, "Ġwichtiger": 48840, "Ġintr": 17467, "Ġcadre": 39546, "ptions": 9799, "Ġargent": 33977, "acity": 19008, "Ġeveryday": 7429, "Ġphen": 7279, "ĠArbeit": 18604, "Ġpaso": 29212, "Ġmaken": 24703, "ĠSusan": 15160, "Ġsteak": 17009, "Ġhuman": 1952, "ĠTy": 5569, "ĠKat": 8365, "ĠBron": 19544, "Ġstrateg": 5464, "Ġvolatility": 25877, "velmente": 39786, "ipedia": 26633, "Ġefic": 49510, "Ġirony": 35365, "Ġawakening": 31550, "cing": 2175, "Ġfeeder": 48778, "ĠðŁİ": 19034, "Ġacknowledge": 10692, "cellent": 5866, "ĠÙĥÙĦ": 28242, "ä¸Īå¤«": 39642, "ĠChelsea": 26527, "Ġprzygot": 35914, "ider": 1438, "Ġkomplett": 32261, "ÙģÙĬ": 41185, "<|6.88|>": 50708, "Ġremembering": 20719, "<|12.14|>": 50971, "Ð¾Ð¼Ðµ": 45540, "Ġmarinade": 49386, "now": 3785, "ĠÐĿÐ°Ð´": 29637, "çµĦ": 30052, "ĠDIS": 49028, "Ġkor": 14784, "owing": 9637, "ĠSev": 28960, "Ĩµ": 9999, "Ġdeze": 18040, "Ġmedia": 3021, "iert": 4859, "Ġmoi": 7748, "<|3.36|>": 50532, "áº¯m": 41227, "Ġsurviving": 24948, "Ġbatter": 4220, "êµ": 3359, "ĠPaula": 31663, "ĠVide": 7926, "łĩ": 3921, "íĬ¸": 8857, "ĠAuckland": 33976, "Ġcinq": 43335, "ĠPing": 33645, "Ġcareg": 25087, "ĠOakland": 34868, "Ġwert": 47659, "Ġvine": 12755, "IZ": 24374, "ĠCharacter": 36786, "ĠDatab": 40461, "Ġrou": 18450, "Ġliner": 24468, "ĠnÃŃvel": 41747, "roat": 10495, "Ġ180": 11971, "ĠBh": 13550, "Ġabuses": 47681, "Ġourselves": 4175, "Ġhogy": 14601, "izaÃ§Ã£o": 27467, "ĠÑĪÐ¸ÑĢ": 44583, "rates": 12507, "ĠWA": 26915, "ocumented": 35739, "Ġencontramos": 45049, "ÐµÐ¼": 1504, "Ġwid": 5274, "ĠGerilim": 30687, "Ġlavender": 43757, "anton": 46041, "ĠPromised": 38478, "Ġforehead": 20472, "ĠMus": 3569, "å¤©": 6135, "Ġpartes": 31210, "éĤ£": 4184, "æŃ£": 15789, "ĠJang": 29912, "Ġvagina": 38963, "Ġwrapping": 21993, "<|hi|>": 50276, "<|23.44|>": 51536, "iliÅĽmy": 43912, "Ġstom": 9036, "ìłķ": 6170, "ĠÐ¼Ð¾Ð¶ÐµÑĤÐµ": 23578, "Ġobten": 28326, "ĠWAS": 28984, "ĠOUT": 22451, "ĠEnergy": 14939, "Ġnarrow": 9432, "prit": 24047, "ĠCarm": 44530, "ĠGolden": 13410, "Ġpassou": 44740, "ĠÑģÐ¿ÑĢÐ°Ð²": 31853, "Ġboard": 3150, "Ok": 26616, "ĠQR": 32784, "Ġcooling": 14785, "ĠrÃ³wnieÅ¼": 20532, "ÙĦØ©": 37977, "Ġsquare": 3732, "ĠSteuer": 44250, "Ġgewesen": 27653, "ĠBayern": 29163, "Ġdiscovers": 44522, "bird": 18080, "Ġhice": 50026, "Ġreve": 5174, "ĠKot": 30123, "Ð¸ÐµÐ¹": 48580, "illÃ¤": 21823, "ĠÅĽ": 8299, "aktu": 37535, "ĠBott": 28479, "ÐµÐ·Ð´": 26510, "rzy": 13047, "ĠRever": 26314, "aman": 6147, "ĠSaul": 35661, "ĠRas": 24649, "Ġìļ°ë¦¬ë": 36118, "Ġdisrespect": 27058, "Ġnope": 23444, "Ġswiftly": 49891, "Ġbanks": 10237, "Ġclearer": 26131, "iste": 8375, "Ġkaf": 35426, "Ġcurtain": 26789, "ĠChef": 14447, "ĠWahr": 36357, "Ġtrembling": 47354, "Ġimproper": 40651, "Ġpalavra": 40960, "Ġsubsequ": 13924, "Ġgele": 20234, "Ġmanually": 16945, "éĸ±": 29602, "Ġairpl": 13781, "ì²´ê°Ģ": 39881, "Ġlabeled": 21335, "Ġrespecto": 35694, "nÃ©": 15055, "à¸¡à¸²": 24815, "ĠÐµÐ³Ð¾": 6448, "Ġpayload": 30918, "Ð¸ÑĢÐ¾Ð²Ð°Ð½": 48317, "ÑĭÐ²Ð°ÑĤÑĮ": 25265, "Ġfavor": 2294, "Ġsog": 38440, "Ġsuivre": 43404, "ãģĿãĤĮãģ¯": 48846, "åĮĹ": 26668, "à¸«à¸¡": 40050, "fik": 31230, "ĠComics": 43533, "Ġdepth": 7161, "wers": 5364, "èĪ": 10256, "ating": 990, "Ġemail": 3796, "Ġdor": 26313, "<|14.68|>": 51098, "<|7.02|>": 50715, "ĠìĥĪë": 21922, "Ġì£Ħ": 37347, "ĠbehÃ¶": 26187, "ifies": 11221, "elong": 25490, "Ġdesper": 10679, "ĠTodd": 21488, "Ġweapon": 7463, "Ġmoles": 34286, "<|17.80|>": 51254, "ĠbyÅĤy": 26366, "Ġpug": 47900, "borne": 23739, "<|26.64|>": 51696, "Ġtrusting": 28235, "<|10.88|>": 50908, "Ĳëį°": 43429, "live": 45273, "ELLE": 33420, "Ġë§Īë": 25847, "Ġhats": 20549, "ĠÐºÐ¾ÑĤÐ¾ÑĢÐ¾Ðµ": 32000, "Ġbana": 16832, "Ġairlines": 37147, "allo": 37104, "ĠÐ¾ÑĤ": 2943, "ĠEmp": 8599, "Ġê´Ģìĭ¬": 47229, "Ġripped": 22780, "ĠÐ¾ÑĤÐ½Ð¾Ñģ": 44539, "FBE": 26468, "ood": 1816, "Ġrendering": 22407, "Ġinvite": 7980, "Les": 43701, "ale": 1220, "Ġclient": 6423, "Ġcamping": 19470, "ĠCentury": 28555, "ĠAvoid": 41061, "ĠHOW": 30561, "fashioned": 37998, "Ġê¶ģê¸Ī": 32886, "ĠIsaac": 22505, "ĠTheater": 26548, "äºĶ": 21001, "ĠKes": 26898, "ĠRockef": 50178, "ĠMaj": 7048, "Ġfamille": 28123, "eleri": 44501, "Ġreopening": 39542, "ĠConfederate": 45000, "áºŃ": 9973, "Ġvictim": 6760, "Ġessayer": 32421, "Ġê±°ê¸°": 25191, "ĠÐ¿ÑĢÐ¸Ñĩ": 26472, "Ġpyramid": 25950, "ĠmÃ©": 13191, "Ġsimples": 21730, "Ġcreated": 2942, "íŀĪ": 5905, "ĠHealthy": 37733, "Ġthemes": 13544, "Ġforens": 32034, "<|29.64|>": 51846, "áº¡i": 12745, "Ġsini": 30368, "Ġë°ľëĿ¼": 37861, "ĠMitchell": 27582, "ĠMeinung": 36519, "Ġdepreci": 40609, "Ġë¦¬": 28227, "ĠVanguard": 46648, "Ġglands": 49533, "Ġcombien": 48975, "Ġswear": 11902, "Ð¾Ð±ÑĭÑĤÐ¸": 41527, "Ġmatch": 2995, "Ġdelegation": 36602, "ĠChaos": 32644, "Ġfond": 9557, "Ġwaiting": 3806, "ÐµÐ½": 1008, "ĠÅŁunu": 45821, "Ġammunition": 32251, "ĠÏĢÎ±": 23380, "ä»ĸçļĦ": 31309, "Ġorchestral": 36244, "Ě": 214, "ĠWOW": 34728, "å°įä¸įå°į": 22550, "Ġlabour": 22572, "ĠMyanmar": 42725, "Fin": 50068, "Ġcrisp": 22952, "Ġlatt": 29025, "ĠÐ¡": 2933, "ging": 3249, "ãĥ»ãĥ»": 9509, "Ã¤ngt": 29670, "Ġcog": 46521, "ĠTyr": 43126, "<|14.86|>": 51107, "Ġtaps": 42536, "Ġspeaking": 4124, "Ġolds": 41972, "Ġphenomen": 9388, "Ġentirety": 31557, "Ġcaught": 5415, "ĠDol": 18786, "Ġunanimously": 48733, "iva": 5931, "isa": 3837, "emi": 13372, "ĠWisconsin": 17977, "Ð°ÑĤÐµ": 49370, "Ġslipping": 36779, "Ġquerer": 39318, "ĠÑģÐ¾Ð²ÑĢÐµÐ¼": 42880, "stream": 9291, "âĻ¬": 42863, "Three": 46696, "ĠparlÃ©": 38570, "Ġincumbent": 45539, "Ġcamera": 2799, "Ġunleash": 49814, "Ġperdu": 44759, "igu": 16397, "Ġworry": 3292, "Ġleague": 14957, "ĠGimme": 48047, "ĠPost": 10223, "Ġgalaxies": 28755, "ĠLevi": 33987, "Ġassignment": 15187, "×Ļ×ļ": 25988, "Ġproportions": 32482, ")(": 29422, "<|22.76|>": 51502, "<|13.82|>": 51055, "Ġë³´ëĤ": 39833, "Ġswimming": 11989, "ensional": 11075, "Ġtranscription": 35288, "ĠWie": 9233, "Ġfreed": 21796, "Ġcollaborating": 30188, "ĠÐĴÐ°Ð¼": 43670, "ĠMerkel": 38356, "Ġcattle": 19992, "åĲĥ": 10123, "Ġmondo": 40499, "×ĳ": 5838, "èģ¯": 43942, "ĠOklahoma": 21183, "ĠPat": 4379, "Ġberaber": 39855, "ĠOlga": 48288, "Ġsuspended": 23437, "Ġmathematical": 18894, "ooooo": 47116, "Ġdownstream": 30621, "ĠÑģÐ¾Ð±Ð¸ÑĢ": 41534, "ĠBloody": 46877, "Ġìª½": 31790, "Ġdesarrollo": 38295, "Ġedges": 8819, "<|5.96|>": 50662, "ĠBackground": 36904, "ĠÐ½ÐµÐ·": 34691, "ÑĢÐ¾ÑģÑĤ": 46155, "Ġscholarship": 16178, "Ġpris": 16163, "isexual": 38505, "ĠMueller": 38152, "Ġtakes": 2516, "ĠLoad": 48408, "ÑĸÐ»": 35432, "selling": 30427, "ĠCalendar": 43583, "ĠÑįÑĤÐ¾Ð¼Ñĥ": 31500, "ĠOptim": 35013, "Ġzaj": 33729, "Ġnoget": 34574, "employ": 12112, "ĠBart": 22338, "metro": 45400, "Ġuprising": 49144, "ÑĨÐ¾": 44569, "ined": 2001, "indust": 29850, "<|14.48|>": 51088, "Gary": 31798, "ĠMARK": 20606, "Ġdeber": 29671, "ĠDeep": 14895, "Ġtrump": 21779, "Ġchunky": 45392, "Ġdem": 1371, "Ðĳ": 18172, "Ġphones": 10216, "ocur": 20885, "happy": 17888, "<|3.58|>": 50543, "Ġdream": 3055, "ayÄ±": 18376, "Ġsingle": 2167, "¶ĢíĦ°": 12130, "<|28.42|>": 51785, "Ro": 26235, "ĠWarsz": 48479, "ĠBÃľNDNIS": 25667, "Ġalphabet": 23339, "Ġverde": 29653, "Ġstrongly": 10613, "bie": 7392, "pan": 6040, "ney": 2397, "ĠÐ¢Ð¾": 16047, "Rep": 25554, "Ġoutstanding": 14485, "Ġvict": 4403, "ĠÎ¤Î¿": 44524, "ĠVera": 46982, "face": 2868, "ÎµÏĦÎ±Î¹": 39686, "Ġremovable": 44060, "Ġstrap": 18359, "Ġmuss": 6425, "adora": 23020, "ĠOhio": 14469, "ÑĭÑĩÐ½Ð¾": 35214, "ĠTank": 28746, "ì¡Į": 25001, "ĠSpeed": 18774, "Ġdest": 2677, "Ġvirtues": 41106, "Nathan": 50072, "uke": 15420, "Ð¾Ð½Ð¾Ð²": 28137, "Ġforest": 6719, "<|5.58|>": 50643, "ÙħØ±": 29973, "å¤ļå°ĳ": 41492, "ĠGrab": 20357, "ĠÐ¿ÑĢÐ¾Ðº": 37225, "Ġtransmitted": 25355, "Ġsolution": 3827, "Ġeff": 1244, "My": 8506, "ĠÐ±Ð°Ð½": 29049, "Ġrecover": 8114, "Ġ&": 3693, "Ġperm": 4784, "Ġhospitals": 13014, "Ġdt": 36423, "Ġim": 566, "ĠSpr": 7702, "Ð¸Ð»Ð¸": 5435, "Ġrendez": 40026, "ĠTH": 3578, "Ġmeasure": 3481, "Ġreflective": 28931, "Ġclam": 34112, "Ġpause": 10465, "ĠCor": 3925, "Ġpositioning": 26381, "Ġhatred": 21890, "Ġtengan": 46874, "ected": 39963, "etah": 47947, "ivos": 16501, "Ġtricks": 11733, "edge": 12203, "ĠDNS": 35153, "ĠÐ½Ð°Ð·Ð²": 27161, "wards": 2015, "éĢĻåĢĭæĺ¯": 41427, "Ġville": 23019, "ÏģÎ¹": 13477, "ĠCAS": 43268, "ĠungefÃ¤hr": 41285, "gger": 39381, "ĠÐ¼Ð°ÑģÑģ": 31384, "Ġtheta": 9725, "Ġchann": 2078, "Ġ1800": 24327, "ÐµÐºÑģ": 38269, "Ġmile": 12620, "ĠAfterwards": 41357, "Ġearrings": 31902, "Ġcontrolled": 10164, "Ġclot": 48587, "æĭ": 6852, "emo": 36221, "<|13.90|>": 51059, "Ġindent": 44494, "Ð°Ð½Ð¸ÐµÐ¼": 32861, "Ġê±°ëĬĶ": 46821, "Ġpapa": 31015, "Ġgrinder": 41424, "lamation": 43233, "ouncer": 14296, "ony": 2526, "ĠHarsh": 48914, "è": 164, "<|15.52|>": 51140, "Ġcruising": 42180, "ĠLÃ¶sung": 46934, "Ġíħ": 18575, "Ġserie": 23030, "î": 170, "Ġmissile": 19321, "íĮĲ": 28306, "Ġë°Ķë¡ľ": 15965, "ĠAAA": 34347, "Ġdevastating": 21280, "ĠMerc": 18897, "GG": 27561, "Ġerkl": 27570, "ĠHam": 8234, "ĠÐ¿ÑĢÐ°ÐºÑĤÐ¸ÑĩÐµÑģÐºÐ¸": 38086, "avaÅŁ": 38733, "ĠSharing": 49060, "ĠVisit": 24548, "odar": 43211, "ĠGreat": 3769, "Ø§Ùħ": 10943, "Ġiterations": 36540, "ĠDual": 37625, "Ġplans": 5482, "fight": 14919, "ĠCertainly": 16628, "Ġcharacter": 2517, "Ħ¸": 20600, "å§Ĳ": 18102, "æĪĳåĢĳ": 5884, "zej": 16920, "Ġ|": 18362, "Ġtherapists": 36509, "ĠìĹ´": 41280, "illar": 30635, "allows": 38811, "driven": 25456, "Ġlonger": 2854, "ĠGateway": 48394, "íĻķ": 36378, "Ġmete": 21245, "<|sr|>": 50303, "æŁĵ": 46568, "bour": 15533, "bows": 21118, "fs": 16883, "ĠTao": 26580, "Ġsweats": 38712, "Ġensuring": 16882, "Ġzak": 23810, "Ġbears": 17276, "ãģĵãĤĮãģ§": 49477, "Ġauthent": 9214, "Ġoutta": 21327, "iciency": 42081, "osos": 33894, "Ġheadlights": 38487, "¦¬ë©´": 40093, "ĠHome": 8719, "ĠVan": 8979, "Ġestable": 37444, "Ġcoch": 48599, "Ġmusste": 34497, "ãĤ¹ãĥĪ": 40498, "ĠLatin": 10803, "Ġdurante": 14427, "Bir": 41786, "ĠCouldn": 35800, "Ġannouncer": 49574, "ĠÐĴÑĤÐ¾ÑĢ": 49732, "Ġgrenades": 43529, "Ġbatteries": 13070, "Ġstrong": 2068, "ĠHoe": 33979, "ocy": 31078, "ĠHoriz": 42141, "ukan": 22324, "wurf": 31515, "Ġsauce": 4880, "orang": 37909, "ĠÐ±Ð¾Ðº": 45156, "Ġopt": 2427, "arching": 36499, "ĠOpp": 15666, "ĠBears": 50180, "<|14.38|>": 51083, "ĠÑģÐ´ÐµÐ»Ð°Ð»Ð¸": 44780, "ĠÐºÑĤÐ¾": 12278, "Ġimplementing": 18114, "Ġreconst": 16891, "ĠÐ¼Ð¾Ð³Ñĥ": 22951, "è³½": 45668, "ĠTwitter": 5794, "cond": 18882, "ĠChristianity": 17326, "Ġfallen": 11547, "Ġtourism": 21832, "Add": 36189, "ut": 325, "lington": 45996, "print": 14030, "ĠXian": 47581, "ĠíĬ": 11412, "ĠDowntown": 49255, "ĠRoad": 11507, "ĠRule": 27533, "ÐµÐ·": 3634, "Ġboosting": 43117, "Ġobviamente": 36325, "ĠIndonesia": 16879, "ĠRJ": 46810, "zh": 41032, "Ġunpredictable": 31160, "Ġbott": 2274, "ĠiÃ§in": 8457, "Ġzucch": 36748, "ĠQur": 26094, "Ġincentives": 23374, "Ġsuspects": 35667, "Ġmelhor": 13714, "ÑģÑĤÐ²ÐµÐ½": 12134, "Ġchil": 38002, "ĠAsÃŃ": 17419, "ĠVirgin": 9281, "ĠÑĢÐ¾Ð±": 30971, "Ġdrawer": 24039, "åıĶ": 39936, "Ġaprove": 29015, "Ġscream": 7291, "ĠMar": 2039, "Ġrifles": 34058, "Ġarran": 50235, "tw": 20270, "ÑıÐ·": 11124, "Ġvested": 49317, "Ġdripping": 37460, "Ġë´¤": 20727, "ĠMayo": 46406, "×Ļ×©": 16732, "ĠMartha": 27787, "acaÄŁ": 10064, "ĠFDP": 31763, "ĠDragon": 11517, "band": 4235, "<|1.36|>": 50432, "800": 14423, "Ġarrangement": 17620, "!</": 39373, "ĠCompet": 32216, "Ġcouldn": 2809, "Ġpie": 1730, "Ġaccessible": 9515, "ichi": 18543, "Ġ(?)": 33426, "ĠmajÄħ": 26064, "ĠBRE": 41450, "annÃ©e": 36533, "iper": 15402, "Ġê¹Ģë": 43629, "Ġgere": 18635, "Ġcel": 9277, "ĠãģĤ": 15131, "Ġclosed": 5395, "Ġutilizz": 40355, "Ġfinishing": 12693, "Ġadmit": 9796, "ĠSung": 24857, "cÄĻ": 37965, "exp": 15952, "ÙĥÙħ": 24793, "Ġpolice": 3804, "ĠLeslie": 28140, "Ġhot": 2368, "Ġsocialism": 36112, "Ġstrand": 14955, "cyj": 42949, "Ġthreats": 14909, "ĠÑģÐ¾Ð·Ð½": 41334, "Ġcarpet": 18119, "osten": 18946, "ĠREALLY": 37117, "Ãį": 33662, "akers": 19552, "ĠNico": 15115, "Ġhab": 3025, "Ġcolabor": 49629, "ĠHeights": 44039, "Ġremarks": 19151, "Ġwordt": 20365, "ĠRidge": 32313, "éīĦå¡Ķ": 26325, "ĠCell": 28859, "Ġsanctuary": 34390, "game": 15038, "ÑĢ": 481, "idet": 39741, "Ġsubdiv": 45331, "ĠÑĥÑĩ": 13774, "ĠVenezuela": 24153, "Ġwasting": 20457, "DP": 11373, "Ġtruths": 30079, "Ġpounds": 8319, "Ġcompr": 16802, "Ġespe": 10049, "Ġfinal": 2572, "Ġsolder": 38128, "Ġbaggage": 41567, "Ġcould": 727, "ĠOpening": 41137, "Ð¸Ð¼Ð¸": 11426, "ĠSkill": 40737, "Ġeerste": 35586, "Ġ1981": 33117, "Ġsometime": 15053, "ĠFusion": 36721, "ĠÐ´ÐµÑĤ": 15079, "hesive": 19379, "ä¸ĭä¾Ĩ": 27769, "Ġjumped": 13864, "Ġsay": 584, "Ġzat": 35802, "ifi": 17638, "ĠëĲ©ëĭĪëĭ¤": 23630, "Ġmal": 2806, "ĠÐ¾ÑģÐ¾Ð±ÐµÐ½Ð½Ð¾": 35817, "ue": 622, "²½": 36547, "ç´Ħ": 30889, "ĠÐ´Ð¾Ð»Ð¶Ð½Ð¾": 40475, "sz": 15453, "nÄĽ": 31617, "99": 8494, "Ġkijken": 30446, "ĠExtreme": 39525, "theme": 36965, "Ġhablando": 29369, "ĠWagner": 38146, "åı¦å¤ĸ": 26202, "Ġshe": 750, "Ġanalyse": 37840, "Ġsupplier": 31909, "Ġbitten": 34608, "Ġkah": 21651, "Î»Î¹": 48253, "ĠItaly": 10705, "ĠSell": 44296, "ĠWide": 42543, "Ġdescribes": 15626, "Ġknew": 2586, "Ġìħ": 23567, "Ġprocure": 26846, "ĠJESS": 49439, "ĠÑģÑĤÐ¾Ð»": 24053, "ĠÐķÐ²": 34019, "laughing": 4986, "Ġembr": 9392, "Ġlets": 6653, "Ġcutest": 46582, "à¯Ĩ": 16789, "ç½®": 34719, "ëĬ": 1052, "ĠMAT": 5904, "naire": 32551, "ĠWheel": 31392, "ĠJude": 36521, "istics": 6006, "ffff": 25388, "ãĥĪãĥŁãĥ¼": 44680, "ĠÅ¼": 19625, "Ġgalaxy": 17639, "Ġproclaim": 34604, "Ġaquele": 23640, "dÄ±r": 23091, "ĠRam": 9078, "ĠParr": 47890, "Ġalter": 11337, "Ġworthless": 34857, "Ġfluids": 33033, "Ġain": 7862, "RAY": 48023, "ĠìľĦíķ´ìĦľ": 30238, "Ġbro": 2006, "Ġà®": 2548, "lide": 31264, "rires": 47313, "Ġvielleicht": 12547, "Ġscreen": 2568, "atted": 32509, "<|22.36|>": 51482, "ani": 3782, "Ġzombies": 24230, "Ø±ÛĮ": 44823, "å½": 7391, "ME": 15454, "FORE": 47696, "Ġsel": 5851, "madÄ±": 46107, "ĠRomans": 20252, "ĠÑĩÑĥÐ´": 43332, "izione": 35740, "ĠTrad": 22017, "Ġvamp": 20017, "Ð¾Ð¶Ð´": 20037, "ĠEmil": 36983, "Ġintermedi": 15184, "Ġapprent": 21435, "iblings": 20002, "×¨×ĺ": 46323, "<|27.88|>": 51758, "Ġperf": 13826, "ol": 401, "izin": 36367, "etzung": 38584, "<|17.70|>": 51249, "Ġinherently": 27993, "upun": 34572, "Ġtail": 6838, "Ġberry": 44955, "Ġunintention": 45514, "ĠBas": 5859, "ĠPac": 10702, "Ð¾ÑĦ": 48645, "good": 21753, "iston": 47345, "irk": 18610, "fund": 21874, "tight": 41738, "ìĿ´ì¦Ī": 47797, "<|4.92|>": 50610, "Ġreinforcement": 29280, "Ġ0": 1958, "Ġskincare": 29461, "Ġkaz": 30623, "KA": 16135, "ĠErgebnis": 46229, "Ġbureau": 35343, "<|19.80|>": 51354, "Ġich": 1893, "Ġtyres": 42564, "Ġreapp": 35638, "ĠAuf": 9462, "ĠkadÄ±n": 39421, "Ġalk": 37688, "Ġcentro": 24607, "è©": 6716, "äºķ": 31989, "Ġmating": 49955, "Ġsubscribe": 3022, "Ġimagining": 27798, "esty": 7819, "OME": 23344, "lever": 38099, "Ġdamn": 8151, "inois": 15936, "Ġgrew": 6109, "flowing": 43955, "Ġëª°ë": 24833, "asa": 9994, "ĠYao": 40575, "Ġnen": 16399, "á»ĳng": 21092, "Ġsafely": 11750, "ĠHaben": 47007, "Ġkra": 28248, "ograf": 19815, "æĬķ": 37094, "Ġseg": 3896, "Ġtul": 30210, "Ġcup": 4414, "ĠÐºÐ¾Ð½": 6184, "Ġwitness": 7286, "Ġgestures": 28475, "ĠVeter": 21881, "Ġannex": 41012, "Ġtravaill": 38222, "Ġspinal": 28022, "ĠScorp": 38814, "Ġby": 538, "Ġmodelling": 42253, "Ġremembered": 13745, "ikal": 41216, "Ġgreatest": 6636, "ĠBeet": 28798, "ĠSammy": 44316, "ramos": 30227, "Ġmasking": 31226, "iendo": 7304, "ĠSachen": 26074, "Ð¾Ð²Ð°Ð½Ð¸Ñı": 30821, "Ġinventor": 41593, "ĠMinuten": 27593, "ĠDiversity": 44187, "lÄ±": 9811, "Ġhip": 8103, "Ġbrands": 11324, "Ġincreased": 6505, "Ð¸Ð½Ð¾": 31486, "Ġrig": 8329, "K": 42, "Ġfrustrated": 15751, "ativo": 18586, "Ġtreble": 43715, "ARI": 39545, "iment": 2328, "Arthur": 42646, "igon": 47578, "å½¢": 30900, "ĠBry": 12812, "ancing": 8779, "Ġ33": 11816, "Ġfifteen": 18126, "Î¼Îµ": 9104, "ĠbÃ¶rjar": 49534, "Ġranks": 21406, "these": 42678, "nyt": 38335, "Ġrupees": 24638, "<|km|>": 50323, "ĠFreddy": 31445, "Ġdarling": 22405, "Ġnavig": 7407, "<|19.96|>": 51362, "Ġnumerical": 29054, "ĠdÃ»": 42300, "Ġirgendwas": 47090, "Ġparting": 46607, "ĠÏĥÎ±ÏĤ": 34981, "Ġwillingly": 44675, "Ġcantidad": 33757, "ĠÎŃ": 10541, "Ġcompris": 31711, "ĠëĤĺìĺ¬": 49599, "eing": 14667, "ĠÎ¤": 20838, "iders": 6936, "Ġíķĺê³ł": 10301, "Ġdice": 10313, "mond": 12171, "âĸĪâĸĪ": 30138, "ĠÐ¿Ð¾Ð´": 4095, "Ġworries": 16340, "Ġheure": 30027, "Ġzeker": 43844, "Ġluc": 21296, "Ġcette": 5550, "ĠShane": 25865, "ĠAPI": 9362, "ĠScott": 6659, "ĠÐ¼Ð¸ÑĢ": 20536, "Ġdeutsche": 47502, "Ġkij": 26106, "ĠDarren": 36691, "Ġspeak": 1710, "KS": 31558, "ĠVOICE": 46973, "æĢİéº¼è¾¦": 42511, "Å¼enie": 41118, "Ġsubs": 2090, "HAEL": 21413, "Ġíĸīë³µ": 36921, "Ġayud": 20333, "Ġmanos": 36650, ".": 13, "ĠAfricans": 42228, "ĠãĤĴ": 30181, "ĠìĨĲ": 15268, "Ġterror": 8127, "Ġwre": 46674, "Ġvirtual": 6374, "Ġignite": 49609, "ĠBob": 6085, "Ġsuits": 15278, "<": 27, "ĠMarco": 26535, "irs": 12983, "^": 61, "Ã¤ren": 21465, "Ġwhile": 1339, "å¿Ļ": 48839, "Ġshortest": 31875, "åħ¶å¯¦": 14139, "ãģĹãĤĥ": 49948, "Ġinherent": 26387, "Ġ('": 50254, "ä½łåĢĳ": 19891, "igns": 42636, "Ġprize": 12818, "Ġunseen": 40608, "ĠÃ©c": 15175, "Ġviel": 5891, "Ġharmful": 19727, "ĠÐ´Ð°Ð²Ð°Ð¹": 28869, "ĠNeder": 29005, "ĠÐ¿ÑĢÐµÐ´ÑģÑĤÐ°Ð²Ð»Ñı": 39412, "Sec": 29511, "<|27.54|>": 51741, "ĠÐ·Ð¼": 48979, "sce": 22919, "Ġespecialmente": 41546, "Ġprocedural": 43951, "Ġcardiac": 32129, "Ġzoning": 37184, "ĠBie": 34972, "ĠVerantwortung": 43423, "Ġspoke": 7179, "omy": 8488, "ching": 17354, "Ġproactive": 28028, "ifiques": 48463, "ī": 231, "Ġdismissed": 29970, "Ġderivative": 13760, "ĠVog": 46359, "ĠMarvel": 13837, "ĠVatican": 37904, "rist": 12940, "å½ĵçĦ¶": 40486, "rians": 28145, "ĠÐ¸Ð·Ð¼ÐµÐ½": 30345, "char": 7374, "Ġcandies": 43877, "anium": 21528, "Ġtylko": 13219, "ĠÐ¿Ð¾Ð½Ð¸Ð¼": 15084, "ĠTrainer": 48494, "Ġotras": 20244, "<|0.80|>": 50404, "enti": 23012, "<|13.70|>": 51049, "ĠMaps": 28978, "<|23.42|>": 51535, "ĸ×Ķ": 7889, "ĠSk": 7324, "ĠWear": 34514, "¨¸ëĭĪ": 46355, "ĠÐ²Ð°Ð¶": 19491, "Ġextern": 30360, "Ġofficially": 12053, "ight": 397, "ĠGee": 39840, "Ġ59": 24624, "Ġtile": 20590, "ĠEbola": 37846, "ii": 5597, "Ġhustle": 34639, "ĠÃ§Ã¼nkÃ¼": 36336, "ĠZw": 29385, "160": 44158, "Ġindividuals": 5346, "Ġswings": 32386, "ĠOle": 33965, "Ġmudar": 42281, "Ġextending": 24360, "Ġmetropolitan": 44645, "Point": 18705, "ŀĪ": 5387, "Ġtighten": 17041, "ÑĤÑĮ": 1283, "ĠLindsay": 35017, "Ġessentials": 46884, "ÙĪÙĨ": 11536, "ĠÐ¼Ð¾Ð´": 24104, "Ð°ÑĤÐ¾Ð²": 48885, "ĠSty": 30415, "Ġassessed": 36051, "éĴ": 25153, "ĠThe": 440, "ĠPerry": 17334, "Ġsave": 3155, "akra": 34401, "à¸ķ": 11526, "Ġpertaining": 49582, "ĠÐ·Ð°Ð»": 32897, "attered": 13939, "ä¸įäºĨ": 47225, "Ñı": 681, "ĠDIY": 22194, "Ġcompound": 14154, "Ġspin": 6060, "ĠHast": 30987, "vero": 39332, "ãĥ¼ãĥ¼": 24291, "Ġ×Ķ×Ļ×Ķ": 32132, "Ġmientras": 26010, "Ġresponsive": 21826, "ĠBitch": 40678, "Ġmushroom": 12094, "Ġmedic": 4355, "Ġcoc": 21047, "Ġpic": 13363, "Ġquoting": 41552, "Ð¸ÐºÐ¸": 15562, "ÛĮ": 4135, "Ġkomb": 42925, "Ġdecorations": 32367, "Ġfel": 11094, "Ġsupervised": 46533, "ĠWe": 492, "åĪ©": 23700, "<|22.62|>": 51495, "Ġrejected": 15749, "æĸ°": 12560, "idi": 12716, "rats": 25869, "Ġdesta": 45943, "Ġnewly": 15109, "Ġkun": 8215, "Ġpound": 12013, "ÃŃst": 19512, "Ġfeet": 3521, "ĠtÃ©": 19809, "ijk": 6940, "Ġprom": 2234, "Ġvase": 44065, "ICEOVER": 31992, "ĠÐ¿Ð¾Ðº": 7240, "Ġquelque": 14448, "<|3.20|>": 50524, "press": 11637, "Ġmatching": 14324, "Ġsickness": 25611, "obil": 21725, "Ġselective": 33930, "Ġvotes": 12068, "Ġembracing": 31596, "ĠÑĤÑĢÑĥ": 36310, "Ġincorporated": 21654, "ĠGrac": 20586, "Ġproper": 2296, "gom": 30851, "Ġ1940": 24158, "big": 37660, "roll": 3970, "Ġdrown": 20337, "ami": 4526, "ĠâĨĴ": 41600, "Ġdoctor": 4631, "ank": 657, "Ġyer": 12954, "y": 88, "ĠÐ¿Ð¾Ð²ÑĤÐ¾ÑĢ": 42221, "cin": 20021, "ĠÏĥ": 5532, "Ã¶m": 32374, "white": 28865, "áº¥": 6785, "Ġpunching": 34866, "Ġcono": 33029, "Ġauster": 49867, "ĠÎºÎ¬": 26751, "ĠRenaissance": 32642, "cken": 13029, "Ġcuid": 20770, "Ġjingle": 49495, "Ġtourist": 19806, "ÑģÑĤ": 982, "ys": 749, "ĠParliament": 15538, "Ġpatents": 38142, "Ġlandlords": 48787, "×¦": 11968, "Ġcollaborative": 16555, "Ð»Ð¸Ð²": 15054, "mera": 35984, "å¤ĸ": 12022, "Ġestaba": 17544, "edaan": 43534, "IEL": 24212, "ĠdoÄŁ": 18557, "ĳĲ": 15150, "ĠProdukt": 44599, "Ġkle": 9318, "ĠZig": 50004, "Ġroadmap": 35738, "Ġnude": 36505, "Ġcampo": 29691, "Ġorig": 2349, "<|13.46|>": 51037, "icios": 26817, "<|16.28|>": 51178, "ĠIsraelites": 48308, "ĠShang": 19316, "ĠBeaut": 10584, "Ġsing": 1522, "Â·Â·": 44409, "ĠÎ±ÏĢÎ¿": 44313, "ĠAthens": 32530, "Ġverst": 48960, "Ġagain": 797, "Ġcomport": 25883, "Ġchron": 19393, "Ġinse": 33874, "ĠÐºÐ½Ð¸": 32178, "Ġê²ĥìľ¼ë¡ľ": 34071, "Ġbumpy": 49400, "Ġpastors": 42452, "Ġl": 287, "nas": 18979, "ĠMull": 41621, "<|2.62|>": 50495, "ĠFrauen": 24191, "Ġmedieval": 24078, "ĠPv": 41896, "ÑģÑĤÐ°Ð²": 6938, "Ġlosers": 37713, "Ġkab": 27835, "Ġroman": 41362, "ĠLew": 14542, "Ġreferendum": 31957, "Ġê²ĥìĿĦ": 32746, "mile": 44927, "Ġtoasted": 48951, "ĠÐ²ÑģÐµÐ¼": 21042, "ĠÐ¿": 713, "Ã³ria": 15250, "Ġ2002": 17822, "æľĭ": 19598, "ĠDaddy": 15323, "Ġrefreshed": 46330, "Ġretrou": 26311, "Ġcontaining": 19273, "Ġaccount": 2696, "Ġpak": 20843, "ĠJimmy": 15709, "Ġanecdote": 49845, "iffany": 20195, "ques": 7519, "ĠÎ": 1158, "hÃ©sitez": 45587, "ÐµÐ": 615, "ĠReact": 30644, "éĴ±": 39623, "ĠÐ½ÑĢÐ°Ð²Ð¸ÑĤÑģÑı": 33652, "Ġcinnamon": 22969, "ulse": 19258, "Ġshook": 28438, "ĠÄĳá»ĥ": 20081, "ĠVai": 24206, "ĠPlatform": 28707, "ĠAng": 4521, "Ġcooks": 30709, "Ġê¸Ī": 34120, "Ġsug": 22802, "Ġfunny": 4074, "Ġgua": 30081, "ë°": 8672, "Ġexhausting": 34076, "æľĢ": 8661, "ä»Ģéº¼": 7598, "Ġestiver": 46578, "ĠìłĢíĿ¬": 14594, "Ġviennent": 44458, "Ġfonction": 20172, "ãģĹãģĦ": 17121, "Ġsine": 18609, "Ġintentional": 21935, "ìĭ¤í": 41712, "Ġclock": 7830, "Ġê³łë": 18556, "Ġsink": 9500, "ĠSny": 49464, "ĠConsort": 31719, "Ġdealers": 25955, "ĠBrah": 36569, "ĠÐĵ": 7247, "Ġafin": 34709, "Ġapproval": 13317, "ÑĢÐ°Ñī": 18747, "ĠAlab": 20302, "Ġfragrant": 37296, "Ġstats": 18152, "ĠRahmen": 39070, "Ġresc": 9610, "ca": 496, "Ġouts": 14758, "Î»ÎŃ": 35780, "uger": 44953, "ĠDAVID": 16764, "Ġurgency": 29734, "Ġhabl": 26280, "Ġani": 40477, "OUR": 29127, "Ġgy": 15823, "oria": 8172, "Ġidentific": 49456, "Ġpressure": 3321, "Ġeli": 34486, "ĠHÃ¤r": 35539, "Ġarbeitet": 49907, "ĠEren": 49479, "Ġexpired": 36587, "Ġsunscreen": 30304, "Ġ1960": 16157, "Ġprima": 19507, "Ġlitt": 30267, "<|7.44|>": 50736, "Ġradi": 16335, "ĠHost": 22047, "Ġelbows": 26620, "åıªæĺ¯": 36859, "Ġcivilians": 26073, "Ġsexuality": 25426, "Ð¸ÑģÑģ": 31632, "waÅ¼": 27111, "Ð¾ÑĤÑĥ": 44570, "Ġinvestments": 13784, "Ġå¯¹": 30275, "ĠìĽ": 6891, "Ġmentioned": 2835, "Ts": 33424, "Ġpepper": 8532, "Ġoro": 45150, "Ġdari": 15597, "Ġ×ĸ×Ķ": 12173, "quoi": 14461, "ĠÎľ": 24834, "?,": 22753, "Ġextraordinary": 10581, "<|ms|>": 50282, "ĠPixel": 28323, "ĠmÃ³w": 13489, "Ġappropriately": 23505, "outheast": 20468, "ĠJ": 508, "Ġgiorno": 42202, "Ġpleasant": 16232, "<|2.34|>": 50481, "Ġbrewing": 39019, "ho": 1289, "Ġweighed": 32844, "Î¿Î¹": 19264, "ĠìĻĦìłĦ": 25587, "Ġadoles": 21383, "Ġì§ĳ": 12111, "inki": 41917, "ML": 12683, "Ġlining": 19628, "ĠQuel": 43521, "Ġfacilitating": 47558, "ĠSeveral": 22246, "ĠTomato": 35936, "Ġtriumph": 29156, "Ġtreaties": 48552, "æ®º": 45528, "Ġunderworld": 49607, "Ġ;)": 41540, "<|15.92|>": 51160, "Ġë¨¹ëĬĶ": 30616, "ĠHonor": 16922, "ìĿ¸ìĿĦ": 42199, "df": 45953, "left": 41761, "laim": 10970, "no": 1771, "illi": 31922, "acco": 18662, "Ġexecuted": 17577, "Ġhein": 16464, "Ġsind": 3290, "ĠMarcus": 26574, "Ġcryptocurrency": 28809, "buat": 45143, "Ġalcoholic": 38075, "ĠJan": 4956, "Ġphilosophical": 25066, "oke": 2949, "ĠThemen": 39229, "Ġdias": 21084, "ĠCultural": 31450, "Ġë¹": 5005, "ĠíĨ": 20901, "orable": 15249, "Ġpolymer": 20073, "ĠÐ¿Ð¾Ð½": 7903, "ters": 1559, "Ġmajor": 2563, "ĠLaughs": 33439, "à¸²à¸ģ": 32550, "ä¸įåĪ°": 35728, "Ġclassmates": 24964, "ĠBridge": 18917, "ĠBelo": 49244, "ĠÐ¾ÑĤÐºÑĢÑĭÐ²": 44543, "Ġfacilit": 38770, "Ġowners": 7710, "Ġagu": 34438, "Ġdiffusion": 25242, "Ġass": 1256, "Ġsinn": 47066, "Ġgag": 34833, "ĠPennsy": 17704, "ĠLiving": 18824, "Ġmeasures": 8000, "cul": 2444, "Ġum": 1105, "Ġtrait": 22538, "Ġvalor": 15367, "Ġdevoir": 48920, "eremy": 13579, "Ġgosta": 39874, "iverso": 36969, "ĵ±": 22205, "ĠCra": 11138, "Ġunanim": 29710, "terror": 48024, "Ġspraw": 22734, "Ġhope": 1454, "ativas": 35725, "ĠEdinburgh": 41215, "athy": 9527, "ks": 1694, "indruck": 41824, "Ġfinely": 31529, "ayer": 11167, "ĠtÃ¤mÃ¤": 29962, "ĠThem": 37354, "Ġ1961": 41720, "aching": 2834, "ä»Ķ": 49385, "åĢ¼": 40242, "Ġgibi": 11033, "waÅĤ": 44603, "ĠSpanish": 8058, "Ġmacam": 44921, "ãħĭ": 5333, "ĶĶìĺ¤": 49117, "ĠHero": 14731, "Ġtasted": 25003, "Ġdiv": 3414, "ur": 374, "Î¹": 1835, "Ġbargain": 34302, "ĠHoÅŁ": 45958, "rection": 11417, "Ġtiger": 21432, "èģ²": 29454, "Ã³l": 15741, "Ġprohib": 16015, "åŁºæľ¬": 37946, "Red": 20544, "Ġfacto": 42225, "ĠDiscovery": 34129, "Ġinitial": 5883, "ãģĻãĤĭ": 22570, "ĠtÃªm": 24277, "arrator": 7215, "Ġdisruptive": 37865, "between": 32387, "ëĭĺë": 48035, "ĠHigher": 31997, "Ġcham": 8268, "ienna": 26143, "ÐºÐ°Ð¼Ð¸": 22379, "Ġexchanges": 27374, "Ġunle": 25272, "ľë¡ľ": 15636, "Ġdarkness": 11262, "Ġbung": 50045, "Ġevalu": 6133, "Ġtrick": 4282, "Ġraison": 28402, "Ń": 255, "Ġcred": 3864, "ìĿ¸ìĿ´": 30603, "ĠSpaÃŁ": 27460, "Ġge": 1519, "OLL": 35787, "Ġtenim": 36012, "Ġdeven": 43115, "ĠMoney": 16631, "Ġtransluc": 45266, "Ġyeni": 34320, "æĥħæ³ģ": 39391, "Ġprivile": 8670, "Ġê²Ģ": 20282, "ĠTages": 33601, "immung": 38412, "Ġproceeding": 41163, "Both": 24268, "vre": 34869, "kea": 39153, "Ġquais": 44075, "Ġregulated": 26243, "Ġmainly": 8704, "ĠBeyonce": 48416, "util": 20835, "Ġplugins": 33759, "ĠSchw": 17576, "Ġreinvent": 33477, "won": 14693, "ĠÐ¾Ñĩ": 5875, "Ġthrough": 807, "Ġexposing": 33178, "Ġstark": 17417, "Ġsf": 47095, "lerini": 33760, "Ġê°ĢëĬ¥": 25732, "ĠShawn": 28634, "OD": 14632, "ĠAcc": 5725, "Ġchildhood": 9278, "Ġjaw": 18162, "çĶ»": 27126, "Ġold": 1331, "×Ļ×Ļ×Ŀ": 24983, "zeigt": 39869, "epherd": 26449, "kiem": 26116, "cych": 31306, "ĠStrong": 22792, "yes": 2346, "Pr": 30519, "Ġproducing": 10501, "Ĳë©´": 32324, "Ġpolished": 29079, "ĠFestival": 16512, "Ġzust": 45034, "Ġpane": 32605, "BI": 11291, "Ġunemployed": 34411, "Ġacoust": 22740, "Ġfungi": 48772, "Ġcontributed": 18434, "esterol": 21947, "Ġconcentrations": 33512, "ĠShay": 31212, "æİ°æİ°": 48166, "Ġ×ķ": 7666, "æĨ": 29713, "Ġleather": 12821, "ĠNim": 45251, "Ġí": 1175, "Ġaxes": 35387, "outh": 2178, "Ġfrei": 32542, "Ġfantastic": 5456, "Ġanalytical": 29579, "ary": 822, "ĠWare": 49978, "bere": 18582, "Ġgente": 3788, "ĠBlack": 4076, "Ġinspires": 32566, "ä¸įä¼ļ": 47928, "iciary": 38801, "Ġequilib": 14204, "ĠFred": 10112, "Ġmaintains": 33385, "ĠArm": 11893, "Ġpurchases": 26762, "Ġfixed": 6806, "Ġphilanthropy": 47180, "Ġbiased": 28035, "Ġlifespan": 40361, "åĵĪ": 10595, "Ġthan": 813, "ĠHerman": 44676, "lauf": 36488, "ord": 765, "ĠEnvironment": 35354, "ÑĥÐ±": 8893, "íķĺê²Į": 8601, "ĠShaw": 27132, "Ġrode": 21602, "Ġ88": 24587, "ĠTeraz": 41810, "eras": 6985, "Ġinstances": 14519, "ĠÐ½Ð°Ñģ": 6519, "Ġisland": 6077, "ĠArc": 21727, "Ġpromise": 6228, "giggles": 32975, "Adam": 32937, "Ġfonctionne": 49216, "Ġballs": 9803, "84": 25494, "Ġpink": 7022, "zed": 11312, "olÃ³g": 27629, "kop": 43855, "Ġcourageous": 33233, "owania": 21308, "ÑīÐµÐµ": 30145, "Ġmerits": 40923, "Ġdelegates": 45756, "ĠinglÃ©s": 49766, "éĻ¤": 32999, "Ġobjectively": 46067, "¶Ī": 20026, "esen": 17403, "ĠAlexandra": 45546, "Cra": 46796, "íı°": 34151, "ĠMarc": 18460, "Ġconsisted": 38227, "çľŁçļĦå¾Ī": 38317, "Ġfines": 37989, "Ġbig": 955, "?</": 27381, "ãģ¾ãģĤ": 32763, "ĠÐ¿Ð¾Ð¼Ð¾ÑīÑĮÑİ": 36387, "Ġhears": 25688, "Ð¸Ð»ÑĮ": 7094, "ĠÑģÐ½Ð°ÑĩÐ°Ð»Ð°": 44437, "ĠÑĥÐ´": 11927, "Ġautomated": 18473, "ÑĤÐµÑģÑĮ": 48430, "Ġëĸ¨": 27436, "ĠInsp": 32671, "ĠGlas": 29078, "ĠInterior": 44346, "ĠÐºÐ¾Ð¼Ð°Ð½Ð´": 35991, "ìĦ±ìĿĦ": 46055, "upa": 25686, "æĿ¿": 43664, "Ġcancellation": 45867, "Ġkuv": 49275, "Ġzaman": 12180, "<|27.66|>": 51747, "<|26.70|>": 51699, "Ġpulls": 16982, "Ġbringt": 36008, "VEL": 46149, "Ġcompos": 10199, "Ġaccom": 4223, "<|2.16|>": 50472, "Ġsoft": 2787, "Ġirm": 33842, "Ġclicking": 9697, "iv": 592, "a": 64, "Ġwhis": 13641, "RC": 28437, "Ġphysicians": 21966, "etta": 16593, "ĠExam": 24755, "Ġjournalism": 23191, "ORT": 25319, "ĠWHAT": 18090, "ĠChallenge": 17517, "ĠëĤĺ": 3948, "Ġmono": 35624, "ĠKardash": 37959, "Ġblank": 8247, "é¹": 47219, "DIA": 38931, "Ġê·¸ëŁ´": 45372, "Ġproduz": 28093, "<|sk|>": 50298, "Ġinstrument": 7198, "Ġaction": 3069, "Ġencaps": 38745, "ÙĬÙĨ": 9957, "Ð°ÑĤÐ°": 19808, "boy": 12795, "×Ĳ×Ł": 43913, "vest": 5571, "Ã¨ne": 18832, "Ġoriginated": 31129, "PD": 17349, "lect": 1809, "ĠDivision": 17183, "Ġsubstance": 12961, "ĠÐ½Ð°ÐºÐ¾Ð½ÐµÑĨ": 49154, "avas": 37331, "jiang": 41098, "<|3.66|>": 50547, "icker": 33804, "ĠFuel": 46837, "ĠFighter": 33387, "bad": 27580, "Ġthreat": 4734, "Ġsight": 7860, "ĠTall": 42633, "Ġexcited": 2919, "Ġswitched": 16858, "ĠÐŃÑĤÐ¾ÑĤ": 42054, "ĠDennis": 23376, "ĠCec": 38807, "ĠperchÃ©": 14303, "ĠSurely": 29803, "ĠCollabor": 44483, "ĠEuh": 47320, "Ġkurt": 34701, "Ġtenant": 31000, "Ġcoat": 10690, "ĠMel": 7375, "Ġoyun": 41773, "Ġsucceeded": 20263, "ê±°": 4285, "ĠKennedy": 16517, "Ġ39": 15238, "Ġpotrze": 28577, "Ġreact": 4515, "ĠOil": 23545, "Ġpressing": 12417, "olen": 11940, "Ġcomunque": 45736, "Ġimpost": 47804, "íķ´ìĦ¤": 34716, "ĠAllow": 32225, "Ġmillionaire": 41114, "ĠBuzz": 29209, "Ġoverl": 15986, "ĠReynolds": 29516, "ĠdiferenÃ§a": 38336, "Ġeigentlich": 10926, "ĠÑĥÐ»Ð¸": 36639, "ĠJUL": 40820, "ĠWin": 10427, "arna": 21394, "pic": 37509, "Ġëĵ±": 15722, "ĠHeat": 27359, "Ġphysicist": 42466, "ĠMÃ¤r": 46084, "åķĨ": 45581, "ÃľND": 23195, "Ġexc": 1624, "igence": 17644, "Ġhad": 632, "Ġodpow": 24314, "ìłģìľ¼ë¡ľ": 15078, "Ġarchitects": 30491, "Ġgeopolit": 46615, "Ġgovernor": 12965, "One": 15426, "<|7.22|>": 50725, "Ġpunch": 8135, "ink": 475, "Call": 46113, "Ġclauses": 49072, "onner": 38885, "ÐµÑĪ": 4433, "åħ¶": 9572, "Ġtenho": 14291, "Ġlady": 7262, "Ġsector": 6977, "ĠnÃ¥gon": 25418, "çİĩ": 44866, "ĠBacon": 42460, "Ð°Ð¼ÐµÐ½": 44873, "proof": 15690, "Ġhp": 34064, "ĠEla": 17637, "ĠDz": 39448, "Ġcylinders": 42166, "Ġvost": 28944, "ĠHus": 21282, "Ġfemin": 11155, "ĠWinter": 16444, "Ġbum": 13309, "ĠNina": 29204, "Ã²n": 23329, "Ġpri": 1790, "Ġpronounced": 23155, "nh": 5728, "Ġbarre": 43834, "Ġgrupp": 47477, "<|17.94|>": 51261, "Ġteam": 1469, "Ġfollows": 10002, "Ġau": 1609, "anga": 26005, "oster": 7096, "Ġmaterial": 2527, "ÑĢÐ¾Ñģ": 9225, "á»ĥm": 47119, "Ġmarched": 43565, "Ġdetto": 41031, "ĠØ¨ÙĬÙĨ": 49374, "ĠResearch": 10303, "Ġconjun": 18244, "Ġoverwhelmingly": 42926, "åĽ": 3919, "ĠYork": 3609, "Ġbreaking": 7697, "Ġborders": 16287, "?...": 32865, "boxing": 45047, "ĠHÃ¤": 45763, "Ġtattoo": 15080, "Ġfrustrating": 16522, "bourg": 43638, "Ġtriple": 15508, "Ġnap": 9296, "ĠÐ±ÑĭÐ»Ð¸": 14355, "Ġcarved": 28613, "Ġreacts": 33305, "Ġalors": 11246, "ä¹Ŀ": 43145, "Ġjuntos": 33868, "Ġmercury": 33307, "Ġnum": 1031, "Ġcheeks": 24135, "ãĤĮãĤĭ": 35367, "Ġpassage": 11497, "Ġinversion": 43576, "sta": 9140, "ĠÙĩØ°Ùĩ": 29538, "ĠAppreciate": 37601, "Ġmassage": 16145, "Ġtroubles": 15379, "ĠvÃ¡rias": 30235, "Ġaddict": 22072, "Ġfries": 20733, "ĠPET": 21968, "åĲ§": 6062, "ĠHung": 15063, "ÑĪÐµÐ¹": 43201, "Ġmarket": 2142, "ĠRob": 5424, "Ġcalculated": 15598, "Ġinsgesamt": 41438, "ìĦ±ìĿ´": 32105, "ĠsÃ¶y": 27543, "Ann": 15275, "Ġdelta": 8289, "ÐµÐ½Ð½ÑĭÐ¼": 50106, "Ġor": 420, "Ġshaped": 13475, "Ġease": 12708, "<|12.84|>": 51006, "Ġsubmission": 23689, "ĠyardÄ±m": 38875, "Ġgev": 47103, "æĹ¶": 15729, "ĥĲíķĺë©´": 46370, "Ġschwer": 23809, "Ġtraining": 3097, "stones": 38702, "ĠMistress": 48509, "ĠÐŀÐº": 48984, "Ġboug": 46553, "ä¸º": 13992, "æĮĩ": 25922, "iciÃ³n": 15534, "Ġarma": 46422, "alter": 43420, "Ġbeliefs": 13585, "ĠGPS": 19462, "ĠBism": 34594, "Ġbiodiversity": 36453, "ÙĥÙĦ": 28820, "Ã³r": 15614, "ĠOT": 38617, "Ġpolling": 29518, "Ġpassword": 11524, "ĠvÃª": 30384, "ĠíļĮ": 22980, "Ġdefinite": 25131, "ĠGuang": 35815, "Ġadjustment": 17132, "<|10.02|>": 50865, "ĠHir": 23192, "Ġappropri": 5745, "Ġdirecting": 26979, "ĠÑģÐ¿Ð¾ÑĢÑĤ": 49941, "Ġconstraint": 25534, "thur": 15915, "Ġcandidate": 11532, "ĠwaÅ¼ne": 46110, "Ġgarlic": 9168, "eh": 13301, "Ġphotographers": 33835, "oot": 6259, "comm": 13278, "éĢŁ": 31217, "bor": 3918, "Ġloaded": 13210, "Ġvaccinations": 39333, "ĠAU": 7171, "ĠRepeat": 28523, "Ġcommute": 36750, "ĠDingen": 49351, "ĠÐ´Ð¾ÑģÑĤÑĥÐ¿": 41057, "Ġcareful": 5026, "Ġfishermen": 42670, "ando": 1806, "Ġsagt": 15764, "Ġì²": 6768, "ĠStart": 6481, "Ġváº«n": 49004, "kor": 19339, "æĹ©": 21176, "Ġlaunches": 31841, "ĠSchweiz": 46834, "Ġail": 48283, "Ġtube": 9917, "<|12.18|>": 50973, "<|6.34|>": 50681, "Ġmastery": 37951, "Ġlogo": 9699, "tÄ±r": 20637, "74": 34026, "ÑģÑĤÐ¸": 4756, "Ġcohort": 28902, "ĠÐ´Ð¾Ð»Ð¶Ð½Ñĭ": 27581, "Ġabsorbing": 38720, "pal": 31862, "Ġshare": 2073, "ĠLabor": 17250, "ĠPiet": 41970, "Ġconnectors": 31865, "Ġspannend": 49027, "Ġcertification": 21775, "Ġforecast": 14330, "ĠÅł": 49039, "ĠRespect": 39079, "Ġsnacks": 16160, "abo": 41265, "rolog": 20978, "Ġglamorous": 48760, "ĠnÃły": 12542, "<|25.44|>": 51636, "Ġforgot": 5298, "ĠOuch": 27217, "orton": 36184, "polit": 27461, "Ġasymm": 37277, "ĠCAL": 50188, "íĽĦ": 26799, "Ġcycl": 19474, "Ġhac": 46093, "ĠAUDI": 8029, "Ð°ÑĤÐµÐ»ÑĮ": 10272, "ì°©": 29784, "stock": 23914, "éĶ": 23049, "Ġbehave": 15158, "Ġnonsense": 14925, "Ġdelivering": 14666, "axter": 47333, "Ġarcade": 25664, "æ¬¸": 18387, "Ġacre": 32656, "anging": 9741, "<|14.10|>": 51069, "Ġlisteners": 23274, "ĠNixon": 31130, "ĠFach": 38213, "Ä±y": 8472, "åĳĢ": 15348, "iat": 7676, "ĠÐ½": 757, "Ġalles": 7874, "Ġrep": 1085, "ĠDutch": 15719, "Ġbudgeting": 47855, "Ġsmart": 4069, "Ġdeton": 39920, "à¤¿": 33279, "Ġpremi": 11222, "ĠìĬ¤íĥĢ": 30675, "ĠMac": 5707, "Ġjudging": 23587, "ĠChristmas": 5272, "Ġcease": 27887, "Ġcruel": 16022, "<|26.80|>": 51704, "Ġkomen": 27190, "aires": 10840, "Ġgap": 7417, "vol": 9646, "¿": 123, "Ġdecomp": 22867, "ĠÐ´ÑĢÑĥÐ³Ð¾Ð¹": 27823, "ÑıÑĤÑĮÑģÑı": 40986, "ÐºÐ¾": 3752, "ÐķÐĿ": 41682, "elve": 12764, "Ġautor": 19510, "Ġswirl": 30310, "Ġsticker": 20400, "Co": 21141, "ÑĤÐ¾ÑĢ": 2542, "aying": 32600, "Ġbeauty": 6643, "ication": 8758, "Ġbedrooms": 39955, "Ġust": 26189, "Ð½Ð¾ÑģÑĤÑĮ": 9930, "Ġmuerte": 38497, "ox": 5230, "ĠÐºÐ¾Ð¼Ñĥ": 40158, "iska": 21945, "<|9.16|>": 50822, "ĠEuro": 3010, "aries": 4889, "Ġlounge": 33408, "cheer": 43088, "Ġdesperate": 17601, "è«": 11067, "áº¥y": 13417, "cient": 5412, "Ġideally": 22915, "Ġengines": 12982, "<|sv|>": 50273, "ĠResponse": 43937, "Ñĳ": 2882, "Ġgeomet": 12956, "Ġholiness": 44867, "Ġiter": 17138, "Ġremote": 8607, "Ġcuidado": 31891, "130": 42438, "åı°çģ£": 29152, "Ġcontrollers": 26903, "Ġfert": 10700, "à¸ľ": 29560, "think": 21074, "Ġdictators": 34708, "ÑģÑĤÐµ": 27492, "Ġthing": 551, "Ġdevrait": 43356, "Ġhomme": 35794, "ĠÑįÐºÑģÐ¿ÐµÑĢ": 40404, "Ġfue": 9248, "Ġneues": 43979, "ĠAdditional": 44272, "ĠÐ¶ÐµÐ»": 21788, "Ġply": 35318, "Ġreported": 7055, "Ġparameters": 9834, "ß": 155, "uct": 11130, "<|18.50|>": 51289, "Ġmodes": 14068, "Ġcompon": 4026, "Ġdiscriminate": 47833, "ĠCult": 41550, "Ġformul": 49990, "ÅĤos": 48584, "Ġseize": 33413, "Ġrigt": 46159, "tre": 3599, "Ġven": 6138, "Ġappearances": 29174, "ĠSeÃ±or": 35054, "Ġbaskets": 42853, "Ð¾ÑĢÐ¼": 9167, "Ġnu": 3822, "ĠìķĦëĭĪë©´": 33059, "ĠKÃ¶n": 29077, "Ġhates": 23000, "Ġhearings": 34052, "ĠMegan": 21332, "<|26.50|>": 51689, "even": 27170, "Ġcrashing": 26900, "ĠBir": 7145, "ĠLOL": 15086, "section": 11963, "orte": 12752, "<|24.16|>": 51572, "Ġê°ĻìĿ´": 16358, "Ġ×¦": 24803, "write": 21561, "vert": 3281, "<|3.64|>": 50546, "ĠÑģÑĤÑĢÐ°Ð½": 18057, "Ġtrend": 6028, "ĠRate": 49583, "ĠgegenÃ¼ber": 41830, "ĠíĻĺ": 29288, "ĠBand": 15462, "Ġmaniac": 47193, "zus": 16236, "ĠproblÃ¨me": 21111, "ëĭ´": 35021, "ĠÑħÐ»": 45566, "ĠÐŀÐ±": 22853, "Ġcriter": 9912, "abled": 8909, "ĠAcademy": 11735, "grad": 7165, "Ġclerk": 31402, "Ġbreeding": 26051, "ĠHui": 39340, "ĠnÃºmer": 12803, "Ġsnowball": 46143, "ĠTing": 43196, "Ġesas": 23388, "Ġpresidente": 23852, "Ãªncias": 32715, "ĠRabb": 36753, "ÐµÐ¶Ð´Ñĥ": 21207, "Ġcell": 2815, "org": 4646, "Ġchant": 28280, "Ġtanks": 14022, "hist": 33236, "Ġadministration": 7236, "ĠNote": 11633, "ĠÑģÐ´ÐµÐ»": 10326, "ĠLEE": 38784, "laugh": 33181, "Ġbelangrijk": 42330, "degree": 34368, "ulate": 5256, "sche": 12287, "Ġchick": 14371, "Ġkel": 31332, "Ġakt": 13680, "Ġhag": 42386, "Ġimpacto": 49687, "Ġtown": 3954, "ĠÐĶÐ°": 9149, "Ġpinned": 33802, "ĠPrefer": 48401, "ãĤĵãģł": 26983, "meal": 32914, "Ġshameless": 40164, "Ġfucked": 22518, "á»¥": 17740, "Ġscattered": 21986, "Ġdressed": 12386, "Ġìĭ¬": 21923, "01": 10607, "Ġrose": 10895, "ĠÑģÑĤÐ¾Ð»ÑĮÐºÐ¾": 50156, "Ġgenommen": 38715, "yst": 38593, "ĠÐ¿ÑĢÐ¾Ð±Ð»ÐµÐ¼": 20920, "Ġwildlife": 19199, "urst": 48273, "Ġclassics": 36110, "Space": 44306, "ĠÐ¸Ð³ÑĢ": 14568, "page": 15161, "Ġobserv": 9951, "alan": 14163, "value": 29155, "ĠAm": 2012, "Ġflashes": 39665, "ĠIh": 10485, "Ð½ÑıÑĤÑĮ": 35824, "ĠÑĩÐ°Ñģ": 13562, "ĠCert": 31036, "ographers": 47222, "ĠÐ°Ð²ÑĤÐ¾Ð¼Ð¾Ð±": 37122, "ĠÚ©Ø±": 29688, "ĠcomplÃ¨tement": 31331, "Ġolarak": 17728, "sigh": 35143, "Ã£o": 1076, "ĠMonkey": 34862, "Ġ×ŀ×©": 23950, "Ġsekarang": 29047, "åĭķ": 12572, "Ġglo": 3114, "Ġnomination": 30375, "ĠMá»¹": 48845, "ĠTen": 9380, "Ġfalei": 29800, "iggers": 20942, "Que": 24011, "naments": 23680, "Ġkh": 7168, "Ġconfort": 43392, "ÅĤem": 11126, "Ġsighs": 44705, "kÃ¤": 21036, "ĠìĨĶì§ģíŀĪ": 46337, "Æ°": 4228, "ĠFuji": 38119, "Ġnuevos": 42010, "Ģë¡ľ": 36680, "istol": 34431, "Ġindict": 49981, "Ã¼hren": 29540, "ĠB": 363, "Ġaccurate": 8559, "ĠFund": 13493, "ĠModer": 42067, "Ġpot": 1847, "Ġgymnastics": 48461, "<|3.88|>": 50558, "Ġgras": 29444, "Ġratt": 27081, "ê²¼": 30411, "Ġdoch": 9243, "<|4.26|>": 50577, "ĠAgain": 3764, "tober": 44715, "TY": 23433, "alo": 10334, "cussions": 38899, "INAUDIBLE": 5444, "opedia": 47795, "ĠRe": 1300, "ividades": 41938, "isiÃ¨me": 44000, "alion": 35791, "ãģĳãģ¦": 39736, "Ġlaundry": 19811, "Ġmik": 23959, "ĠVij": 41201, "<|21.58|>": 51443, "ĠÐ½ÐµÐ¾Ð±ÑħÐ¾Ð´": 31360, "ĠKazu": 41038, "46": 16169, "ĠtatsÃ¤chlich": 20796, "Ġembarrassed": 16843, "Ġtoolkit": 40167, "ENE": 35190, "íĸī": 12724, "<|20.80|>": 51404, "<|17.92|>": 51260, "Ġtruc": 14805, "Should": 38580, "åįĪ": 44237, "Ġìĺ¤ëŀľë§Į": 48551, "~!": 11394, "nova": 39486, "ĠZak": 46546, "ographic": 12295, "Ġbelli": 48006, "Ġaudiobook": 40031, "ĠBaltimore": 22749, "<|6.74|>": 50701, "ĠÐ·Ð²": 13591, "ceu": 31271, "åĲ¦": 45334, "Ù": 149, "sÃ¥": 19773, "ĠEra": 23071, "Ġunderwater": 20967, "ì£¼ê³ł": 38179, "Ġnight": 1818, "Ġlistening": 4764, "impression": 36107, "ĠMasters": 27014, "rac": 12080, "Ġbees": 17511, "bst": 9690, "Ġ1997": 22383, "ĠÐ¾ÑĤÑģ": 29870, "War": 45696, "ĠServe": 45663, "prob": 41990, "ieza": 35597, "ice": 573, "Ġsolic": 23665, "ĠëĶ": 7378, "Ġsyst": 20274, "Ġfewer": 13366, "Ã¶g": 50023, "'T": 18010, "Ġdeadline": 20615, "ĠBRIAN": 31434, "Ġsuddenly": 5800, "ball": 3129, "Ġfan": 3429, "ĠTommy": 19448, "Ġteeny": 48232, "æĪĸèĢħ": 31148, "Ġamusing": 47809, "åºĶ": 44297, "laimer": 35220, "ĠSyria": 13314, "Ġard": 44856, "ĠtrÃªs": 20779, "à¸Ħà¸°": 36298, "Ġjeste": 25255, "Ġcharts": 17767, "ĠdziaÅĤa": 37903, "Ġscared": 5338, "ĠÐ·Ð°ÐºÐ¾Ð½Ñĩ": 39641, "cro": 23401, "Ġì¤Ģë": 18647, "éĤ£ä¸ª": 43083, "ÐµÑĢ": 1135, "Ġprotection": 6334, "ux": 2449, "ĠToyota": 22926, "Ġannual": 9784, "ĠpÃ¤": 32232, "ĠErn": 24147, "íķĺì£ł": 48967, "ographics": 29933, "Ġcontradict": 28900, "Ð¸Ð»Ð°ÑģÑĮ": 19522, "éĽª": 47939, "Ġoverdose": 42206, "ĠOMG": 23152, "Ġsplashing": 45981, "Ġvampire": 28592, "ography": 5820, "ĠÙĪØ¨": 46599, "ĠShan": 25536, "!!!!!": 28493, "Ġbath": 6079, "tyard": 37041, "ampf": 30157, "Ġverd": 6387, "Ġve": 1241, "ĠÑĤÐ¾Ð¶Ðµ": 12251, "Ġark": 14408, "<|8.32|>": 50780, "Ġretrieve": 30254, "adh": 46908, "Ġflesh": 12497, "Ġpalace": 15207, "bula": 37775, "Ġenjoys": 29750, "ĠGoo": 47609, "Big": 32023, "Ġelimination": 29224, "Sam": 28743, "ĠFor": 1171, "Ŀ¼ë": 9316, "Ġformat": 7877, "etr": 27965, "Ġwrapped": 14226, "Ġchoice": 3922, "area": 35425, "Ġcual": 10911, "Ġchlor": 18178, "Yo": 27728, "ĠÐ³Ð¾Ð²Ð¾ÑĢÐ¸ÑĤ": 25083, "×Ļ×¨": 14984, "rite": 35002, "Ġrelations": 2299, "Ġenters": 18780, "ĠmÃ©dico": 44853, "obyl": 49913, "Ġduty": 9776, "ĠsociÃ©tÃ©": 32120, "Ġesses": 18966, "Ġexpressive": 40189, "ðŁ¤£": 47475, "Ġkonst": 34208, "<|19.88|>": 51358, "Ð°ÑģÑĤÐ²": 47541, "Ġtha": 43614, "rÃ¤ge": 40917, "ĠStadt": 20550, "Ġ×Ķ×¦": 43691, "×Ĵ": 10564, "Ð¸ÑĤÐµÐ»": 40334, "itte": 9786, "Wait": 20376, "Ġfull": 1577, "ıĮ": 34242, "orsa": 38822, "iful": 2069, "Ġnue": 10412, "ĠHag": 34758, ".'": 4443, "fo": 16931, "ĠUz": 38564, "<|27.28|>": 51728, "haft": 25127, "ĠDeclaration": 40844, "<|24.66|>": 51597, "Ġnegoti": 9542, "ĠComme": 24308, "ĠalgÃºn": 26300, "Ġtempting": 37900, "Ġtimed": 44696, "charged": 25064, "astic": 2750, "ĠJuliet": 33532, "Ġwisdom": 10712, "ì¹ĺë": 31678, "ĠMale": 21080, "Ġgio": 48508, "ĠVegas": 15841, "Ã¤s": 13555, "ĠUsed": 43237, "aints": 19594, "ĠDepression": 33044, "Ġnossas": 44041, "ĠNext": 3087, "æĪĳä¸įçŁ¥éģĵ": 47826, "Ġrelevance": 32684, "away": 10318, "ĠSony": 13575, "bbie": 32383, "Ġhesitation": 36125, "ĠWr": 10159, "bucks": 24599, "broken": 37947, "ĠBureau": 19738, "SPEAK": 33898, "ĠOpportun": 39441, "ĠbÄ±": 19902, "Ġshowing": 4099, "aso": 35281, "thon": 11943, "åĪĩ": 23632, "Ãª": 1307, "ĠRaum": 31359, "ome": 423, "ĠëłĪë": 43927, "RE": 3850, "ĠLD": 33936, "ĠÐºÐ¾ÑĤÐ¾ÑĢÑĭÐ¹": 11897, "grunts": 37727, "ĠCherry": 34831, "ets": 1385, "ĠÎ¶": 36544, "icks": 7663, "Ġcages": 45888, "Ġclinic": 14947, "<|18.68|>": 51298, "ĠProfessor": 8419, "VIE": 33238, "ĠMoscow": 18298, "ĠOczywiÅĽcie": 42980, "Ġdip": 10460, "Ġsuck": 9967, "uda": 11152, "Ġaugmented": 36155, "Ġrelationship": 2480, "Ġpockets": 16491, "Ġjewel": 16010, "Ġsavez": 30503, "chine": 36675, "Ġsuced": 41928, "Ġwhom": 7101, "Ġlearner": 33347, "Ġcancer": 5592, "<|15.80|>": 51154, "<|27.76|>": 51752, "Ġjobbar": 42965, "up": 1010, "Ġhas": 575, "Ġcompartil": 40204, "Ġmine": 3892, "ĠArabic": 19938, "ĠSue": 25332, "Ġloyal": 12682, "Ġ240": 26837, "ĠOperations": 36381, "ĠÙĪØ³": 46952, "ĠExc": 9368, "Ġembod": 28935, "Ġviewer": 16767, "Ġjoins": 24397, "Ġpurchase": 8110, "ĠMolly": 26665, "Ġmembr": 15595, "å¹´åīį": 49947, "Ġjudiciary": 49987, "Ġinconven": 28752, "è«ĸ": 29340, "Ġfique": 35497, "<|22.96|>": 51512, "eta": 7664, "weile": 35076, "Ġrefle": 36549, "ĠMage": 49293, "Ġ30": 2217, "ĠMagn": 19664, "Ġcalam": 43936, "Ġlimitation": 27432, "ĠNickel": 45416, "Ġgrinding": 25300, "edy": 6038, "ĠEmir": 38426, "zon": 35296, "ĠListening": 49321, "Ġupright": 27405, "Ġrem": 890, "ĠÑĥÐ²": 13247, "ĠAlexis": 39826, "Fine": 41415, "Ġìĭ¤ë": 34496, "Ġexecuting": 32368, "est": 377, "yan": 6277, "Ġtranslation": 12853, "ì°¬": 29434, "rest": 4149, "Ġsalad": 12604, "Ġphoto": 5052, "ĠNOW": 27734, "Ġslut": 41496, "ĠYes": 1079, "<|24.36|>": 51582, "olon": 38780, "ĠMoon": 10714, "Ġsince": 1670, "Now": 13267, "east": 22835, "ĠÐºÐ¾ÑĤÐ¾ÑĢÑĭÑħ": 28700, "cussion": 25049, "rada": 19120, "Ġenzy": 16272, "Ġputs": 8137, "ĠinformaÃ§Ãµes": 42542, "éł": 8313, "Here": 17685, "Ġeliminating": 31203, "Ġprices": 7901, "tycznie": 45586, "Ġmanic": 48139, "ĠDelhi": 26680, "scale": 20033, "ĠÐ¿Ð¾ÑĩÑĤÐ¸": 30529, "Ġprospects": 32933, "Ġinvasive": 30894, "ouvert": 43315, "Ġpeg": 17199, "uce": 4176, "ĠSchool": 5070, "å¤§åĵ¥": 44093, "Ġbodies": 7510, "ĠEL": 14426, "Ġclamp": 17690, "Ġ1948": 38833, "Ġblacks": 30720, "Ġsurplus": 31019, "ĠAN": 5252, "Ġpreparing": 10075, "ĠÃ®n": 15351, "sÄ±n": 22133, "Ġcloud": 4588, "enix": 16006, "apers": 14441, "ãģ¾ãģģ": 37566, "Ġzest": 37889, "Ġclan": 25887, "Ġcrowd": 6919, "å©": 26112, "Ġ1954": 46590, "ĠÃ©ner": 45045, "ĠWalter": 21572, "ĠAra": 18601, "Ġmagnesium": 32950, "Ð°ÑģÑĮ": 10285, "gel": 10345, "install": 40166, "ŀĢ": 18781, "é¦": 11748, "Ġmycket": 16780, "æĥħåĨµ": 46514, "royable": 45976, "Ð¼Ð¾ÑĤÑĢ": 11128, "Ġvicious": 30093, "Ġcobra": 48790, "Ġincarnation": 49988, "<|5.98|>": 50663, "blue": 42113, "Ji": 49096, "ä»Ĭå¤©çļĦ": 34947, "ĠëĬĲê»": 41667, "usting": 11712, "ĠDrug": 35806, "ĠFerguson": 40823, "ĠÐĺ": 3272, "Ġcandid": 6268, "ãģĦãĤĦ": 18524, "Ġappro": 2075, "Ġtables": 8020, "Ġmillimeter": 17942, "ĠXu": 23082, "rounds": 43457, "ĠÐ²Ð¾Ð·Ð¼Ð¾Ð¶": 31544, "ĠgroÃŁe": 19691, "Ġalarms": 45039, "Ġpharmac": 31818, "Ġdisappointed": 13856, "Ġmio": 29908, "è¬": 4802, "ĠMÃ¼": 21295, "Ġcreativity": 12915, "Ġpessoas": 10021, "Ġajud": 16126, "fecture": 47612, "ĠMotion": 27771, "ĠIch": 3141, "ENGLISH": 47997, "Ġbox": 2424, "avirus": 10868, "Ġfriction": 17710, "Ġdungeons": 48347, "ĠVive": 44288, "Ġcaf": 15246, "ierno": 19689, "Ġbisschen": 10763, "ction": 882, "Out": 28353, "ĠID": 7348, "Ġargues": 38218, "ision": 1991, "Ġpayer": 38230, "Ġdignity": 19672, "te": 975, "pin": 17836, "ĠìłĪëĮĢ": 48811, "Ġrond": 39353, "Ġvalidate": 29562, "Ġlact": 34042, "Ġcounseling": 23889, "ĠCant": 26697, "ĶìĿ´íģ¬ìĹħ": 30952, "<|lt|>": 50293, "Ð²Ð¾Ð¹": 37325, "hÃ¤ng": 34591, "iona": 21758, "Ġdolphin": 46759, "Ġpollut": 43415, "jac": 19586, "ĠChron": 34038, "Ġstealing": 19757, "ishna": 20348, "Ġkomun": 45359, "Ġcompares": 38334, "Ġblown": 16479, "ĠHospital": 15645, "yk": 46127, "Ġbliss": 31522, "íİ": 14605, "Ġë²Į": 25846, "ÑĭÐµ": 5312, "ÑıÐ²": 12998, "Ġhobbies": 35750, "Ã¤ischen": 43599, "Ġnegatives": 40019, "Ġoxid": 19924, "Ġmarking": 25482, "Ġstellen": 24407, "Ġwonderfully": 38917, "Ġimperative": 32490, "iano": 6254, "ĠëĪĦê°Ģ": 33851, "Ġseriousness": 44880, "ĠìľłíĬľë": 39163, "Ġê¹": 8394, "<|he|>": 50279, "ĠBasil": 43175, "ãĥĴ": 46995, "ĠdeÄŁild": 49587, "Å³": 28102, "Ġsorte": 25559, "quently": 47519, "Ġroll": 3373, "jcie": 43474, "ĠGlenn": 30119, "ÐºÑĥÑİ": 35119, "Ġphotons": 40209, ">>": 893, "Ġvisionary": 49442, "å¤§å®¶å¥½": 15248, "Ġintended": 10226, "Ġreceptors": 34102, "rench": 4442, "Ġcircumstances": 9121, "æĹ": 4479, "Ġmeteor": 25313, "Ġdrei": 16809, "ĠÃ¤n": 26072, "isty": 38618, "Ġapostles": 39397, "Ġsujet": 23634, "ĠAll": 1057, "Ġoutlook": 26650, "æĹ¥": 6890, "ĠPoland": 15950, "Ġsnail": 42555, "ĠFors": 48202, "ìł": 2179, "Ġduas": 19463, "ĠÐ²Ð¿": 27163, "Ġmanne": 49815, "ĠDale": 31329, "Ð°Ð¹": 3183, "ihn": 37493, "Ġweekends": 23595, "Ġdang": 21892, "ãģĹãģ¦": 8822, "ĠÐ´ÐµÑģÑı": 32233, "Ġgifts": 11449, "Ġpumped": 27774, "ÏĨ": 12015, "ĠMandal": 49869, "ĠÐ½Ð°Ð±": 22499, "Ġacuerdo": 28113, "nants": 41508, "ĠQuarter": 43794, "ÃŃn": 10973, "ĠVed": 26084, "äº²": 49296, "Ġbat": 7362, "Ġ!\"": 36284, "Ġclipping": 49320, "Ash": 32648, "emark": 26721, "Ġprinting": 14699, "ĠGEORGE": 26675, "BM": 18345, "ĠCP": 22431, "ÐµÐ¹": 2345, "Ġpowerless": 47926, "gn": 4568, "Ġgeral": 35412, "Ġmats": 43366, "ë©´": 21448, "ĠÐ´Ð°Ð²Ð½Ð¾": 40086, "çĭ": 18637, "owana": 40458, "Ġatte": 42783, "ĠOrchestra": 46692, "hews": 46415, "Ġphilanthrop": 28941, "Ġjap": 48330, "Ġmissed": 6721, "isure": 28084, "Ġregimes": 45738, "Ġsuficiente": 33958, "anor": 29330, "Ġadministered": 36123, "arness": 16937, "Ġtwist": 8203, "Ġemple": 36820, "Ġdivine": 13678, "Ġobese": 50060, "ĠÐ´Ð¸": 28255, "ìĿ¸ì§Ģ": 37194, "Ġgrupos": 33758, "Ġhypotheses": 49969, "à¯": 1390, "Ġcommitted": 7784, "æ®": 15976, "Ġdedication": 21813, "Ġpremier": 12689, "Ġconjugate": 45064, "ĠBerlin": 13848, "Ġbul": 6493, "ĠÐ±ÐµÐ·Ð¾Ð¿Ð°Ñģ": 45015, "Ġallocated": 29772, "Ġmog": 13172, "ĠJust": 1449, "ĠSmith": 8538, "Ġprze": 8325, "Ġstead": 23721, "ĠMuslims": 14793, "Ġsurviv": 12324, "Ġnoch": 3514, "Ġturbul": 27462, "phr": 44598, "Ġorbital": 27677, "Ġprove": 7081, "Ġmemorial": 24089, "Ġhombres": 37988, "ìĿ¼": 6403, "ĠPurdue": 42506, "Ġcafe": 17773, "Ġtiáº¿": 34923, "Ð¾Ð·Ð´": 46004, "Ġworldwide": 13485, "ĠCela": 37348, "Ð¾Ð»ÑĮÐ·": 11692, "Ġdude": 6449, "ĠPill": 44656, "<|6.98|>": 50713, "Ġminimum": 7285, "kl": 7837, "<|26.78|>": 51703, "NEY": 45317, "bol": 17460, "alling": 24021, "richt": 12836, "Ġimmort": 44817, "ĠVanessa": 27928, "ĠÐ½Ð°Ð¼": 11401, "íĦ°": 8528, "ĠÑĥÐ¶Ð°Ñģ": 44973, "Ġhistoria": 18385, "Ġìŀ¥": 12280, "ĠCheer": 39899, "Ġfut": 1877, "unÃ¤chst": 42121, "Ġdoctr": 46040, "les": 904, "inka": 38989, "Cameraman": 44689, "Ġpetals": 31530, "Ġcomrades": 42249, "ende": 5445, "Ġreaching": 9906, "Ġvisuals": 26035, "Ġlatency": 27043, "Ġscen": 4191, "ÑĤÑĢÐ°": 37397, "Ġseated": 20959, "Ġwhichever": 24123, "KY": 31796, "mbre": 20014, "ĠÐ¶Ð¸Ð·Ð½Ð¸": 21415, "Ġpresenters": 36987, "Ġsupper": 44185, "Ġkenn": 36272, "Ġforg": 3667, "Ġbacon": 16400, "NIE": 34279, "Ġpraised": 31003, "á»ĩ": 8471, "<|29.56|>": 51842, "Mary": 29681, "ĠSE": 10269, "Ã¼rÃ¼": 26481, "ĠKÃ¤": 40502, "ìķĦìĦľ": 18461, "Ġencouragement": 25683, "Ġvigil": 39093, "<|jw|>": 50356, "rategy": 37464, "ĠMarcel": 34738, "Ġê°ĸê³ł": 37912, "alone": 24806, "ĠPeg": 28007, "GS": 24446, "Ġhavia": 28855, "Ġlors": 20653, "Ġcomplic": 16060, "pie": 9144, "Ġquesti": 29729, "lÃ©": 29728, "çİ°": 20204, "Ġrebel": 28293, "hores": 39356, "ĠUncle": 12347, "ĠHij": 27832, "<|16.50|>": 51189, "<|2.00|>": 50464, "æ¹": 33744, "Ġsoundtrack": 27029, "ĠHawai": 13613, "Ġhaben": 3084, "ĠBroken": 46624, "<|28.18|>": 51773, "Ġkick": 4437, "Ġvacuum": 14224, "ĠÐ¾Ð´Ð½Ñĥ": 37885, "{\\": 35000, "ĠKomm": 18400, "Ġcomparisons": 33157, "ĠmiÄĻdzy": 33964, "Ġclarified": 47605, "ĠTechnologies": 46993, "ãħ": 4143, "Ġincluso": 24018, "ĠWAT": 36086, "Ġmedications": 17504, "ĺë": 1894, "ĠwÃ¤re": 14558, "ĠPhillip": 44051, "Ġansch": 31508, "Ġfrankly": 11939, "Ġzac": 34430, "Ġãģ¦": 23822, "Ġsquats": 45055, "ĠHyper": 29592, "oland": 30063, "ĠWalking": 26964, "ĠpÃ¨re": 37653, "ĠÑĥÐ²Ð¸Ð´ÐµÑĤÑĮ": 46095, "ĠHunting": 44793, "Ġapare": 15004, "<|8.02|>": 50765, "Ġpraise": 13286, "ĠMai": 24084, "Ġì¶Ķì²ľ": 40264, "Ġintellig": 5613, "Ġmotorcycle": 20554, "ĠBark": 36275, "ĠcÃ´t": 16857, "çĥ": 23661, "Ġunquote": 37557, "Ġpresented": 8212, "noon": 6376, "Ġsetting": 3287, "Ġmagnets": 33022, "Ġteaser": 35326, "rence": 10760, "Ġreplacing": 19139, "Ġstatut": 35907, "Ġazt": 39566, "Ġcomprehend": 38183, "andÄ±r": 49428, "ither": 1839, "¾": 122, "Ġcatalog": 19746, "ennial": 29705, "ĠëĤ´": 6918, "rip": 8400, "Ġcontract": 4364, "ila": 7371, "Ġcoefficient": 17619, "ĠConnecticut": 29433, "wnie": 14215, "ĠJulian": 25151, "ĠLima": 50217, "ĠJuan": 17064, "Ġso": 370, "Ġeks": 30724, "Ġapplic": 2580, "Ġyolk": 32464, "ç¬¬äºĮåĢĭ": 49085, "Ġtriangle": 13369, "Ġnecessarily": 4725, "Ġgeo": 43198, "ziaÅĤ": 43070, "Ð²ÐµÑĢ": 10327, "izz": 8072, "ĠSuch": 9653, "Ġentrepreneur": 14307, "Ġconnectivity": 21095, "ÏĤ": 3371, "<|af|>": 50327, "ĠBin": 18983, "ĠAcho": 40731, "Ġaccounted": 43138, "Ġbusiness": 1606, "ëĭ¤ë©´": 19826, "æĿ±": 18413, "ĠInk": 31147, "ĠDo": 1144, "Ġ2025": 39209, "Ġdissolved": 30651, "Ġdestin": 40254, "ĠUganda": 48764, "Ġreconoc": 43838, "Ġdigamos": 36430, "Ġgadgets": 37635, "è¨Ń": 39035, "Ð¸ÑĤÐ°": 30816, "Ġcharities": 42006, "<|as|>": 50350, "Ġunused": 44383, "Ġminer": 18746, "Ġbist": 18209, "well": 6326, "Ġconsumption": 12126, "ĠIo": 19239, "Ġlogging": 27991, "ï¸ı": 32306, "ĠkonuÅŁ": 17311, "Ġficar": 13646, "Ġmascot": 42339, "Ġcollects": 39897, "ĠChi": 17730, "emption": 26033, "ĠLuna": 27355, "otal": 38180, "ĠTub": 48258, "Ã³le": 28287, "ĠmÃ©di": 42436, "à®µà®°": 36001, "ĠestÃ¡": 3192, "Ġinterview": 4049, "okus": 38480, "Ġcombust": 21161, "Ġtwee": 30660, "App": 9132, "ocate": 42869, "Ġexplic": 28021, "ÑģÑĤÑĢÐ¾": 14086, "Ġfats": 29885, "Ġoutline": 16387, "ĠEntonces": 15097, "Ġexperiencing": 11139, "Ġrabbit": 19509, "Ãªter": 37754, "Ġhaft": 32329, "<|5.36|>": 50632, "Ð°Ð½Ð°": 15253, "jÄħ": 8555, "è¹": 39540, "aky": 15681, "Ġrestore": 15227, "ĠTON": 25867, "Ġëĵ£": 32877, "ĠVoice": 15229, "oque": 29743, "ĠZuk": 20991, "ĠForces": 27445, "êµĲ": 18084, "Ġsiempre": 12758, "ĠMiy": 26195, "<|21.36|>": 51432, "ĠÐ²ÑģÐµÐ³Ð´Ð°": 19087, "ĠAmber": 29407, "ometown": 21462, "Ġadjust": 4369, "iono": 49020, "Chat": 41683, "Ġcombos": 44079, "ĠVin": 15011, "Ġtema": 15854, "Ð¾ÑĤ": 1631, "ÑĢÑıÐ´": 44447, "ĠNaval": 38118, "ĠWeekly": 35945, "ĠvÃ¥ra": 41042, "Ġvoiced": 42246, "Ġmeg": 10816, "ĠFrau": 13930, "Ġ1967": 33193, "nie": 2766, "ĠÐºÐ¾Ð¿": 42399, "åĹ": 6083, "llie": 21382, "ĠHogwarts": 46539, "Ġyeux": 36163, "Ġsomos": 25244, "ĠSes": 29827, "Ġvanity": 44622, "Ġhairst": 30658, "Ġmisschien": 42047, "Ġangle": 5802, "à¹Ģà¸ŀ": 50189, "ãģĴ": 26012, "normal": 23157, "Ġreviews": 10229, "Ġtoward": 7361, "ĠLets": 15655, "ĠGott": 19133, "ĠEaster": 9403, "ĠEine": 17664, "ÃŃr": 31338, "Ġharbor": 36947, "Ġflashy": 47873, "Ġagua": 19330, "Ġdisintegr": 45354, "é«ĺ": 12979, "Ġdroit": 25971, "Ġcars": 5163, "Ġmagazines": 22975, "Ġauto": 8399, "ĠWelsh": 27129, "ĠMt": 39183, "ĠDr": 2491, "icie": 28434, "ĠShopify": 43991, "ĠWindow": 44933, "ĠDP": 42796, "<|25.28|>": 51628, "Ġrant": 45332, "Ġmoins": 13099, "istas": 14858, "Ġcasa": 9022, "Ġentertain": 7655, "<|28.66|>": 51797, "ĠStevens": 41727, "Ġata": 48639, "ĠGriff": 23765, "<|14.14|>": 51071, "Ġíģ¬ê²Į": 38926, "ĠRP": 14105, "str": 9733, "Ġstay": 1754, "Ġcontr": 10273, "Ã¼zel": 13130, "toire": 47144, "<|13.00|>": 51014, "Ġsailed": 49339, "ĠEmer": 18477, "ĠEu": 2186, "JI": 43038, "ĠLok": 46278, "Ġbreak": 1821, "ĠEH": 39416, "¥´ê²Į": 39930, "Ġkilling": 8011, "Ġbijvoorbeeld": 43061, "ĠStage": 25907, "Ġbecom": 2683, "Ġtakiego": 32296, "Ġimpul": 41767, "Ġcompetitions": 26185, "Ġgeographical": 39872, "Ġpandemia": 33245, "iscern": 42074, "Ġbowling": 35537, "ĠSci": 16942, "Ġhugging": 41706, "Ġaccordingly": 19717, "Ġgameplay": 11421, "ĠBravo": 28861, "Ġì§Ģê¸": 46253, "ĠDee": 38894, "vasive": 39211, "Ġcones": 40548, "Ġpassionate": 11410, "Ġbuffet": 42904, "Ġproto": 47896, "Ġquirky": 49515, "Ú": 150, "Ġejerc": 39151, "Ġyears": 924, "ĠEdward": 18456, "Ġë¬¸ìłľ": 24290, "Ð¸Ð½Ð¾Ð¹": 30933, "Ġgutes": 45859, "ĠÑģÑĤÑĢÐ¾": 35860, "AF": 40418, "Ġsoap": 14587, "Ġcarried": 9094, "engo": 30362, "We": 4360, "Ġconceptual": 24106, "Ġconten": 21795, "commerce": 26926, "om": 298, "Ġcock": 11241, "ÑĥÐº": 10282, "Ġgrandfather": 14754, "Ġsci": 2180, "Ġgrind": 16700, "Ġ[...]": 35467, "licht": 20238, "Ġ1988": 27816, "Ġglimp": 25727, "<|4.82|>": 50605, "ĠJud": 7661, "Ġdiscretion": 30140, "Ġdrowned": 38233, "Ġperseverance": 39674, "ĠÑĤÐµÐ¿ÐµÑĢÑĮ": 16983, "<|5.24|>": 50626, "Ġaccessory": 30617, "orno": 21998, "å¥ĩ": 26907, "ĠÐ¿ÑĢÑĭ": 50236, "Ġboiling": 16208, "Ġrealistic": 12465, "Ġlegislators": 39264, "ses": 6196, "ĠMUS": 49764, "Ġpurse": 28345, "Ġpotatoes": 11811, "Ġ×ŀ×Ĺ": 42644, "Ġnel": 15373, "Ġalla": 11591, "Ġapoyo": 46151, "Ġlust": 24672, "Ġinflation": 15860, "Ġclockwise": 35790, "than": 24852, "Ġbroadcasting": 30024, "Ġintrinsic": 35698, "ĠØ¥": 11933, "ĠEig": 40561, "Ġotro": 11921, "GU": 32298, "Ġhop": 3818, "<|4.62|>": 50595, "Ð¶": 1820, "Ġnursery": 37538, "isia": 15877, "ĠyapÄ±yorsun": 36964, "Ġallowance": 30647, "ĠKIM": 38985, "aghetti": 24402, "Ġmultiply": 12972, "ĠÎµÎº": 44009, "<|2.70|>": 50499, "ĠImmedi": 32157, "Ġrichest": 35098, "Ġeasily": 3612, "ĠIsn": 6998, "ĠDance": 16114, "arz": 49763, "Ġforeigners": 28201, "Ġnuc": 6304, "Ġlegally": 21106, "Ġë³´ìĿ´ëĬĶ": 47793, "ĠSolo": 26452, "ĠSilence": 34570, "compl": 43856, "ĠSver": 29490, "ĠFell": 29709, "ĠÐ½Ð°Ð´Ð¾": 13256, "Ġsencill": 46749, "Ġoverweight": 40523, "ĠInf": 11537, "ĠfÃŃs": 27538, "Ġhust": 25822, "ĠCem": 48852, "Ĳë§Į": 25940, "Ġsabe": 12275, "Ġnearest": 23831, "ĠHorn": 31792, "actions": 12299, "è¡¨ç¤º": 40053, "Ġmiraculous": 41101, "ĠÃ¶ld": 35419, "Ġll": 4849, "<|9.66|>": 50847, "Ġpropose": 17421, "asures": 20044, "Ġmoim": 48569, "agna": 35697, "ĠÐ¾Ð³ÑĢÐ¾Ð¼": 28107, "Ġfeast": 23707, "ê²łìĬµëĭĪëĭ¤": 9420, "Ġonwards": 34230, "ĠÐ²ÑģÑĤÑĢ": 20569, "ĠÐ¼ÑıÑģ": 40966, "Next": 31002, "Ġclair": 41375, "ÑĤÐ¾ÑĢÐ¸Ð¸": 47772, "ement": 1712, "Ġverl": 19441, "ostat": 39036, "Ġdashboard": 18342, "ĠAccording": 7328, "Ð»ÑĥÑĪ": 25372, "<|29.70|>": 51849, "ĠTwitch": 22222, "Ġtouch": 2557, "Net": 31890, "ibt": 13651, "Ġopener": 43850, "Ġencouraged": 14658, "iiii": 42526, "?!\"": 35271, "Ġtangible": 27094, "ĠGente": 38799, "Ġpierwsze": 45994, "Ġlux": 11363, "Ġarmies": 28217, "ĠDOWN": 48897, "Ġ:": 1982, "Ġlivestream": 29782, "ä½łæĺ¯": 32526, "ĠâĢ¦": 5799, "Ġanchor": 18487, "onym": 12732, "Ġfixture": 47680, "Ġflow": 3095, "Ġtah": 23059, "å¸¶": 32379, "Ġgle": 48956, "mun": 23717, "Ġwisely": 37632, "Ġindependence": 14640, "Ġasthma": 33409, "ĠðŁĺ": 20732, "çı": 8434, "ĠExcellent": 16723, "ĠHat": 15867, "Ġprod": 15792, "Ġunjust": 37046, "Ġcoping": 32893, "gesetz": 33506, "ĠFro": 25028, "çħ": 17867, "Ġno": 572, "Ġfruition": 48738, "Ġschizophren": 41532, "ĠÑģÐ¿Ð¾ÐºÐ¾Ð¹": 47471, "Ġprofess": 2668, "atter": 1161, "ĠdeÄŁil": 9920, "Ġempty": 6707, "ä¸įçŁ¥éģĵ": 17572, "Ġgelecek": 47158, "Ġbede": 22466, "Ġnavigating": 32054, "Î¯Î±ÏĤ": 45281, "ĠFish": 18096, "ê³¼": 7097, "ĠPython": 15329, "ĠRemember": 5459, "ĠDelete": 49452, "<|8.96|>": 50812, "æĶ¯æĮģ": 35488, "ocking": 31730, "Ġsubmit": 10315, "angle": 7846, "ĠWhe": 17040, "Ŀ¼": 2742, "Ġprepares": 39418, "mith": 41708, "ÑĥÐ½Ðº": 26533, "Ġhakk": 37949, "ĠçĦ¶å¾Į": 49078, "Ġinfectious": 26780, "ĠTotal": 23170, "ÑĥÑĢÑĭ": 36106, "ĠosÃ³b": 32089, "Ġinsignificant": 43685, "Ġoversized": 49408, "Ġ70": 5285, "Ġíķ´ëıĦ": 35776, "Ġreservoir": 26316, "Ġawareness": 8888, "armed": 38375, "ìłķìĿ´": 38676, "<|2.28|>": 50478, "ĠìĤ¬ê³ł": 40836, "ĠÑĥÑĩÐ°ÑģÑĤ": 40970, "Ä±l": 5492, "Ġactor": 8747, "uci": 34144, "Ġhoe": 19709, "Ġcite": 37771, "ĠShir": 27239, "<|23.22|>": 51525, "ìľłë": 49965, "focused": 44062, "Ġnenhum": 32584, "Ġcellular": 29267, "ĠControl": 12912, "ĠLovely": 33925, "Ġschizophrenia": 49022, "ĠFilm": 13801, "Ġzab": 24838, "Ġreduces": 18081, "Ġyup": 40073, "icht": 1405, "ĠMoment": 19093, "Ġversucht": 36064, "ACH": 19972, "oid": 17079, "Ġhur": 2756, "Ð°Ð²Ð°ÑĤÑĮ": 38945, "ĠSpirit": 7218, "Ġjak": 4207, "ranch": 49702, "Ġflown": 34536, "Ġdrops": 11438, "Ġcaps": 13855, "ler": 1918, "Ġpagar": 28024, "rocket": 37463, "ĠÐ¶Ðµ": 6151, "ı¼": 25116, "Ġtrademark": 31361, "Ġcomponent": 6542, "TP": 16804, "Ġdetermination": 18432, "Ġpasado": 24794, "Ġcherry": 20164, "unuz": 33923, "<|12.92|>": 51010, "Ġsurprisingly": 17600, "ÙħÙĦ": 42213, "ĠHiÃ§": 33410, "Ġfiling": 26854, "ĠFrankf": 32571, "Ġvisit": 3441, "Ġred": 2182, "è¨ĺ": 16958, "Ð¾ÑĩÐµÐ¼Ñĥ": 28807, "walk": 12490, "ĠÐ½Ð°ÑĪÐ°": 48513, "Judge": 46717, "Ġbanyak": 25808, "Sean": 49658, "Ġcomplimentary": 47162, "Ġorden": 28615, "uy": 7493, "Ġtadi": 42953, "Ġbastante": 14651, "<|12.46|>": 50987, "venue": 29307, "ĠÐºÐ°ÐºÐ¾Ðµ": 37932, "ĠmikÃ¤": 48482, "ĠìĿ´ìķ¼ê¸°": 37576, "ĠëĶ°ëĿ¼": 24453, "Ġprivat": 31856, "check": 15723, "wealth": 29988, "ìĿ": 673, "imentos": 34626, "¸ë": 1397, "quarters": 17313, "arg": 33544, "dimensional": 18759, "Ð¢": 8556, "Ġstylist": 48544, "Ġexploitation": 33122, "ĠCNN": 24859, "UE": 16309, "Ġconfigurations": 31493, "Ġlaughing": 5059, "ê²łì£ł": 29935, "ĠÐ½Ð¸Ð¼Ð¸": 42371, "hill": 17000, "ĠfranÃ§ais": 21425, "<|13.56|>": 51042, "ifting": 10106, "ãģ§ãģĻãģĭ": 30913, "<|26.86|>": 51707, "ĠCoronavirus": 32737, "Ġstab": 16343, "<|10.20|>": 50874, "irsin": 43384, "Ġscans": 35116, "ĠHall": 5434, "Ð½Ð¾ÑģÑĤÑĮÑİ": 24517, "ĠLori": 32698, "ÙĮ": 47416, "Ġpoorer": 49740, "grid": 35320, "Ġcausa": 23667, "Ð½ÑĥÐ»": 26198, "Ġooh": 17024, "ĠMuh": 15651, "Ġoll": 37995, "ffe": 16349, "Ġeagle": 30745, "Ġamongst": 12918, "ĠAmen": 14092, "Ġvisitors": 14315, "ĠðĿĺ": 42341, "motion": 44968, "çµĲ": 17144, "zers": 41698, "×ķ×ĵ": 10014, "Ġmois": 19230, "anders": 41430, "inky": 22998, "Ġcheese": 5399, "ĠAny": 2639, "Ġexceeds": 43305, "Ġtribal": 20958, "Ġrooms": 9396, "ĠÐ¼Ð°Ð¹": 41860, "Ġdur": 4861, "Ġkingdoms": 44171, "Ġfertil": 18512, "Ġ-âĻª": 45499, "ĠWOMAN": 30837, "Ġstewardship": 50092, "åĪļ": 49160, "guru": 32266, "Ġtras": 22507, "Ġëª": 3491, "alties": 26471, "Ġneurological": 48185, "åĪĨäº«": 30855, "Ġbour": 32373, "<|23.36|>": 51532, "ĠTC": 34150, "ulle": 34217, "Ġhung": 5753, "ĠQuá»ĳc": 41494, "Ġìļ°": 14995, "phalt": 39910, "ĠNah": 13933, "Ġprogression": 18733, "ĠWitness": 41366, "Ġcatch": 3745, "ĠVoy": 25563, "Ġserious": 3156, "Ġvital": 11707, "×ķ×ŀ×¨": 26745, "ĠLynch": 32345, "ured": 3831, "Ġskulle": 20750, "Ġdigestive": 32696, "ĠCabinet": 31398, "<|8.38|>": 50783, "Ġbelongings": 43554, "<|19.20|>": 51324, "Ġyol": 16290, "ĠKollegen": 23713, "Ġalleviate": 42701, "Ġ1994": 22736, "Ġapplause": 9969, "Ä±ld": 21473, "ĠEspaÃ±a": 31729, "ĠSAP": 27743, "ĠÐ¼Ð¾Ð¶ÐµÑĤ": 8689, "éĢ£": 36252, "odynamic": 34988, "Ġpolarized": 48623, "Ġpsychologists": 41562, "Ġmot": 2184, "ĠVerg": 26610, "Ġeject": 32520, "ìŀ": 1574, "ÑģÑĥÐ´Ð°ÑĢ": 42384, "ĠLandesregierung": 37695, "erella": 42842, "Text": 50198, "Ġregres": 47108, "Ġmasterpiece": 32208, "íĿ¬": 11975, "Ġarmed": 16297, "Ġì¤ĳìĹĲ": 32690, "Ġjouer": 30823, "omatic": 13143, "Ð³Ð»Ð¸": 34220, "Ã¡is": 32133, "Ġrenewed": 30228, "Ã§a": 5297, "Ġmotto": 32680, "ĠOnly": 5686, "ĠkÃ¶t": 32629, "ĠTruck": 44600, "Ġformal": 9860, "Ġsociais": 45179, "Ġvent": 6931, "ĠZur": 30518, "Ġwheelchair": 22945, "oc": 905, "ìĿ¼ë": 22809, "æĪ¿": 38242, "ront": 10001, "Ġwhereby": 36998, "Ġnewsp": 10202, "ĠÐ½Ð¸ÐºÑĤÐ¾": 31666, "lan": 8658, "ĠDefin": 46245, "Ġsolemn": 46694, "Ĭ¨": 21588, "ĠAllÄģh": 41778, "éģİåİ»": 36910, "Ġlistens": 35959, "idency": 23343, "ĠwÃ¤hrend": 33624, "ennes": 42886, "Ġdriver": 6787, "Ġquoi": 11714, "Ġestran": 49461, "Ġadulthood": 42328, "Ġess": 2097, "Cam": 31030, "Ġfreezing": 20200, "ÐłÐĺ": 45683, "Sarah": 48878, "friendly": 22864, "ĠWade": 28001, "Ġamer": 16116, "Ġresults": 3542, "redit": 20046, "ĠPeki": 36598, "him": 18251, "Ġannoyed": 25921, "rÃ¡": 30218, "ĠìĿ´ìĥģ": 20362, "gend": 9395, "ĠSuzuki": 49457, "Ġuser": 4195, "Ġutilizing": 26775, "ĠìĥĪ": 31184, "ĠìŀĪìĹĪ": 15972, "ÙĪØ¹": 45367, "Ġvoltages": 49614, "plement": 43704, "stein": 9089, "ĠLoc": 12859, "ĠKazakhstan": 47394, "Ġkro": 45909, "ĠSQL": 19200, "czyÄĩ": 33967, "ends": 2581, "Ġoptimized": 26941, "Ġãĥ": 15096, "ku": 5279, "Ġplein": 21088, "Ġvenge": 38008, "Ġling": 22949, "ÐµÐ½Ð½ÑĭÐµ": 29643, "ìĻ": 5485, "Ġ2009": 11453, "ĠÑģÑĩÐ¸ÑĤ": 22413, "à®®": 6980, "ilities": 3064, "Ġnegotiate": 21713, "åħ¶å®ŀ": 41646, "ĠGlory": 28524, "beitet": 32401, "Ġgef": 11271, "ĠOri": 23621, "oshing": 27656, "ĠÑįÐº": 13817, "Ġcoffin": 38361, "ĠTwist": 47016, "ÅĤo": 5249, "Ġdonor": 25493, "è¨´": 28953, "Ġbeyond": 4399, "ĠBerkeley": 23684, "ĠMediter": 25828, "<|29.00|>": 51814, "Ġcolonies": 27981, "Ġdisposition": 40293, "Ġblo": 1749, "Ġ67": 23879, "Ġtháº¥y": 27793, "ĠÃ¼bers": 45022, "ãģĤãĤĬ": 14498, "Ġpraying": 15611, "ixe": 42369, "ĠRICH": 33618, "Ġhappier": 20423, "ĠÃº": 6991, "íķĺìĭľëĬĶ": 47925, "ĠinvestigaciÃ³n": 48919, "ë°ĺ": 49905, "Ä±n": 2263, "<|uk|>": 50280, "Ġheat": 3738, "ÐºÐ¾Ð²": 7718, "Ġinto": 666, "ĠFeuer": 39972, "xus": 32618, "æĪĳçļĦ": 14200, "Ġtours": 22911, "Ġwelfare": 17788, "ĠReg": 4791, "Ġsociaux": 47460, "çĩ": 24184, "ĠCG": 38007, "ĠEP": 25330, "ĠYaz": 44962, "Ã¼man": 48585, "Ġdistur": 10242, "Ġalpha": 8961, "Ġspherical": 37300, "neg": 28561, "ject": 1020, "Ġeggplant": 43018, "Ġlibrarians": 48803, "Ġoften": 2049, "åŃ©åŃĲ": 48989, "chieden": 40433, "ä½ı": 21632, "Ġwok": 40022, "ĠÐ¼Ñĸ": 23895, "ĠBrill": 30132, "ĠbÄĻd": 8218, "Ġfascinated": 24597, "Ġdonuts": 36826, "CL": 22458, "Ġbuilt": 3094, "Ġslammed": 50196, "Ġchew": 21200, "ĠìĮ": 35792, "Ġprop": 2365, "Ġseafood": 23206, "ĠLauren": 18915, "ĠVision": 25170, "ĠÃ¶ÄŁ": 24411, "Ġobstruction": 49711, "heres": 19464, "Ġdo": 360, "Ġswept": 31791, "ĠÐ³Ð¾Ð²Ð¾ÑĢ": 8180, "Ġconvictions": 44757, "Ã®ne": 24741, "Ġreceptor": 32264, "Ġcoinc": 13001, "Ġwarning": 9164, "ĠBrett": 29447, "Ġhusband": 5213, "acas": 43786, "Ġhij": 10625, "Ġblamed": 32027, "ĠChampion": 23160, "Ġfixing": 19442, "à¹Į": 23948, "Ġremains": 7023, "Ġsepar": 3128, "ÅĦsk": 27125, "Ġhonored": 14556, "Ġextreme": 8084, "Ġequality": 14949, "ìĽĢ": 45103, "<|7.40|>": 50734, "Ġolabilir": 38049, "Ġ...\"": 39463, "Ġcheg": 22115, "Ġconfess": 19367, "æĿ±è¥¿": 26978, "Ð¾Ð´Ð½Ð¾": 44356, "ĠWay": 9558, "Ġê°Ī": 23616, "Ġlimiting": 22083, "ĠÅŁu": 17235, "Ġcarb": 12143, "hrlich": 34188, "æĿ¥": 6912, "Ġtulee": 40038, "ĠWallace": 32626, "dan": 10312, "ĠRober": 15800, "Ġtrabajar": 30793, "ĠÛģ": 12138, "country": 39337, "ĠLopez": 36077, "ahahaha": 30284, "ĠMID": 32394, "Ø£ÙĨ": 33456, "intendo": 11177, "Ġlethal": 34562, "ĠperÃŃ": 38933, "ĠÑĩ": 1358, "Ġghosts": 21744, "ĠbÃ¶l": 36413, "ĠChancellor": 24778, "Ġaquela": 25996, "Ġterm": 1433, "Ġgon": 26307, "ienia": 18811, "ĠLions": 48335, "mann": 14912, "Ġresponsibility": 6357, "Ġhabit": 7164, "Ð½Ð°Ð»Ð¸": 47704, "IVE": 34146, "Ġprojects": 4455, "Ġalert": 9615, "ì£": 3354, "Ġpropri": 40465, "ĠÄĳi": 13264, "Ġprzede": 44786, "Ġsegregated": 47370, "Ġimpe": 19643, "ĠAmer": 22597, "ĠOoh": 7951, "ARRY": 49968, "oplan": 49768, "platz": 34755, "Ġnoun": 23307, "Ð¡Ð¿": 47306, "Ġsunflower": 48215, "ufficient": 30664, "Ġtherefore": 4412, "Ġhazards": 34516, "arians": 24831, "Ġbends": 42990, "pson": 16962, "Ġtheoretical": 20864, "aded": 12777, "<|24.56|>": 51592, "Ġnessa": 23246, "Ġtypes": 3467, "Ġtong": 9124, "Ġnurse": 14012, "Ġdomination": 41502, "be": 650, "ĠTag": 11204, "Ġgenres": 30057, "ĠCameron": 24962, "ĠDemon": 29683, "<|22.46|>": 51487, "szyst": 10424, "ĠAs": 1018, "Ġcar": 1032, "Ġprzysz": 44018, "Ġconsumes": 48823, "ĠÄĳÃ¢u": 35433, "ĠBowser": 46102, "ĠFifth": 33588, "Ġgiraffe": 49897, "<|24.32|>": 51580, "ĠDie": 3229, "Ġthermometer": 42539, "Ġê±´ëį°": 29201, "Ġpublish": 11374, "ĠÑĤÐ°": 18752, "Ġfunds": 8271, "ĠÐ´Ð°Ð²Ð°Ð¹ÑĤÐµ": 30412, "Ġmotivation": 12335, "Ġalternate": 18873, "Ġcolumns": 13766, "cji": 19649, "ĠdiffÃ©rentes": 35438, "stoff": 23636, "Ġdabei": 14967, "Ġsympathy": 33240, "ĠAnimation": 44635, "ÐµÐ²": 3515, "rer": 9797, "Ġlanding": 11202, "py": 8200, "ĠÑħÐ¾ÑĩÐµÑĪÑĮ": 45656, "ĠVeget": 28092, "Ġinertia": 37234, "iencia": 30592, "ib": 897, "ÐµÐ½Ð½Ð°Ñı": 41994, "×©×Ļ×Ŀ": 34643, "Ġresid": 13141, "odor": 34024, "<|26.18|>": 51673, "ira": 4271, "Æ": 130, "Ġìĺģ": 9293, "afar": 47030, "ĠAlgun": 46816, "Ġupbeat": 23593, "å£°": 32045, "Ãªnio": 39266, "Ŀi": 10677, "muffled": 47503, "awi": 38402, "Ġerreicht": 46250, "Ġoptim": 5028, "eking": 38437, "Ġpremise": 22045, "Ġ09": 48729, "ĠCape": 27517, "ĠAKA": 45933, "Ġdemocracy": 10528, "pping": 3759, "<|23.30|>": 51529, "ces": 887, "ĠÐ´Ð¾Ð¼": 13049, "woo": 17607, "Ġadventurous": 46163, "Ġustedes": 17110, "Ġmeny": 46975, "ĠErfolg": 45232, "ĠÑĢÐµÐ±": 18902, "ĠìłĲ": 20060, "Ġë§Įíģ¼": 50215, "Ġcomputation": 24903, "Ġfurn": 11433, "ĠHunter": 18704, "rica": 15192, "Ġuses": 4960, "áº¯ng": 46129, "ĠÐ¿Ð¾Ð»ÑĥÑĩÐ¸Ð»Ð¾ÑģÑĮ": 44405, "Ġreminis": 33765, "Ġcet": 8603, "sca": 44239, "soft": 13908, "Ġexplode": 21411, "ĠRong": 43383, "Ġgiant": 7410, "ĠEst": 4410, "ĠAnch": 39547, "Ġexplore": 6839, "ìķĺëĬĶëį°": 48213, "Ġestado": 18372, "Ġwondered": 17055, "ĠÐ¿ÐµÑĢÑģÐ¾Ð½Ð°Ð¶": 38063, "èŃĺ": 43143, "Ġstap": 27284, "ĠPrab": 48995, "ĠKor": 21690, "Ġcoughing": 39375, "Ġantig": 44417, "ougher": 26955, "ĠÐºÐ¾ÑĤÐ¾ÑĢÐ¾Ð¹": 29452, "ĠíĶ¼ë": 24009, "Ġdumplings": 31721, "Ġpurchased": 14734, "ĠClass": 9471, "Ġagora": 9851, "ĠSkype": 31743, "éħ": 16911, "ÐµÑĤÐ°": 20513, "Ġå¿«": 42598, "wnieÅ¼": 19969, "ĠÐ¿ÑĢ": 1285, "ĠStrawberry": 45906, "erto": 13098, "ĠëĨ": 10091, "Ð½Ð¾Ñģ": 32472, "ĠÐºÑĥÑĢ": 28975, "iliz": 47043, "Ġdefinition": 7123, "Ġtricked": 39345, "Ġcomum": 44324, "ãĤ²": 46965, "ĠìļĶì¦ĺ": 24835, "imasu": 47029, "Ġengagement": 8742, "Ġfeedback": 5824, "GH": 4269, "hale": 8996, "<|5.92|>": 50660, "Ġpersonn": 30194, "<|13.76|>": 51052, "Ġcaso": 9666, "iej": 7764, "×Ĺ": 7749, "issement": 31931, "Ġwheels": 10046, "Ġmelting": 20493, "clears": 43496, "Įëĵł": 47353, "ĠMarcheg": 38081, "ĠMitarbeiter": 38324, "Ġpremature": 34877, "Ġbliver": 45329, "Ġtransp": 7132, "ĠMonte": 38105, "ĠÐ¿Ð¾Ð»Ð¾Ð¶": 29408, "nic": 7692, "Ġsustain": 6769, "Ġpursue": 12392, "Ġbushes": 34303, "Ġshr": 9884, "Ïħ": 3226, "Ġshelf": 15222, "Ð°Ð»ÑĮ": 3842, "ĠOui": 14005, "Ġsung": 18829, "Ġwon": 1582, "ĠGRÃľ": 21100, "eln": 9878, "ĠJON": 27838, "Ġchall": 2076, "ĠÑģÐ¾Ð±ÑĭÑĤÐ¸": 42654, "Ġdeserve": 9948, "Ġwig": 24094, "ĠHamilton": 18484, "pu": 34859, "allas": 19394, "ĠÐ¸Ð·ÑĥÑĩ": 43264, "ĠQuickly": 31800, "Ġrefined": 26201, "ĠPanama": 41202, "ĠNor": 6966, "Ġâĸ": 29405, "maker": 18821, "Ġtotalement": 45203, "Ġschnell": 17589, "Ġchrome": 33120, "ĠÑĢÐ°Ð·": 4203, "Ð°Ð½Ñģ": 15720, "Ġtuck": 18457, "ĠFun": 11166, "bers": 1616, "JIN": 38475, "ilik": 41470, "unci": 11228, "Ġensuite": 25080, "Ġeverything": 1203, "Ġeinfach": 7281, "ĠÙĦÙĬ": 32239, "edu": 22938, "olar": 15276, "ĠwspÃ³ÅĤ": 39069, "ĠSch": 2065, "kill": 34213, "ãĤ·ãĥ§": 43891, "Ġ...": 1097, "Ġadjective": 44129, "Ġkry": 34847, "ÙĦØ§": 15040, "reshold": 14214, "chu": 29013, "Ġloving": 9344, "Ġ1890": 47725, "ĠShell": 22863, "aria": 9831, "ĠLad": 12106, "Ð³Ð¾ÑĢ": 45628, "ĠBreak": 16925, "Ġdiapers": 48496, "lit": 23062, "Ġsecondary": 11396, "Ġíģ´ë": 30464, "Ã¤tz": 39983, "Ġwarmth": 24737, "Ġcomplications": 26566, "Ġstrang": 24404, "Ð»ÑİÐ´": 31179, "Ġsincerity": 44040, "1": 16, "yz": 37433, "Ġovat": 31802, "Ġbois": 44808, "Ha": 23745, "ĠParlament": 37487, "Ġunm": 19334, "ĠhiÃ§": 15169, "atisf": 25239, "Ġaccomplishment": 29144, "Ġciao": 42860, "Ġnonprofit": 23348, "Ġhoc": 16708, "Ġcres": 20964, "Ġsacrifices": 25094, "Ġability": 3485, "oras": 40928, "ĠAbu": 26874, "ĠPurd": 41632, "Ð»Ð¾ÑģÑĮ": 37233, "Ġpierws": 27623, "ortun": 1584, "ĠGene": 18083, "Ġrugby": 43895, "ÑİÑģÑĮ": 24551, "ìĹĲìĦľ": 4885, "Ġbounced": 46482, "ĠAle": 9366, "Ġhiá»ĩn": 48079, "ĠØªÚ¾": 41924, "ĠGiul": 38679, "ÄĽ": 9648, "ĠLIKE": 24705, "Ġobsc": 22082, "ĠKag": 48751, "ÑĢÐ°ÑģÑĤ": 46300, "iander": 29317, "ĠPrinc": 35841, "Ġchyba": 31532, "Ġ×Ķ×Ŀ": 44775, "ĠìĻĢìĦľ": 45783, "Ġcommanded": 34359, "Ġcleaned": 16146, "ĠProvost": 45426, "ĠÐ¾Ð´Ð½Ð¾Ð³Ð¾": 33828, "amos": 2151, "ĠElliott": 46170, "Ġsucking": 38669, "Ġamounts": 11663, "Ġlem": 7495, "Ġpull": 2235, "keley": 23047, "Ġcurrents": 30110, "iga": 9900, "Ġsponsored": 16621, "ĠDetective": 35210, "Ġnell": 44666, "Ġjob": 1691, "Ġsurvey": 8984, "ĠCommercial": 47171, "VER": 9398, "odia": 35926, "Ġflows": 12867, "Ġbras": 19993, "NE": 15988, "altres": 31425, "çĸ«": 31670, "ssen": 8718, "Ġcanvi": 47920, "ilian": 48666, "Ġpromoting": 16383, "ĠìĿ¼ëĭ¨": 17304, "×Ĳ×ľ": 22049, "ĠSpain": 12838, "Ġnodig": 43409, "Ġpadre": 34781, "omed": 17671, "ĠÐ¸Ð½Ð´": 47106, "Ġpassport": 24694, "bilir": 30959, "Ġcrowds": 26070, "Ġthats": 16777, "NO": 12861, "Ġfilter": 6608, "ĠOft": 37112, "ĠÙ": 1447, "Ġplant": 3709, "ĠUnit": 27894, "Ġcopy": 5055, "Ġwashing": 13836, "Ġparab": 45729, "Ġproxim": 21932, "Ġsupporting": 7231, "ANA": 21429, "ĠVlog": 33256, "ignty": 26919, "ĠíĻķìĭ¤íŀĪ": 50149, "Ġgives": 2709, "Ġacceleration": 17162, "Ġtrips": 16051, "iteit": 45967, "BA": 9295, "Ġlaughs": 6197, "ĠMarg": 20000, "Ġcomplaint": 20100, "ĠÐ°Ð±": 25600, "ĠGore": 45450, "Ġur": 4038, "andro": 29173, "ÑĪ": 1198, "inh": 10085, "ì£ł": 5837, "ĠGedanken": 44612, "Ġlistener": 31569, "Ġmammals": 35408, "Ġaliens": 21594, "res": 495, "reibt": 31174, "Ġíļ¨": 33571, "Ì": 136, "Ġeco": 30226, "ĠÐ½Ð°Ð¶": 35675, "...</": 41341, "Ġ***": 32315, "Ġridge": 34651, "Ġfestival": 12091, "ĠParker": 20155, "<|18.86|>": 51307, "Ġnearly": 6217, "<|19.68|>": 51348, "sk": 5161, "Ġdares": 50213, "Ġskeptical": 28601, "phy": 15680, "Ġëħ¸ë": 13262, "ĠÐ¿ÑĢÐµÐ¿": 47510, "Ġabst": 10823, "Ġgetir": 38610, "Ġspeeds": 16411, "Ġmessage": 3636, "Ġmanga": 23316, "Ġcoats": 30036, "ĠFEMA": 31519, "Ġabove": 3673, "Ġscoot": 21375, "ĠSponge": 43742, "Ġmiss": 1713, "ĠMath": 15776, "ĠOliv": 42477, "Xi": 41577, "ĠHear": 30685, "ĠÐ¡Ð¾": 40156, "Green": 46854, "ĠÐ¾ÑĤÐ´ÐµÐ»ÑĮ": 41199, "à¹ī": 4750, "gest": 2629, "hour": 18048, "å¾Ĺ": 5916, "Ġstrangely": 39851, "Ġintend": 19759, "Ġhockey": 22449, "Ġalligator": 48095, "<|20.22|>": 51375, "Ġinsecurity": 35058, "<|19.32|>": 51330, "Ġlimit": 4948, "News": 35766, "Ġwebcam": 39490, "Ġtrek": 33646, "ĠInternet": 7703, "Ġkurz": 20465, "èĦ": 27067, "Ġguard": 6290, "ĠBarry": 21639, "ãģĦãģŁãģł": 32418, "Ġads": 10342, "Ġsediment": 32362, "Ġoffices": 14434, "ĠCitizens": 44120, "ĠCody": 34524, "Ġdeals": 11215, "..'": 47145, "<|20.54|>": 51391, "<|23.54|>": 51541, "Ġ×©×Ĳ×": 39360, "ĠKn": 10519, "ĠKey": 12759, "Ġaparece": 37863, "inters": 35388, "åİ": 5014, "'RE": 39040, "åŃĺ": 39781, "tles": 23995, "ftig": 34765, "Ġparts": 3166, "Ú¾ÛĮ": 36078, "indi": 10255, "ĠUI": 15682, "ãģ¨ãģĦãģĨãģĵãģ¨ãģ§": 39341, "Ġadvoc": 7915, "Ġarrangements": 22435, "Ġchassis": 28262, "Ġend": 917, "Ġayudar": 38759, "Ġslots": 24266, "Ġconsci": 39271, "Ġdaring": 43128, "<|24.38|>": 51583, "cÃ³mo": 46614, "Ġgigantic": 26800, "Ġscra": 13943, "Ġcigarette": 26184, "Ġlag": 8953, "<|24.14|>": 51571, "Ġdiscord": 32989, "ĠÑĢÐµÐ·": 17749, "ĠNem": 22210, "Ġrinse": 27026, "urpose": 31345, "Ġheav": 3577, "è®Ĭ": 26327, "Ġ1958": 45868, "Ð¼Ð¾ÑĤÑĢÐ¸": 44443, "Ġelectronic": 10092, "Ġsecretary": 15691, "Ġrepairs": 28823, "ĠCind": 23863, "ĠìłĢê¸°": 33789, "Ġplup": 45312, "Ġaccomplish": 9021, "Ġederim": 37749, "Ġìŀłê¹": 24155, "unn": 34963, "ĠDAR": 49274, "Ġalleg": 10364, "Ġempresas": 26433, "ĠThursday": 10383, "Ġgrosse": 40009, "Ġindo": 13770, "DIO": 49021, "Ġexemplo": 16496, "Ġatt": 951, "Ġpeac": 43370, "Ġdeux": 8208, "Ġkw": 23846, "Ġsym": 6697, "ĠÐ¿Ð¾ÑĩÐµÐ¼Ñĥ": 21513, "ĠØ§ÙĦØª": 16712, "Ġabort": 38117, "çŁ¥éģĵ": 7758, "actic": 19892, "iele": 15949, "ìķĻ": 48808, "ÅĤych": 47655, "Ġpublications": 25618, "rule": 44197, "ĠnhÃ¢n": 47931, "psy": 29182, "ĠMer": 6124, "ĠTwe": 47763, "ĠÐ¼Ð¾Ð¶": 4710, "ymph": 25161, "ioÃ¨": 35983, "ĠSeung": 20384, "ĠMon": 4713, "Because": 21831, "Ġfifty": 13442, "Ġfabrics": 32424, "Ġyani": 11654, "ÐµÑĪÐµ": 42169, "ĠÐ´ÐµÐ½ÐµÐ³": 40957, "groaning": 46723, "<|23.10|>": 51519, "Ġpollen": 42482, "ĠEvan": 22613, "Ð´Ð¾": 36091, "ĠÐµÑģÑĤÑĮ": 5640, "2019": 30620, "Ġguideline": 41653, "ull": 858, "ĠWinston": 33051, "Ġmyst": 9111, "Ð¾Ð²Ð°ÑĤÑĮ": 14069, "Ġ1973": 33530, "Ġstays": 10834, "Ġiterate": 44497, "ĠMonday": 8138, "ĠFlo": 15153, "ĠÐ°ÑĤ": 46998, "Ġcomm": 800, "éĸĵ": 11016, "wire": 42689, "ĠÐ½Ð°ÑĤ": 48290, "ìĹĪëįĺ": 27093, "Ġveel": 16550, "rauen": 46640, "ĠkÄ±": 25470, "ĠMacBook": 31737, "Ġbere": 13375, "ĠmayorÃŃa": 35342, "éļ»": 47857, "ufact": 5563, "aud": 3751, "Ġenthusiasts": 45873, "ĠcÃ²n": 31394, "Ġgovernmental": 43391, "Ġpeu": 5604, "Ġattracting": 36594, "Ã¼k": 8370, "ĠktÃ³rzy": 25382, "Another": 46028, "cipe": 46687, "à¸§à¸¢": 39507, "Ã¼hr": 11986, "ĠVOICES": 44623, "ĠStandard": 21298, "Ġcontacts": 15836, "Ġwins": 10641, "orns": 27128, "Ġcasing": 45109, "ĠAuch": 13382, "Ġchallenged": 17737, "æ¯į": 35744, "ĠëĲĺë": 20603, "Ġbroadcast": 9975, "×Ļ×§": 20530, "Ġinstability": 34379, "Ġsovere": 17894, "aukee": 33581, "hnlich": 35646, "ĠSer": 4210, "Ġunravel": 40507, "å¡Ķ": 23965, "Ġsitt": 43709, "Ġshallow": 20488, "Ġplusieurs": 20208, "i": 72, "incarn": 41801, "si": 7691, "service": 39279, "Ġinsanely": 40965, "ĠReese": 49474, "è·¯": 24658, "Ġwinning": 8224, "Ġapr": 10992, "Ġfotograf": 34341, "áº«": 31267, "ĠBeer": 41453, "Ġabges": 49848, "ĠParticip": 35247, "Ġfres": 25235, "ĠÈĺ": 38127, "ĠKal": 12655, "Ġpediatric": 27477, "ols": 19385, "Ġexplosive": 24630, "Ġdopo": 35196, "<|12.42|>": 50985, "ĠEs": 2313, "ĠWords": 32857, "anza": 20030, "ĠObrig": 45619, "Ð³Ð»Ð¸Ð¹": 43249, "Ġtextbooks": 33587, "new": 7686, "ĠLanc": 39803, "igent": 25002, "ĠChamp": 9863, "Ġbullets": 20132, "ĠLob": 30719, "Ġmult": 2120, "Ð¸Ð½Ð¸": 20303, "à¸ª": 13715, "ĠéĢĻåĢĭ": 36888, "ĠWorld": 3937, "<|15.46|>": 51137, "Ġcrime": 7206, "Ġroomm": 23929, "ĠMIN": 26186, "Ġurban": 9681, "Ġspared": 49577, "Ġmasculine": 28992, "Ġumbre": 20158, "Ġpare": 7448, "Ġsubscribed": 16665, "ãĤ¯": 10825, "Ġdoit": 19193, "umental": 43311, "ories": 2083, "Ġproceed": 8991, "ffffff": 47175, "Ġcul": 11021, "ĠMins": 49239, "Ġvisualization": 25801, "atten": 32733, "ĠQuiz": 38020, "ĠCoin": 39054, "Ġye": 606, "ĠNATO": 19419, "el": 338, "ĠAnders": 33988, "use": 438, "'!": 30159, "çİ°åľ¨": 25040, "Ġë§¤ë": 34638, "Ġmia": 21290, "Ġaktiv": 31658, "lung": 17850, "cros": 42471, "otes": 17251, "æĪĳè¦ģ": 32186, "ieht": 39850, "<|13.20|>": 51024, "åŃ¸": 21372, "ĠBem": 32846, "<|20.20|>": 51374, "Ġsarc": 36836, "ourt": 33403, "Ġperimeter": 32404, "Ġloh": 46957, "ĠMadrid": 22091, "Ġdall": 43351, "Ġfeared": 30629, "Ġbaw": 40463, "Dire": 47747, "Ġìĺ¤ë¥¸": 46673, "Ð³Ðµ": 47849, "oj": 37224, "ĠÐ¿ÑĢÑıÐ¼": 18449, "ĠUnderstanding": 36858, "ĠÐ¶Ð¸Ð·Ð½ÑĮ": 25362, "ĠÐ½ÐµÐ³Ð¾": 15052, "Ġcondiciones": 45960, "bior": 33362, "ĠÐĽÑİÐ±": 47369, "ĠBaptist": 32410, "Ġduo": 28127, "Ġreacted": 34037, "ĠForeign": 20430, "Ġsum": 2408, "Ġillusion": 18854, "Ġsurrender": 22185, "Ġprz": 6541, "ĠÃ§": 1844, "yu": 17623, "ĠÃłs": 23763, "Ġexpectations": 9843, "ÑĭÑĪ": 12533, "forest": 36629, "Ġglam": 28133, "Ġìļ°ìĻĢ": 36963, "Ġstatute": 24774, "via": 11617, "ĠAnita": 44528, "3000": 43160, "cuts": 26158, "Ġto": 281, "ĠCover": 19106, "Ġabsolute": 8236, "ĠViv": 28188, "Ġprompt": 12391, "Ġguessing": 17939, "Ġsecondo": 41601, "Ġstates": 4368, "iÃ¨me": 24541, "ĠDrama": 45406, "<|13.54|>": 51041, "èŃ·": 48289, "ĠgroÃŁer": 46220, "Ġtraces": 26076, "Ġsap": 18985, "seven": 44476, "bl": 5199, "Ġexplor": 24765, "åĳĬ": 16846, "Ġflowers": 8085, "Ġabduct": 46465, "ĠlÃ¦": 44584, "Ð³Ð°": 18706, "ĠIS": 6205, "alf": 1678, "Ġnada": 8096, "Ġrebell": 22260, "Ġplausible": 39925, "Ġeighty": 26348, "ãģĦãģı": 49394, "à®Ļ": 17167, "Ġlivel": 31876, "ĠBeginning": 45705, "Ġcalls": 5498, "ĠNaw": 40315, "Î¹ÎºÎ¬": 35085, "Ġetwa": 28369, "ĠDIRE": 32990, "Ġarguing": 19697, "ĠJing": 19534, "utches": 49307, "Ġeer": 25937, "ĠMAN": 15372, "ĠÃ©n": 39315, "Ġtemu": 33346, "Ġneatly": 36634, "ĠBrand": 11119, "Ġinternally": 19501, "Ġcelebrating": 15252, "case": 9765, "Ġvitam": 23617, "Ġmelt": 10083, "ä¸Ń": 5975, "ÄĹ": 22029, "Ġconjunction": 27482, "Ġfrosting": 37048, "iage": 47876, "ĠÑĪÑĤ": 28826, "enf": 26939, "Ġstation": 5214, "From": 26219, "ĠSetting": 21063, "Ġdecomposition": 48356, "ĠKickstarter": 41288, "Ġà®ª": 12008, "ĠsituaÃ§Ã£o": 36768, "Ġcancelled": 25103, "Ġsquish": 31379, "Ġpodcasts": 24045, "Ġtwice": 6091, "ìķµì»¤": 19900, "!!!!": 8153, "Ġpoker": 36863, "Let": 8373, "ĠChuck": 21607, "Ġmemorized": 46677, "ieri": 45980, "api": 35891, "åł±å°İ": 36235, "éģķãģĨ": 49806, "Ġhen": 22253, "Ġcurrencies": 36886, "weed": 21272, "Ġyounger": 7037, "Ġcamps": 16573, "ĠZhang": 17729, "Ġmolec": 10646, "ĠdÃ©cidÃ©": 43206, "bij": 30418, "Kim": 26861, "words": 13832, "))": 9383, "Ġinsanity": 47505, "åİ²å®³": 20939, "Ġlove": 959, "reso": 38021, "ĠBos": 22264, "ĠReed": 32071, "lived": 46554, "ĠFalls": 23245, "uting": 10861, "Ġsubstantial": 16726, "!(": 46824, "Ġeviden": 43699, "Ð½Ð¸Ð±ÑĥÐ´ÑĮ": 23561, "rou": 13122, "ĠNev": 22673, "Ġsummoned": 40791, "ĠGallery": 29733, "hope": 47485, "Ġcriticisms": 48519, "Ġconcert": 8543, "Æ°á»Ľ": 17059, "ĠMoroc": 30893, "ĠRip": 34677, "ciplinary": 24560, "ĠSurvey": 33365, "Ġmana": 21225, "Ġtuh": 26849, "ĠKann": 29074, ":)": 21048, "ĠìŀĪì£ł": 34070, "Ġandra": 25299, "owie": 13998, "Ġproximity": 27632, "ĠGroÃŁ": 34534, "Ġlegal": 5089, "×Ļ×Ł": 15938, "Ġinterpersonal": 47102, "Ġcore": 4965, "oton": 27794, "Ġerfolg": 39447, "rance": 32493, "ĠÑĨÐ²ÐµÑĤ": 24937, "Ġbestimmt": 46871, "Ġ1933": 48390, "Ġmentally": 17072, "Ġdistricts": 16815, "ì¶": 9597, "osp": 2763, "ÑĥÑģÐ¾Ð²": 48346, "Ġexempel": 34999, "Ġwenn": 4797, "Ġchips": 11583, "Ġscam": 26917, "ĠÐ²Ð¾Ð¿ÑĢÐ¾ÑģÑĭ": 48418, "profit": 14583, "Î¾": 16134, "æ´²": 48706, "Ġburnout": 44841, "Ġfilmmakers": 35018, "Ġfingerprints": 42170, "Ġacknowledging": 30904, "Ġtheirs": 22760, "ĵľë¦´": 29512, "Ġcorrid": 20322, "Ġmeta": 19616, "Ġlaughter": 13092, "image": 26624, "Ġcryptocurrencies": 44369, "Ġbeams": 31040, "eron": 16308, "ĠÏĢÎ¿": 39099, "èī²": 17673, "ĠPoints": 44763, "Ġ×ŀ×Ĳ×ķ×ĵ": 31056, "-,": 24246, "ĠìĻľëĥĲíķĺë©´": 49338, "ĠKommun": 28832, "Ġges": 5019, "ĠHole": 47635, "ĠBA": 21050, "å¤§": 3582, "åĲ¬": 31022, "itates": 30035, "Ġmah": 29926, "Ġhonesty": 26839, "ubscribe": 9493, "Ġì¹´ë©ĶëĿ¼": 46984, "Ġgast": 17898, "----------------": 44100, "Ġformulas": 30546, "Ġdiscoveries": 28400, "Ġfamili": 42155, "Ġtraits": 19526, "Ġmoms": 25399, "Ġsearch": 3164, "Ġtournaments": 32004, "Ġfinger": 5984, "Jan": 46356, "!!)": 33826, "ĠfÃ¶rsÃ¶": 45020, "Ġbillion": 5218, "Ġpersone": 29944, "irsiniz": 34054, "ĠÎºÎ¹": 47328, "Ġhaha": 17236, "ĠJoseph": 11170, "ĠHello": 2425, "Ġward": 15234, "Ġbac": 6857, "lapping": 15639, "temps": 30537, "ĠSamuel": 23036, "Ġcarta": 41815, "Ġfulf": 8081, "ĠBoston": 12333, "ĠConcept": 47482, "Ġbestimm": 35180, "abel": 18657, "Plus": 32111, "alg": 20422, "Ġê·¸ë¦¬ê³ł": 8785, "Ġplung": 37663, "ugs": 14950, "iye": 30306, "ĠLAURA": 10105, "Ġgeven": 49437, "Ġduy": 37385, "ogens": 35325, "Ġê°ĻìķĦìĦľ": 48084, "å¦Ĥä½ķ": 43526, "Ġlobby": 21067, "ledge": 3042, "rium": 13015, "ĠtÃ©rmin": 45198, "Ġminiature": 34674, "Ġathlet": 7650, "Ġindu": 13716, "lished": 4173, "acie": 30805, "Ġexpend": 24439, "ĠWood": 11558, "<|12.06|>": 50967, "æŃĮ": 29582, "Ã¶l": 13072, "Ġassumptions": 17695, "ĠLC": 42198, "Ġrooting": 41572, "Ġpeculiar": 27149, "utive": 17254, "Ġ×ľ×ŀ×": 31383, "Ġaan": 9904, "ailing": 23315, "Ð°ÐµÑĤ": 3310, "åĦ¿": 22933, "åĢį": 35477, "Ġmunicip": 14998, "ÐºÐ¸Ñħ": 11855, "Ġhun": 7396, "outer": 23985, "lesh": 11802, "ĠOz": 29843, "Ġindustry": 3518, "uku": 24164, "urt": 6224, "ĠLights": 38226, "<|8.08|>": 50768, "ĠÑģÐ²Ð¸Ð´": 43666, "Ġrit": 11289, "<|10.56|>": 50892, "Ġpipes": 21882, "lig": 5073, "Ġfiction": 13266, "aken": 9846, "ãģ£ãģ¦": 6102, "Ġproch": 31847, "Ġphysiological": 41234, "Ġbusinessman": 35317, "iforn": 5203, "ISTINCT": 40578, "fin": 5194, "Ġbiáº¿t": 28432, "ksom": 32663, "ĠElla": 29261, "ziÄĻ": 16706, "usu": 41083, "ilit": 34050, "aze": 13660, "eday": 16826, "Ġstudios": 24593, "opy": 19680, "ĠShock": 39474, "Ġsounded": 17714, "ĠìĿ´ëŁ°": 8381, "ĠMobil": 47188, "jenigen": 48176, "Ġanalyst": 19085, "Could": 46497, "ĠGand": 23962, "Ġleak": 17143, "ĠmÃ©th": 45404, "Ġcherche": 41644, "Ġwatering": 33028, "bone": 19782, "Ġblah": 12288, "ought": 930, "ĠìķĦëĭĻ": 45842, "<|13.04|>": 51016, "ĠMemory": 38203, "ĠWaiting": 37291, "ĠXue": 43999, "Ġcaptive": 41762, "Ġë¨¹ìĸ´ë": 28428, "ĠìĹĦì²Ń": 18070, "Ġobrig": 29126, "ĠÐŁÐ¾ÑĤ": 17993, "comfort": 27289, "Ġspam": 24028, "ctors": 5547, "Ħë¡ľ": 14046, "B": 33, "Ġdemonstrating": 29889, "Ġvoices": 9802, "Ð½ÑĥÑĤÑĮ": 23431, "Ġtransporting": 49302, "Ġtweeted": 25646, "Ġdistort": 37555, "ĠHÃ¶": 30824, "ipples": 37674, "Ġdiscard": 31597, "ĠZucker": 34032, "Ġavail": 2327, "ĠPhot": 13919, "ĠwÃ¼rde": 11942, "ĠÐ´Ð¾Ð»": 8300, "Ġcontain": 5304, "ĠÐ¾Ð´Ð½Ð¾": 30387, "owany": 23341, "Ġconsiderable": 24167, "R": 49, "Ġduplicate": 23976, "<|9.98|>": 50863, "ocused": 33176, "sty": 25134, "åľº": 50255, "êµŃ": 7854, "Ġvulnerabilities": 37633, "Ġvolunteering": 33237, "anu": 48136, "ateful": 7529, "anish": 7524, "ĠLieutenant": 28412, "Ġworkflow": 20993, "Ġextend": 10101, "Ġengages": 45576, "Ġtief": 45100, "ĠFebru": 8534, "ä¸ĭä¸Ģ": 45271, "Ġmush": 11559, "Ġirgendwie": 20759, "ampa": 26625, "¼ë": 1870, "iscal": 14616, "Ġterritories": 25195, "Ġreciprocal": 46948, "éħĴ": 37486, "ĠSah": 18280, "Ġgranddaughter": 44411, "ìĿ´ëĭ¤": 22158, "ĠProv": 15685, "Ġconclus": 18646, "Ã¢u": 24325, "Fe": 29341, "Ġine": 7167, "Ð¾ÑĢÐ°": 22889, "ĠEcu": 40675, "Ġíı¬ìĿ¸": 45253, "ĠëĲł": 16625, "ĠBoulder": 48052, "Ġuntuk": 12711, "assed": 46447, "Ġmedicine": 7195, "Ġmailing": 41612, "Ġdilig": 47646, "Ġachievements": 21420, "inden": 10291, "Ġphysicists": 48716, "Ġë°Ľ": 12152, "points": 20552, "ĠPrin": 9367, "Ġengagements": 44978, "Ġimportance": 7379, "ĠTib": 24474, "iggle": 19694, "Ġtrash": 11321, "Ġfavorable": 29557, "è¯Ŀ": 21596, "Ġinnate": 41766, "÷": 179, "Ã©ro": 26913, "annya": 24225, "Ð°Ð¶Ðµ": 9475, "Ġnone": 6022, "Ġmuseum": 8441, "Ġhelicopters": 39016, "ez": 4371, "å¹«": 32187, "uffle": 21665, "Ġolar": 17318, "Ġkan": 4608, "ÑģÑı": 1679, "Ġbunk": 25125, "gins": 23320, "ĠSr": 38988, "<|15.50|>": 51139, "<|15.64|>": 51146, "uell": 13789, "ying": 1840, "<|8.54|>": 50791, "Ġtes": 20018, "ĠMicrosoft": 8116, "Ġden": 1441, "ĠDaw": 28407, "ĠEngineers": 43950, "Ġvue": 32859, "Ġesfuer": 49213, "Ġreplica": 35456, "Ġeconom": 2520, "Ġarg": 3882, "Ġìĸ´ìļ": 27755, "ĠÙģ": 6156, "Ã¼ss": 35207, "sections": 40329, "Ġmattress": 20625, "vag": 42586, "Ġschematic": 44739, "Ġdesigners": 16196, "Tr": 14252, "zzarella": 38808, "Ġsquash": 30725, "Ġlast": 1036, "ĠdÃ¼ÅŁ": 12856, "^^": 30932, "Ġë³´ìĹ": 16519, "Ġarchive": 23507, "Ġcorpor": 6804, "oz": 15151, "Ġobt": 7464, "hoon": 30429, "Ġì´Īë": 34417, "Ġfinancially": 20469, "Ġjew": 13149, "Ġchar": 1290, "Ġannih": 40430, "Ġguest": 8341, "Ġoverthrow": 46924, "Ġspinning": 15640, "Ġperforming": 10205, "nels": 19936, "Ġpurposely": 41840, "Ġtexto": 35503, "udos": 35063, "Ġrewarded": 29105, "Ġdelivered": 10144, "<|20.18|>": 51373, "ĠDag": 41866, "Ġglass": 4276, "Ġ66": 21126, "eddar": 40218, "ĠÑĤÑĥÑĤ": 12848, "Ġhistoric": 13236, "ĠPeru": 31571, "Ġancora": 30656, "ĠRichards": 33021, "Ġmagist": 48894, "ground": 2921, "inis": 25555, "kar": 12303, "Ġksi": 35952, "ulator": 16381, "Ġscoring": 22358, "estar": 39791, "Ġrecommending": 30559, "irie": 32924, "×Ľ×©×Ļ×ķ": 44074, "ĠPoll": 31304, "Ġmostly": 5240, "ils": 4174, "Ġconducting": 21749, "stroke": 42706, "ueller": 33467, "Ġenforced": 40953, "Ġcanopy": 38235, "ario": 4912, "idar": 48133, "reg": 3375, "Ò": 142, "Ġdisobed": 49171, "įĶë": 12890, "Ġshipped": 25312, "ìħĶìķ¼": 45911, "break": 13225, "etzen": 24797, "Ġdistinction": 16844, "cks": 2761, "Ġjoy": 6258, "Ġgrabbed": 18607, "Ġcorrelate": 48742, "æĬ": 7235, "berty": 48501, "Ġbrighten": 49007, "åıĥ": 47375, "Ġsou": 6926, "Ġpass": 1320, "à¸Ļà¸°à¸Ħà¸°": 45084, "Ġhistories": 30631, "ommy": 10165, "Ġverg": 20209, "æĻ¯": 50218, "Ġpromised": 10768, "ê°ľ": 11597, "Books": 48386, "alyst": 19530, "Ġwahr": 21628, "ĠÑģÐµÐ±Ðµ": 16683, "ëĭ¬": 24673, "Ġplanet": 5054, "æĽ": 9531, "Ġdeveloping": 6416, "Ġtougher": 30298, "Ġdum": 16784, "<|9.32|>": 50830, "ÑĢÐ°": 3580, "Ġincoming": 22341, "Ġfights": 14512, "Ġvirus": 5752, "ĠJersey": 16601, "Ġ×Ļ×Ķ": 49854, "cit": 45135, "Ġdramas": 36739, "æ®µ": 28427, "Ġtapa": 42097, "360": 34099, "Ġmagnificent": 23690, "Ġpolls": 24264, "Ð°ÑĨÐ¸Ð¸": 16715, "Ġrequesting": 31937, "Ġinnovate": 33444, "cÃ©": 13523, "audience": 4834, "Ø±Ø¨": 25513, "<|16.18|>": 51173, "ĠSand": 7985, "ĠStephan": 16672, "<|2.10|>": 50469, "Ġsiihen": 40581, "pex": 29420, "å¾Īæľī": 49295, "ÄĻt": 46788, "Ġmuj": 30008, "ĠVas": 23299, "ĠMuse": 47293, "Ġleaning": 23390, "Ġquant": 4426, "æĤ": 14696, "ocr": 3617, "Ġvaccination": 16498, "ĠtÃ´": 20683, "antage": 4370, "erness": 19416, "anos": 31035, "ł¤ê³ł": 18914, "latego": 24195, "Ġook": 7839, "Ġgrooves": 49359, "Ġcruise": 17754, "Ġpromptly": 48594, "lares": 19415, "eti": 24566, "Ġfino": 42560, "ĠÃ©l": 11810, "ifter": 30846, "Ġcompartir": 40667, "Ġcruelty": 40145, "ä½łçŁ¥éģĵ": 28945, "ĠCott": 35485, "ĠëĲĺê²Į": 14860, "Ġmonopol": 47721, "enser": 30041, "è©¦": 22099, "Ġwet": 6630, "Ġauxiliary": 43741, "ĠAw": 6381, "ł×Ļ": 10361, "Ġcapacitor": 29372, "Ġerhalten": 38051, "ĠAk": 9629, "Ġpoliceman": 42658, "Ġprocesso": 27939, "ab": 455, "Ġeffective": 4942, "ĠLike": 1743, "inform": 37811, "aine": 7119, "ieben": 38243, "ĠÐ·Ð°Ñĩ": 34004, "ĠsÃ¶yleye": 35881, "ĠmÃ³": 32515, "ĠÐŁÑĢÐ¾": 38529, "aging": 3568, "Ġalcohol": 7658, "phin": 48522, "ä¸Ģé»ŀ": 19202, "Ð»ÑıÑĤÑĮ": 38955, "Ã¦r": 32011, "Ġclim": 5644, "Ġfark": 27047, "Ã¡ria": 31861, "ced": 1232, "ĠhabÃŃan": 44466, "Ġme": 385, "¡ł": 19332, "Ġbucks": 11829, "Ġrefusing": 37289, "oston": 11966, "Ġsane": 45610, "ĠMALE": 31642, "Ġhair": 2578, "kÄĻ": 15724, "Ġuncovered": 37729, "ĠÑģÐ»Ð¾Ð²Ð¾": 43272, "Ġcyan": 47463, "j": 73, "Ġvoll": 15593, "Ġwelcomed": 23668, "Ġattacks": 8122, "ł¸": 14264, "Ġrester": 37197, "ĠëĬĲë": 10749, "ÐµÐ»ÐµÐ½": 21180, "ĠÐ²Ð¸Ð´ÐµÐ»": 40718, "Ġë¶Ģ": 11351, "Ġmolar": 45712, "Ġcreatively": 43750, "ĠMys": 37795, "uyorsun": 40419, "Ġstriking": 18559, "Ġfract": 17948, "Ġneuen": 21387, "GM": 25152, "Ġclassification": 21538, "Ġvalue": 2158, "<|20.10|>": 51369, "ĠPa": 3426, "<|8.00|>": 50764, "Ġdozens": 18431, "Ġsmack": 36348, "Ġpropaganda": 22968, "×ĳ×Ķ": 28553, "olesome": 45880, "Ġyht": 48342, "ĠEssential": 49736, "ĠKindern": 43987, "vie": 12702, "EOVER": 31825, "Ġmonitors": 26518, "Ġunserer": 20965, "Ġconflicting": 43784, "Ġslippers": 45670, "Ġê·¸ëŁ¬ë©´": 16645, "Ġimmigrants": 16598, "Ġabsolut": 18757, "Ġcrucified": 46846, "CON": 45541, "Ġabbrevi": 35839, "Ġì»": 9305, "Ġslot": 14747, "ĠëĨĴ": 25015, "Ġwidespread": 22679, "ĠÐ¾Ð±ÑĢÐ°Ð·": 17938, "Ġforum": 17542, "onton": 45529, "ensored": 50173, "ĠMountain": 15586, "Ġallergies": 37007, "iverse": 5376, "rados": 40491, "Ġvolunteers": 14352, "ĠëķĮë": 9057, "ÃŁ": 2536, "Ġãģª": 16647, "adas": 6872, "Ġsaint": 28374, ".ï¿½": 42521, "ister": 1964, "<|29.60|>": 51844, "Ä±ÄŁÄ±n": 39710, "Ġstalk": 21789, "ismo": 6882, "ĠHare": 34836, "Ġempire": 17506, "ĠTuesday": 10017, "CTOR": 28587, "Ġadam": 16368, "Ġprotections": 29031, "igan": 9552, "Ġassez": 15774, "Ġ×¤×Ķ": 40833, "ĠEternal": 44432, "jos": 19136, "Ġmasks": 11830, "Ġimmedi": 3640, "Ġcoup": 8682, "PC": 12986, "Ġgid": 19805, "Ġforeign": 5329, "ĠAzerbaijan": 48815, "ucc": 39407, "lies": 24119, "Ġcrunch": 13386, "Ġë³ĳ": 32245, "Ġsuffer": 9753, "ĠZa": 31440, "Ġbess": 42410, "éģł": 34489, "ĠCatherine": 23098, "Ġstep": 1823, "Ã±ana": 31823, "Ġcolor": 2017, "ĠSpot": 19102, "<|15.90|>": 51159, "Ġwake": 6634, "Ġcelebrated": 19366, "Ã¤hr": 12021, "Ġmerc": 10811, "Ġolho": 50147, "<|17.36|>": 51232, "ãģ§ãģĻ": 4767, "Ġtracker": 37516, "ught": 1599, "ç¬": 5437, "ĠSubaru": 43044, "ĠiTunes": 33017, "jas": 19221, "Ġdual": 11848, "æĦı": 9042, "rob": 16614, "Ġ94": 30849, "Ġdrones": 23823, "remlin": 47154, "ordum": 41627, "urally": 6512, "insky": 44153, "Ġlobster": 33198, "å·®ä¸įå¤ļ": 37876, "ĠlÃ¤sst": 29335, "ifik": 45475, "ĠDurch": 28557, "ĠBlue": 8510, "aves": 5423, "Ġtransmission": 11574, "26": 10880, "ÐµÐ²Ð°": 35946, "hard": 21491, "ĠTu": 7836, "rem": 2579, "Ġadjusted": 19871, "ĠTJ": 46402, "ĠKlim": 25136, "ĠgÃ¼zel": 14746, "ãĤ½": 42668, "ĠÐ¼Ð¾Ð»Ð¾Ð´": 28801, "Ġeducated": 15872, "mber": 4508, "Char": 25291, "ĠRad": 9654, "Ġbehand": 43122, "ĠgÃ¥r": 19831, "dist": 42649, "reach": 16226, "Ġplain": 11121, "Ġpossessed": 29608, "Ħ": 226, "stars": 46903, "<|15.42|>": 51135, "ĠTransform": 27938, "Ġvariation": 12990, "onces": 8498, "": 50256, "Ġowns": 19143, "ĠArsen": 41218, "ĠÑĥÐ²ÐµÐ»Ð¸Ñĩ": 41511, "ĠGenau": 22340, "--\"": 32778, "Ġ3": 805, "stellen": 17538, "Ġmaior": 15859, "ĠWithout": 9129, "ìĻ¸": 46994, "Ġhardness": 44019, "Ġnerv": 5724, "Ġcharge": 4602, "ĠWirtschaft": 29412, "ãĤ·ãĥ«ãĤ¯": 31238, "Ġapro": 14602, "Ġteve": 26628, "rict": 3740, "zk": 30154, "Ġcertified": 18580, "Ġtask": 5633, "rial": 7111, "ĠÐ¿Ð¾Ð½ÑıÑĤÑĮ": 44403, "ĠFT": 46675, "ĠSc": 2747, "ical": 804, "Ġìĸ¸": 16738, "iggly": 46737, "ĠRUS": 43719, "Ġëª»": 10239, "lier": 2753, "<|28.48|>": 51788, "Ġglob": 16125, "Ġllegar": 24892, "bye": 6650, "èĢ¶": 22143, "Ġlire": 43254, "åı²": 45399, "Ġspectral": 42761, "Ġsat": 3227, "ÙĨØ¯": 41260, "Ġclouds": 12193, "ĠMes": 17485, "Ġmiracles": 24685, "å¯¾": 35252, "ĠTHOM": 40933, "uca": 32072, "ä¸įè¡Į": 24151, "ĠDel": 5831, "Ġelectric": 5210, "Ġfeminism": 37187, "<|23.34|>": 51531, "ì§Ħ": 8097, "<|5.20|>": 50624, "beit": 9407, "othing": 9107, "mÄ±ÅŁ": 11370, "Ġtaken": 2726, "Ġspons": 7330, "ĠPentagon": 36371, "iesen": 30383, "Ġvoltar": 36291, "ĠRandy": 23993, "Ġsnipp": 35623, "ĠÐ±Ð°ÑĢ": 36766, "Ġmenor": 26343, "Ġcomeback": 23464, "Ġkg": 15696, "Ġandare": 42742, "Ð¾ÐºÐ¸": 48110, "ªħ": 8792, "ĠÐ¾ÑĤÐ¼ÐµÑĤ": 47318, "Ġole": 18726, "ĠLittle": 8022, "Ġprise": 49468, "ĠMaria": 12734, "Ġfibre": 36738, "å¥½åĥı": 33242, "pants": 46462, "Ġmainland": 32365, "ĠCu": 13205, "Ġreally": 534, "Ġaspiration": 44565, "Ġstrings": 13985, "Ð»Ð¾Ð¼": 28209, "Ġtherapeutic": 30395, "muÅŁ": 30378, "<|startoflm|>": 50360, "<|18.94|>": 51311, "uxe": 43344, "aspberry": 26240, "æĦŁ": 9709, "Ġplacebo": 42779, "ĠDuch": 44267, "ĠErst": 31183, "art": 446, "ĠAugen": 29692, "<|27.94|>": 51761, "èĭ": 13736, "Ġscheduled": 15678, "Ġå°ı": 43454, "isher": 9807, "Ġperman": 8105, "ÅŁekkÃ¼r": 32429, "Ġë¿": 25829, "Ġwhats": 29625, "ĠGerry": 39154, "krit": 34580, "çŀ": 36733, "ĠStudien": 49496, "Ġobserving": 22107, "Ġlearned": 3264, "ĠaÃŃ": 7461, "Ġada": 11063, "ĠSTART": 49326, "Ġpum": 48842, "ĠJap": 35642, "Ġwaters": 12975, "Ġburst": 12712, "Ġghee": 45172, "ĠRem": 4080, "Ġvast": 8369, "shaw": 49813, "Ġfiltering": 30822, "Ġeffects": 5065, "Bro": 43295, "ĠìĦ¤ëªħ": 33020, "Ġë¬´ë": 19327, "amt": 16887, "Ġconsegue": 27179, "Ġappl": 4988, "Ġinvented": 14479, "Ġhalls": 26177, "ises": 3598, "Ġgest": 7219, "Ġleash": 41616, "ĠKL": 47991, "Ġproductivity": 15604, "ciÃ³": 19609, "Ġrecher": 27788, "ĠÐ±ÑĸÐ»ÑĮ": 47692, "Ġdiscounts": 37930, "ĠÐ½ÑĥÐ¶Ð½Ð¾": 12264, "<|24.22|>": 51575, "Ġconver": 9652, "Ð¾Ð¶": 2161, "renal": 23658, "Ġíķľë²Ī": 14463, "ĠeÄŁ": 49681, "Ġundergraduate": 19113, "Ġgrund": 30886, "ĠÑģÐ²Ð¾Ð¸Ð¼": 37337, "uranÃ§a": 44214, "Ġchore": 14625, "ĠClaudia": 36785, "ujÄħ": 13263, "Ġtalk": 751, "million": 40388, "ĠNatÃ¼rlich": 33172, "Ġknocking": 24085, "Ġopacity": 41693, "Ġanh": 18931, "Ġprostate": 36108, "Ġdefe": 7486, "ÑĢÐ¸": 4679, "ĠBevÃ¶lker": 48313, "eren": 5170, "ĠDN": 21500, "ĠÐ¿ÑĢÐ¾Ð²Ð¾Ð´": 33924, "Ġdzie": 17953, "Ġskating": 29103, "Dave": 34075, "YY": 40570, "çŃĶ": 28223, "ramento": 34706, "ĠÐ¿Ð¾Ð·Ð²Ð¾Ð»": 28805, "univers": 41421, "Ð¸ÑģÑĤ": 9330, "Ġstal": 49875, "Ġillustrates": 41718, "ĠColorado": 15786, "Ð±Ñĭ": 25477, "free": 10792, "Ġappreciate": 4449, "Ġmeatballs": 44741, "Ġwarned": 21284, "Ġblossoms": 47789, "Ġkilo": 21112, "28": 11205, "ĠÐ¼Ð°ÐºÑģÐ¸Ð¼": 35564, "ihi": 48747, "Ġgods": 14049, "Ġpojaw": 30655, "ĠuwagÄĻ": 43696, "Ġearth": 4120, "ÑģÐº": 4218, "Łī": 24502, "Ġtrajectory": 21512, "<|0.58|>": 50393, "bury": 22536, "ĠMaple": 47604, "ĠDick": 18754, "ĠcommencÃ©": 37561, "Ġedition": 11377, "Ġauthor": 3793, "ĠTerra": 25366, "DI": 3085, "Ġmina": 48412, "Ġhealthy": 4627, "ìĭľëĬĶ": 18147, "Ġindigenous": 15511, "fits": 13979, "Ġeigenen": 28702, "Ġsuccessive": 48043, "ĠcomeÃ§o": 48958, "ĠkÄ±z": 15225, "Ġthere": 456, "ail": 864, "ĠJC": 49802, "ĠÐł": 6325, "ĠZombie": 48952, "Ġaccommod": 11713, "Ġforearm": 47712, "Ġìļ©": 33622, "thern": 8846, "<|4.28|>": 50578, "ĠDH": 28606, "pert": 15346, "ĠHem": 18568, "<|2.36|>": 50482, "Ġcracked": 25140, "Ġgaming": 9703, "ĠAbg": 35407, "Ġfahren": 25593, "Ġdeception": 40451, "Ġbipolar": 42469, "çļĨ": 32056, "ÐµÐ»ÐµÐ¹": 19695, "Ġremnants": 44652, "ĠLegends": 28103, "Ġfidelity": 46404, "Ġdemais": 36879, "Ð¸ÑĩÐµÑģÐºÐ¸": 38187, "Ġaging": 19090, "ĠWire": 32598, "Ġdisput": 37669, "Ġdev": 1905, "ĠKarere": 48442, "Ġfundament": 6073, "Ġë¬´": 27387, "sama": 37275, "Ġdepressing": 36355, "Ġbios": 36997, "Ġexceptions": 22847, "Ã¤chst": 28679, "mas": 3799, "ocar": 47993, "è¾¹": 40503, "æ²Ĵæľī": 6963, "ĠÃºn": 17524, "<|14.00|>": 51064, "×ª×Ĺ": 46200, "Ġsent": 2279, "Ġfriendships": 30003, "Ġ1918": 36588, "ĠGarrett": 40266, "Ġbewe": 46638, "ĠKumar": 46500, "ĠLiber": 14175, "Ġfamiliarity": 49828, "È": 132, "ĠOpen": 7238, "ìĸ´ì£¼": 29946, "<|16.16|>": 51172, "Ġkrie": 25766, "ĠCAD": 41143, "bold": 42515, "ĠWordPress": 23239, "ĠVIS": 29421, "ĠfÃ¡cil": 17474, "ÐµÐ½Ð¸Ñı": 5332, "ĠNÃ£o": 8010, "assen": 8356, "Ġeben": 11375, "Ġíķ´ì": 7960, "Ġberm": 50001, "Ġê·¸ëŁ": 4167, "aciÃ³n": 3482, "Ð°": 386, "Ġair": 1988, "Ġurine": 27638, "Ü": 152, "Ġreflects": 18926, "Ãªncia": 9322, "Ġë³´ë©´": 19443, "Ġheated": 18806, "Ġ300": 6641, "Ġadvocating": 32050, "ãģĵãĤĵãģ«ãģ¡ãģ¯": 38088, "Ġkant": 44055, "ĠFahrenheit": 31199, "ĠHIS": 45470, "Ġteddy": 45116, "Ġassure": 20968, "chet": 36433, "ĠEg": 43515, "ATHAN": 49779, "OTH": 28200, "Ð¿ÑĢÐ¸": 48462, "ĠEdit": 33241, "Ġauf": 2501, "yard": 13862, "Ġvibr": 11599, "Ġcolumn": 7738, "åĪĨ": 6627, "Ġreceive": 4774, "This": 5723, "Ġrip": 12782, "ĠHawk": 42219, "ngth": 3674, "Ġsaw": 1866, "Ġenhan": 15780, "Ġenfim": 48937, "kt": 2320, "ĠÐºÐ¾Ð¼Ð¼ÐµÐ½ÑĤÐ°ÑĢ": 36558, "Ġfaced": 11446, "Ġacerca": 46321, "ĠStaat": 45559, "nego": 11858, "Ġfreuen": 41913, "Ġcod": 17656, "urun": 36207, "Ġblueberry": 48243, "Ġgep": 30979, "ĠÎ¼ÎŃ": 27730, "wort": 13802, "Ġsomewhat": 8344, "ĠMhm": 26272, "Ùī": 7578, "íķľ": 3049, "aneously": 13131, "OT": 5068, "Ġchances": 10486, "<|cs|>": 50283, "Ġsaf": 3597, "atiques": 48731, "<|19.08|>": 51318, "asury": 25058, "ĠìĺĽëĤł": 48646, "CC": 11717, "Ġpioneers": 47381, "ÙĦÙĩ": 43761, "Ġdescob": 31700, "Ġmenus": 30347, "ĠÐ»ÑİÐ±": 9875, "Ġcountryside": 28252, "ĠPhD": 14476, "ĠKwang": 46561, "Ġsollte": 18042, "ĠSent": 23652, "ideo": 24589, "ĠVol": 8911, "ĠCrisis": 42846, "Ġsubject": 3983, "èŃ¦": 39499, "ĠAww": 22007, "Ġrejecting": 45401, "Ġspect": 6177, "Ġdowntime": 49648, "ori": 7386, "ĠmeidÃ¤n": 44751, "ĠTiere": 38810, "Ġappointment": 13653, "ĠJiang": 23458, "ĠíĺĦ": 17505, "ASS": 19678, "Ġwagon": 34453, "ĠSz": 24699, "Ġrepeats": 35038, "Ġczym": 31466, "Ġvoi": 20931, "Ġstos": 43581, "Ġearlier": 3071, "Ġtecn": 20105, "Ġesperando": 46587, "Ġprior": 4059, "ĠSans": 21504, "igraph": 42034, "Ġapenas": 18561, "Ġmujeres": 31683, "Ġì§§": 43437, "<|11.14|>": 50921, "ived": 3194, "Ġprohibited": 32069, "ĠISIS": 25639, "itary": 4109, "ivals": 17759, "ĠEnter": 10399, "Ď": 202, "Ġchegou": 36799, "×Ļ×ĺ": 27762, "Ġcuando": 7767, "ast": 525, "<|10.30|>": 50879, "Ġbenevol": 48567, "ĠÐ¸Ð½Ð¾Ð³Ð´Ð°": 43749, "Ġkol": 17818, "Ġsuggest": 3402, "íķĺë©´": 16283, "Ġsons": 13476, "å¿Ĺ": 44700, "íĨµëł¹": 39045, "kach": 41326, "Ġnutri": 13242, "Ġsur": 1022, "ï": 171, "estry": 47433, "Ġaggress": 8939, "ãģ¶": 23441, "Ð¸ÑĤÐµÐ»Ñı": 36491, "orama": 32988, "Ġeligibility": 32826, "Ġmise": 36845, "<|8.68|>": 50798, "Ðŀ": 7876, "ĠHoff": 29135, "ãĤĦãģ£ãģ¦": 31497, "wide": 7990, "Ġay": 7494, "åĳ¼": 38718, "Ġelectrons": 14265, "ĠÐ·Ð°Ñī": 31107, "ÑĢÐ°Ñĩ": 29983, "ulos": 28348, "ĠBest": 9752, "ĠinformaciÃ³n": 21660, "ĠTamara": 40424, "Ġstainless": 24048, "ĠOnt": 16980, "Ġdemasiado": 39820, "ELLER": 38025, "Ġexercises": 11900, "Ġbirlikte": 44642, "ĠÐ´ÑĥÑĪ": 39096, "ĠANY": 39222, "ĠUnidos": 23087, "Ġquotes": 19963, "lor": 6746, "Ġmelts": 30136, "<|11.04|>": 50916, "Ġê³¨ë": 42142, "Ġembassy": 38012, "Ġmuscular": 31641, "ç§ĳ": 42091, "Ġcurric": 13179, "ãĥİ": 34501, "ĠÃ§ocuÄŁ": 38914, "ä¿¡": 17665, "Ġgrieving": 48454, "Ġripe": 31421, "Ġbesten": 30930, "Ġdess": 6874, "Ġmesures": 42265, "fortable": 10124, "Ġ@": 10428, "à¹ģà¸ķ": 41250, "ĠìľĦíķ´": 31600, "Ġcon": 416, "ĠMina": 35981, "Ġfilm": 2007, "Ġdictator": 42852, "Ġarrived": 6678, "ĠViel": 35931, "ĠRegional": 30341, "Ġcomplexes": 43676, "ĠCort": 28522, "Ġarrive": 8881, "ĠÐ·Ð²ÑĥÑĩ": 48031, "Stop": 26163, "ĠLip": 27475, "Ġrespectable": 44279, "G": 38, "Ġdoesn": 1177, "ramatic": 13949, "ves": 977, "ĠPorter": 42609, "Ġfertility": 31707, "zz": 4313, "ĠsÃ³": 6238, "Ġwood": 4576, "Ġcrystall": 31924, "<|15.94|>": 51161, "iberal": 46364, "<|14.26|>": 51077, "ĠAer": 32459, "ARK": 36402, "Ġinvestigators": 27079, "Ġapl": 25522, "Ġthroughout": 3710, "ĠÐ´Ð½ÐµÐ¹": 47678, "ĠÑģÑĤÐ°Ð½": 27214, "ĠComput": 37804, "ĠPrix": 48736, "Ġgrupo": 20190, "Ġrecent": 5162, "Ġfreeze": 15959, "ĠCS": 9460, "Ġmailbox": 43602, "Ġcuts": 9992, "Ġbraces": 41537, "Ä±yorum": 15230, "lied": 39459, "<|translate|>": 50358, "Ġquesto": 10263, "ĠSimone": 41652, "à¸²à¸ĩ": 26134, "<|23.02|>": 51515, "'ve": 600, "Ġcontam": 20463, "ìłľ": 9767, "cknow": 7678, "Ġaspirations": 32458, "æļ": 23826, "á»ıi": 46251, "Ġdecisions": 5327, "ĠÛĮÛģ": 35324, "Ġmerit": 24527, "įĶëĭĪ": 39638, "ĠkÃ¶n": 4798, "Ġexponential": 21510, "Ġasks": 8962, "Ġga": 5959, "I": 40, "Ġsyrup": 17852, "ĠNature": 20159, "electronic": 33128, "usalem": 14992, "ĠÐ±ÑĢÐ°ÑĤ": 43333, "aciÃ³": 14915, "²Ī": 5166, "pet": 7275, "Ġì¹´ë": 24369, "Ġìĸĺê¸°": 19641, "berry": 9099, "ĠFinished": 48188, "Ġutan": 29011, "plain": 34821, "Ġoptions": 3956, "Ġquasi": 20954, "ased": 1937, "Ġcream": 4689, "Ġparch": 35765, "ĠÐ¸Ð¼ÐµÐ½Ð½Ð¾": 20290, "Ġsoften": 31356, "Ġtocar": 35631, "Ġmalt": 45654, "Ġwebsite": 3144, "ÐµÐ´ÑĮ": 16878, "ĠìĿ´ê±°ëĬĶ": 24535, "industrie": 50046, "ÏĦÎ¿Ïį": 47249, "Ġworkshop": 13541, "uv": 9350, "Ġwz": 24809, "ĠTw": 2574, "Ġele": 1118, "ĠCraft": 29991, "åĵģ": 30246, "<|6.58|>": 50693, "Ġstakes": 28429, "iking": 13085, "ÐµÐ½Ð½ÑĭÑħ": 32236, "Ġsprite": 43848, "ĠWebs": 45347, "ÃŃv": 45096, "éĻį": 47421, "å¼µ": 18889, "ĠÑģÐ»ÐµÐ´": 15363, "Ġgoosebumps": 48305, "Ã¶lker": 40268, "ĠLucy": 22698, "Ġreleasing": 16327, "ĠÐ¢Ð¾Ð³Ð´Ð°": 46357, "Ġcollaps": 16567, "Ġretour": 28873, "Ġhomemade": 23336, "<|13.18|>": 51023, "Ġverm": 26319, "Ġcommonly": 12719, "ĠWyoming": 30810, "ĠDif": 35940, "ĠGREG": 48793, "gor": 26465, "ĠGuid": 49036, "Ġpens": 6099, "Ġpaused": 46860, "ĠkÃ¤": 16563, "Ġello": 33549, "Ġconcludes": 24643, "hthal": 49123, "ĠInte": 21525, "Ġlamp": 12684, "Ġpivotal": 39078, "Ġtan": 7603, "ĠbÄ±rak": 24179, "Ġloin": 25048, "bec": 8123, "å¥½äºĨ": 12621, "Joe": 23981, "à¸Ľ": 17071, "prot": 33629, "ìĸ´ì": 2782, "net": 7129, "atha": 29441, "ĠÑĥÑģÐ»Ð¾Ð²": 34974, "abyrin": 46800, "Ġ×Ļ×ķ×ĵ×¢": 45764, "ĠCisco": 38528, "ĠprÃ¡": 27300, "astre": 49199, "rais": 20769, "ention": 1251, "name": 16344, "ĠManual": 46173, "Ġgiven": 2212, "Ġdemocrats": 47665, "Ġmacaron": 49686, "ĠwÃ¤r": 45779, "Ġeconomists": 32431, "uesday": 9775, "Ġplataform": 36448, "Ġwastewater": 46418, "Ġgovernment": 2463, "ĠÑĸÐ½": 29858, "Ġinspir": 17432, "ä»¤": 49061, "ĠRNA": 22484, "ĠNebraska": 27171, "éĢĻéº¼": 21269, "jaw": 22199, "course": 31913, "Ø§ÙĨ": 7649, "ĠìĨĮë¦¬": 21652, "Ġvarious": 3683, "Ġbond": 6086, "ĠAqui": 23089, "<|4.88|>": 50608, "ĠRabbit": 42092, "Ġcambio": 28731, "Ġliquids": 38960, "Ġcourtroom": 44050, "ĠMontana": 27916, "ĠGeoff": 26119, "anco": 34300, "<|eu|>": 50310, "Ġanalyses": 37560, "<|16.80|>": 51204, "Ġtoch": 22587, "Ġexperiment": 5120, "ĠíħĮ": 30516, "Ð½Ð¾": 1234, "ĠCorona": 18075, "Ġnouveaux": 44952, "<|4.90|>": 50609, "alu": 4929, "ĠÐŁÑĢÐ°Ð²": 39793, "ĠSnap": 18254, "OUL": 46598, "Ġhooks": 26485, "Ġwiel": 20570, "Ġê³³": 25177, "Ã¢nd": 45840, "Ġlongitud": 39596, "Ġwom": 1579, "ĠMir": 9421, "Ġcinemat": 43520, "Ġimplant": 28309, "Ġìµľ": 14571, "Ġgettin": 34568, "oped": 27277, "ĠTrend": 37417, "Ġcoma": 35106, "ĠElse": 45472, "Ã¢ce": 27988, "coin": 8562, "Ġcas": 3058, "Ġ\"..": 41837, "ruce": 41158, "ÃĹ": 37550, "gic": 11577, "ĠrÃ³": 11416, "isf": 4937, "Ġcarte": 31483, "Ġantis": 44474, "Ġhired": 13144, "aisia": 47858, "ĠÑģ": 776, "illary": 46367, "mayÄ±n": 32541, "Ġorang": 17481, "ãĥŁ": 23196, "iÃ³n": 2560, "Ġairport": 10155, "Ä±nd": 6208, "ĠIb": 40790, "Ġviews": 6809, "Ð½Ð¾ÑģÑĤ": 34383, "ĠSugar": 24576, "attle": 3327, "LAN": 36527, "ĠëĲĺëĬĶ": 18650, "Ġgonna": 799, "ĠciÄĻ": 35484, "Ġseul": 24448, "ĠkoÅĦ": 26470, "elu": 34813, "ĠÐ¥Ð¾ÑĤÑı": 43963, "ĠEun": 17965, "çŃīä¸Ģä¸ĭ": 24554, "sided": 30941, "Ġfoot": 2671, "ĠëįĶ": 6990, "ĠdemandÃ©": 48468, "ãģ¿": 11362, "Ġclimate": 5659, "Ġhim": 796, "Ġdimin": 15739, "Ġchauff": 49211, "Ġemerge": 21511, "Ġfavourite": 10696, "Ġblog": 6968, "ides": 1875, "ãģªãĤĭ": 29218, "arring": 18285, "ĠÑĪÐºÐ¾Ð»": 33009, "Ġmould": 34803, "Ġkomme": 31194, "Ġona": 20325, "Ġmelan": 47969, "Ġeta": 32415, "adore": 49095, "ĠOverall": 18420, "¯¸": 6587, "Ġcou": 1384, "cla": 46265, "ĠDays": 26007, "<|4.86|>": 50607, "Ġdisorders": 20261, "ĠHaupt": 30573, "ĠArsenal": 49156, "Ġvas": 11481, "âĢĭâĢĭ": 39817, "foot": 13498, "ulus": 26107, "<|1.44|>": 50436, "<|15.86|>": 51157, "Ġkork": 33445, "ĠUpper": 36926, "ĠDarrin": 47368, "ĠShort": 16881, "ĠBot": 25486, "Ġëĭ¹ìĭł": 45594, "Ġë²ł": 28672, "Ġfreakin": 39571, "ea": 29791, "ĠAcross": 34527, "Ġcalculating": 28258, "Ħľ": 3556, "kn": 5457, "Ġdisciple": 32100, "ac": 326, "Ġneglig": 32570, "Ġerr": 45267, "ĠìĺĽ": 44298, "Ġunknown": 9841, "ĠApp": 3132, "Ġvacc": 3900, "<|11.26|>": 50927, "Ġsucceeding": 47912, "Ġduties": 20910, "Ġrolling": 9439, "ibile": 30898, "Ġsoaked": 27368, "ĠìĦłë¬¼": 44956, "iÃ¨rement": 29922, "ĠÐ¿ÑĢÐµÐ´Ð»Ð¾Ð¶": 40373, "Ġwithdrawal": 30646, "ÑĢÐ¸Ð¹": 50161, "Ġoysters": 42296, "Ġphosph": 19775, "Ġpixel": 19261, "ĠFrankly": 41344, "Ġdre": 22540, "Ġspecimen": 34204, "Ġcomprar": 22077, "ÏĦ": 1781, "math": 24761, "ãģ£ãģ¡": 39046, "ĠÐºÐ¾Ð»": 10706, "Ġswinging": 29500, "ondere": 33447, "AH": 10566, "Ġodd": 7401, "ĠStarbucks": 26303, "Ġanunci": 39350, "bene": 41605, "ÐµÑĨ": 10935, "Ġyeah": 1338, "ĠRece": 41962, "Ã¡rio": 12657, "ĠBran": 45265, "íľ": 38909, "Ġdella": 11618, "ĠSche": 25321, "Ð¾Ñī": 19937, "Ġarrows": 19669, "ĠCornell": 43257, "Ġìĭł": 13042, "<|fr|>": 50265, "<|2.42|>": 50485, "Ġkilomet": 9677, "Ġreboot": 33818, "ĠKeith": 20613, "Ġpassions": 30640, "Ġelig": 31089, "ĠÐ´ÑĢÑĥÐ³Ð¸Ðµ": 32108, "Ġnewsletter": 26469, "ashing": 11077, "ĠcosÃ¬": 23278, "Ġcosts": 5497, "Ġlovers": 22697, "Ġmeat": 4615, "Ġvacun": 38581, "ENS": 30174, "Ġhose": 20061, "Ġdin": 3791, "ometry": 34730, "<|29.24|>": 51826, "How": 6462, "ĠÐ¸ÑģÐ¿": 11265, "Ġtheatre": 18711, "ĠÑĢÐ°Ð·ÑĢÐ°Ð±Ð¾ÑĤ": 38976, "ìĦ¸": 5762, "ĠVar": 14662, "<|16.92|>": 51210, "cendo": 33199, "<|15.12|>": 51120, "Ġsites": 7533, "Ġrelied": 35463, "itted": 3944, "ard": 515, "Ġbreathe": 10192, "Ġbeetle": 49735, "×ľ×Ĳ": 29521, "pod": 43388, "áº·t": 38248, "ÄŁer": 19119, "emet": 24370, "łĩê²Į": 4591, "Ġë¨¼ìłĢ": 20749, "Ġmarin": 34652, "<|27.06|>": 51717, "ĠJes": 2547, "pection": 19997, "Ġbaseline": 20518, "ĠMidwest": 33483, "Î»Îµ": 26589, "Ġtreatments": 15795, "ct": 349, "ĠIncor": 39120, "ìĽĥ": 30668, "Ġpu": 2362, "è¦ĭ": 10470, "ĠGam": 24723, "ĠYOU": 7928, "lagen": 29177, "ĠFile": 26196, "ĠHof": 37379, "hol": 5449, "Ã©f": 38821, "grupp": 37768, "ĠÐºÐ²Ð°ÑĢÑĤÐ¸": 37084, "ĠGrammy": 47332, "Ġeternity": 27162, "Ġrespected": 20020, "åĨħ": 34742, "Ġ17": 3282, "Ġir": 3418, "By": 27690, "ĠRee": 38231, "Ġdrivers": 11590, "Ġkind": 733, "ìĿ´ìĭ": 41771, "bu": 6021, "ĠìĤ°": 29589, "ÏĮÏĥ": 41292, "ĠÐ²Ð¿Ð¾Ð»Ð½Ðµ": 46780, "ÑĤÐ¾Ð±Ñĭ": 7331, "Ġfourteen": 32253, "Ġpumpkins": 49053, "Ġnegative": 3671, "Ġponer": 19149, "bek": 25714, "Ġconsult": 7189, "Ter": 43352, "Ġparticles": 10007, "ĠÑĤÐµÐ»ÐµÑĦÐ¾Ð½": 44485, "ĠÅ¡": 22552, "ĠÑĩÑĤÐ¾Ð±": 48647, "Ġfishing": 10180, "...,": 25427, "ãĤ°": 23839, "Ġherb": 22662, "Ġì¢ĭìķĦíķĺëĬĶ": 33164, "ĠPerez": 47317, "ĠBryan": 23730, "Ġbok": 41882, "×©×ķ×ĳ": 49641, "Ġprojets": 49830, "Ġcontributor": 42859, "Ġteria": 45530, "Ġciud": 18186, "ĠKids": 15694, "éĢļ": 19550, "Ġpued": 10947, "he": 675, "Ġbipart": 28741, "Ġtercer": 38103, "ìĿ´ìĹĲ": 13030, "Ġforgiving": 37701, "Ĵ": 240, "<|0.90|>": 50409, "Ġdif": 679, "inta": 16071, "Ġgak": 30045, "ĠHills": 25663, "Ġdesaf": 34587, "ħķ": 12831, "Make": 35650, "Ġbreakdown": 18188, "Ġmelody": 17997, "Ġcamar": 43764, "Ġìŀ": 1332, "Ġrel": 1039, "ivering": 48940, "ĠGener": 15409, "ĠsÄħ": 9015, "ĠìłĢëĬĶ": 10551, "ì¹´ë": 29748, "ĠRX": 46197, "Ġinhabited": 47538, "Ġstate": 1785, "Ġpedest": 20497, "ĠPaul": 4552, "ë¥¼": 11297, "eil": 30684, "ĠÏĦÎ¿": 8335, "Ġdic": 14285, "ÐµÑģÑĤ": 5740, "ÐµÑĢÑĭ": 24626, "culiar": 26626, "Ġrelated": 4077, "Ġprivately": 31919, "Ġhoping": 7159, "ton": 1756, "ÐºÐ°Ð¼": 38708, "èĤī": 31980, "ONY": 48235, "ĠFourth": 23773, "ÑĥÑĤÑģÑĤÐ²": 47565, "Ġmur": 5257, "iker": 17314, "................": 45409, "ĠsÃŃ": 8600, "ĠìłĢëıĦ": 27591, "Ġlaboratory": 16523, "ĠÑĢÐ°Ð²Ð½Ð¾": 27354, "Ġah": 3716, "ãģĺ": 9257, "Ġdance": 4489, "ktor": 28359, "Ġdiy": 34275, "Ġchart": 6927, "Ġthumbnail": 26746, "arto": 15864, "ĠHarris": 17426, "Ġoriginally": 7993, "Ã¤che": 32664, "Ġmonitored": 36255, "ĠIhnen": 17280, "Ġlime": 22035, "Ð·": 1544, "Ġbooth": 20912, "adows": 33480, "Ġabroad": 12637, "Ġmap": 4471, "Ġtracking": 11603, "ĠSky": 9879, "Ġambassador": 25445, "ĠDirectory": 49598, "ĠPRE": 44164, "Ġevolutionary": 27567, "ĠÐºÐ¾Ð½ÑĤ": 43064, "Ġappeals": 32603, "arena": 19500, "ĠMorrison": 33767, "ĠProperty": 48966, "Ġundo": 23779, "ĠÐ½ÐµÑģ": 30825, "ãģŃãģĩ": 41799, "Ġyang": 5581, "Ġbruk": 48316, "Ġsneeze": 50076, ":]": 10624, "Ġevaluated": 25509, "ĠSoph": 18921, "ĠUns": 25017, "<|26.44|>": 51686, "ĠCel": 19967, "Ġstarred": 39438, "ĠAWS": 17650, "¢ÙĨ": 48506, "Ġjangan": 45107, "Ġblanket": 17907, "Ġcompany": 2237, "á»Ļ": 8047, "chat": 20057, "ikan": 16048, "éĤ£éº¼": 20504, "ĠWriting": 32774, "Ġdisrupt": 14124, "ĠZac": 48082, "à¸°": 8055, "Ġlic": 6169, "ever": 1054, "ĠÐ²Ð¾Ñģ": 18867, "Ġrenowned": 34065, "ulin": 17701, "ĠEin": 6391, "ĠBud": 6384, "ĠPerform": 19351, "arya": 29313, "ĠRest": 13094, "ĠfÃ¼r": 2959, "ĠÐ²ÑĭÑģ": 19361, "Ġdomest": 39125, "<|21.70|>": 51449, "cession": 29881, "Ġglucose": 23997, "ĠImmer": 42676, "Ġinspection": 22085, "Ġrazor": 30478, "ĠëıĻìķĪ": 32589, "Ġseiz": 27610, "Ġpersonas": 12019, "Ġroommates": 46886, "Ġgoodies": 44072, "ĠCage": 48677, "Ð°ÐºÑģ": 23289, "aÄŁÄ±": 42247, "Ġlitres": 49259, "ihood": 34262, "Ġpositivity": 35198, "ĠHalf": 15917, "ĠNetwork": 12640, "ëĵ±": 36912, "gu": 2794, "ĠjÃ¤tte": 46752, "Ġteste": 49586, "è°": 8897, "achtet": 48833, "ĠÐ¢Ð°Ð¼": 27451, "Ġtheories": 13667, "ãģ¾ãģ§": 28176, "Ġyourselves": 14791, "Ġducks": 34468, "ĠíĹĪë": 47078, "Ġplural": 25377, "ola": 4711, "Ġproblema": 12395, "ĠdespuÃ©s": 15283, "Ġpotion": 39113, "ĠArgent": 15183, "Ġcreo": 14336, "educ": 32604, "<|22.54|>": 51491, "ĠNana": 37087, "Ġplots": 28609, "Ġbed": 2901, "auth": 40198, "Ġì¢ĭìķĦìļĶ": 22482, "Ġrises": 21373, "Ġthroat": 12394, "Everything": 44099, "Ġintellect": 10058, "ĠMoore": 21644, "ĠAdmiral": 38097, "ĠMorris": 23619, "Ð½Ð°Ñı": 6323, "ĠNacional": 36623, "Ġjuicy": 24696, "Ġrot": 4297, "Ġfortune": 16531, "read": 2538, "Æ¡n": 23513, "Ġrequests": 12475, "orts": 3299, "ĠPaty": 43760, "ĠPut": 4935, "Ġbeing": 885, "çĦ¡": 16976, "Ġdisplaying": 36834, "Î¶": 16008, "ì¹´": 30327, "Ġì£¼ê³ł": 45848, "Isn": 48310, "Ġkaum": 36443, "Ġhina": 41844, "ĠversÃ£o": 41471, "hÃ¤lt": 28068, "ĠCrazy": 22509, "Ġwholes": 34228, "pei": 46238, "Ġdisappointing": 25054, "ĠRabbi": 32768, "Ġtopp": 48433, "Ġkam": 9727, "Ġbun": 6702, "elly": 7442, "Ð¾Ð³Ð¾Ð´": 46928, "uta": 12093, "ĠBurch": 48370, "Ġgens": 10668, "ĠRange": 33778, "Ġnew": 777, "Ġë³Ħë¡ľ": 45513, "ĠOt": 12936, "zahl": 39670, "Ġamenities": 47260, "<|21.76|>": 51452, "duc": 8117, "ĠÑĤÐ¾Ð²": 35838, "ĠGlass": 23752, "ĠchociaÅ¼": 48929, "Dan": 17087, "Ġas": 382, "Ġenfants": 22649, "iyoruz": 26233, "Ġcharacters": 4342, "Ġmovement": 3963, "Ġquit": 10366, "ĠBrady": 31773, "Ġembed": 12240, "ĠGog": 39690, "ë³": 10708, "<|1.12|>": 50420, "urs": 2156, "RET": 36535, "OK": 9443, "Ġfund": 2374, "įĺ": 8092, "Ġ---": 32470, "<|14.80|>": 51104, "<|6.38|>": 50683, "°Ķ": 27344, "ĠsÃ¤ger": 37607, "lÄ±k": 22359, "ĠISBN": 47874, "Ġfermented": 38649, "Ġganzen": 23966, "Ġgenius": 14017, "Ġinvestigate": 15013, "Ġrij": 47237, "ĠÐļÑĤÐ¾": 33953, "ĠJessie": 36627, "Ġtalkin": 39243, "ourcing": 41849, "ittens": 39449, "Ġtofu": 21419, "Ġpir": 13528, "Ġupwards": 22167, "æĶ¿æ²»": 47456, "Ġsometimes": 2171, "<|2.94|>": 50511, "Ġnucleus": 28055, "á»±": 14522, "Ġworker": 11346, "Ġnuit": 38467, "icious": 3784, "hyung": 44326, "ĠÐ´Ð¾Ð¿Ð¾Ð»Ð½": 45120, "Ġsage": 19721, "ĠÑģÑħ": 42755, "ĠProte": 43371, "fle": 38921, "ĠIsab": 35686, "Ġreplicate": 25356, "ìĬ": 2038, "Ġimprovis": 39784, "ittel": 47265, "Ġhasn": 6132, "Ġsubsidi": 48296, "ĠEd": 3977, "and": 474, "Ġexatamente": 35937, "Ġludzie": 37025, "ĠPs": 33903, "ungkin": 26105, "Ġguards": 17652, "Ġê²Ģì°°": 45433, "erting": 27187, "Ġharvested": 40994, "<|1.48|>": 50438, "ĠJed": 27076, "ĠPolsce": 35567, "atchet": 36080, "ĠPens": 45035, "onders": 49308, "ĠBalance": 41899, "pf": 25302, "Ġdesarroll": 32501, "Ġvolunteer": 13835, "Ġprophets": 27297, "ĠSynd": 35284, "Ġpossibile": 50184, "ĠImpf": 32591, "Ġì§Ģê¸Ī": 7356, "æĮĳ": 49067, "ĠDamn": 11907, "ĠDry": 31562, "Ġont": 6592, "ĠKingdom": 11277, "anners": 25792, "Ġquizz": 43425, "Ġfails": 18199, "Ġleverage": 13982, "ignment": 41134, "ĠnÃ©": 7024, "ĠOuais": 25475, "Ġnut": 5393, "ĠSolid": 26664, "Ġunderway": 27534, "ĠJUDY": 23820, "ĠOct": 6788, "ĠwaÅ¼": 27777, "ĠBuddha": 16375, "ĠGotcha": 42109, "owi": 24503, "Die": 29928, "è§Ĵ": 29389, "Ġopera": 22202, "Ġreaction": 5480, "Ġfreue": 43195, "ĠaÃ§Ä±k": 33282, "ãģĽ": 13702, "Ġbenef": 3070, "ĠHu": 11874, "..)": 23085, "Ġkier": 38767, "<|24.30|>": 51579, "ĠÑĩÐ¸Ñģ": 23201, "Ã¬n": 41320, "Ġvino": 48841, "laÅŁ": 16803, "Con": 9838, "Ġinvestigator": 38330, "Ġmereka": 23171, "ĠCap": 8363, "ouv": 22941, "Ġperpet": 16211, "ĠcomeÃ§ou": 37393, "fte": 16268, "ema": 5619, "<|28.60|>": 51794, "ĠJong": 19589, "Ġelas": 23003, "Ġbutcher": 41579, "Ġquelqu": 25283, "ĠÐ»ÑİÐ±Ð¾Ð¹": 42803, "į°": 2336, "hua": 30107, "<|2.84|>": 50506, "eration": 5053, "Ġrocky": 33301, "Ġgebru": 33857, "Ġseverity": 35179, "ĠWick": 47702, "<|19.44|>": 51336, "Ġwen": 11472, "anas": 14292, "tag": 25030, "Ġministers": 26220, "<|ko|>": 50264, "Ġëħ¹": 36906, "ĠMaintenant": 36931, "ĠmÃºsica": 20091, "ĠsÃº": 33075, "ĠCommunication": 34930, "ĠÐ¿Ð¾Ð½Ð¸Ð¼Ð°Ñİ": 35112, "Ġnagyon": 46259, "Ð¾Ñħ": 20976, "ãĥĥãĥĹ": 33683, "Ġprosecution": 37106, "Ġsne": 9244, "ĠCamera": 23734, "Ġchoosing": 10875, "ĠBaÅŁ": 28942, "ciÄĩ": 39162, "ĠÑģÑĢÐ°Ð·Ñĥ": 22014, "Ġmechan": 4236, "....": 2751, "Ġzaten": 22089, "ĠNa": 6056, "Ġtradicional": 47956, "ÑĤÐ¾ÑĢÐ°": 26250, "Ġshocking": 18776, "ĠProdu": 11793, "driver": 23609, "ĠGuo": 34175, "Ġya": 2478, "ĠÅĤat": 47759, "iami": 15568, "ÐµÑĢÑĪ": 19465, "Ð°Ð¹Ð½": 32920, "Ġnutrient": 32694, "eng": 1501, "ĠQuan": 35249, "Ġabre": 41594, "ľëıĦ": 17099, "Ġinterests": 8847, "ĠÐºÐ¾Ð¼": 7761, "ĠZ": 1176, "Ġì»¬ë": 19266, "Ġrap": 5099, "ĠMAX": 39549, "<|12.02|>": 50965, "Ġswamp": 31724, "Ġpubl": 11227, "çĪ": 8164, "Ġworthy": 14829, "Ġautumn": 24604, "Ġinaugural": 48741, "Ġíķ´ì£¼": 23281, "ĠWITH": 25371, "Ġkho": 49627, "èĥ": 19095, "anges": 10350, "Ġkidney": 19000, "ĠWhile": 3987, "mad": 16413, "Ġresurrect": 34338, "Ġint": 560, "chuss": 36695, "fer": 612, "ahn": 12140, "ĠÐ´Ð²Ð¸Ð³": 30618, "ĠMadonna": 49540, "Ġlanguage": 2856, "ĠAssassin": 43176, "taa": 43695, "bane": 28116, "Ġdiferen": 18959, "ĠÑģÐ¼Ð¾ÑĤÑĢÐµÑĤÑĮ": 43922, "ĠÐ¿Ð»ÑİÑģ": 43342, "Ġjeopard": 44295, "<|13.10|>": 51019, "06": 12791, "Ġimminent": 44339, "pable": 30454, "ê´Ģ": 18472, "Ġgrassroots": 39522, "lage": 22519, "ĠSabbath": 36618, "****": 24396, "alon": 34979, "ĠFIL": 48563, "Ġjumper": 44061, "Ġfunz": 49345, "Ġaccessories": 18207, "joy": 1994, "uso": 24431, "Ġbacks": 19513, "abol": 14923, "andez": 37003, "Ð³Ð»ÑıÐ´": 22232, "ÑīÐµ": 4805, "96": 22962, "ĠISO": 25042, "Ġarada": 40479, "Ġhier": 3296, "Ġahora": 9923, "<|20.30|>": 51379, "Ġcharacteristic": 16282, "insp": 31637, "<|16.56|>": 51192, "Ġexploited": 40918, "Ġerase": 23525, "Ġìľ¼": 37163, "pical": 34061, "Ġencountered": 20381, "Ġbru": 25267, "ĠMAR": 6450, "Ġrunter": 33295, "çĮ": 25266, "¬¸": 8357, "ĠÐĵÐ´Ðµ": 41996, "Ġuniverso": 42332, "istles": 29923, "ĠHUD": 46867, "Ġvolcanic": 35813, "ĠAnnie": 26781, "Ġloosely": 37966, "<|6.52|>": 50690, "Ġ1998": 21404, "Ġgram": 21353, "isl": 5788, "<|26.32|>": 51680, "outs": 7711, "Ġmusimy": 43449, "Ġups": 15497, "Ġdunno": 22751, "ĠRanger": 34222, "Æ°a": 27060, "ilen": 17471, "Ġcontrib": 4226, "ÑĢÐ°Ð·": 8421, "ĠVolt": 40332, "ĠëĤĺìĻĢ": 27704, "Ġaproxim": 31270, "Ġts": 35492, "Ġpublishing": 17832, "Ġ1200": 29139, "Ġtribes": 19035, "Ġreviewing": 19576, "asion": 6822, "Ġsequel": 20622, "Ġsitio": 40621, "Ġlaying": 14903, "Ġcoupled": 29482, "ĠThus": 13827, "/": 14, "Ġradically": 35508, "ereye": 41333, "Ġrestraint": 49281, "Ġinstagram": 22102, "áº§n": 18241, "Ð¼ÐµÑĢ": 12676, "Ġcongestion": 40816, "ossa": 9978, "Ġreceipt": 33882, "Ġinconsistent": 36891, "iro": 5182, "saw": 31287, "ĠÐļÐ¾Ð³Ð´Ð°": 23128, "Ġsupporters": 17683, "Ġreceived": 4613, "Ġbreeze": 24532, "Ġ×Ĳ×ķ×ª×ķ": 46725, "Ġspoonful": 47114, "ä»¥": 3588, "Ġdow": 9459, "ĠOra": 43672, "ĠRach": 40793, "ÅĤug": 34077, "Ġflick": 22774, "Ġdoll": 2722, "Ġbank": 3765, "Ġhere": 510, "Ġaccompl": 6548, "Ġcrappy": 36531, "å®Ł": 33197, "Ġprot": 1742, "ĠDanielle": 21182, "Ġseat": 6121, "Ġemergen": 33983, "ĠahÃŃ": 12571, "ĠAlto": 50066, "Ġmerely": 17003, "Ġinaug": 23541, "Ġimagine": 3811, "Ġday": 786, "Ġcomponents": 6677, "etchup": 26399, "aupt": 13343, "back": 3207, "ĠEPA": 27447, "ĠMum": 24279, "Ġnobody": 5079, "æīĵ": 12467, "Ġexchange": 7742, "Ġpopulated": 32998, "Ġapresent": 36181, "jis": 40371, "ĠItalia": 41355, "km": 17950, "Ġskept": 19128, "æ¬¾": 48798, "Ġë¬´ìĹ": 45613, "Ð¸ÑĤÑĮ": 3258, "Ġpart": 644, "ĠÐ´Ð²ÑĥÑħ": 32360, "EM": 6683, "inf": 19920, "iban": 23586, "Ġinternational": 5058, "Ġoptimization": 19618, "ĠfÄ±r": 47305, "ĠShakespeare": 22825, "Ġmathemat": 11619, "Ġpec": 42451, "ĠÃ§al": 16210, "Ġdescended": 41311, "Ġshower": 10128, "ÐµÐµ": 7752, "irteen": 27114, "oxide": 46053, "Ġmourning": 42947, "Ġtoda": 11687, "ĠsÃ³lo": 22885, "ìĭ¤": 8323, "Ġpersonalized": 28415, "Ġartificial": 11677, "arte": 11026, "ç´ħ": 33487, "Ġslicing": 46586, "ĠvÃ¤r": 28187, "ĢëıĦ": 33225, "Ġgallon": 30339, "dzie": 13096, "åĢĴ": 30878, "Ġbolts": 18127, "KN": 34559, "Ġmonte": 35437, "ĠpolÃŃtico": 48641, "Ġcube": 13728, "Ġastrolog": 30122, "ĠPositive": 46326, "<|16.86|>": 51207, "ÃŃt": 6712, "Ġinteracted": 49621, "Ð¾Ðµ": 5805, "Ġeuch": 10403, "Ġdrastically": 29673, "ctive": 20221, "ĠConsidering": 33854, "Ġinstruct": 7232, "Ġmaking": 1455, "ĠJohns": 37016, "Ġbackwards": 12204, "ĠRev": 12127, "ÃŃll": 40641, "Ġjotka": 47005, "Ġfreel": 27931, "Ġknowing": 5276, "ĠVoor": 43114, "Ġstagger": 29656, "Ġzucchini": 44781, "ĠHenri": 45365, "ÃŁerdem": 35957, "hein": 44448, "Ġinterject": 46787, "Ġpickled": 38076, "ĠStat": 16249, "Ġradial": 38783, "åĵ¦": 14659, "ĠHugo": 32504, "rÃ¡s": 17168, "ĠÐ¾ÑĤÐ¿ÑĢÐ°Ð²": 38427, "Ġfounded": 13234, "Ġappetite": 23996, "ĠSometimes": 4803, "Ġdebuted": 33392, "Ġpreparation": 13081, "Ġsymmetry": 25440, "opoly": 27891, "Ġvillains": 31368, "ĠâĻ«": 3846, "Ġ1300": 48156, "ĠÐĹÐ½Ð°": 30869, "imdi": 10308, "Ġì§Ħíĸī": 32544, "Ġstabilize": 31870, "ĠMaybe": 2704, "ÚĨ": 24061, "Ġrevel": 15262, "ìĸ´ì¤": 33992, "ä»¥åıĬ": 40282, "ì¹¨": 26806, "ĠAirPods": 43247, "ĠHS": 34194, "Ġhistorians": 26442, "ĠCzyli": 37099, "ĠAlong": 17457, "Ġstained": 39924, "Ġhassle": 39526, "<|13.28|>": 51028, "ĠCompetition": 43634, "agger": 11062, "<|21.08|>": 51418, "Ġdestroys": 36714, "Ġstron": 45766, "Ġavis": 34588, "Ġmr": 33660, "ader": 8312, "Ġstellt": 38582, "Ġhonorable": 36322, "ê¿": 30484, "!\".": 35323, "Ð²Ð¾Ð½": 39672, "Åºniej": 33405, "ìĸ´ë": 6540, "ĠÐ·Ð½Ð°ÐºÐ¾Ð¼": 40909, "ĠintÃ©ress": 23243, "ĠìĿĢ": 31863, "Ġwyk": 39287, "Ġornament": 35689, "aur": 3463, "ĠFirebase": 35173, "ĠÐ¾Ð±ÑĢÐ°ÑĤ": 29851, "Ġlinkage": 49118, "Ġpouco": 13920, "itsu": 35711, "Ġladies": 9974, "skin": 45299, "æĪĳè§īå¾Ĺ": 45681, "Ġtiempo": 11772, "wang": 19031, "ìĥģìĿ´": 46754, "Ġgoddamn": 32951, "Ġseals": 32031, "Ġcondensed": 36398, "ĠSerbia": 39461, "ĠPhilip": 21144, "Ġprotecting": 12316, "ĠSurprise": 36701, "Ġrepro": 35257, "uliflower": 39876, "Ġphysics": 10649, "pts": 39280, "baum": 46641, "Ġdont": 9400, "presented": 36589, "Ġpiercing": 42972, "ĠVerm": 20185, "Ġrag": 17539, "Ġgece": 48173, "Ġyarn": 11400, "<|24.62|>": 51595, "ĠAntar": 30536, "uje": 13008, "ĠdÃ©veloppement": 45128, "Ġcharms": 41383, "gypt": 9176, "ç¯Ģ": 27694, "Ġarrests": 48813, "ign": 788, "Ġhavoc": 47367, "Ð¿": 1354, "ĠÐ¿ÐµÑĢÐ²ÑĭÐ¹": 30025, "pared": 45573, "Ġfossils": 39159, "ĠNorweg": 31783, "ĠíĤ¤": 31855, "Ġprobabilities": 33783, "ĠÃ¼Ã§": 29630, "Ġprawd": 41175, "ĠLal": 47893, "Ġrelaxation": 30315, "ĠKick": 20886, "Ġthá»±c": 50183, "ĠíĨµ": 17006, "ĠSatan": 16583, "Ġzeit": 49367, "berish": 43189, "ĠAmsterdam": 28291, "Ġê°": 1777, "Alright": 30184, "ĠdÃ³": 18816, "Ãłnh": 24449, "ĠParam": 34882, "åľ°æĸ¹": 30146, "compass": 25052, "Ġsheep": 14213, "Ġ00": 7143, "ĠInv": 31124, "ä¸į": 1960, "Ġì¡°ë": 42707, "Ġeu": 2228, "Ġalgorithm": 9284, "ĠDON": 20403, "ĠLikewise": 30269, "itable": 16772, "Ġindirect": 19523, "Ġmig": 6186, "Ġenthal": 46475, "Ġdy": 14584, "mittel": 33960, "Stevie": 37145, "ĠÃºltimos": 33013, "endo": 3999, "âĢİ": 27867, "Ġunfamiliar": 29415, "Ġaggressive": 10762, "Ġtraditional": 5164, "Ġnad": 12617, "ĠXiang": 37935, "rod": 11452, "Ġtrilogy": 34030, "theless": 16620, "Ġê°ľìĿ¸": 36734, "Ġsettling": 33841, "Ġgefunden": 36923, "ĠdrauÃŁen": 44602, "Ġounce": 29860, "ĠTower": 17877, "Ġmemb": 27942, "<|5.28|>": 50628, "Ġhommes": 34795, "ĠFacebook": 4384, "orage": 29226, "ĠRonaldo": 46132, "Ġ×©×ľ": 8817, "ĠÐ¿Ð¾Ð´ÑĤ": 46103, "Ġdistinctive": 27766, "pless": 20434, "Ġshameful": 49600, "bon": 4351, "Ġprobabil": 31959, "Ġ(#": 49322, "Ġpeppers": 21345, "ĠSter": 33539, "Ġvariability": 35709, "ĠKenn": 12369, "?\"": 1811, "ÑĨÐ¸Ð¿": 27663, "Ġmaioria": 44384, "igible": 11292, "çªģ": 40859, "ĠdescriÃ§Ã£o": 42051, "Ġoike": 38432, "èĤ": 14356, "Ġfragment": 26424, "ĠEuropean": 6473, "air": 1246, "Ġenrich": 18849, "ĠRisk": 45892, "Ġimpulse": 26857, "<|24.58|>": 51593, "<|29.76|>": 51852, "Ġcertains": 25263, "frames": 43277, "Ġalluded": 33919, "arnya": 38039, "ĠÃ©videmment": 24724, "<|12.86|>": 51007, "Ġtug": 33543, "zess": 37575, "Ġpense": 11209, "zil": 8790, "Ġrationale": 41989, "ĠDream": 12105, "Ġëĭ¤ìĸĳíķľ": 49679, "×Ķ×ķ": 43830, "Ġmil": 1962, "Ġaddition": 4500, "Ġalle": 5430, "ĠFÃ¶r": 20665, "Ġbrief": 5353, "ĠBen": 3964, "Ġcyn": 28365, "ĠMV": 17663, "Tell": 36152, "Ġrenovation": 39973, "ãģı": 6134, "Are": 13332, "ĠWhitney": 39466, "Ġscall": 30509, "ĠmÃ¶j": 37606, "ĠSEN": 47770, "ĠìķĦëĭĪë": 14279, "Ġ×Ķ×ĵ": 32740, "Ġlevels": 4358, "<|9.12|>": 50820, "Ġscoop": 19555, "Ġviolating": 42201, "Ġolika": 26025, "Ġblame": 10127, "Ġpainter": 26619, "ailleurs": 19400, "Ġresidue": 34799, "Ġkindness": 18171, "Ġcoment": 14541, "iliar": 4600, "OOM": 26345, "ÑĮÐ¾Ð³Ð¾": 40977, "Ġbiss": 10627, "Press": 20516, "ä½Ĳ": 48361, "Tra": 38971, "ogg": 36754, "Ġnewborn": 32928, "Ġpatt": 49916, "Ġíķĺê²łìĬµëĭĪëĭ¤": 23473, "Ġdepress": 44248, "¥ĺ": 46014, "Ġendpoint": 35795, "ÐµÑī": 12932, "atro": 14629, "á¹ĩa": 31283, "Ġalternating": 40062, "ÑĳÐ»": 24180, "ordan": 8968, "Ġanimated": 18947, "vl": 42977, "uÃŁen": 41560, "ĠRa": 7591, "ãģ§ãģĹãģŁ": 40882, "Ġ×ŀ×Ĳ×": 45686, "ê²ĮìļĶ": 10142, "ÏĢÏĮ": 14220, "ousse": 28521, "ĠÐĶ": 3401, "Ġoccasional": 31644, "<|21.60|>": 51444, "sound": 41834, "ĠÄĳá»ĭ": 42063, "Ġcomputers": 10807, "ĠRegarding": 35523, "ĠEz": 27211, "ĠjeÅĽli": 25630, "ĠCry": 12267, "ÃŃtulo": 30389, "Ġmism": 23220, "Ġmas": 2300, "Ġdudes": 27717, "{": 90, "ìķĮ": 48234, "<|3.46|>": 50537, "ĠPitts": 29478, "Ġcriminals": 23474, "Ġ401": 37510, "ÃŃlia": 23392, "ĠìķĮìķĦ": 32352, "ĠShak": 47459, "ÐµÐ³Ð¾Ð´Ð½Ñı": 14044, "Ġìĸ´ì©": 43513, "Ġnationalist": 49654, "ĠJahres": 44360, "Ġverdade": 15203, "æľĪ": 6939, "Ġexchanged": 38378, "Ġëĵ¤ìĸ´ê°Ģ": 20794, "Ġë³´ì": 7842, "ĠREP": 31511, "unky": 25837, "ĠìĥĿê°ģìĿ´": 34581, "Ġefter": 24827, "Ġbak": 5657, "ì½": 15385, "Ġdefend": 8602, "Ġparental": 41113, "adic": 43341, "×Ĵ×Ŀ": 50141, "Ġsen": 3151, "ĠCathy": 39799, "hd": 20272, "Ġdresses": 25156, "nad": 36567, "Ġbrain": 3567, "owiÄħ": 47886, "Ġ×ĺ×ķ×ĳ": 48606, "Ġbathroom": 8687, "ricia": 28635, "ä¸ľ": 38409, "Ġìµľê·¼": 37349, "Ġpastel": 38100, "<|8.60|>": 50794, "Ġweight": 3364, "ĠLebens": 21530, "ĠidÃ©e": 34832, "very": 448, "ĠVel": 17814, "ella": 9885, "Ġunsure": 32486, "Ġolmak": 45535, "ŀĺëıĦ": 38371, "Ġczas": 13190, "ĠWizard": 37449, "Ġcho": 1586, "Ġpetit": 9686, "Ġstinks": 50114, "esehen": 18380, "Ġneural": 18161, "ÐºÐ°Ñı": 14801, "ĠÑĤÑĢ": 7550, "Ġnaturale": 40877, "ops": 3370, "Ġservers": 15909, "THE": 41847, "<|28.58|>": 51793, "<|21.96|>": 51462, "<|7.86|>": 50757, "bs": 929, "ĠZhan": 49550, "<|sd|>": 50332, "ĠÑģÐ¼Ð¾Ð³": 32139, "Ġautant": 34081, "opt": 5747, "Ġtoutes": 14437, "Ġpensando": 34525, "ĠÐ¾Ñħ": 28871, "ĠLeo": 19344, "Ġdominated": 23755, "ÑĩÐ¸Ð²": 28373, "arts": 11814, "io": 1004, "Ġ×ŀ×Ľ": 44698, "Ġfifth": 9266, "mem": 17886, "ĠPak": 11543, "nez": 28018, "Ġlottery": 27391, "Lou": 46316, "ĠaynÄ±": 30281, "Ġvia": 5766, "Ġservant": 17896, "Ġapproximation": 28023, "ĠBeverly": 43598, "Ġuncom": 8585, "ĠBeautiful": 14724, "âĺħ": 23973, "Ġbeautifully": 16525, "Ġmeasuring": 13389, "à¸³": 24865, "ĠSoy": 24758, "å¸«": 16276, "Ġalleine": 37780, "ĠCheck": 6881, "ëĭĪ": 1425, "Ġcombin": 38514, "Ġphrase": 9535, "ĠGiov": 47089, "ĠÑĢÐ°Ð±Ð¾ÑĤ": 9197, "ÅĤam": 20177, "<|18.22|>": 51275, "ane": 1929, "çĦ": 4971, "çľĭåĪ°": 18032, "ĠACE": 44606, "Ġassistant": 10994, "Ðļ": 8169, "iao": 7648, "blic": 11489, "Ġparticipation": 13487, "ì²´": 16260, "Ġign": 5335, "ãĥ¬": 16680, "ĠEnd": 6967, "ĠZahlen": 44096, "Ð°Ð·ÑĭÐ²": 10442, "Ńī": 43962, "nen": 2866, "Ġalt": 4955, "Ġfocused": 5178, "Ġferment": 38300, "atic": 2399, "Ġvoyage": 30729, "Ġtouches": 17431, "ĠÃ¶l": 31854, "iones": 5411, "ĠAunt": 17535, "Ġdeparted": 47018, "Ġpredomin": 21456, "ĠCincinnati": 45951, "ĠìĿĳ": 21712, "åĬŁ": 32311, "Ã©sz": 47411, "ÐºÐ²": 27828, "rÃŃ": 40577, "rang": 32926, "ĠTour": 13077, "Ġgenerating": 17746, "Ġcalming": 39723, "Ġteh": 32991, "OST": 28067, "Sab": 47556, "Ġant": 2511, "ĠSai": 27987, "Ġpond": 17384, "ileen": 42914, "Ĥł": 24095, "Ġimpaired": 36762, "Ġincrease": 3488, "Ġsummarize": 20858, "ĠNokia": 43980, "Ġrien": 13355, "Ø±Ùģ": 28480, "Ġkn": 444, "Ġunrealistic": 42867, "åŁİ": 45277, "Ġabi": 17905, "Ġexagger": 19123, "Ġdreaming": 21475, "Ġmadre": 32966, "æ»": 15868, "Ġhaven": 2378, "Ġincidents": 21139, "ĠhÃ¤r": 6533, "ĠPortuguese": 22759, "Ġsprout": 43728, "ĠãģĤãĤĬ": 49444, "Ġresultado": 28047, "<|21.56|>": 51442, "Ġresto": 28247, "bracht": 23404, "rah": 15688, "osphere": 44877, "<|3.10|>": 50519, "Ġë§Īì§Ģë§ī": 22722, "Ġletzt": 35262, "Ġnatuur": 24414, "ĠOlympic": 19169, "tro": 38604, "clockwise": 48685, "ĠRin": 33170, "Ġenhancing": 36579, "Ġleading": 5775, "Ġisol": 7381, "Ġfootball": 7346, "ĠÐ¼ÑĥÐ¶": 22081, "ĠGaussian": 39148, "ĠBÃ¼": 37186, "ì§ĢëıĦ": 39871, "Ġarch": 3912, "Ġhardcore": 28196, "Ġged": 19238, "Ġ×ŀ×Ĳ": 26295, "Ð»ÑıÐµÑĤÑģÑı": 21336, "łµ": 39469, "Ġprodukt": 42816, "Ġdraw": 2642, "Ġattorneys": 30019, "ĠÐ¿Ð»Ð¾Ñħ": 29938, "Ġlifts": 30501, "iction": 4105, "ĠFCC": 48671, "ĠÐ¾Ð¿Ð¸Ñģ": 32190, "æĪĳ": 1654, "ëĦ¤ìļĶ": 35969, "Ġsimulated": 41713, "ĠGalaxy": 13520, "moi": 29292, "ĠScrew": 42630, "Ġsophisticated": 16950, "<|24.08|>": 51568, "Ã¡tico": 28234, "Ã³m": 23818, "Ġinterns": 46145, "Ġfin": 962, "Ġscrambled": 49127, "vention": 6411, "Ġdia": 6801, "Ġaffairs": 17478, "ĠHealing": 48997, "ĠOk": 3477, "ĠSound": 14673, "OS": 4367, "Ġchalleng": 3333, "ĠBali": 40664, "ç¿Ĵ": 34025, "Ġacept": 43568, "ommes": 16733, "Ġê±°ì£ł": 26957, "Ġburn": 5064, "ippers": 31323, "Ġsettings": 6257, "ĠFl": 3235, "ĠDevil": 25221, "ĠDog": 13472, "<|29.84|>": 51856, "Ġstol": 43553, "Ġallein": 37673, "æĪĲ": 11336, "Ġemploy": 3188, "Ġimagen": 40652, "Ġworm": 23835, "<|5.80|>": 50654, "ĠBulgaria": 47737, "enty": 4179, "Ġbelonged": 28611, "ĠÐ¿ÑĢÐ¸Ð½ÑĨÐ¸Ð¿": 30147, "ĠTa": 6551, "Ġuncomfortable": 10532, "Ġaroma": 28687, "Ġposter": 17171, "Ġdessus": 30677, "ĠHasta": 45027, "Ġjerk": 25197, "ĠÐ¿ÑĢÐ¾Ð²": 13422, "ĠcaÅĤ": 35224, "ÏĮÏĦÎµ": 48545, "bes": 6446, "ential": 2549, "×ľ×§": 43185, "eme": 5729, "bal": 2645, "ĠRush": 28389, "<|8.30|>": 50779, "ĠHoney": 16187, "Ġentrev": 39095, "Ġbowel": 40094, "ĠPsychology": 42827, "<|2.96|>": 50512, "Ġconserve": 45240, "Ġdesired": 14721, "Ġbone": 9026, "per": 610, "Ġsandy": 47122, "Ġtoppings": 43052, "ĠHouse": 4928, "ĠRab": 16781, "<|9.28|>": 50828, "ĠÐºÐ¾ÑĤÐ¾ÑĢÐ°Ñı": 19032, "values": 46033, "Ġdost": 20568, "ĠSi": 4909, "Ġheadphone": 35028, "ĠÑħÐ¾Ñĩ": 13057, "Ġli": 375, "ĠmÃŃ": 14692, "ĠCorn": 21590, "<|26.36|>": 51682, "<|5.76|>": 50652, "ĠCandy": 31470, "Ã²ng": 36782, "annen": 44792, "<|29.06|>": 51817, "ĠunterstÃ¼tzen": 43081, "ĠCola": 48037, "ĠÃ¶ÄŁren": 40283, "Ġsaliva": 43540, "ĠHim": 5920, "Ġship": 5374, "ĠAn": 1107, "ĠSepar": 43480, "ä¸įçĶ¨": 24384, "Ġtrud": 32007, "æıĽ": 36338, "Ġhor": 2569, "Ġnovelty": 44805, "ĠOrb": 44329, "<|16.60|>": 51194, "Ġwants": 2738, "ĠPorque": 11287, "Ġdebido": 50003, "<|15.74|>": 51151, "ORY": 38847, "arken": 38962, "ĠAds": 44325, "Ġsaus": 16534, "ĠcÃ¡c": 13250, "No": 4540, "Ġaccent": 11982, "Ġconvergence": 32181, "Ġincreasingly": 12980, "ÑĨÑĭ": 14180, "ISA": 26183, "ÐµÐ½ÑĤÐ¾Ð²": 31028, "Ġautism": 21471, "Ġsubm": 8286, "world": 13217, "idity": 17711, "Ġbabys": 39764, "ç©¶": 44704, "Ġíģ°": 21307, "ĠChe": 3351, "ohner": 49935, "ulates": 26192, "ĠAgora": 16023, "Ġhora": 15098, "Ġtrials": 12450, "vat": 23352, "å¤ī": 40931, "odzi": 14543, "ollar": 30486, "Ġscratches": 33695, "Ġfatigue": 20574, "ĠÐºÐ¾Ð¶": 40107, "buz": 21941, "liche": 10185, "ivo": 6340, "ĠSund": 6942, "Ġimmens": 36893, "ĠTÃ´i": 43345, "Ġaxle": 31192, "arnos": 24979, "Ġmomencie": 40883, "<|2.52|>": 50490, "Ġmango": 23481, "leader": 47716, "Ġchá»": 23579, "Ġboth": 1293, "Ã³st": 45052, "Ġcer": 10146, "Ã§i": 45860, "aggio": 30763, "antee": 10527, "ĠYJ": 49535, "Ġcomple": 44424, "Ġforce": 3464, "Ġchose": 5111, "Ã«l": 36343, "Ġsemua": 28195, "ĠDus": 17916, "ÐºÐ°Ñħ": 18366, "Ġrule": 4978, "Ġìĸ´ëĸ": 7768, "ĠJanuary": 7061, "ĠÐ½Ð°Ð¿": 9011, "Ġparking": 9893, "<|25.50|>": 51639, "ĠKensuke": 44708, "agu": 31686, "ĠWah": 24598, "Ġlevers": 45571, "nap": 37252, "Kit": 45626, "Ġmaneira": 30255, "pis": 40516, "egree": 26359, "íĥĦ": 35420, "Ġcentimeter": 31914, "ĠCab": 14704, "Ġlil": 36532, "Ġìĺ·": 30880, "Ġalloc": 12660, "Ġfil": 1387, "Ġsais": 11757, "ĠÐĳ": 5697, "ìĭľëĭ¤": 33582, "Ð²Ð°ÑĢ": 21291, "ĠCRA": 34425, "Ġpersistent": 24315, "ĠFlu": 33612, "Ġsanction": 39830, "à®©": 5511, "Ġê·¸": 4296, "ĠhÃ¥": 24367, "Ġblows": 18458, "adÄ±": 35287, "Ġdumped": 32131, "ĠÐ²Ð¾Ð·Ð´Ñĥ": 47396, "Ġhearing": 4763, "Ġhamburger": 34575, "<|15.48|>": 51138, "raw": 5131, "Ġinstalled": 8899, "Ġsupposed": 3442, "Ġalgorithms": 14642, "ĠVeterans": 30066, "Ġcorridors": 46920, "á»ģ": 9602, "Ġrepresents": 8855, "ĠLuckily": 19726, ".âĻª": 40847, "utable": 32148, "Ġdistribute": 20594, "Ġweighing": 31986, "Ġspells": 25053, "shirt": 15313, "breat": 47674, "Ġoss": 19508, "ĠMind": 13719, "Å¥": 27101, "Ġexplosions": 36872, "Ġprocent": 38826, "æĦŁè¦º": 31742, "åĿĲ": 31123, "ĠGund": 38299, "Ġing": 3957, "Ġcultivation": 45924, "Ġconcerts": 24924, "Ġinvers": 21378, "Ġdalam": 23063, "Ġproblem": 1154, "Ġhesitant": 36290, "ĠMa": 4042, "Ġkl": 9671, "ĠmÃ¥nga": 25068, "Ġsegur": 22179, "8": 23, "Ġwell": 731, "ĠTestament": 15473, "tery": 12733, "Ġlongitudinal": 48250, "center": 50085, "ĠiÅŁ": 8690, "ĠWrap": 41291, "Ġpelig": 43839, "ŀĲ": 15876, "ĠWarm": 40353, "Ġìłķë§Ĳ": 12793, "ĠDracula": 48950, "ĠÑģÐ¾ÑĤÑĢÑĥÐ´": 50233, "Scott": 46488, "Ġgetan": 45599, "Ġtech": 7553, "Ġpeur": 30071, "ificant": 35277, "...âĢĭ": 26980, "kami": 48737, "hak": 37253, "Ġbio": 12198, "ĠFour": 7451, "ĠPrim": 19671, "Ġ1943": 40402, "Ġê²Į": 7845, "ĠëĤĺì¤ĳìĹĲ": 44865, "Ã¼rlich": 7963, "Ġtilted": 43229, "rations": 12154, "Ġfort": 5009, "ĠReturn": 24350, "<|5.52|>": 50640, "ĠCara": 33006, "Ġregistering": 47329, "holes": 37894, "ĠAsk": 12320, "Ġpenalty": 16263, "Ġlandmark": 26962, "ĠOf": 2720, "Ġsogar": 19485, "ç®Ĺ": 19497, "ĠSustain": 34407, "×ķ×Ĳ×": 36440, "Ġconhe": 15440, "ief": 2521, "ĠTout": 20453, "aterial": 40364, "ãģ¡ãĤī": 28567, "lais": 21232, "Ġë¶Ļ": 24618, "Ã©tait": 9743, "Ġnotify": 36560, "Ġloro": 28810, "Ġ197": 7560, "Ġblurry": 37644, "Ġprompted": 31042, "rew": 2236, "zia": 40395, "Ġnode": 9984, "Ġmes": 3813, "Ġcoefficients": 31994, "ĠCathedral": 46794, "Ġpsychologically": 41387, "ĠQUE": 46026, "iev": 9037, "Ġexhib": 8144, "ãģĿãģĨãģł": 39471, "ìĹĪìĸ´": 30562, "ktop": 13031, "ĠgustarÃŃa": 45896, "purpose": 42601, "ĠCommittee": 11556, "ĠNormal": 21277, "ĠÐ½Ñĥ": 13087, "Ġë§İ": 5671, "ĠëĭĪ": 35362, "boro": 46669, "ĠpamiÄĻ": 31088, "Ð¾ÑģÑĤÐ¾": 6378, "usst": 26340, "hell": 21288, "Ġspic": 41418, "ICIA": 44480, "Ġtestoster": 29841, "reci": 3326, "Ġjurisd": 19078, "Ġcardiovascular": 31786, "Ġê²ĥìĿĢ": 33825, "from": 20579, "Ġsisters": 11589, "Chris": 19262, "Ð½ÐµÑģ": 28302, "Ġzde": 49749, "calm": 45142, "Ġterrible": 6237, "Ġaccepts": 33538, "à±": 36667, "gh": 9030, "Ġmett": 27812, "Ġëª¨ìĸĳ": 45254, "Ġlieu": 26036, "Ġë©Ķë": 42873, "°Į": 28627, "____": 23757, "Ġnetwork": 3209, "ĠINF": 35971, "Exc": 33553, "Ġjudged": 27485, "ÐµÐ¼Ñĥ": 8339, "Ġsignificant": 4776, "irable": 21493, "ĠBak": 12063, "Ġkonnte": 24058, "offs": 19231, "ĠsÃ¼r": 48014, "ĠêµŃ": 13858, "Ġreuse": 26225, "Ġs": 262, "ĠØ§ÙĦÙĨ": 28239, "Ð°ÐºÐ¾Ð²": 34119, "Ġfle": 7025, "work": 1902, "ĠÐ½Ð°Ð¹Ð´": 41805, "<|23.06|>": 51517, "Ġtests": 6921, "Ġmorally": 38622, "ahh": 44251, "<|29.68|>": 51848, "ĠKin": 27950, "ĠÐ²Ð°Ð»": 42187, "Ġharassment": 25836, "Ġimplication": 37814, "alom": 40780, "Ġordering": 21739, "Ġgravel": 30001, "Ġstructural": 15067, "Î²Î±": 48298, "Ġdotted": 37459, "Ġsenate": 33609, "Ġhect": 37358, "42": 15628, "ĠCave": 41100, "Ġì°©": 36018, "ĠCharles": 10523, "atoire": 45575, "Ġoccur": 5160, "ĠUno": 37468, "sect": 9632, "Ġcompute": 14722, "Ġmud": 8933, "uffy": 14297, "urance": 5683, "à¸¹": 13687, "ĠBev": 41159, "ĠSMS": 38107, "Ġtane": 23233, "ĠGem": 22894, "ĠPois": 48274, "Ġpsychiatric": 40123, "ĠdafÃ¼r": 13747, "<|15.36|>": 51132, "Ġletters": 7825, "Ġmica": 32483, "ĠIsa": 19718, "Ġdistinguish": 20206, "reas": 37868, "Ġesemp": 32340, "kung": 40100, "ç¶ĵ": 15145, "×ķ×ĸ": 44260, "ĠAmerica": 3374, "Ġretrouver": 36511, "ĠCory": 41695, "OL": 5046, "Ġinsecure": 32215, "ĠëĺĲ": 7992, "ructure": 2885, "ffiti": 36199, "Ġsomehow": 6063, "Ð±": 1552, "Ġcervical": 49883, "ĠduÅ¼o": 26673, "sized": 20614, "Ð²Ð°ÑĤ": 18928, "ĠëĪĦêµ¬": 36385, "Ġhydrogen": 12697, "ĠThat": 663, "ĠgÃ¶r": 8362, "æ¥Ń": 27119, "Ġpretend": 11865, "Ġolhos": 47944, "ĠONE": 22026, "Ġbands": 13543, "ÐŃ": 22757, "working": 22475, "ĠKre": 23625, "Ġfulfilled": 21380, "dz": 28168, "Ġcongratulate": 24353, "jin": 13970, "Ġmesela": 45814, "<|mr|>": 50320, "aden": 14771, "oubtedly": 32135, "Ġcatast": 19754, "Ġapartment": 9587, "ãģªãĤĭãģ»ãģ©": 39506, "Ġmechanic": 23860, "ĠÐ¿ÑĢÐ¾Ð¸Ð·Ð²Ð¾Ð´": 28685, "respond": 6663, "<|12.64|>": 50996, "Ġatheist": 43977, "ĠLatino": 25422, "ãģ¨ãģĦãģĨ": 15300, "Ġ1977": 35092, "ĠTherm": 38957, "ĠHari": 47221, "Ġber": 5948, "Ġprotein": 7944, "Ġfrase": 38406, "Ġere": 25022, "<|7.38|>": 50733, "ĠÑģÐ½": 42864, "ĠmyÅĽ": 48633, "ĠReading": 29766, "ĠÐ¿ÐµÑģ": 37280, "Ġìķ½": 11503, "issance": 14431, "ĠHolmes": 27474, "Ġdisconnected": 29426, "ÑĢÐ¾Ð²": 6680, "ĠÐ¿Ð¾ÑģÑĤÐ¾ÑıÐ½Ð½Ð¾": 41548, "ĠÐ¿ÐµÑĢÐµÐ²": 28106, "Ġregistry": 36468, "éľĢè¦ģ": 35748, "ands": 2967, "Ġsewing": 19311, "Ġsmarter": 20294, "Ã¼ckt": 37532, "Ġbara": 19519, "Redner": 35338, "Ġwifi": 35246, "arbeit": 24024, "Ġperformer": 30248, "Ġnightmare": 18724, "ĠEurope": 3315, "Ġrikt": 38420, "×ŀ×©": 38652, "Ġiv": 32412, "emu": 37552, "<|22.24|>": 51476, "ÑĥÐ½": 12161, "Ġpromin": 39225, "raj": 48690, "ĠF": 479, "Ġreservation": 28922, "Jeff": 33887, "×©×ľ": 43911, "ĠHARF": 27602, "èĶ": 41242, "Î±Î¹": 5074, "âĪ": 30402, "Ġmelodies": 47085, "ressed": 3805, "ĠBeit": 43637, "ĠStrike": 32788, "ĠÃ¤hnlich": 49696, "Ġurging": 48489, "angan": 17017, "ĠÐ³Ð¾Ð»": 14932, "ency": 3020, "Ġthee": 24800, "Ġleast": 1935, "Ġunbel": 46063, "ÏĥÎ·": 17688, "ĠìĿ´ë": 2892, "ĠDirect": 18308, "ãģĤãĥ¼": 34932, "×¢×Ŀ": 49661, "flower": 30794, "æĸ¹": 9249, "ĠWhen": 1133, "jest": 39291, "Book": 19203, "Ġvois": 18297, "Ġalguma": 20259, "Ġsliced": 27098, "ĠFourier": 36810, "áº¯c": 30838, "ĠGate": 21913, "åĴĮ": 12565, "Ġspacing": 27739, "Ġunprecedented": 21555, "Ġrighteousness": 26407, "Ð»ÐµÐ¹": 24698, "Ġcelebrity": 18597, "Ġfundamentally": 17879, "Ġnag": 17096, "Ġcloser": 4966, "Ġannually": 29974, "Ġtimely": 25150, "Ġslang": 42517, "Ġunderside": 49511, "oir": 9043, "Ġworth": 3163, "Ġgenere": 41553, "ĠSubscribe": 10611, "ìħ": 6961, "geben": 16702, "ĠdÃ¶": 26089, "Ġtud": 32602, "xture": 8890, "reme": 5301, "Ġformulation": 37642, "ĠÐ¿ÑĢÐ¸Ð´": 21255, "ĠÐ¿ÑĢÐ¾ÑĦ": 33011, "Ġreverb": 41829, "Ġfemme": 27427, "ophile": 49242, "íĤ¨": 37035, "ĠÐŀÐ¿": 45246, "ĠÐ´ÐµÐ¹ÑģÑĤÐ²": 17136, "Ġremedy": 31648, "ĠdÃ©p": 27998, "ĠWine": 39253, "Ġequations": 11787, "Ġanticipate": 21685, "Ġtuv": 38177, "ĠPerchÃ©": 47978, "ierra": 17452, "Des": 29543, "Ġduel": 36296, "Ġdaha": 10545, "Ġkop": 28920, "ÑıÑĩ": 47832, "Ġtrap": 11487, "Ġ×Ķ×¢": 26507, "Ġenergies": 25737, "ĠIm": 4331, "Ġthereby": 28281, "<|ht|>": 50339, "<|20.02|>": 51365, "nahmen": 24221, "Ġpee": 21343, "Ġreluctant": 33677, "Ġinherit": 21389, "à®ķà®³": 15094, "Ġtáº¡i": 37773, "<|29.92|>": 51860, "ĠÑĢÐ¾Ñģ": 44935, "ç¶": 9261, "production": 40827, "inaÃ§Ã£o": 40788, "×¢": 7924, "Ġmemorize": 27478, "Ġconviction": 24837, "Ġprovisions": 25034, "Ġflap": 30781, "atsÃ¤chlich": 19579, "ëĲľ": 27930, "Ġtil": 8440, "kÃ¶": 34990, "Ġcorrupted": 39480, "Ġwillkommen": 46439, "Ð¾ÐºÐ°": 20296, "Ġbunu": 18155, "ĠFull": 13841, "ĠDass": 22306, "Ġliber": 6774, "High": 40185, "Ġãģĵãģ®": 35421, "Ġdreamed": 26726, "Ġrecru": 9372, "Ġspec": 1608, "Ġ1600": 36885, "Ãºsica": 14372, "aug": 20056, "ĠÐĺÐ½": 27222, "ĠÑĩÐµÑĤÑĭ": 39644, "ved": 937, "Ġsurrounded": 13221, "erel": 39796, "WW": 44048, "ĠNast": 42185, "Ġvisited": 11220, "ĠÐľÐµÐ½Ñı": 47311, "Lo": 31645, "ĠÅ¼e": 3561, "Ð»ÐµÐ½Ð¸Ñı": 17881, "ĠTreat": 20298, "Ġê³¼": 17590, "Ġendors": 37676, "nae": 45362, "Ġinv": 1048, "æİ¥": 14468, "Ġquindi": 15727, "Ġconvinced": 12561, "ĠÎ±Îº": 40822, "Ġupon": 3564, "Ġsugg": 3395, "Ĥ¨": 30856, "Ġpunish": 9842, "Ð´ÐµÐ»": 7946, "Ġthr": 739, "ĠMoses": 17580, "...'": 42327, "ĠBishop": 30113, "ĠXuan": 45292, "ĠInternal": 47836, "<|9.00|>": 50814, "<|15.54|>": 51141, "ĠschÃ¶n": 13527, "lest": 35745, "<|28.24|>": 51776, "Ġfood": 1755, "į": 235, "ĠAzer": 32580, "Ġcringe": 47081, "cht": 4701, "Ġdirig": 35243, "Ġcompact": 14679, "ĠMercedes": 22899, "Ġtorn": 10885, "Ġcá»©": 46619, "<|23.62|>": 51545, "Ol": 38056, "Ġadminister": 22096, "zag": 43886, "ĠPutin": 19818, "Ġjoking": 17396, "Ġassassin": 36294, "Ã¤tter": 41033, "ĠCongressman": 38071, "Ġì¢": 3340, "ics": 1167, "ĠEthi": 29380, "arel": 37675, "Ġtonnes": 41402, "Ġrat": 5937, "Ġantib": 11533, "Ġovert": 17038, "isis": 28436, "Ġbehaviors": 15501, "ba": 4231, "Ġplais": 29286, "Ð¾Ð´Ñĭ": 40445, "Ġadapter": 22860, "ĠmatÃ©ri": 45731, "buds": 36608, "ĠÃ´": 24107, "ÑģÑĤÐ°": 11459, "Ġsilent": 12784, "Ġfeels": 3417, "ĠÑģÑĤÐ°ÑĤÑĮ": 36415, "Ġplanes": 14952, "ìĤ¬": 5727, "ç¸½": 26575, "Ġnegotiated": 39028, "Ġcares": 12310, "ĠPrior": 24032, "Ġgrowth": 4599, "Ġfascinating": 10343, "ĠMalaysia": 25465, "zÄħd": 23876, "Ġblunt": 32246, "Ġec": 11437, "å¥½åķ¦": 33036, "´ìĹĲ": 19086, "Ġoptional": 17312, "Ġnews": 2583, "Ġvinegar": 18030, "Ġpickles": 38910, "Ġcorners": 12413, "ĠMoz": 30208, "Ġprinces": 41536, "che": 1876, "Ġlibr": 4939, "ĠPang": 49499, "Ġauthenticity": 34215, "çį": 29057, "LA": 11435, "Ġmelod": 32834, "lifting": 34724, "haul": 39423, "others": 5750, "ĠFat": 16948, "<|10.24|>": 50876, "iantly": 42580, "Ġnella": 23878, "slow": 32008, "ĠpasÃ³": 41382, "ĠCircuit": 36939, "ĠeuropÃ©": 32055, "inder": 5669, "Ġì²Ń": 24902, "Ġ×ŀ×ª": 30221, "Ġcontrario": 47642, "Ġrecording": 6613, "Ð³Ñĥ": 28264, "Ġara": 15186, "Ġyan": 17700, "Ġvull": 45977, "vous": 16514, "ĠÐ©": 42373, "èµ·ä¾Ĩ": 21670, "ĠRen": 12883, "ĠSuff": 40178, "<|4.38|>": 50583, "Ġcrowded": 21634, "Ġsectors": 18373, "lere": 29904, "ĠCelt": 44591, "utter": 9947, "Ġescapes": 43769, "Ġmaintenant": 14817, "egan": 43118, "ç·": 12608, "ĠAdding": 31204, "Ġë§ĲìĶ": 20797, "Ġwrong": 2085, "ĠLibrary": 12806, "ÐĶÐ°": 15839, "lim": 4197, "Ġsalah": 41688, "ĠÐ½ÐµÐ¹": 23227, "ÐļÐĲ": 20869, "Ġtres": 15890, "Ġassisting": 40368, "ĠChev": 44236, "Ġmol": 8015, "Ġprevalence": 42583, "Ġìĺ¤": 5175, "Ġextr": 16455, "Ġinnovations": 24283, "AL": 3427, "ĠOrth": 27554, "Ġempezar": 31168, "ĠStress": 38258, "Ġfilos": 46045, "Ġprincipe": 47656, "Ġmange": 30465, "Ġpontos": 30676, "æ£Ĵ": 23514, "Ġclap": 20760, "MAN": 11866, "ĠÐºÑĢÐ°": 38585, "Ġdestro": 15311, "Ġcongr": 8882, "ATION": 22528, "ĠYong": 20085, "standen": 33946, "Ġproduction": 4265, "Ġcelle": 25722, "Ġwielu": 40437, "Ġsplend": 34350, "ĠEy": 23236, "ĠMP": 14146, "ĠForbes": 45950, "Ġast": 5357, "ĠfÃ©": 34271, "ĠSami": 44029, "Ġë§Į": 14671, "Ġcontained": 16212, "ued": 5827, "ĠAgre": 29324, "Ġarrib": 21620, "ĠEnfin": 35861, "ĠGut": 24481, "ĠÐ·Ð°Ð¼ÐµÑĤ": 36124, "funded": 43589, "Ġlev": 20445, "ĠëĮĢíĳľ": 37970, "Ġbom": 7957, "Ġwilt": 45357, "Talk": 33210, "ĠHAS": 38461, "Ġdoubt": 6385, "èĸ": 27746, "ĠStorage": 36308, "ĠCHAN": 39235, "ŀĸ": 47812, "ĠRTX": 44573, "Ġthirst": 34846, "Ġpoetic": 41080, "Ġimplemented": 12270, "ìķ": 1457, "Ġkinda": 4144, "ĠÐ°ÐºÐºÑĥ": 49381, "OOK": 24213, "Park": 37905, "Ġsubst": 4594, "Ġelevation": 25827, "Ġcoun": 3465, "Ġobst": 9579, "Ġjars": 38239, "enschaft": 20996, "Ġsignal": 6358, "Ġdamages": 28536, "Ġdizendo": 47026, "ĠAbby": 27726, "Ġfamiliar": 4963, "ĠProm": 15833, "fect": 1836, "Ġmetaphor": 19157, "Ġrecurs": 20560, "ĠMaker": 35096, "Ġcasi": 22567, "ÑĪÐ¸Ðµ": 35202, "Ġlegitimately": 44431, "ĠteÅ¼": 9516, "fall": 6691, "act": 578, "Ġhiking": 23784, "Ġhaz": 11008, "assumed": 45714, "ĠPHP": 47298, "ĠÐ¤": 13196, "Ð°Ñİ": 3776, "stanbul": 43928, "Ġtyr": 41108, "ìĹ°": 11557, "ĠBO": 22785, "Ġknowledgeable": 33800, "Ġverlier": 49331, "ĠÐ´Ð°Ð»ÐµÐµ": 38978, "Ã¡g": 21099, "Ġloved": 4333, "atell": 10810, "Ġisto": 35835, "Ġpickup": 25328, "ĠChili": 45624, "Ġlots": 3195, "ĠMur": 9373, "ãģłãģķãģĦ": 24034, "ãĥķ": 17320, "ĠFay": 48889, "mac": 37065, "ker": 5767, "íĹ": 16653, "ĠdaÃŃ": 48113, "ĠSaaS": 49733, "Ġneighbour": 19755, "ĠÃ¥t": 39502, "RIS": 9698, "ĠInnen": 43617, "ĠBor": 13739, "Ġostr": 44024, "Ġinsec": 18851, "iÃŁ": 6230, "Ġcommenting": 29590, "Ġvanished": 37518, "Ġexpelled": 44368, "Ġnorthern": 14197, "ãĥĻ": 45290, "ĠPsal": 26150, "Ġhilft": 42493, "arted": 47350, "ĠBeruf": 36688, "Ġsegu": 8878, "ĠiPad": 12945, "Ġenclosure": 34093, "Ġelimin": 7892, "ĠSisters": 43166, "Ġcasts": 41921, "Ġê·¸ëłĩ": 13773, "Ġsurve": 11463, "hun": 42898, "Ġvit": 9467, "ĠVA": 18527, "ĠogsÃ¥": 23864, "ĠEnterprise": 26696, "Ġappreh": 38675, "Ġtaste": 3939, "ĠKurd": 32305, "ce": 384, "Ġkoll": 44693, "Ġwrest": 12591, "ĠObs": 20707, "Ġhighlighting": 26551, "Ġmanus": 21550, "ĠRoc": 32661, "Ġgesagt": 12260, "Ġbeans": 12010, "ĠStraight": 26908, "Ġterminal": 14709, "ĠNexus": 46559, "Ġpistol": 25385, "Ġdictatorship": 44349, "Ġdisagre": 23926, "Ġëĸ": 13320, "Ġmoves": 6067, "ĠRound": 18525, "ĠHasan": 46513, "ĠBian": 39509, "ĠÐ²ÑģÐµÑħ": 17260, "Ġtrivial": 26703, "zuge": 46285, "ł": 254, "Ġextrater": 43324, "Ġprol": 24398, "Mus": 22088, "ĠÑģÐ¼ÑĭÑģ": 44045, "Ġawe": 30912, "Ġìĺ¬ëĿ¼": 22327, "Ġdrift": 19699, "squ": 33292, "vt": 49297, "Ġcoule": 33644, "Ġstandard": 3832, "Ġbulk": 16139, "ensation": 35292, "ushima": 49754, "apt": 2796, "Ġoccasion": 9674, "Ġmarried": 5259, "Ġmasses": 23935, "MP": 12224, "ÙĪÙħ": 20498, "Ġgranny": 44797, "ĠMeng": 29090, "Ġmerged": 36427, "ĠTin": 47741, "chas": 41299, "à¥Ī": 43372, "Ġfoss": 14090, "yba": 28375, "ÐµÐ½Ð¸": 2495, "Ġdwarf": 35527, "Ġstandardized": 31677, "ĠNicht": 22629, "Ġrevealed": 9599, "Ġminorities": 30373, "kek": 41888, "ĠMimi": 46709, "igner": 36596, "Ġcamb": 18751, "atl": 48630, "Ġusu": 32247, ",,": 20387, "Ġtryin": 47452, "âĢĳ": 27392, "thought": 43135, "Ġlowering": 28124, "Ġsafer": 15856, "ĠëĿ¼ë": 44831, "ĠKoreans": 32130, "Ð¸Ð½Ñĭ": 18835, "<|8.94|>": 50811, "Ġwakes": 29610, "Ġrethink": 34595, "ãģ£ãģ": 32918, "ĠClearly": 24120, "Ġmente": 26577, "å¥½ä¸įå¥½": 34291, "ilty": 11544, "fol": 7082, "Ġcontinental": 42479, "ĠNew": 1873, "Ġgrip": 12007, "atos": 26818, "Ġeye": 3313, "oop": 15812, "display": 35238, "Ġescaped": 20397, "umer": 15583, "Ġdevast": 13959, "Ġregarding": 8595, "Ġexec": 4454, "Ġranging": 25532, "²Ķ": 38700, "ĠSalesforce": 40398, "Ġbitches": 42094, "Ġì§": 2334, "ĠCreo": 40640, "Ġtelling": 3585, "ÐµÐ½Ð¾": 23512, "æľĭåıĭ": 19828, "ÐĿÑĥ": 20058, "Ġchip": 11409, "ìĸ¸": 31155, "<|7.10|>": 50719, "<|16.24|>": 51176, "<|1.52|>": 50440, "Ġwanna": 1948, "Ġcorrupt": 17366, "Ġherd": 29484, "Ġthinly": 47337, "enza": 23691, "ĠÃªtre": 7418, "ried": 2428, "Ġremind": 4160, "ĠOder": 20988, "Ġshaded": 48067, "Ġsize": 2744, "Ġzg": 40948, "Ġëª¨ë": 8941, "ĠllegÃ³": 46182, "ĠInstagram": 5281, "Ġcen": 27900, "ĠrÃ©fl": 48438, "Bob": 22547, "Ġproviders": 11330, "Ġstat": 2219, "Ġsneaky": 39518, "Ġakl": 43380, "Ġasset": 11999, "ĠNation": 17095, "ĠNebr": 26733, "<|17.76|>": 51252, "ĠPuis": 30033, "Ġdecades": 7878, "Ð¸Ð²Ð°ÑĤÑĮ": 20566, "ĠBoard": 10008, "Ġtackling": 34415, "natural": 16296, "ĠVia": 49232, "Ġdesses": 36409, "ĠÐ¾ÐºÐ¾Ð»Ð¾": 40573, "amÄ±": 48688, "ĠÑĢÐ¸Ñģ": 31393, "prof": 29175, "Ġlogistics": 27420, "<|startoftranscript|>": 50258, "ĠMilan": 32874, "Ġhitch": 33259, "Ġincorporating": 33613, "alam": 23819, "ĠÐ¼Ð½Ð¾Ð³": 22287, "ĠEstÃ¡": 27304, "ĠëĦ": 3214, "!)": 5700, "Care": 41394, "itarian": 13707, "ĠMuss": 43879, "Ġyhte": 44876, "Ġconspiracy": 20439, "ĠPearl": 24639, "ĠolmuÅŁ": 32548, "Sha": 23429, "Ġì¸¡": 41696, "Ġsuppliers": 29467, "Ġsalary": 15360, "Ġrains": 27805, "system": 28215, "ì³": 20688, "Ġdau": 37359, "Ġboyfriend": 11457, "aus": 8463, "Ġsusceptible": 31249, "emie": 32163, "Ġcash": 6388, "idences": 41298, "STA": 28075, "Ġreactors": 41649, "Ġdominance": 34987, "ĠSchluss": 36573, "Ġterms": 2115, "ĠÑĨ": 5188, "Harry": 47304, "Ġwhenever": 5699, "Ġpuis": 9093, "ĠLet": 961, "ĠMOO": 49197, "ĠlÃŃnea": 37452, "ĠReports": 45910, "ĠTrust": 11580, "ĠProtocol": 48753, "ĠNations": 16459, "ĠDAN": 15331, "ĠÐ¾ÑĩÐµÑĢ": 33102, "lining": 31079, "ĠNash": 25012, "ĠLyn": 15214, "Ġatoms": 16871, "Ġ2005": 14394, "ĠÑĤÐ°ÐºÐ¶Ðµ": 16584, "Ġwool": 24181, "Ġsuppression": 36807, "Ġsturdy": 31506, "ĠWHY": 32720, "Ã¼st": 44244, "Õ¡Õ": 23279, "Ã§u": 35708, "Ġfunctional": 11745, "uga": 19364, "Ġcens": 19019, "Michael": 23277, "Ġassign": 6269, "great": 40753, "da": 2675, "Ġfolk": 15748, "<|1.76|>": 50452, "Ġfast": 2370, "urger": 26880, "tech": 25970, "watch": 15219, "ĠPhill": 18433, "umsy": 41965, "Ġpren": 43149, "Ġpasst": 37154, "Ġì¢Ģ": 6796, "ĠFrage": 13685, "ĠBeing": 8891, "Ġkidneys": 35994, "?-": 38337, "ups": 7528, "Ġoverview": 12492, "Ask": 47802, "Ð£": 11887, "ç»ĻæĪĳ": 49076, "à¸ļ": 10196, "BC": 7869, "Ġaffili": 14863, "ĠConvers": 33247, "åł´": 21446, "Ġillustration": 22645, "ivan": 24193, "Ġë§ī": 14438, "ĠÂ»,": 34319, "<|13.78|>": 51053, "Ġrhin": 49030, "Ġlum": 24635, "ĠToni": 41374, "pad": 13647, "Ġsuchen": 44470, "Ġchunk": 16635, "Ġscenarios": 15077, "Ġjuices": 37027, "ĠVul": 41434, "ĠkÃ¼": 24572, "éĢı": 45808, "Ġdownhill": 29929, "uyu": 42694, "Ġelector": 45948, "Ġou": 2820, "Ġê³łìĸĳ": 48105, "Ġfounding": 22223, "Ġpledge": 26819, "ĠEm": 3968, "ĠEditor": 24281, "Ġgdy": 28405, "Ġimmer": 5578, "Ġhits": 8664, "ĠSafari": 43820, "Ġdesenvol": 28683, "Ġyea": 24796, "Ġrecognizable": 40757, "iÄĻdzy": 49485, "Ġhigher": 2946, "issant": 29492, "ÑģÑĤÑĢÑĥ": 23462, "ĠëĤ": 2079, "Ġspinach": 27784, "ĠksiÄħÅ¼": 39311, "Ġcorrection": 19984, "ero": 2032, "ĠPhotoshop": 20821, "ãĤįãģĨ": 39679, "']": 48038, "ĠÐ´Ð¾ÑģÑĤÐ¸": 46630, "Ġcontempl": 19935, "ĠTB": 29711, "Ġbert": 50098, "èĥ¡": 43861, "uetooth": 17281, "uÃ©s": 12430, "ãĢľ": 17583, "íĳ": 36132, "ĠSod": 42059, "©´ì": 41735, "ALD": 35502, "Ġregulate": 24475, "ë§Ĳ": 11023, "ĠDespuÃ©s": 40995, "ĠCur": 7907, "Ġpulling": 8407, "<|19.60|>": 51344, "lined": 13564, "æ§": 24880, "Ġentries": 23041, "Ġordered": 8866, "ĠÐ¸Ð½ÑģÑĤÑĢÑĥÐ¼ÐµÐ½ÑĤ": 44572, "Ġshap": 6706, "Ġworked": 2732, "éģİ": 8816, "jar": 10150, "ĠDul": 50115, "çļĦè©±": 21358, "ĠMiranda": 37000, "Ġflaps": 50065, "Ġrelatives": 18201, "Ġhealing": 9745, "Ġlimitations": 15705, "umbing": 34236, "ÑĥÐµÐ¼": 33096, "ĠTrevor": 26245, "ĠEmail": 49482, "ĠJava": 10745, "pp": 427, "ĠÄĲ": 13055, "Ġpossono": 43857, "ĠMIDI": 41474, "Ġoverwhelmed": 19042, "Ġremix": 47788, "à¤¨": 35082, "ÑĥÐ³": 22638, "Ġspur": 35657, "Ġexcel": 24015, "Ġtension": 8980, "wszy": 30012, "Ġyep": 18633, "ĠContinuing": 47585, "Ġì§Ģë": 12205, "ìĪĺ": 8449, "ĠTyl": 49286, "å°įåķĬ": 17813, "Ġsubmissions": 40429, "Ġtechnical": 6191, "Ð¸Ð½Ð°": 7861, "Ġmilliseconds": 34184, "undai": 43014, "ĠHistor": 25108, "Ġbare": 6949, "Ġcoordinator": 27394, "Ġmoisture": 13814, "Ġpersonality": 9033, "<|15.20|>": 51124, "ĠkiÅŁi": 47462, "ĠSenhor": 43792, "¡Ģ": 42229, "ì§Ģê°Ģ": 30232, "æį": 26075, "Ġmolta": 48564, "rimin": 16796, "Ġhugely": 27417, "Ġangel": 14250, "ĠCup": 13751, "ÎµÎ¹Î±": 41198, "Ġconceal": 40170, "Ġviver": 46280, "Ġmejorar": 48858, "Ġsnap": 13650, "Ġainsi": 26552, "Ġadore": 32060, "33": 10191, "Ġchemotherapy": 39238, "ĠOwn": 25964, "Ġcontagious": 40666, "ĠnÃ³i": 27508, "Ġdiameter": 14196, "Ġbored": 13521, "Ġconjunto": 37776, "ĠÐ½Ð°ÑģÐºÐ¾Ð»ÑĮÐºÐ¾": 49635, "Ġdialog": 19308, "ĠGORDON": 35269, "Ġfirefighters": 37218, "Ð¾Ð½Ð´": 47720, "Ġ×Ļ×Ľ×ķ×ľ": 37608, "Ġjustify": 20833, "ãģįãģ¾ãģĻ": 22851, "Ġotherwise": 5911, "over": 3570, "rim": 5565, "Ġenvironments": 12388, "ana": 2095, "Ġrempl": 36576, "ĠNich": 17102, "Ġblessing": 13869, "utes": 1819, "èģ½": 21524, "ĠìĹĨìĸ´": 28715, "rete": 7600, "ordable": 36793, "Ġbodily": 39576, "kan": 5225, "ĠRosen": 33630, "Ġeasy": 1858, "Ġproportion": 16068, "ĠEverybody": 7646, "Ġguilt": 20421, "ĠÐ¿Ð¾ÑģÐ¼Ð¾ÑĤÑĢÐ¸Ð¼": 42293, "Ġconcluded": 22960, "Ġpresentations": 18964, "Ġcloudy": 33060, "Ġê¿": 28529, "emand": 18941, "ĠÐ´Ð°": 8995, "ĠkÃ¤yt": 49313, "ĠSco": 27682, "ĠBrexit": 24480, "Ġmisery": 32309, "Ġexclusion": 33049, "ç¼": 38109, "rock": 17799, "Ġrunway": 26642, "ĠBasically": 8537, "itives": 38970, "Lee": 39548, "§Į": 6478, "ĠBeyond": 19707, "Ġprem": 5624, "ĠProgramm": 48244, "ĠElliot": 38986, "ÙĪÙģ": 38688, "ener": 7971, "Ġon": 322, "<|0.04|>": 50366, "onst": 4068, "Ġaims": 24683, "Ġresposta": 42126, "Ġinfluenza": 36408, "ÑĢÐ°ÑĦ": 19092, "Ġrah": 23490, "Ġconcer": 16311, "Ġdeath": 2966, "Ġpending": 32110, "*": 9, "anced": 4864, "Ġlookout": 41025, "ĠÐºÐ°ÑĩÐµ": 28595, "ĠTakes": 44347, "×ķ": 1430, "Ġsports": 6573, "assador": 16827, "Ġexert": 31941, "Ġdrinks": 12142, "ĠStamp": 48011, "Ġsuppress": 26835, "Ġpersonajes": 43960, "arner": 22916, "Ġeru": 20999, "ielt": 18940, "Ġhorrible": 9263, "Ġmermaid": 43146, "Ġearthly": 46262, "Ġdato": 46971, "atique": 20728, "Ġwillen": 35830, "Ra": 41873, "violent": 48473, "ĠWise": 46933, "raÃ§Ã£o": 37864, "ĠMommy": 24602, "ĠKon": 12718, "Ġkommt": 10047, "Ġselecting": 18182, "Ġestimates": 20561, "Ġmum": 14697, "Ġfaithful": 17808, "Ġextra": 2857, "ĠMarriage": 49593, "Ã©tÃ©": 21210, "Ġinfused": 50083, "ĠZelda": 25298, "Ð°ÑİÑĤÑģÑı": 15955, "faced": 48691, "Ġoffline": 21857, "<|6.24|>": 50676, "Ġpercent": 3043, "Ġwatt": 31556, "ĠBER": 42488, "Ġsell": 3607, "Ġconsciousness": 10081, "Ġflagship": 30400, "Eu": 37611, "ĠBree": 49188, "Ġfellowship": 24989, "Ġbraucht": 22623, "pee": 39544, "ĠEnsuite": 37366, "ligen": 35158, "Ġinhib": 20406, "ĠSecretary": 9126, "Ġë§Ŀ": 46490, "Ġchampionships": 41433, "Ġdifficile": 26607, "fruit": 33564, "Ġfarming": 16557, "Ġabge": 37301, "ĠÐ³Ð¾Ð´": 9182, "Ġsentir": 23963, "ìĸ´ë¥¼": 47487, "ĠChemical": 42754, "Ġprote": 5631, "ĠÐ½Ð°Ð±Ð»ÑİÐ´": 47147, "Ġorth": 19052, "ÙĪØ¯": 23328, "ĠÐĿÐ°Ð²": 46929, "edd": 38786, "aped": 18653, "Ġfire": 2610, "EEP": 32810, "Ġgates": 19792, "Ġcertific": 12378, "ids": 3742, "Ġlawmakers": 40988, "Ġ1900": 28898, "<|ru|>": 50263, "arium": 19612, "Ġathletic": 22496, "âĢĮ": 47807, "Ġformer": 5819, "leans": 24008, "Ġunstable": 23742, "wny": 43682, "ĠStarted": 39715, "jek": 27023, "ĠktoÅĽ": 32982, "ĠElmo": 38722, "Ġsilicon": 22848, "Ġdislike": 26006, "Ġ1400": 46795, "akter": 33557, "Ġbeaucoup": 8796, "ĠÑģÐ¾Ð¾Ð±Ñī": 40626, "Ġsmall": 1359, "Ġosob": 41518, "uding": 33703, "Ã©rÃ©": 29071, "antics": 45298, "omial": 47429, "Î¿Ïį": 14940, "ĠST": 4904, "<|22.82|>": 51505, "ĠCompletely": 39978, "ĠSafe": 27030, "<|6.44|>": 50686, "ĠÐ¿Ð¾Ð²ÐµÑĢÑħ": 44397, "erving": 20186, "Ġmiles": 6193, "Ġãģĭ": 25295, "Ġthousands": 5383, "ĠExercise": 44307, "og": 664, "ĠTheory": 29009, "Ġsilhouette": 38275, "CHUCK": 40308, "acam": 47190, "Ġpone": 40192, "Ġfrequent": 18004, "Ġondan": 49228, "Ġrehe": 14369, "founder": 33348, "Ġìĸ´ì": 11474, "è¿Ļä¸ª": 15368, "ĠRAW": 40539, "Ġimportantly": 8906, "ĠNom": 31272, "ĠEvet": 16729, "Form": 49855, "Ġeverybody": 2201, "urities": 21973, "ĠSoftware": 27428, "Ġyap": 6143, "ĠLÃ¤nder": 43441, "¶Ħëĵ¤ìĿ´": 40389, "Ġmultiplying": 30955, "å¹¹": 29932, "ÂŃ": 47781, "Ġarriver": 34142, "irse": 36097, "bÃ¼r": 49057, "æĢ": 3757, "Ġvain": 22240, "place": 6742, "ĠLondon": 7042, "Ġpaste": 9163, "Ġviewers": 8499, "Group": 48711, "ĠdÃ¼ÅŁÃ¼n": 21755, "Ġpayments": 14348, "ĠDetroit": 20887, "2020": 23095, "Ġdisbel": 36105, "Ġsemaines": 40715, "liers": 23646, "Ġsamh": 49864, "ĠHao": 36702, "Ġlikewise": 32407, "Ġëĵ¤ìĸ´": 12900, "ľ¨": 34057, "apor": 13345, "rows": 28251, "ĠDamen": 21131, "fter": 828, "Ã¤tze": 30179, "Ð½Ð°Ñĩ": 14272, "encing": 13644, "ula": 3780, "Ġcrypto": 17240, "arr": 2284, "Ġcot": 26529, "çµĤ": 29371, "ĠOF": 11944, "Ġoptimistic": 19397, "Ġpendulum": 44103, "ĠspÃ©cial": 34141, "Ġtwisting": 34491, "ĠGeorgetown": 34848, "Ġpublicity": 37264, "Ġexaggerated": 36196, "ĠPAT": 31485, "ĠHAVE": 30309, "Ġpores": 30082, "itures": 41869, "Ġ1930": 22350, "Ġadvertisement": 31370, "ĠDepending": 22539, "If": 8031, "Ġmob": 4298, "ìĭľë©´": 19722, "ÑĢÐ°Ñħ": 25689, "Ġpars": 21156, "Ġ×ŀ×¢": 34413, "ĠSister": 14145, "ĠRight": 1779, "Ġestre": 36665, "ÙĦÙī": 23942, "cek": 12135, "Ġleagues": 48429, "ĠÑģÐµÑĢÑĮÐµÐ·": 47065, "¤ë¥¼": 38309, "izi": 24300, "<|6.14|>": 50671, "<|29.82|>": 51855, "<|29.02|>": 51815, "performance": 50242, "ĠÏĥÏĦÎ·": 23502, "ĠÐ¼Ð¾Ð¶ÐµÑĪÑĮ": 46442, "Ġoverd": 19853, "ãĥ¼ãĤĵ": 46601, "ĠRice": 19386, "ĠCut": 9431, "Ġwszystkie": 31723, "Ġtractor": 31857, "Ġstage": 3233, "rospect": 28713, "Ġleaf": 10871, "Ġairline": 29528, "Ġcredible": 32757, "Ġconstruir": 38445, "ÑĥÐ»Ñı": 20427, "Ġdoing": 884, "ĠAaah": 48381, "ppen": 21278, "Ġinclusion": 15874, "Ġsensor": 10200, "ĠQueens": 18414, "Ġbekannt": 39167, "<|28.80|>": 51804, "fel": 29874, "<|3.52|>": 50540, "ĠOtt": 24243, "Ġreply": 16972, "ĠYoon": 27893, "Ġconveyed": 49340, "Ġfreshman": 22154, "Ġgenerate": 8460, "Ġgrounded": 23535, "ĠÐ¿ÑĢÐ¸Ñģ": 26686, "Ġfacts": 9130, "pra": 43255, "Ġeducational": 10189, "Sc": 16806, "Ġfirefight": 25256, "Ġconven": 7158, "Ġrecorded": 8287, "Ġvur": 40797, "Ã¼nÃ¼z": 38740, "Fre": 47537, "Ġnar": 6714, "Ġìĺ¤ì¼ĢìĿ´": 30567, "Ġpremises": 34266, "Ġcorrelated": 38574, "Ġmerch": 12618, "Ġrescue": 13283, "Ġcontar": 27045, "!]": 7003, "Ġstumble": 41302, "ĠBella": 29133, "Ġgenerals": 41346, "ĠvardÄ±": 36339, "Ġbecome": 1813, "Ġexplicit": 13691, "Ġimaginar": 49048, "ĠTRAVIS": 12317, "Ġpocz": 26423, "Ġpess": 35895, "ĵ¤ìĿĺ": 29990, "ĠAb": 2847, "Ġunpre": 19237, "ĠWelt": 14761, "ins": 1292, "Ġconcur": 23702, "icide": 9584, "Ġë§Įë": 8165, "Connell": 37335, "ĠSne": 41336, "ĸ´": 25982, "ĠÐ¸Ð³ÑĢÑĭ": 36183, "Ġbriefly": 10515, "Ä±ldÄ±": 46767, "Ġawake": 15994, "ĠÐ¾ÑģÑĤÐ°Ð½Ð¾Ð²": 44367, "Ġproyect": 23832, "Ġstickers": 21019, "Ġreminders": 43458, "Ġparked": 28491, "ÉĻ": 7250, "ental": 14533, "à¹ĥà¸Ĭ": 43880, "ĠSmash": 25768, "ĠOS": 12731, "endre": 37850, "Ġrods": 32761, "Ġï": 25072, "Ġdevotees": 46960, "akov": 39879, "ìłķìĿĦ": 32913, "ĠÐĿÐ°Ð¿ÑĢ": 36552, "Ġaddiction": 16835, "ê±°ë¥¼": 30507, "Ġinstead": 2602, "ĠBloom": 25927, "°ľ": 17248, "Ġëĸł": 43687, "aÃ§Ã£o": 6670, "ĠìŀĪìŀĸìķĦìļĶ": 38853, "\"-": 34370, "Ġremar": 34329, "ÑīÑĳ": 12534, "à¸ľà¸¡": 48968, "ĠìķĦëĭĪìĹĲìļĶ": 30809, "ĠNiagara": 45123, "ĠDelta": 18183, "Ġcomes": 1487, "Ġminded": 36707, "å¼ı": 27584, "Ð°Ñģ": 2019, "Ġrefusal": 48948, "Ġsobre": 5473, "<|22.74|>": 51501, "<|5.14|>": 50621, "lee": 14238, "Ġproc": 9510, "ÑĭÐ¼Ð¸": 24670, "Ġcovered": 5343, "ĠPlease": 2555, "Ġthermal": 15070, "Ġlight": 1442, "Ġjaws": 44942, "Ġquir": 35645, "Ġcosmos": 41794, "Ġconclusions": 22865, "Ġvolunteered": 41213, "<|transcribe|>": 50359, "Ġsignature": 13397, "ì´Ī": 27005, "riel": 16721, "Ġmeasured": 12690, "ĠLook": 2053, "ĠEn": 2193, "Ã¼ck": 6536, "Ġshit": 4611, "ç¾İåľĭ": 21228, "Ġdonner": 20882, "Ġdiyor": 17587, "ĠÎ»": 15015, "itors": 9862, "Ġespecial": 15342, "Ġabusive": 32828, "itious": 16401, "omics": 29884, "ÑģÐºÐ¸": 47399, "Ġãģ®": 21171, "Ġacts": 10672, "Ġeles": 10244, "ĠXML": 43484, "ÑĥÐ·": 15687, "ĠZhen": 27042, "Ć": 194, "neo": 42164, "gasps": 22901, "ĠFern": 16675, "Ġusa": 29909, "ĠÐºÐ¾ÑĢÐ°Ð±": 42830, "°°": 30141, "voy": 35176, "Ġlantern": 34031, "Ġkein": 13424, "Ð½Ð°ÐºÐ¾Ð¼": 45051, "Ġarose": 37192, "Ġíķľ": 4815, "ividad": 33490, "av": 706, "Ġoutside": 2380, "Ġmeinen": 22738, "Script": 14237, "ĠHour": 38369, "Ġhorses": 13112, "Ġnoise": 5658, "èĪŀ": 32721, "Ġë¶Ģë¶ĦìĿ´": 47820, "Ġdogs": 7197, "Ġcollection": 5765, "¸Į": 21934, "czne": 38491, "Ã¡d": 32512, "Ġdi": 1026, "liches": 45502, "Ġfic": 14591, "ĠGolf": 30176, "Ġpole": 13208, "aisse": 40714, "reh": 9017, "ĠAV": 30198, "Ġwan": 46930, "ĠÐ´Ð²Ð°": 18505, "èĢĮå·²": 48420, "Ġpue": 26990, "ê²Į": 1810, "ĠÐ½Ð¸Ñħ": 14319, "ĠCinderella": 47980, "Ġfont": 10703, "Ġgam": 8019, "ĠGong": 33231, "Ġuniqu": 20763, "ĠLOU": 49486, "ĠAudience": 23517, "chluss": 41372, "Cor": 29020, "Ġmanufacturers": 18455, "<|18.12|>": 51270, "æģĲ": 47848, "ĠAtl": 11000, "ĠEck": 46354, "áºŃt": 25296, "<|30.00|>": 51864, "icular": 14646, "paper": 22104, "Ġsama": 17768, "acciÃ³n": 49354, "Ġinterfering": 48721, "ĠGlo": 10786, "Ġdecide": 4536, "Ġsequencing": 32693, "æİ": 6900, "çħ§": 32150, "Ġaula": 41642, "ÑĢÐ¾": 9938, "Ġtota": 40066, "Ġvarying": 22984, "Ġcertificate": 15953, "ãĥ©ãĤ¤": 40230, "ĠÐ°Ð½": 17086, "Ġlatter": 18481, "Ġmuita": 21025, "Ġlive": 1621, "Ġmaster": 4505, "Ġintrodu": 2814, "Ġvery": 588, "isto": 9334, "viv": 27810, "Ġguardians": 40525, "Ġsales": 5763, "<|6.48|>": 50688, "Ġì¢ĭëĭ¤": 44891, "ĠFound": 8207, "Ġgoed": 16987, "Ġbrutal": 17878, "Ġsenses": 17057, "Acc": 47943, "Ġrealistically": 40734, "Ġbomb": 7851, "Ð½Ð¸ÐºÐ¸": 18994, "ĠmÃły": 45464, "Ġwhirring": 36861, "Ġdigit": 14293, "Ġoste": 42804, "ĠNothing": 6693, "Ġdus": 14284, "Ġwooden": 14744, "FT": 25469, "cert": 48999, "ÑıÑī": 16076, "<|21.12|>": 51420, "Ġtrust": 3361, "ĠSpring": 14013, "Ġunterwegs": 36258, "Ġolla": 26876, "Ġmakan": 46616, "ĠCommonwealth": 35295, "Ġdungeon": 27919, "Ġhus": 4788, "alition": 31897, "Ġscient": 3989, "Ġä¸į": 19021, "ĠìłľìĿ¼": 23090, "Ġcommercial": 6841, "Ġfaux": 36659, "Ġschedules": 28078, "Ġê²ĥìĿ´": 29665, "Ġders": 39636, "Ĭ¤": 19426, "Ġlyric": 42409, "arnt": 18045, "Ġjunior": 16195, "ĠAj": 25862, "ismus": 25327, "Ġhabitats": 42159, "ÙĬØ§": 25528, "Rem": 39170, "Ġcounselors": 36925, "ĠÑĢÐ°Ð½": 36463, "Ġinvis": 13308, "fort": 2728, "ĠChairman": 17866, "Ġrides": 20773, "hos": 17631, "phoria": 50107, "ÐµÐ²Ð¸Ð´": 44278, "ĠShaun": 49363, "Ġflawed": 38823, "Ġpersever": 29917, "Ġ100": 2319, "ĠìķĦëĭĪëĿ¼": 22948, "Ðķ": 10156, "ĠMoto": 37825, "ĠëŃĶê°Ģ": 20729, "Ġtablet": 14136, "ĠØ¹ÙĦÙĬ": 25894, "Ġdens": 24505, "ĠHab": 14225, "Ġalmost": 1920, "ĠChief": 10068, "Ġolun": 38084, "ĠëĲľ": 16975, "alk": 667, "ÐµÑĢÐ¾": 21146, "Ġgrants": 16101, "auen": 11715, "Ġformula": 8513, "ÑĮÑı": 14195, "ship": 5278, "Ġsuf": 46282, "ë§Ľ": 46798, "Ġincl": 37070, "<|14.60|>": 51094, "bil": 15384, "ĠÐ´Ð¾ÑĢÐ¾Ð³": 24365, "ĠJac": 9538, "ursed": 47267, "ĠDuo": 46123, "Ġbik": 26730, "Ġcanonical": 46491, "Ġstruct": 6594, "å¤§å®¶éĥ½": 46525, "<|9.84|>": 50856, "ĠìŀĪëĬĶëį°ìļĶ": 43550, "useum": 5816, "à¹ĥà¸«": 29878, "ĠØ·": 23032, "controlled": 49344, "ropy": 27514, "Ġairl": 18856, "Ġvouch": 31007, "bar": 5356, "Ġmilliards": 47382, "<|6.36|>": 50682, "amb": 2173, "Ġbasis": 5143, "plet": 14657, "duction": 40335, "ĠCurrent": 15629, "»Ĳ": 37191, "Ġgou": 21301, "Ġsiguiente": 25666, "<|6.04|>": 50666, "anal": 29702, "<|8.50|>": 50789, "Today": 27676, "Ġoffenses": 49765, "Ġlevant": 30612, "Ġco": 598, "Ġaquatic": 44020, "Ġimplies": 18779, "orum": 36543, "ĠíĬ¹ë³Ħ": 48735, "ĠPrem": 13011, "íĺ¸ë": 45706, "ĠBoys": 21963, "Ġ79": 32803, "Ġclearly": 4448, "ĠWindows": 8591, "Ġhi": 4879, "plane": 36390, "inker": 40467, "Ġcensorship": 40985, "immune": 49031, "Ġbaj": 23589, "Ġ1917": 42757, "Ġë¶Ī": 16285, "ĠPew": 30638, "ĠÐ»": 2344, "ãģ¨ãģĦãģĨãģĵãģ¨": 29502, "ĠPT": 35460, "ĠHold": 6962, "Ãºng": 16926, "Ġproblems": 2740, "afft": 29445, "Ġsugar": 5076, "Ġë§ĲìĿ´": 44276, "ê·¸ëłĩ": 40650, "ĠíĻľ": 42194, "ĠìĿ´ê±´": 21867, "Ġhopes": 13681, "ĠÐ±ÑĥÐ´ÐµÑĤÐµ": 46872, "Ġscratched": 40513, "ĠÃ§ocuk": 25216, "Ġgiorn": 36937, "ĠRussia": 6797, "Ġmieux": 20401, "Ġcortisol": 45618, "ìĿ´ì£ł": 27036, "Ġestablished": 7545, "ì§Ģ": 1831, "Ġoverlooked": 32269, "Ġbuilds": 15182, "Ġsplitting": 30348, "ithmetic": 41179, "Ġfits": 9001, "ĠØŁ": 45520, "ĠAlliance": 21859, "Ġjaar": 22579, "Ġà¹Ģà¸": 32922, "Ġclimb": 10724, "leased": 41087, "ĠÐ¿Ð¾ÑģÑĤÐ°Ð²": 28072, "inson": 14321, "Ġë°ĺ": 16396, "Ġcombine": 10432, "ĠÐ´Ð¾Ð³": 36056, "Ġëªĩ": 23628, "Ġsocied": 26445, "<|9.54|>": 50841, "Ġcumin": 40950, "Ġpace": 11638, "piano": 39892, "Ġscissors": 16066, "Ġcry": 3305, "Ð½": 489, "íĺ¼": 35731, "ĠBitte": 42890, "Ġ2001": 16382, "gia": 40550, "Ġtá»«": 26834, "ĠÐ¼": 1084, "pero": 49565, "Ġcaucus": 47950, "Ġpassion": 5418, "×ĸ×Ķ": 23828, "Ġhands": 2377, "Ġvem": 19053, "ĸ": 244, "Ġcaveat": 43012, "ĠìķĦë¬´": 30702, "ĠBesch": 30860, "ĠJup": 22125, "Ġscarce": 41340, "Ġaqueles": 49831, "rue": 41729, "Ġfried": 10425, "ĠKait": 45791, "Ġíķĺê²Į": 44605, "ort": 477, "_": 62, "ÙħÙĥÙĨ": 43020, "ĠcomeÃ§a": 32568, "Ġwilling": 4950, "Ġscreening": 17732, "ussen": 29202, "acio": 24571, "Ġredo": 29956, "Ġê°Ģìŀ¥": 20283, "<|9.62|>": 50845, "urate": 33144, "odie": 49257, "Ġscattering": 42314, "ĠÐ¿ÑĢÐ¾Ñģ": 21109, "Ġìĵ°ê³ł": 43303, "åıªæľī": 35244, ":\"": 31330, "workers": 37101, "Ġflatten": 24183, "dat": 20367, "eness": 15264, "Ġsucceeds": 49263, "apons": 48071, "ĠMethod": 25285, "ĠUV": 17887, "Ġêº": 34505, "ĠØ§ÙĦÙģ": 27188, "rol": 6623, "Ġparticipants": 10503, "Ġbishop": 34470, "Ġslab": 38616, "Ġtoe": 13976, "tat": 27321, "ĠÑģÐµÐ¹ÑĩÐ°Ñģ": 10241, "Ġcollab": 44228, "eters": 6202, "ĠLebanon": 29532, "Ġcounty": 9928, "ĠÐºÑĢÐ°Ð¹": 39584, "Pa": 18968, "ä»ĬæĹ¥ãģ¯": 43791, "Ġbilling": 35618, "ĠGear": 26810, "æľĢè¿ĳ": 46777, "ĠUkrain": 21481, "fach": 6749, "Ġdysfunction": 32002, "Ð¾ÑĢÐ¾ÑĪÐ¾": 29931, "ĠHels": 45429, "Ġoldest": 14026, "Ġrespectfully": 45201, "ĠKultur": 46744, "ex": 3121, "Ġcompass": 10707, "Ġunto": 16521, "ĠìŀĲê¾¸": 45989, "³´ë": 17420, "ĠÃ©conomique": 49915, "Ġcouncil": 9209, "ĠAprÃ¨s": 29265, "antly": 3627, "Ġcopper": 15007, "Ġstunt": 33391, "ÙĬØ¯": 25708, "Ġcelebration": 14184, "Ġrhy": 8740, "Ġalred": 41290, "<|1.18|>": 50423, "ality": 1860, "Ġexpressed": 12675, "<|27.64|>": 51746, "Ġfak": 33647, "ĠØªÙĪ": 33427, "ĠCole": 20394, "Ô": 144, "Ġsympt": 7266, "Ġdealer": 24896, "Ġresidence": 19607, "Ġcathedral": 45346, "ĠìĻĶ": 17766, "emas": 26062, "ÑĥÑĢÐ°": 49305, "Ġjewe": 46534, "Ġstripe": 42957, "ury": 2598, "ĠKings": 21855, "ĠdÃ©b": 36529, "ĠÐ±ÑĥÐ»Ð¾": 41981, "affe": 23629, "Ġratings": 24603, "Ġprevents": 22367, "orted": 14813, "Ã¤llen": 46181, "Ġnimmt": 38891, "Ġbunch": 3840, "ĠBehavior": 45807, "oru": 32963, "nahme": 32796, "Ġarsenal": 42227, "Ġyeter": 48398, "tera": 23833, "Ġproof": 8177, "ĠComes": 47290, "Ġestablishing": 22494, "ĠÐ¿ÑĢÐ¾Ð±Ð»ÐµÐ¼Ñĭ": 44340, "ily": 953, "Ġik": 4320, "ĠReligion": 40127, "bab": 24301, "ĠSl": 6187, "Ad": 15830, "ĠÐ¼Ñĭ": 4777, "Ġopinions": 11819, "ickets": 38748, "astes": 40246, "enses": 9085, "Ġproduit": 35703, "ĠÑĩÐµÐ¼": 12056, "åı·": 26987, "Ġhospitality": 31207, "Ġzeros": 35193, "hehe": 23500, "ĠEv": 5689, "Ġheroic": 32915, "ÙĬ": 1829, "Ġfala": 21580, "Ġcorr": 38576, "Ġinnovative": 12999, "Ġextensive": 13246, "Ġbarbecue": 21877, "ĠWIN": 32353, "Ġmaneu": 22474, "Ġtracing": 25262, "Ġdav": 11753, "ĠAdemÃ¡s": 34621, "Ġrif": 13203, "Ġ195": 10858, "Ġprofitability": 46249, "ĠFriends": 14042, "ĠAut": 6049, "âĺĨ": 41985, "ATE": 20047, "ÐĿÐµ": 32297, "ited": 1226, "ĠStand": 9133, "ĠBeij": 18995, "<|1.32|>": 50430, "Ġë°°": 14155, "Ġspilled": 37833, "Ġlifted": 17854, "fish": 11608, "ĠÎ±ÏħÏĦ": 18679, "ĠdÃ©couvrir": 47756, "cribed": 18732, "Ġhar": 2233, "Ġquieren": 36706, "valuation": 46504, "ÛĮÚ©": 29325, "ĠLoch": 49912, "Ġlegs": 5668, "oret": 26262, "ĠSocial": 9909, "ãĥĩ": 31327, "ĠkÃ¶r": 42889, "Ġfoam": 12958, "ÏīÏĤ": 22788, "¨¼": 48150, "Ġemitted": 44897, "glass": 28851, "emin": 20008, "Ġrelative": 4972, "Ġmulher": 33211, "Ġflooded": 31594, "riters": 39335, "ĠModule": 48251, "Ġquarterly": 38633, "restrial": 34539, "<|23.64|>": 51546, "<|27.78|>": 51753, "ĠìĹ¬ëŁ¬ë": 10791, "Ġmaneuver": 25976, "Ġ112": 45835, "ĠTomorrow": 17499, "ĠìĹ¬ëŁ¬ë¶Ħëĵ¤": 25745, "Ġhinten": 36417, "Ġexecution": 15058, "again": 39372, "Ð½Ð¸ÑĤ": 47264, "Ġincar": 23694, "Ġstayed": 9181, "Ġlargo": 31245, "Ġopin": 3980, "æ¦Ĥ": 26181, "Ġenjoyed": 4626, "Ġbody": 1772, "Ġtiles": 21982, "Ġarteries": 44801, "Ġvisits": 17753, "ĠÐºÑĢÑĥÑĤ": 43217, "ĠMut": 18517, "02": 12756, "Ġë³Ģ": 25575, "ĠDÃ¥": 26339, "achi": 21791, "Ġlongo": 40558, "Ġreferencing": 40582, "ORA": 36860, "ÑģÑĤÐ²ÐµÐ½Ð½Ð¾": 17125, "<|20.78|>": 51403, "ê»ĺ": 14033, "Ġconnected": 4582, "ĠIraq": 11818, "Ý": 153, "Ġshooters": 45526, "ĠÃ¤ven": 32669, "ĠRefer": 36889, "ĠÐ¼Ð°ÑĪ": 19820, "Æ°á»Ŀ": 23648, "chuck": 25340, "Ġow": 11492, "å¼ķ": 41301, "Ġhour": 1773, "ĠvÃŃdeo": 8071, "Ġkidnapping": 47868, "ĠLotus": 44769, "ãģłãģĭãĤī": 33183, "ĠFal": 15202, "Ġniece": 39991, "Ã¡r": 20335, "Äģ": 5610, "<|24.94|>": 51611, "elles": 19787, "iatric": 17252, "Ġministry": 15024, "¥´ë": 22702, "ĠFranz": 33084, "arÃ¡": 21534, "Ġedits": 41752, "emitism": 49208, "ÐºÐ¸Ðµ": 12338, "ĠcomÃºn": 45448, "ambre": 48230, "Ø§Ø¶": 46958, "Ġexhibit": 20487, "zek": 19878, "<|10.14|>": 50871, "Ġchez": 17855, "Ġapologized": 47815, "ÑģÐºÐ¸Ð¹": 17146, "ĠAdminist": 13322, "åį±": 38292, "blem": 1113, "Ġ-...": 41975, "roit": 15772, "Ġ87": 27990, "Ġpossess": 17490, "MER": 42620, "Ġopioid": 32837, "ĠmÃ¤nniskor": 48091, "Ġradiator": 41345, "ATH": 17026, "Ġnyt": 21508, "Ġawkward": 11411, "Ġtruth": 3494, "Ġutterly": 30251, "ĠSurface": 36052, "ĠDefinitely": 12151, "cio": 8529, "éĽ": 6306, "Ġsizes": 11602, "ĠOo": 39308, "íķĺê²łìĬµëĭĪëĭ¤": 47309, "ĠeducaciÃ³n": 48861, "ĠTruly": 43548, "ĠÐ¿ÑĢÐ¸Ð³": 42619, "ìłľë¡ľ": 37222, "ĠPrincipal": 38575, "Ġwcze": 38533, "books": 15170, "Ġnoite": 34429, "Ġannouncements": 23785, "ĠHouston": 18717, "Ġpilgrimage": 49954, "ekk": 29010, "Ġglac": 29700, "ÐµÐ³": 4953, "ACE": 23866, "Ġerror": 6713, "Ġëģ¼": 46809, "Ġpowers": 8674, "Ġparallel": 8952, "aining": 3686, "ĠPolizei": 35297, "ĠObama": 9560, "Re": 8524, "prech": 22895, "Ġinclu": 25520, "disciplinary": 30520, "ĠKang": 20360, "Ġzdrow": 49745, "jÃł": 11313, "amas": 19473, "ĠWarren": 20538, "llo": 1913, "Ġtumors": 38466, "uffled": 33974, "ĠÎ´ÎµÎ½": 23295, "à¤Ĥ": 31945, "Ø±Øª": 43500, "iencies": 31294, "ĠHa": 4064, "Ġgitti": 37700, "ĠLetter": 43426, "Ġtrained": 8895, "Ġ1996": 22690, "ĠPriest": 37052, "ĠÅģ": 36901, "Ġinverter": 47201, "ÑĪÐ¸Ñħ": 29024, "Ġwoll": 8181, "ĠStudios": 23005, "ãĥ¼": 3384, "Ġoffered": 8059, "erme": 31081, "à¸Ħà¸Ļ": 41404, "Ġamph": 40077, "ĠìķĦëĭĪê³ł": 32510, "Ġequ": 1267, "hÃµes": 31819, "houette": 28191, "Ġvillain": 17906, "Ġsoftware": 4722, "ĠWei": 21174, "Ġinvestors": 11519, "Ð¸ÑĤÐµ": 5878, "link": 22473, "äº«": 27654, "Ġfreestyle": 40910, "Ġbeneficial": 14072, "ĠChoi": 33479, "pecially": 2084, "Ġechoes": 47051, "ĠvÃ¤": 12099, "ìĭŃ": 32061, "Ġexamine": 17496, "¶Ħëĵ¤": 18912, "Ġdij": 47709, "ĠSultan": 23528, "zem": 24313, "<|16.88|>": 51208, "Ġprincipio": 34308, "ĠWhich": 3013, "Ġsolving": 12606, "Ġhollow": 23972, "Ġëı¼ìļĶ": 21565, "ĠlazÄ±m": 23951, "Ġdetector": 25712, "Ġà®®": 16504, "ĠÃ©ta": 21325, "ĠSee": 3008, "Ġinnych": 36286, "ĠÂ£": 14378, "Ġcompletamente": 28381, "ĠÃ¶nem": 31652, "Ġquiz": 15450, "Ġlass": 45829, "ĠTul": 33585, "Ġgouvernement": 27504, "Ġprinciple": 8665, "Ġmove": 1286, "ĠPrecis": 48746, "ĠDar": 7803, "ĠBusan": 43538, "Ġstations": 13390, "ĠLords": 41870, "adura": 25154, "ĠAward": 13894, "Ġpresque": 37843, "Ġcomfortable": 4619, "æ²¡æľī": 17944, "Ġdyed": 43199, "Ġcontrolar": 47843, "ĠëĳĲë": 33940, "icken": 3830, "ĠDinge": 25102, "Ġoverst": 48834, "Ġbrat": 47869, "ĠSlide": 26405, "ĠsiitÃ¤": 32705, "cida": 37200, "Ġzwr": 49111, "Ġdancers": 25199, "prus": 49074, "ĠDonkey": 44217, "Ġplum": 25854, "ĠëĤ¨ìŀĲ": 35266, "Ġintentionally": 22062, "Ġdesigning": 14685, "Ġemphas": 7896, "ĠÃ¼st": 28816, "´ëıĻ": 30580, "Ġfr": 431, "ARY": 24634, "ĠìĽĲ": 13499, "eee": 37954, "ĠÐļÐ¾Ð½ÐµÑĩÐ½Ð¾": 35108, "ĠForward": 35524, "ì°": 5786, "ĠEasy": 16002, "Ġdemos": 33788, "ĠÐĴÑģÑĳ": 29661, "Ĥ´": 22485, "ìĤ¬ë¥¼": 27811, "Ġreasons": 4112, "Ġvalu": 7332, "ĠHoward": 17626, "Ø§Ø¨": 16758, "Ġescape": 7615, "ĠìĹĲë": 44428, "Ġbuys": 28153, "Ġpenso": 48005, "ä¸ĭåİ»": 34473, "ċ": 199, "íģ": 8005, "ĠMedicine": 20338, "ãģĦãģĨãģĵãģ¨": 39773, "ãĥ¼ãĥ«": 35307, "ìĿ´ëĵľ": 46766, "ĠActiv": 28550, "ĠEvans": 30055, "Ġindust": 2735, "Ġassisted": 30291, "Ġlim": 2364, "ĠBio": 26840, "Ġschlimm": 48821, "ĠeBay": 33803, "ĠHeavenly": 38352, "ĠÐ¿Ð¾Ð»Ð¾Ð²": 39884, "ĠApril": 6929, "ĠÑĤÑĢÐµÑĤÑĮ": 45305, "edere": 36395, "Ġwives": 24936, "onge": 15430, "ãĥĥãĤ¯": 28551, "Ġperfekt": 49134, "ĠÐ²Ð°Ð¼": 10448, "mic": 13195, "Ġpoem": 13065, "ĠPV": 23035, "Ġoperation": 6916, "bles": 8806, "³´ê²łìĬµëĭĪëĭ¤": 44246, "essential": 48143, "Ġmics": 45481, "Ġartistic": 17090, "Ġventilation": 29553, "Ġnegativity": 39297, "Ġzosta": 23154, "à¤¹": 44500, "Ġidentities": 24239, "éĩį": 12624, "Ġsans": 12177, "Ġê±°ë": 15805, "Ġeinf": 38627, "vik": 42252, "ĠrÃ©pond": 26027, "Ġwounded": 21906, "ĠTamb": 18176, "ÏĢ": 4339, "Ġoutreach": 19638, "Ġransom": 38279, "gus": 21956, "ĠThomas": 8500, "Ġpermanent": 10996, "Ġgroove": 26910, "æģ©": 47638, "ĠÃĩÃ¼nkÃ¼": 26763, "Ġgathering": 13519, "Ð°ÑĢÐ¾Ð²": 48708, "Ġprinci": 3681, "Ä±lmÄ±ÅŁ": 48871, "eremi": 36758, "ĠStÃ¼ck": 31146, "ĠSuperior": 48953, "ĠÙĪÙĦ": 35525, "Ġnothing": 1825, "Ġbarking": 32995, "ĠsÄĥ": 15446, "Ġprecise": 13600, "ĠHI": 44376, "ĠKen": 8273, "Ġrewind": 41458, "Ġbehalf": 9490, "Ġreferee": 43096, "ìĿµ": 46293, "ĠPeak": 43604, "ception": 7311, "Ġirritation": 50031, "Ð¾ÑĢÐµ": 38939, "<|16.14|>": 51171, "ĠÐ²Ð´ÑĢÑĥÐ³": 45926, "Ġliquidity": 33131, "Ġperd": 12611, "ĠTracy": 33724, "Ġsurrounds": 44576, "<|es|>": 50262, "ĠNÃ³s": 27626, "Ġavenue": 39230, "Ġ×ŀ×¦": 44015, "Ġtraffic": 6419, "ãģ¨æĢĿãģĦãģ¾ãģĻ": 29707, "Ġnine": 4949, "Ġleurs": 18341, "Ð°Ð¶Ñĥ": 29294, "Ġincredible": 4651, "Ġìłĳ": 21616, "anting": 18571, "ĠÐ¸ÑĤÐ¾Ð³": 36745, "Ġarms": 5812, "ombres": 29947, "Ġspiritually": 33430, "Ð³Ð¾ÑĤÐ¾Ð²": 25965, "ĠÐ´Ð¸Ð²": 49829, "<|1.08|>": 50418, "Ġinfected": 15414, "Ġrepe": 4301, "ĠBol": 14331, "æĶ»": 41530, "Ġcannot": 2644, "ĠìľĦíķľ": 41475, "Ġprecurs": 41736, "Ġhic": 23697, "Ġcelebr": 3886, "mons": 27229, "ĠÑĢÑĥÐ±Ð»ÐµÐ¹": 40851, "Ġpreocup": 23080, "æ±Ĥ": 32718, "ĠRapid": 44580, "ĠBox": 15112, "ĠDist": 9840, "Ġaccepted": 9035, "vi": 4917, "Ġtying": 32405, "Ġelse": 1646, "Ġhá»įc": 46786, "Ġì§ĢëĤľ": 26416, "ĠëıĮìķĦ": 26761, "norm": 13403, "Ġinference": 38253, "Ġcrypt": 9844, "Ġste": 2126, "ĠVers": 12226, "Ġmorgen": 36593, "zych": 28051, "uem": 50116, "ĠÐ±Ð¾Ð»ÐµÐµ": 15103, "<|6.90|>": 50709, "Ġcontinuing": 9289, "Ġtagged": 40239, "Ã¼r": 1655, "Ġ2015": 7546, "amiliar": 27393, "ĠVirtual": 23887, "Ġnutrition": 14718, "ãģ§ãģĹãĤĩãģĨ": 38711, "Ġincarcerated": 39059, "ĠThroughout": 22775, "Ġker": 19377, "oshi": 17392, "running": 45482, "Ġwages": 20097, "ĠPopular": 37637, "ĠderniÃ¨re": 29028, "ĠInnovation": 27092, "Ġgamers": 26774, "ä¿Ĥ": 20372, "ÑĨÐ¸Ð¸": 12502, "Ġguiding": 25061, "Ġalone": 3312, "é": 165, "ĠBuddhism": 24744, "Ġslime": 20650, "ĠPis": 43263, "itated": 18266, "Ġformatting": 39366, "Ġsentido": 19850, "Ġavoided": 24890, "Ġdenke": 27245, "Ã©e": 3856, "Ġdone": 1096, "histoire": 29093, "Ġexclusively": 20638, "ĠMaryland": 19939, "Ġmeanwhile": 29252, "ĠMuch": 12313, "believable": 13729, "ĠÏī": 46653, "Î½": 2254, "Ð¾Ð·Ð¸": 50226, "zwischen": 47115, "Ġsmelling": 35471, "Ġnever": 1128, "Ġfertig": 31362, "ÐµÑĩÑĮ": 36111, "Ġdeposited": 42002, "Ð»Ð°ÑĤ": 25834, "ĠVolkswagen": 39856, "Ġadjusting": 23559, "Ð¾ÑĩÐºÑĥ": 39116, "ĠKore": 3893, "Ġsuperstar": 38953, "Ġort": 23564, "<|7.32|>": 50730, "Ã©tico": 39958, "ĠVic": 33316, "Ġhiding": 10596, "ĠCurtis": 42140, "ren": 1095, "ĠHaven": 23770, "Ġbisexual": 42570, "Ġfungus": 39788, "ÐºÑĥ": 4401, "epend": 4217, "Ġminerals": 22959, "unge": 27588, "Ġexplorer": 39680, "preh": 40128, "ĠZeus": 35003, "ĠRay": 10883, "Ġillustrated": 33875, "ĠnegÃ³": 31008, "Ð¾Ð³": 2353, "<|28.62|>": 51795, "ÐµÐ½Ð¸Ñİ": 18830, "ĠÐ¼ÑĥÐ¶Ñĩ": 40051, "Ġpac": 15165, "Ġtransfer": 5003, "alez": 37646, "Ġwiping": 40611, "Ġhue": 24967, "Ġ1080": 24547, "ĠíĮĢ": 31448, "ĠSaid": 26490, "amen": 22403, "ĠÐ²ÑĭÐ±": 18061, "<|8.34|>": 50781, "<|24.02|>": 51565, "æĢĸ": 39647, "Ġfortunate": 14096, "Brad": 44435, "Æ°á»Ŀng": 24280, "gt": 10463, "à¸Ħà¸£": 21916, "Ġyells": 48543, "ĠÐºÐ¾Ð½ÑĨÐµ": 38769, "zo": 4765, "ĠDiese": 18993, "<|24.06|>": 51567, "FE": 28182, "ĠLee": 6957, "íķľë": 25643, "å°ĩ": 34168, "Ġdetail": 2607, "Ġamazingly": 31762, "idden": 6171, "ropolitan": 28358, "£ł": 24037, "ĠFER": 47882, "ĠVors": 31438, "naudible": 20474, "Įë¥¼": 29039, "Ġassessments": 24338, "Ġbleibt": 24814, "Ġgrandparents": 21876, "Ġsamma": 43407, "Ġcheck": 1520, "Ġtracked": 31703, "Ġcontroller": 10561, "ľëıĻ": 38667, "aroo": 47937, "ĠBUR": 37270, "ĠÐ±Ð¾Ð³": 33001, "Ġgrues": 48238, "Ġsunglasses": 28675, "Ġdifferentiate": 23203, "Ġedible": 30666, "Ġstandby": 50170, "ĠTurkey": 12647, "Ġlow": 2295, "Ð½Ð¾Ð¿": 35026, "ĠÑģÐ¾Ð¶Ð°Ð»": 45999, "Ġjuegos": 43411, "íģ¼": 27328, "OP": 12059, "Ġadolescents": 48191, "×ĳ×¨×Ļ×Ŀ": 38228, "mani": 43717, "engers": 15315, "ond": 684, "ĠMiguel": 29150, "ĠCompanies": 44031, "Ġcomplac": 49546, "ĠIndians": 23838, "Ġsemantic": 47982, "ARIN": 36304, "ÄŁan": 43588, "ĠÐŀÑĩ": 30352, "èĢĮä¸Ķ": 22942, "ĠNegative": 43230, "Ġbund": 13882, "Ġafflict": 48287, "Mic": 48831, "Ġelectro": 16717, "They": 8829, "ĠÐ¿ÑĢÐ¸Ð²ÐµÑĤ": 33879, "Ġhashtags": 50016, "ê³Ħ": 14597, "grades": 22626, "Ġìŀłê¹Ĳ": 43479, "ĠÐ´Ð¾Ñģ": 41126, "ĠSinne": 47041, "<|cy|>": 50297, "ĠÐ¼Ð½": 16338, "<|24.12|>": 51570, "awsze": 28354, "Ġrespondents": 48275, "Ġmagaz": 9044, "olu": 39754, "Ġdispos": 15885, "ÑĢÐµÐ½": 29428, "storm": 17367, "une": 2613, "cl": 3474, "Ġsharks": 26312, "ĠWork": 6603, "Ġnormal": 2710, "Ġwipe": 14082, "Ġhumanos": 34555, "ĠSonra": 41379, "ĠOK": 2264, "llor": 19205, "Ð½Ð°ÑĢÑĥÐ¶": 42286, "Ġdesar": 21464, "<|11.98|>": 50963, "ĠHub": 18986, "Ġrob": 3870, "Ġblockchain": 17176, "Ġsniper": 32441, "<|14.36|>": 51082, "Ġpewno": 33002, "Ġyeast": 21629, "upl": 44810, "Ġhopefully": 4696, "Ġcelestial": 41003, "ĠRoh": 27490, "Ġrainbow": 18526, "ĠìĹ¬ëŁ¬ë¶Ħ": 14707, "ì²ľ": 18906, "à¸¹à¹Ī": 37805, "Ġnightmares": 36911, "ichte": 18972, "ħëĭĪëĭ¤": 28332, "Ġphilosopher": 29805, "Ġsmoothly": 19565, "ĠOhh": 21847, "ĠCarroll": 48456, "Ġlarger": 4833, "Ġdealt": 15991, "ĠKorean": 6933, "itutional": 41859, "Ġlange": 18131, "ĠPublic": 9489, "Ġsurpass": 27650, "à¤¤": 36158, "Ġpropag": 12425, "Ġben": 3271, "ck": 547, "mee": 42952, "lls": 43909, "sÄ±nÄ±z": 44814, "ĠLem": 16905, "Ġella": 18823, "Ġlament": 35888, "ĠÐ³Ð¾Ð»Ð¾Ð²": 24721, "uum": 12823, "ND": 13360, "Ġ×ľ×Ĳ×": 45087, "Ġtransparency": 17131, "íĴ": 11055, "Ġolmas": 40307, "Ġmasala": 35614, "iveness": 8477, "ĠWarri": 23385, "<|startofprev|>": 50361, "Ġpencils": 30857, "Ġimports": 41596, "Ġwipes": 41228, "Ġtomato": 9288, "Ġnos": 3269, "ìļ±": 44631, "Ġskull": 11743, "ww": 4979, "Ġnice": 1481, "ĠØº": 32771, "Ġfacets": 49752, "avier": 25384, "nte": 9358, "Ġdwelling": 41750, "sek": 26141, "ĠChrome": 15327, "ĠOreo": 47628, "ennen": 16043, "ĠBirds": 41456, "ĠHoy": 28664, "verts": 36999, "Ġpsychopath": 47577, "ĠYours": 37922, "ĠLan": 17482, "Ġtuned": 10870, "Ġpatient": 4537, "Ġrepetitive": 29404, "Ġëĵľë": 13356, "Ġcomprom": 11482, "lymp": 9793, "Ġtr": 504, "Ġwag": 36854, "Ġlighter": 11546, "ĠpolÃŃtica": 25029, "Ġinspiration": 10249, "ĠëĬ": 7707, "ĠCorrect": 12753, "Ġtailored": 34858, "ĠArrow": 40269, "inton": 12442, "Ġfellows": 35595, "éłĲåĤĻ": 38418, "Ġhaber": 15811, "fficial": 37661, "Ġundergo": 26426, "ĠJB": 43019, "Ð½ÑĭÐ¹": 4441, "Ð§": 17519, "owers": 23054, "Ġties": 14039, "Ġsucceed": 7754, "Ġknob": 26759, "ÏĢÎ¿Ïħ": 49434, "ĠTurkish": 18565, "ĠÐ¼Ð°Ð¼Ð°": 47101, "ĠBrook": 13945, "<|8.12|>": 50770, "Ġepsilon": 17889, "ĠClo": 31901, "Ġseason": 3196, "Ġdynasty": 32841, "iously": 8994, "eches": 27789, "Ġverw": 24615, "Ġnutr": 12289, "oires": 40483, "ĠpÃ©n": 49880, "SO": 17188, "?'": 8569, "ĠL": 441, "NT": 30817, "Ġthrottle": 24235, "Ġhydraul": 27510, "Ġinjection": 22873, "ÐµÐ½Ð½ÑĭÐ¹": 28488, "Ġglove": 26928, "ĠCr": 4779, "Ġpoking": 42684, "Ġscientific": 8134, "ĠAz": 7607, "Ġsooner": 15324, "Ġfinances": 25123, "ĠjakiÅĽ": 34721, "Ġprere": 38333, "Ġbast": 8414, "ĠGar": 7995, "Ġmayonnaise": 34406, "Ġrespiratory": 27038, "ĠmÃ¡qu": 39701, "Ġbegitu": 49707, "Ġface": 1851, "WA": 21449, "Ġrebo": 26802, "ĠFinance": 25765, "Ġdistract": 9945, "WER": 37598, "Ġgrand": 2697, "sterreich": 34111, "ern": 1248, "Ġimplement": 4445, "Ġprofiles": 23693, "ĠSwan": 40884, "ĠrzeczywiÅĽcie": 44922, "attack": 44514, "ill": 373, "Ġprotr": 45468, "ĠArt": 5735, "Â¿": 25073, "Ġfoods": 8656, "Ã©rience": 35627, "Ġtexting": 29897, "Ġaudible": 41317, "ĠBai": 25269, "Ġbeau": 29891, "ĠÑĥÑģÑĤÑĢÐ¾Ð¹": 48582, "Ġdiscipl": 8644, "Ġjustamente": 41056, "Ġgli": 17161, "ì§¸": 18211, "Ġë¶ģ": 33215, "Ġticks": 42475, "á»ĳc": 24426, "bits": 34010, "Æ°á»Łng": 49301, "Ġrotor": 26847, "Ġarc": 10346, "RA": 3750, "Ġgovernors": 36571, "ution": 1448, "ĠØµ": 20328, "ĠÐ¸ÑģÐ¿Ð¾Ð»ÑĮÐ·": 15552, "Ġspelled": 34388, "¤íĶ": 35219, "Ġwatch": 1159, "Ġleftover": 27373, "Ġdisappoint": 8505, "Ġemo": 19611, "ĠAA": 30680, "ĠÐ¼ÐµÐ½ÐµÐµ": 38264, "Ġnostalgic": 40240, "ĠÐ¿ÑĢÐ¾Ð¸Ð·": 16769, "ÃŁe": 11451, "<|0.72|>": 50400, "Ġshore": 17805, "ĠÑĥÑģÐ¿": 23944, "è¢": 19688, "Ġswitching": 16493, "Ġshooting": 5942, "ĠÐ¿ÑĢÐ¸Ð´ÑĥÐ¼": 45234, "ĠReserve": 26049, "ÏģÎ³": 32300, "audio": 46069, "ĠBend": 32451, "ĠÐ³Ð¾Ð´Ñĥ": 22688, "Ġsurface": 3753, "ĠÎµÏĢÎ¹": 49185, "Ġjazz": 15066, "Ġstrips": 19842, "Ġmotherf": 29537, "çķª": 33118, "ĠìĹ°": 11839, "Ġpassages": 31589, "%,": 8923, "ĠÐ´Ð¾Ð±ÑĢ": 35620, "è«ĩ": 48022, "ĠScottish": 13777, "Ġwearing": 4769, "Ġwaterfall": 27848, "åĦĦ": 25459, "Ġwoman": 3059, "Ġsentenced": 30954, "Ġspacious": 36801, "Ant": 35807, "à¯į": 2133, "IA": 6914, "ĠBraun": 46939, "ĠÑĢÐ°Ð·Ð¼ÐµÑĢ": 41813, "ĠmiaÅĤ": 27989, "Ġempath": 27155, "Ġ102": 45937, "Ġbubbles": 16295, "ĠVancouver": 26563, "Ġmmm": 26159, "Ġthreatens": 47511, "<|22.28|>": 51478, "Ġgosto": 32022, "Ġrehearsal": 24884, "Ġasynchronous": 49174, "Ã©l": 8025, "ested": 21885, "Ġpositively": 25795, "Ġmomentos": 34583, "Ġfluorescent": 46735, "ãĤĩ": 8744, "cco": 49552, "ĠClin": 24240, "Ġentend": 16612, "ĠBETH": 36480, "00": 628, "Ġspaces": 7673, "ĠCoordinator": 47173, "Ġchwil": 41941, "Ġ1949": 46476, "ĠMat": 6789, "Ġlegit": 10275, "Ġadequate": 20927, "Int": 25597, "Ġportable": 21800, "cy": 1344, "?\".": 25760, "ertain": 1408, "Ġexcitement": 14755, "ĠÑĢÐµÐ±ÑıÑĤÐ°": 37678, "ĠDat": 9315, "Ġevent": 2280, "ĠSex": 29037, "Ġzug": 33507, "Ġkitty": 33026, "Ġex": 454, "ĠÐ·Ð´ÐµÑģÑĮ": 9087, "Ġsven": 48208, "Ġadvising": 35598, "ĠXia": 11956, "ĠwiÄĻks": 29968, "base": 17429, "Ġcountless": 19223, "íĥģ": 30182, "Ø¨Ø©": 49401, "Ġsem": 4361, "ĠKens": 33265, "rage": 16223, "Ġbeverages": 47401, "Ġë¹Ħ": 10079, "Ġtax": 3366, "Ġmicron": 45094, "<|15.08|>": 51118, "æĽ´": 19002, "ĠÐ¿ÑĢÐµÐ²": 34393, "Ġdzi": 31981, "Ġbrow": 19299, "kennt": 41838, "<|yi|>": 50335, "ĠCongo": 42839, "Ġvy": 44766, "ĠÑĩÐ°ÑģÐ¾Ð²": 44477, "rawd": 15889, "Ġê²°ê³¼": 46310, "Ð°ÑĢÐ°": 29522, "Ġ==": 4141, "ĠFra": 5849, "Ġinstantly": 13518, "Ġbisog": 40505, "Ġä½ł": 10930, "Ġtrotzdem": 28325, "Ġquarto": 50109, "ECT": 39904, "Ġcoisa": 9614, "onsieur": 22293, "Ã¼rd": 39717, "ilos": 6136, "ĠÑģÐ½Ð¾Ð²Ð°": 36114, "Ġgarment": 35084, "Ġíķłë": 44148, "Ġkitten": 39696, "æ©ĭ": 36473, "æģ¯": 26460, "Ġpetty": 39334, "ĠÑĢÐ¾Ð»": 26725, "Ãªt": 15519, "Ġestuv": 49777, "Ġspectrum": 11143, "Ġtotal": 3217, "Ġdemise": 45982, "Ġtierra": 33416, "ĠPDF": 17752, "ĠNing": 39417, "ĠÐ·Ð°Ð±": 13890, "ore": 418, "ĠDecember": 7687, "Ġlauncher": 36805, "ĠhiÃ§bir": 31151, "ĠLogan": 22689, "ltry": 49010, "Ġindependently": 21761, "×Ļ×ĸ": 41460, "Ġsant": 23044, "Ġoutlined": 27412, "ĠFeder": 45545, "ĠAim": 47796, "Ġbeen": 668, "ÐµÑĤÑĢ": 42850, "Ġethnicity": 33774, "ĠÐ¸Ð½ÑĤÐµÑĢ": 12073, "ĠKomb": 34678, "rences": 38983, "ĠType": 15576, "Ġë°©ìĨ¡": 35429, "ê±´": 10619, "ÐµÐ½Ð½Ð¾Ð¹": 36203, "Ġdetermine": 6997, "Per": 23232, "Ġconte": 34444, "ĠComm": 3046, "anes": 12779, "ples": 2622, "Ä±yorlar": 35974, "ãĢģãĢĮ": 28965, "ĠÑĸÐ·": 49973, "Ġticking": 33999, "ĠTo": 1407, "Ġseparating": 29279, "ĠSTEPHAN": 46423, "Ġenergetic": 24935, "Ġraises": 19658, "ĠNews": 7987, "Ġ×ĸ": 25412, "Ġros": 18953, "Ġunserem": 26792, "Ġchacun": 42241, "vÃ¤": 17165, "Ġweap": 4528, "Ġtornar": 41283, "Lab": 37880, "ĠeconÃ³m": 33537, "ĠPri": 8087, "ĠIslamic": 17970, "Ð¸ÑĢÑĥ": 20517, "ĠAus": 9039, "Ġtom": 2916, "Ġì§ĳìĹĲ": 38380, "Ġinvoice": 47919, "Ġsmiled": 35132, "yt": 4328, "adelph": 20598, "Ġaverage": 4274, "Īë¬": 5520, "ways": 942, "Ġdessa": 18554, "Ġtoo": 886, "indest": 33155, "ãĤĪãģĨãģ«": 34483, "Ġbiggest": 3880, "Ġìĺģìĥģ": 15603, "Ġ1975": 32454, "ouring": 40510, "Ġnoir": 39359, "Ġenergia": 29469, "ĠMinist": 32196, "Ð¸Ð¾Ð½": 26875, "Ġapparat": 36564, "ĠREM": 45991, "×ķ×Ķ": 30094, "Ã¨ce": 30236, "ÑĥÑħ": 11576, "Ġbandits": 49043, "Ġantenna": 24573, "Ġpreacher": 42078, "×Ĳ×©": 35932, "ĠUgh": 16506, "Ġcounters": 39338, "uter": 20314, "ĠScientific": 47437, "icles": 5350, "29": 11871, "Ġletter": 5063, "ĠCinc": 44142, "ĠHousing": 31340, "ãħł": 23518, "Aut": 49769, "Ġexperience": 1752, "ĠNan": 18852, "ãĤĪãģŃ": 30346, "gestellt": 26293, "ĠÅŁeyler": 28863, "Ġunint": 29466, "ıĻ": 8309, "Ġgross": 11367, "Ġneben": 36098, "ĠZealand": 13883, "ĠArri": 45188, "Ġcalcul": 4322, "ĠChildren": 13354, "Î²": 14836, "ĠJeez": 48516, "Ŀ¤": 35156, "Ġzeigen": 24687, "°ë": 2004, "ëĬĲ": 31627, "ĠQuÃ¨": 31951, "Ġneces": 11909, "asant": 10633, "cÄ±": 31803, "Ġdive": 9192, "ãģ¤": 9335, "ÒĽ": 49964, "æ¬": 5988, "log": 4987, "ietnam": 10507, "äººæ°ĳ": 44894, "mares": 32760, "ers": 433, "Ġrze": 16081, "aring": 1921, "ÐµÑĨÐ¸": 23931, "Ġleaders": 3523, "Ġë³": 2818, "Ġsix": 2309, "Ġgroundbreaking": 42491, "ĠprÃ©cis": 49436, "Ġheb": 8007, "Ġinver": 28653, "Ġpersuaded": 47693, "yards": 48905, "æª": 40741, "Ġincreases": 8637, "kers": 24259, "Ġexamples": 5110, "ĠNiye": 40938, "arak": 23346, "Ġquiero": 16811, "iÃ§Ãµes": 38038, "Ġprogrammes": 31097, "Ġbam": 18132, "ĠVict": 8676, "Ġrecession": 24828, "ĠCounter": 35607, "ĠAnna": 12899, "è¸": 41166, "achte": 26136, "ĠAdm": 46292, "ĠStrom": 39126, "<|3.34|>": 50531, "Ġexplores": 45473, "juna": 44469, "Ġluggage": 27744, "ieties": 19084, "Ġexpectation": 14334, "Ġmir": 3149, "ĠHillary": 23284, "ĠRI": 30474, "Ġtutorial": 7073, "Ġernst": 43412, "Ġquatre": 31334, "ê³łìļĶ": 12364, "uper": 12879, "Ġdah": 16800, "Ġpizz": 36075, "Ġpropulsion": 49375, "Ġqueue": 18639, "ĠìĦł": 11835, "ĠOh": 876, "ä»Ĭå¤©": 12074, "Ġfif": 5782, "Ġgreater": 5044, "ĠXi": 15712, "Ġbarg": 22351, "ĠìĿ´ê²ĥ": 23088, "Ġuna": 2002, "Ġhomelessness": 28791, "Ġê°Ģìļ´ëį°": 44627, "Ġpesso": 6818, "ĠÐ¶Ð¸Ð²Ð¾ÑĤ": 38029, "ĠUhm": 32287, "ĠHA": 11979, "ĠHumans": 35809, "ĠFeed": 33720, "oner": 32949, "Ġlaat": 32769, "appro": 35821, "Je": 16582, "Ġwszyscy": 44232, "ĠGeschÃ¤ft": 40440, "Ġelites": 44678, "Ġreferenced": 32734, "Ð»ÑİÑĩ": 11833, "å¤ª": 9455, "Ġwashes": 48616, "Ġnoon": 24040, "ĠPose": 40174, "Ġinvestigated": 30070, "Ġintric": 30242, "Ġdirected": 12898, "Ġrulers": 35009, "ë¬": 33382, "Ġoccurrence": 36122, "Ġfetch": 23673, "yect": 22680, "Ġbullshit": 22676, "Ġexcuse": 8960, "ĠNYU": 42682, "hoot": 24467, "Ġsteps": 4439, "æ²Ĵ": 4913, "Ġëª¨": 11722, "à¤ķ": 41858, "Ã¼hrt": 19647, "Ġclothes": 5534, "ĠrÃ©g": 17563, "Ø¹Øª": 34268, "Ġmaid": 30410, "ÐµÑĢÐµ": 23498, "ortic": 48816, "ĠìĥĿ": 6439, "§a": 11898, "bare": 30682, "Ð»Ð¾Ð²": 21650, "nine": 46140, "<|28.68|>": 51798, "Ġextrapol": 48224, "ĠfaÃ§on": 20725, "Ġdoor": 2853, "Ġmechanism": 7513, "Ġendangered": 37539, "ĠSER": 36772, "ĠHebrews": 44604, "Ð½Ð¾Ð¼": 9950, "éĢł": 37583, "Ø£": 10721, "ĠNeden": 46565, "kin": 5843, "Ġvoulais": 37242, "lr": 40987, "ĠRoberto": 40354, "ĠMand": 15458, "ont": 896, "Ġfelony": 46255, "Ġdement": 29950, "allahi": 24079, "Ġdiscovery": 12114, "150": 20120, "Ġviens": 36421, "Ġmonks": 32201, "ĠÐ¾Ð¶": 35666, "Ġcheerful": 36942, "Ġdietary": 37421, "Ġfeas": 21781, "ĠìĤ¬ê±´": 49653, "ãĥ¼ãĥĪ": 38551, "ĠOracle": 25654, "æĦıæĢĿ": 16697, "ç¬¬ä¸ĢåĢĭ": 40760, "asking": 47211, "Ġintriguing": 32503, "za": 2394, "Ġnumbered": 40936, "SC": 20839, "Ġgoat": 23608, "Ġcro": 4848, "ĠStack": 37649, "Ġairplane": 17130, "ĠlibertÃ©": 49158, "ĠSOUND": 45383, "LR": 31722, "ĠÛģÛĴ": 23905, "wd": 43778, "æ¶": 35681, "ĠÐĴÑģ": 10779, "ĠNuclear": 42528, "ĠBilly": 18179, "Ġcautious": 25278, "Ġcrim": 7857, "Ġtable": 3199, "Ġassists": 49416, "Ġbitter": 13871, "Ġrings": 11136, "Ġdarn": 29063, "<|25.52|>": 51640, "Ġpaprika": 46781, "åıĪ": 17047, "Ġdeuts": 23004, "ĠÐ¼Ð¸ÑĢÐµ": 36822, "ĠTapi": 25386, "ĠÑĢÐ°Ð·ÑĢ": 24051, "De": 11089, "ĠÐ¿Ð¸ÑĪ": 37979, "<|23.88|>": 51558, "ĠÐ²Ð¸Ð´": 6504, "Ġothers": 2357, "encer": 16542, "Ġpup": 19784, "irty": 9340, "quÃ¨": 14460, "Ġkilled": 4652, "ĠÐ·Ð°Ð²": 13388, "ĠBurke": 37396, "ĠBrittany": 41067, "width": 21271, "istine": 42745, "ĠÐ¿Ð¾ÑģÐ¼Ð¾ÑĤÑĢ": 19240, "Ġknow": 458, "elcome": 29504, "Ġingen": 21600, "Ġdeliberate": 30515, "ĠÐ¿ÐµÑĢÐµÐ¼": 35903, "Ġseamless": 28677, "áºŃn": 27410, "ĠBut": 583, "omin": 6981, "forme": 44562, "Ġconfined": 31745, "Ġcompleta": 46822, "uite": 21681, "Ġeher": 24332, "endeu": 36202, "Ġgegen": 13953, "Ġfestivals": 28040, "gebaut": 42858, "ĠÐ¿Ð¾ÑĤÐµÑĢ": 39363, "ua": 4398, "ather": 1172, "ziÄĻkujÄĻ": 29769, "æ¨Ļ": 46299, "Ġë³´ë": 10035, "Ġforgiveness": 18396, "ĠWeihn": 42181, "Ġlonge": 26052, "Ġdaw": 43438, "ĠpassÃ©": 24093, "Ġarchaeological": 42139, "Ġscenes": 8026, "cher": 6759, "ĠHallo": 21242, "Ġwould": 576, "ê°ģ": 7387, "Ġcanoe": 47650, "<|bn|>": 50302, "ĠhÃłng": 48373, "ĠÑģÐ¿Ð°ÑģÐ¸Ð±Ð¾": 37536, "Ġdisappointment": 28175, "emen": 14071, "Ġgleich": 11699, "God": 18358, "night": 6402, "Ġrepres": 2556, "D": 35, "æħ¢æħ¢": 41439, "ĠJP": 34336, "Ġ1700": 43373, "isma": 14795, "Ġvictory": 9812, "Ġ(-": 49979, "lik": 13462, "Ġblending": 23124, "Ġgraduate": 8080, "Ġacknowledgement": 47227, "ĠSignal": 43414, "Ġpreferences": 21910, "ĠTrinity": 33121, "ĠHeroes": 32070, "ĠHell": 12090, "ĠKY": 41150, "Ġpure": 6075, "Ġaggressively": 32024, "SH": 17308, "ĠArms": 42561, "ÑĸÐ±": 42732, "Ġëĭ¹": 12047, "ĠÎºÎ¬Î½": 31492, "Ġganz": 6312, "ìĿĢ": 2124, "ÑģÑĤÐ°ÑĤÐ¸": 23173, "Ø¨Ø¯": 44510, "Ġdistancing": 18567, "Ġhm": 35481, "Ġprecisa": 18861, "ÐºÐ¾Ð»": 24899, "Ġkept": 4305, "Ġdisk": 12355, "æ¨¡": 41908, "Ġforged": 40226, "<|4.80|>": 50604, "Ġbroadly": 19511, "lingt": 45219, "ĠFoods": 40724, "ç²ī": 32993, "ĠFans": 25065, "Ġseasonal": 27421, "Ġjednak": 25897, "dings": 29432, "Ġbardziej": 27209, "Ġrecomp": 48000, "Ġbluff": 44191, "ĠstratÃ©g": 45023, "Ġbili": 20709, "ĠÐ²Ð¾": 7900, "Ø±ÙĬ": 16572, "ê¸´": 17381, "Ġperil": 46118, "Ġhon": 2157, "Ġma": 463, "ĠSay": 6463, "ìĸ´ìļĶ": 4213, "Ġreal": 957, "Ġdizzy": 31098, "ĠChoice": 37080, "Ġcurve": 7605, "ĠDah": 36977, "ĠØ³": 8608, "Ġcharacteristics": 10891, "Ġcá»§a": 11990, "Ġstarter": 22465, "ìĹħ": 11534, "licting": 36580, "Ġsymp": 13240, "point": 6053, "Ġsilos": 48893, "arah": 34420, "Ð°Ð½ÑĮ": 23340, "'...": 37474, "Ġhospital": 4530, "ÅĽnie": 12221, "Ġcolum": 5970, "Ġê¸ī": 44728, "Ġeffectively": 8659, "Ġexamined": 30972, "ĠCoh": 29000, "apse": 11145, "ĠNY": 26032, "ĠLaunch": 28119, "ĠJENN": 35635, "Ġciv": 13779, "round": 5453, "Ġojos": 39519, "Ġsuspicious": 17931, "<|25.94|>": 51661, "ĠPf": 17331, "ĠHallelujah": 32359, "reading": 35908, "rane": 21802, "ĠRA": 14626, "â": 158, "Ġmold": 11102, "!..": 44311, "ãģªãĤĵãģł": 33383, "Ġpc": 43451, "Ġconditions": 4487, "ĠëĤ®": 38601, "Ġhepat": 48372, "ĠìĤ¬ëŀĮëĵ¤": 39570, "ìĽĶ": 17295, "Ġconsiders": 33095, "Ġsubstances": 25455, "Ġ'": 922, "ĠDanger": 36619, "ãĤ¬": 33574, "?.": 27552, "éĹ": 8259, "Ġconfession": 29154, "ĠSpark": 23424, "san": 11491, "Ġstraighten": 32777, "ĠâĻªâĻªâĻª": 31650, "ERO": 37494, "Ġdiscontin": 31420, "ĠWhilst": 45790, "Ġalgebra": 21989, "ĠGru": 10459, "isu": 25871, "ĠTheo": 42519, "ĠSIM": 24738, "Ġorient": 8579, "Ġopted": 40768, "ĠìĤ¬ëŀĮìĿ´": 27660, "ä¸ĸçķĮ": 24486, "ĠADHD": 38680, "ĠYoda": 48697, "ĠThese": 1981, "Ġonu": 20801, "alÄ±m": 12714, "ĠJapan": 3367, "Ġpivot": 14538, "Ġflooding": 24132, "ĠSauce": 36720, "éº»": 38999, "ivot": 13142, "Ġeggs": 6466, "ĠDuygusal": 50090, "ï¿½": 5342, "ĠCaf": 46701, "Ġstraight": 2997, "ĩ": 229, "ĠKe": 3189, "Ġseparately": 14759, "Ġcambiar": 37738, "Ġreunion": 34720, "ro": 340, "Ġaller": 8722, "Ġeraser": 46018, "Ġinterestingly": 25873, "ĠMorocco": 38782, "Ġsitcom": 49530, "ĠWy": 14458, "rus": 13783, "zhou": 37874, "Ġprince": 16467, "osion": 19996, "åĪ°äºĨ": 21381, "ĠBAR": 27952, "Ø§": 995, "amo": 10502, "Ġpharmaceutical": 27130, "ĠSinging": 39483, "step": 16792, "ĠÃ§Ä±kar": 41097, "Ġoutrageous": 38685, "dish": 40974, "ism": 1434, "<|17.86|>": 51257, "ĠrelaciÃ³n": 37247, "ĠHeavy": 26473, "Ġfields": 7909, "å¾ŀ": 21068, "ĠÐºÐ°Ð½": 18276, "Ġcerebral": 43561, "ĠKnowledge": 32906, "Ġmetabolic": 36464, "ĠnÃ³": 6604, "ĠMyers": 45088, "isz": 23848, "istically": 20458, "Ġbueno": 11974, "ĠQiu": 49024, "ĠTim": 7172, "ĠìķĦë§Ī": 37298, "Ġtorpedo": 46764, "ĠSequ": 46859, "Ġsuitable": 12873, "Ġmixture": 9925, "Ġ34": 12790, "Ġquotation": 47312, "Ġcases": 3331, "vio": 28226, "ĠAsh": 10279, "ĠBundest": 43825, "Ġleveling": 40617, "Ã¡ng": 30344, "Ġdialogues": 45551, "ĠMuy": 39586, "Am": 16833, "ĠStephen": 13391, "ĠíĸĪëĬĶëį°": 27418, "Ġ128": 29810, "ĠÂ°": 31462, "Ġshaken": 40971, "Ġbases": 17949, "Ġhappen": 1051, "sti": 39505, "Ġgosp": 37250, "avian": 43108, "ĠBright": 24271, "ceÄŁim": 16807, "ĠëĤĺìĦľ": 43156, "West": 37943, "ĠíĦ°": 39565, "ĠÐ±Ð¾Ð¹": 41029, "Ġbeak": 48663, "Ġframed": 30420, "Ġ))": 32302, "ĠLeh": 42631, "ĠJustice": 10422, "hart": 42535, "íķĺíķĺ": 39385, "iles": 4680, "Ġê±´ì": 46855, "rible": 4457, "ĠTed": 14985, "Ã¼ÄŁ": 22719, "idelity": 33343, "ĠJaneiro": 44711, "illeurs": 14810, "Ġle": 476, "ubs": 5432, "Ġsomebody": 2618, "ëĦ¤": 17507, "ctic": 15518, "Ġbar": 2159, "Ġchinese": 47272, "ĠSilva": 50171, "Ġhelped": 4254, "Ġnay": 34227, "Ġreferences": 15400, "éĺ": 10034, "Ġclub": 6482, "ĠÑģÑĤÐ¾ÑĢÐ¾Ð½": 17635, "Ġê°Ķ": 28676, "Ġnoting": 26801, "chlag": 40869, "asmine": 28151, "Ġenjoyment": 32013, "ĠduÅ¼": 21783, "Ġmechanical": 12070, "Ġblev": 37332, "eous": 14316, "Ġgre": 6066, "Ġscore": 6175, "ographer": 13624, "pta": 47366, "nor": 19048, "Ġinsane": 10838, "Non": 47914, "ĠPrep": 21684, "ĠDebatte": 48930, "ĠOVER": 46090, "cia": 2755, "ĠÑģÐ½Ð¸Ð¼": 28098, "ĠMAC": 27716, "Ġautomatically": 6772, "ĠBurning": 43905, "ĠvÃ¬": 37902, "æĸ°èģŀ": 41002, "X": 55, "Ġcovari": 49851, "æĻ®": 29993, "fal": 36474, "Ġpacking": 20815, "Ġgrounding": 46727, "Ġshortage": 24708, "ĠpolÃŃticas": 45931, "Ġbrowsers": 36069, "Ġvista": 22553, "Ġholiday": 9960, "ĠtÄħ": 32294, "ĠÏĢ": 4654, "<|14.18|>": 51073, "<|2.38|>": 50483, "ason": 1258, "Narrator": 9075, "ruption": 11266, "ĠÐ¸Ñħ": 9642, "ĠBanks": 33081, "ĠVictorian": 37302, "ushi": 16880, "ymm": 32497, "Ġuncheck": 46672, "Ġgracias": 16611, "Ġconventions": 33520, "ĠMaine": 28180, "ĠTutaj": 41819, "Ġanticipation": 35979, "brig": 21674, "le": 306, "ĠÑĤÐµÑĢ": 21168, "lich": 1739, "Ġeyel": 13197, "ĠFelix": 30169, "boom": 48969, "ĠìĿ´ê²ĥëıĦ": 42118, "Ġfas": 30632, "ichtlich": 41971, "ĠÐ¿Ð¾Ð¿ÑĭÑĤ": 46047, "ìŀĲê¸°": 26938, "Ġover": 670, "ifique": 28134, "Ġalerts": 28061, "Ġtutto": 23048, "Î¼Î¿": 31188, "Ġrail": 8765, "Ġnorthwest": 36930, "ÎµÎ¹": 6452, "ookie": 39611, "Ġincentiv": 35328, "ĠTwelve": 48063, "Ġverte": 16167, "ĠElon": 28498, "<|6.46|>": 50687, "Ġorbits": 43522, "Ġprefers": 44334, "ãģ«ãģ¯": 34779, "ĠDidn": 11151, "Ġannotation": 48654, "lings": 20823, "Ġplus": 1804, "Ġdecorate": 24229, "ĠconteÃº": 39065, "Ġhops": 47579, "Ġterrain": 17674, "Ġcelebrities": 23200, "Ġspite": 22794, "ĠHO": 23097, "ĠBIG": 39761, "Ġmultiplied": 17207, "åħ¨": 11319, "Ġraspberry": 41468, "Ġbankrupt": 21780, "ĠPick": 14129, "Ġluxury": 15558, "ĠVietnamese": 25934, "ìļ": 3220, "<|29.66|>": 51847, "ivil": 4639, "vals": 19778, "Ġintercept": 24700, "Ġtitle": 4876, "Ġprotest": 11281, "Ġbite": 7988, "ãģĪãĤĭ": 44547, "ĠTrade": 23923, "ushing": 5371, "<|3.40|>": 50534, "ĠNorm": 8702, "Ġketchup": 29301, "çĶµ": 42182, "ÄĻ": 1274, "Ġworthwhile": 28159, "ĠRepublicans": 12017, "à¸Ļ": 4131, "Ġshuffle": 39426, "ìĬ¹": 30426, "Ġother": 661, "ŃĲ": 4381, "ĠWan": 28932, "Ġlevar": 34538, "Ġconvenience": 19283, "ĠKant": 40927, "Ġsnapped": 41396, "ifice": 10505, "ivat": 44701, "Ġfooting": 45959, "Ġremembrance": 48083, "Ġrelating": 23968, "<|14.22|>": 51075, "×ĺ": 10573, "ĠquÃ¨": 17802, "Ġlaboratories": 41013, "Ġtrucks": 16156, "ĠAsian": 10645, "Ġà®Ĵ": 37240, "ĠÑĢÑĥ": 17292, "Ġzob": 25100, "Ġaj": 17680, "Ã¼nst": 36656, "ĠTHE": 5663, "Ġmanager": 6598, "Ġìķ¼": 13450, "ĠÑģÐµÐ³Ð¾Ð´Ð½Ñı": 17413, "Ġcharter": 27472, "Ġnecessary": 4818, "Ġhelemaal": 33595, "Ġvisual": 5056, "ĠKazuto": 38031, "erry": 5318, "ĠÑĥÐ´Ð¸Ð²": 36459, "ĠDÃ¤r": 40291, "ł¨": 26627, "Cha": 46368, "Ġgown": 34428, "Ġcliche": 46705, "Ġmetros": 34761, "Ġsecrets": 14093, "Ġscheint": 47906, "Ġdurability": 33664, "Ġabsor": 7672, "ĠBased": 18785, "ĠAustral": 5273, "Ġvivre": 34248, "Ġkeen": 20297, "<|6.72|>": 50700, "Ġliqu": 5664, "elect": 14664, "Ġfever": 18277, "adow": 11528, "ĠÏĢÎµÏģÎ¹": 46618, "Ġnaming": 25290, "Ġpreserved": 22242, "Ġrealt": 41133, "Ġlog": 3565, "ãģ»ãģ©": 29050, "ĠÐ¸Ð¼": 7604, "Ġfootage": 9556, "ique": 1925, "áº·": 19118, "Ġmetabol": 19110, "Ġdangers": 27701, "ĠBreaking": 36715, "ĠSPE": 37173, "Ġuseless": 14115, "cha": 4413, "¥´ì": 41390, "Ġeducation": 3309, "ĠmodÃ¨le": 45631, "Ð»ÐµÐº": 16170, "uencia": 47377, "Ġ2022": 20229, "erus": 37287, "Ġmover": 39945, "11": 5348, "Che": 15683, "Ġtemperatures": 12633, "Ġwirklich": 9696, "Ġspheres": 41225, "Ġdemocr": 6366, "åĩºæĿ¥": 44561, "ĠBlaze": 49894, "Ġë§ĲìĶĢë": 41112, "bbles": 45176, "ĠÐ¼Ð½Ð¾Ð³Ð¾": 13347, "Ġsauna": 46654, "å¸ĮæľĽ": 29955, "ĠÑģÑĥÐ¼": 31372, "itis": 16074, "Ġsharpen": 31570, "Ġtych": 15180, "ĠJungle": 44021, "Ġlavoro": 42060, "ieving": 30244, "Ġdeliveries": 46448, "Ġìķħ": 43843, "avilion": 39388, "Ġìĺ¤ëĬĺëıĦ": 47455, "Ġverloren": 44884, "Ġdiez": 48165, "ĠTah": 31027, "×¡": 11996, "ynthesis": 45601, "ĠëŃĺ": 32376, "Ġfind": 915, "UP": 22917, "Ġhard": 1152, "Ġnaar": 12762, "ling": 1688, "Ġescre": 30004, "ĠÐ¿Ð°Ð¼": 39164, "Fih": 17468, "Ġdramatic": 12023, "ĠHist": 9038, "Ġgeil": 47165, "mans": 44734, "Ð¸ÑħÐ¾Ð´": 23947, "ĠSherlock": 37769, "Ã©nt": 37239, "<|17.44|>": 51236, "Ġvá»ģ": 25652, "Ġplanted": 17395, "<|18.20|>": 51274, "Ġconstraints": 18491, "<|6.02|>": 50665, "Ġspanning": 47626, "ĠÐ¼ÐµÑģÑĤÐ°": 43956, "enne": 13295, "ĠBan": 13850, "Ġfeito": 31243, "Ġca": 1335, "ĠKook": 47719, "Ġirritating": 45971, "Cont": 29821, "ë¦¬": 18735, "ĠAccept": 39957, "Ġaccomplishments": 25943, "<|0.74|>": 50401, "ĠPierre": 28461, "ambled": 43390, "<|1.04|>": 50416, "Ġesimerk": 50029, "ĠDig": 10976, "<|sn|>": 50324, "ĠWrest": 23719, "<|11.34|>": 50931, "Ġsentiment": 16149, "flo": 43645, "Jac": 31736, "Ġate": 8468, "Ġchcia": 26497, "Ġfundraising": 32643, "ĠXX": 27050, "Ġsensations": 36642, "ĠAp": 8723, "isst": 45802, "ĠëıĪ": 26963, "Ġmust": 1633, "Ġdivid": 4996, "Ġpitched": 32994, "ĠCrowd": 40110, "Ġtexted": 42553, "Ġmundial": 41740, "Ġidentical": 14800, "udes": 10131, "ĠmuchÃŃs": 29353, "Ġpool": 7005, "ĠFields": 48190, "Ġbas": 987, "payer": 38443, "à¹Ħ": 8809, "ŀĲë": 45863, "Ġhaving": 1419, "Ġcoward": 30776, "Ġcounties": 20583, "Ñħ": 1157, "Ġingl": 35511, "Ġremain": 6222, "Ġliegen": 35100, "Ġë¯¸": 10795, "ĠTroy": 32898, "Ú¯": 16761, "ĠíĮ¨": 35470, "erv": 1978, "ĠÃ©lÃ©ments": 49977, "Ġattachment": 19431, "Ġconverter": 33905, "ĠÐ¿Ð¾Ð¹": 31671, "Ġintersection": 15236, "Ġlosses": 15352, "Ġgekommen": 32732, "ĠMohammed": 41910, "Ġlitigation": 33359, "ĠÑģÐ¾Ð±ÑģÑĤÐ²ÐµÐ½": 44177, "ĠSind": 35405, "<|et|>": 50307, "hhhh": 15242, "Ġdonation": 19724, "ĠoÃ¹": 9068, "Ġcunning": 45891, "ekkÃ¼r": 31629, "ĠSixt": 47374, "ĠRules": 38897, "Ġemphasizing": 45550, "éĮ¢": 29483, "Ġtowel": 15755, "Ġstamp": 9921, "Ġburgers": 28403, "ĠJenn": 12342, "Ġtroops": 11522, "Ġkonkret": 36500, "Ġrodz": 28607,
[...]
