{"Ġcoeur": 45781, "accord": 19947, "Ġbot": 10592, "Ġfunny": 4074, "HE": 23728, "Ġvital": 11707, "ĠBelow": 36261, "ĠMUSIC": 16924, "Ġurgent": 19022, "Ġsurtout": 19903, "Ġrested": 43090, "Ġviolation": 22840, "Ġsolves": 39890, "ĠMedicine": 20338, "<|11.38|>": 50933, "Ġpersonally": 5665, "jÃ¤": 38476, "×Ĺ": 7749, "Ð¿Ð¸Ñģ": 19730, "Shaun": 34512, "<|6.10|>": 50669, "<|18.68|>": 51298, "ARRATOR": 9979, "<|28.30|>": 51779, "vacc": 48976, "ĠBora": 49967, "ails": 6227, "ĠsystÃ¨me": 25142, "ĠSver": 29490, "Ġaway": 1314, "ĠQiu": 49024, "ĠÐ±ÐµÐ·": 10969, "ĠVenez": 19656, "ounds": 4432, "Ġearthquakes": 34048, "ĠÐ½ÐµÐµ": 33518, "Ġtrials": 12450, "Ġintegrate": 13365, "ourd": 21764, "Ġunw": 14853, "andel": 26406, "Ġsafest": 37558, "Ġvoiture": 38859, "Ġsaturation": 27090, "íĸĪìĸ´ìļĶ": 31696, "Ġsubtitles": 42045, "éĿŀå¸¸": 14392, "forest": 36629, "Ġattempts": 15257, "ĠCHAR": 35494, "ours": 5067, "ĠJared": 24160, "Ġportraits": 31880, "ĠGamb": 44643, "Ġà®İà®©": 17337, "Ġgrowing": 4194, "ai": 1301, "esz": 10430, "Ġdrizzle": 48695, "Ġjeste": 25255, "bst": 9690, "Ġpaid": 4835, "ĠSenator": 10893, "Ġchia": 45793, "<|5.44|>": 50636, "Ġpipelines": 40168, "bab": 24301, "Ġthirsty": 28115, "Ã©o": 45805, "Ġtestament": 35499, "rama": 29762, "Ġëĭ¤ìĸĳíķľ": 49679, "ĠìĨĶ": 37255, "Ð¸Ð½Ðµ": 20998, "Ġprostu": 19518, "ĠHigher": 31997, "Ġintersections": 47664, "Ġstip": 37001, "Ġmultiply": 12972, "ĠÑĢÐ°Ð·Ð´ÐµÐ»": 45414, "ĠÐº": 981, "ĠPen": 10571, "ĠtÃ©r": 39324, "Ġprick": 43986, "grÃ©": 36341, "Ġinnoc": 10843, "ĠCompared": 30539, "Ġdescended": 41311, "Ġwebinars": 26065, "Ġprogrammer": 32116, "Ġsocioe": 46327, "Ġamplify": 41174, "ĠÐ³ÑĢ": 11726, "Ġnodes": 13891, "ĠÐ¾Ð¿ÑĢÐµÐ´ÐµÐ»": 39305, "ĠVacc": 48579, "ĠTR": 15176, "Ġxen": 49773, "ĠBrid": 30552, "Ġassets": 9769, "Fin": 50068, "Ġmultiplication": 27290, "rok": 31621, "Ġmic": 3123, "Ġlat": 4465, "Ġlantern": 34031, "manuel": 31385, "Ġdever": 40739, "à¤Ĥ": 31945, "ĠSchutz": 37469, "Ġintroduced": 7268, "ĠTheatre": 27782, "Ġpunishing": 49824, "ĠRong": 43383, "Ġë¶Ī": 16285, "go": 1571, "Ð¸Ð²ÐµÑĤ": 31259, "ĠÙĪØ§ÙĦ": 16070, "Ġcurrent": 2190, "Ġdo": 360, "Ã¡o": 45202, "<|18.50|>": 51289, "ĠTwitch": 22222, "ĠMeet": 22963, "Ġnaught": 13138, "ÑıÑĤÐµÐ»ÑĮ": 37764, "oston": 11966, "ĠStamp": 48011, "cribing": 39541, "ĠEve": 15544, "Ãªncia": 9322, "ĠSolutions": 36295, "Ġbul": 6493, "anha": 37899, "Ġevil": 6724, "ĠThough": 10404, "ĠHarbor": 33740, "éĢĢ": 46361, "ras": 3906, "Ġfalou": 28443, "Ġoficial": 37189, "ĠDepartment": 5982, "mann": 14912, "obed": 44904, "Ġupgrad": 17789, "ĠÑģÑĢÐ°Ð²": 42987, "Ġëķ": 4893, "pir": 9501, "ĠÐ²ÑģÑĤÑĢ": 20569, "Ġhanded": 16013, "Ġtua": 33578, "Ġmanufacturing": 11096, "Ġmilk": 5392, "<|25.52|>": 51640, "Ġstepping": 16821, "ĠÐ¿Ð¾Ð»ÑĥÑĩÐ¸ÑĤÑģÑı": 49579, "Ġtemperatura": 36903, "Ġclaws": 34258, "Ġìĸ´ëĶĶ": 20879, "Ġcivilization": 18036, "Ġenvision": 24739, "ĠÐ´ÐµÐ½ÑĮ": 13509, "Ġstub": 20266, "ĠnÃ£o": 2431, "ĠASH": 20146, "ĠHeroes": 32070, "Ġcase": 1389, "Ġrend": 6125, "ĠdoÄŁ": 18557, "Ġordinance": 40260, "antes": 9327, "Ġjunto": 24663, "Ð¾ÑĢÐ¾Ð½": 48040, "ĠJeffrey": 28721, "cito": 32030, "Ġcathedral": 45346, "irt": 2498, "Ġìŀĳ": 14585, "ĠToronto": 14140, "ĠÐ³Ð¾ÑĤÐ¾Ð²": 17137, "Ġcous": 12304, "ĠET": 36953, "Ġworst": 5855, "Ġ[âĻª": 44529, "Ġrelationship": 2480, "Ġbana": 16832, "ĠAirport": 25784, "Ġloyalty": 22831, "Ġsecretary": 15691, "Ġtreball": 37999, "Ġalte": 38973, "iderman": 47811, "Ġvolont": 40005, "Ġcorro": 45125, "IGN": 38455, "Ġtitled": 19841, "chied": 11805, "<|19.84|>": 51356, "Ġwarned": 21284, "Link": 26822, "ĠolduÄŁu": 30588, "Ã©tais": 22824, "Ġdivisions": 24328, "Ġdist": 1483, "Ġtheat": 30982, "ĠInform": 34301, "affen": 19182, "ĠpÃºblic": 15392, "annon": 16138, "Ġscripts": 23294, "ä¼ĳ": 39437, "ĠCommander": 20857, "Ð¾Ðµ": 5805, "Ġfemmes": 27997, "Ġbeg": 4612, "Ġplastics": 34356, "Ġinclude": 4090, "ĠAuÃŁerdem": 47834, "Ġkindness": 18171, "ĠRX": 46197, "Ġteasing": 37720, "ocate": 42869, "enti": 23012, "Ġmr": 33660, "Ġisso": 4616, "<|22.66|>": 51497, "áºŃ": 9973, "ĠÐ¿Ð»ÑİÑģ": 43342, "wnie": 14215, "Ġtax": 3366, "Ġtulee": 40038, "itage": 12069, "ĠAsh": 10279, "Ġlangu": 2510, "Ġtong": 9124, "âĹ": 38347, "ĠAI": 7318, "rew": 2236, "Ġmercado": 24775, "Ġfacade": 46261, "ĠJose": 8635, "80": 4702, "Ġunusual": 10901, "Ġneither": 9662, "ĠDual": 37625, "Ġexisting": 6741, "inking": 12408, "Ġinvolved": 3288, "Ã©r": 4198, "ĠFranÃ§ais": 39023, "Ġruh": 36614, "Ġprosecut": 21015, "indet": 49419, "lege": 35754, "èĳĹ": 19382, "¡Ń": 42087, "origine": 49168, "Ġmisery": 32309, "Ġadvancing": 27267, "cesso": 43611, "èĤ": 14356, "ĠÃŃ": 18645, "ĠZa": 31440, "ĠResearchers": 43555, "VA": 20914, "ÑĥÐ¿": 6907, "Ġcompleting": 19472, "è±Ĩ": 45169, "..": 353, "ĠìĿ´ìłľ": 8424, "Ġalguns": 20210, "ĠIranian": 24934, "Ġlonely": 14236, "ĠØ§ÙĦØªÙĬ": 38392, "Ġricher": 29021, "Ġuns": 2693, "ĠìĿ´ë¯¸": 30099, "Ġlowers": 44936, "Ġêµ°": 45644, "Ġinherently": 27993, "Ġdefer": 25704, "onent": 30365, "irsiniz": 34054, "ĠRamadan": 39848, "Ġbeiden": 23446, "ĠSchw": 17576, "Ġdurchaus": 42840, "<|20.30|>": 51379, "<|2.88|>": 50508, "avy": 15498, "Ġcrawl": 24767, "Ġhaben": 3084, "Ġwealthy": 17707, "ienda": 30498, "ronic": 10011, "Ġ×ĵ": 17433, "ç©¶": 44704, "Ġlifts": 30501, "ĠLORD": 29818, "Ġtemporada": 41983, "ĠWhoops": 45263, "Ġfingerna": 48880, "ø": 180, "ĠAndroid": 8853, "Ġacompan": 34839, "áº½": 15740, "Ġsins": 13815, "ĠPete": 19013, "ĠKivol": 27506, "Ġprotocols": 20618, "funding": 45033, "Ġpump": 5889, "Ġillustrated": 33875, "ĠBelg": 19234, "×¨": 2986, "os": 329, "Ġblades": 20066, "Ġalerts": 28061, "Reg": 40888, "ĠGee": 39840, "èĪ": 10256, "ĠShap": 44160, "LED": 23459, "ĠìĿ¼ìĿ´": 42848, "ĠNick": 9449, "Ŀ½": 20523, "Ġinvestor": 18479, "Ġsoft": 2787, "Ð°Ð½ÑĤÐ¸": 47483, "ĠgÃ¼zel": 14746, "arten": 11719, "Ġutilized": 28158, "Ġpatio": 42924, "security": 31004, "Ġì³": 43517, "Ġmuss": 6425, "Ġpity": 21103, "ÙĪØ¯": 23328, "ĠÑģÐ²ÑıÐ·": 22430, "Ġ:)": 11201, "iÄĻdzy": 49485, "Ġprimera": 17382, "×¦×Ŀ": 47239, "Ġdemasi": 35259, "Ġconstitutional": 20176, "Ġproduk": 33699, "ĠPanz": 45932, "ĠBro": 5425, "Ġreconstruction": 31565, "Ġcall": 818, "ielt": 18940, "ÑĮ": 678, "Ġhollow": 23972, "Ġmanners": 34672, "ĠDear": 14383, "ĠFirebase": 35173, "<|22.26|>": 51477, "Ġvalle": 40699, "Ġoverth": 30998, "Ġ175": 41165, "ĠMoon": 10714, "Ġflat": 4962, "ĠWong": 41638, "ĠrÃ©uss": 28099, "Ġorthogonal": 41488, "Ġhypothesis": 17291, "<|9.32|>": 50830, "Ġëĸłë": 48158, "Ġdram": 7538, "<|0.16|>": 50372, "Ġactually": 767, "ĠkaÃ§": 23916, "casting": 48860, "Ġhtt": 22881, "ĠYes": 1079, "ĠÐ½Ð¾Ð²ÑĭÐ¹": 38121, "Ġì¸¡": 41696, "Ð¾ÑĤÑĮ": 32040, "ĠTravis": 24430, "ê°Ķ": 31170, "ĠScript": 15675, "ÐµÐ½Ð¸ÑĤÑĮ": 44436, "bin": 13496, "Ġinformed": 11740, "ĠPCs": 46913, "Ġgaz": 26232, "ĠmÃ¶glich": 16294, "Ġpassages": 31589, "Ġweakness": 12772, "Ġkel": 31332, "Ġesas": 23388, "Ġfacto": 42225, "Ġmineral": 21630, "Ġsank": 43746, "Ġsa": 601, "ĠWu": 17287, "åį": 5322, "abord": 26100, "singing": 21568, "ĠOF": 11944, "ê±¸": 14562, "onnen": 34269, "Ġbout": 15738, "Ġacademically": 48944, "ìķĪë": 49200, "Ġê±´ë": 39626, "ĠÐ³Ð¾ÑģÑĥÐ´Ð°ÑĢ": 42950, "math": 24761, "<|tr|>": 50268, "ä»Ĭå¤©çļĦ": 34947, "ĠRepublic": 5564, "Ġspoons": 36316, "HAN": 24496, "Ġparlar": 45803, "IR": 7740, "ĠÐ³Ð¾Ð²Ð¾ÑĢÑı": 42210, "Ġsuspicion": 32020, "ĠNan": 18852, "ĠÑģÐ²Ð¾Ð¸Ð¼": 37337, "oyu": 45269, "Ġstrony": 32406, "fox": 38416, "ħ": 227, "Ġproblem": 1154, "<|14.66|>": 51097, "ĠErm": 45794, "Ġdoubling": 33651, "´ë¥¼": 35101, "×ķ×Ĳ×": 36440, "éĢ±": 38003, "ES": 2358, "eme": 5729, "ĠCuban": 31547, "Ġprejudice": 34260, "Ġliqu": 5664, "ĠCatch": 23869, "Ġgraduation": 15652, "ĠLion": 21704, "Ġë©": 8514, "Ġmau": 22074, "ĠBecause": 1436, "ĠÏĢÎ¿Î»Ïį": 36047, "Ġpromin": 39225, "Ġplates": 14231, "ÐµÐ·": 3634, ");": 34446, "Ġspacecraft": 22910, "ĠÐ¾ÑĢÑĥÐ¶": 46802, "ĠRanger": 34222, "Ġtribes": 19035, "Åºniej": 33405, "Ġentails": 50133, "Ġsaya": 9160, "yd": 6655, "Ġcorr": 38576, "ĠGU": 17917, "ĠWilliam": 6740, "Ġcampa": 37597, "ipples": 37674, "ĠSpider": 17733, "ĠSale": 48922, "Ġdictate": 36071, "ĠìķĦìĿ´": 25130, "Ġcontro": 1583, "adÄ±m": 33324, "Ġhunt": 12454, "Ġcohesive": 43025, "oubtedly": 32135, "alta": 37896, "Ġbuddy": 10340, "Äį": 10236, "§¤": 28728, "æ³¨æĦı": 40794, "Ġcollection": 5765, "Ġprivilege": 12122, "ĠsÃ©cur": 32384, "Ġinvolvement": 17447, "Ġdifference": 2649, "<|10.08|>": 50868, "ĠÑı": 2552, "Ġbaixo": 30934, "Ġelo": 38682, "ĠGuardians": 45236, "å¼Ģ": 18937, "ys": 749, "rados": 40491, "Ġantibody": 34507, "Ġpioneers": 47381, "ĠObrig": 45619, "Ġclouds": 12193, "ĠMonet": 47871, "izard": 17523, "Ġwiring": 27520, "ĠÐºÐ¾Ð½ÑĤÑĢ": 33271, "Box": 34980, "<|12.92|>": 51010, "Ġconverted": 16424, "Ġfluff": 41533, "ĠSuzuki": 49457, "des": 14792, "ê°ĢëĬĶ": 28391, "<|5.28|>": 50628, "Ġfreaking": 14612, "7": 22, "ĠÐ³Ð¾Ð²Ð¾ÑĢÐ¸Ð»": 39801, "Ġphosph": 19775, "Ġgrandi": 45155, "Ġdynamics": 15679, "ĠPhilippines": 20153, "èĻŁ": 18616, "ieri": 45980, "aeda": 43973, "Ġherbs": 21426, "ĠNou": 28843, "íĥģ": 30182, "ĠÃ¥r": 19525, "Ġlicence": 49047, "ĠDOM": 35727, "Ġcrop": 9086, "Ġvigilant": 45737, "Ġdebates": 24203, "ĠÐ°ÐºÑĤÐ¸Ð²": 30239, "Î¼Î¿": 31188, "ĠuÅ¼y": 34097, "ĠÐŁÐ¾ÑĤÐ¾Ð¼": 45941, "Ġ300": 6641, "driven": 25456, "uring": 1345, "Ġturbine": 27536, "Ġinlet": 36961, "Ġgraphical": 35942, "Ġconsciously": 32538, "é¬": 32506, "Ġsu": 459, "Ġgua": 30081, "Ġempez": 18730, "Ġhandout": 48785, "Ġtrabalhar": 35531, "ãģĺ": 9257, "ĠdÃ¼": 19378, "bourne": 24905, "Ġrecess": 16417, "ÑģÑĤÑĢÑĥÐº": 36526, "Ġcolocar": 17568, "ĠÎĺ": 30128, "ĠAustria": 26501, "Ġestou": 17660, "done": 45939, "Ġabus": 48819, "ĠRub": 10518, "ÑģÑĤÑĢÐ°": 40871, "Ġwavelength": 22907, "Ġsharp": 8199, "Ġstone": 7581, "Ġnegotiated": 39028, "Ġgolf": 12880, "Ġsorte": 25559, "Ġspecifically": 4682, "ksen": 39296, "ĠìłĲ": 20060, "Ġngh": 29338, "Ġhome": 1280, "Ġgraphic": 14089, "ĠcoÅĽ": 19241, "cot": 48477, "ĠONE": 22026, "Ġtid": 9422, "uck": 1134, "ĠÎºÎ¬": 26751, "wick": 16038, "ĠMusk": 26019, "Ġalliance": 20995, "lara": 17736, "Ġmiser": 17725, "ĠKennedy": 16517, "ĠâĻª": 931, "Ġfamine": 42790, "ĠYuk": 27975, "ê¾¸": 31968, "Ġãģ§ãģĻ": 26063, "asc": 4806, "Ġarmour": 36554, "ĠShout": 32749, "Ġjunction": 33718, "ĠìŀĪìľ¼ë©´": 35783, "Ġexceeded": 38026, "ĠÐ¾ÑĤÐ´": 22243, "Ġputting": 3372, "ìŀ¬": 16666, "Ġìĺ¤ëĬĺ": 8880, "à¸ģ": 6223, "Ġlee": 46571, "Ġnik": 44336, "ĠRog": 11860, "ĠDebat": 42167, "Ġstri": 3575, "ĠìĥĪë¡ľìļ´": 41088, "Station": 19468, "Ġaudience": 4034, "Ġ×Ķ×¤": 31175, "ĠBrittany": 41067, "ĠÐĲÑĢ": 32091, "Ġhet": 3639, "Ġtransit": 17976, "Ġobtain": 12701, "Ġfou": 32012, "Ġhass": 33690, "Ġchairman": 22770, "Ġatroc": 43530, "ç¾ħ": 36004, "Ġestem": 50185, "ë³µ": 26773, "Ġpoets": 38364, "<|26.30|>": 51679, "<|22.62|>": 51495, "ĠAdvis": 31407, "Ġtreats": 19566, "cool": 28155, "ĠHop": 13438, "Ġheartbreaking": 41030, "Ġindicators": 22176, "BR": 11609, "ĠLes": 6965, "Ġcoisa": 9614, "Ġbelle": 28770, "Ġiterate": 44497, "ĠÑģÐ¾Ð²ÐµÑĢÑĪÐµÐ½Ð½Ð¾": 37075, "ÐºÐ°Ñħ": 18366, "sama": 37275, "Ġcaminho": 37215, "Ġave": 3472, "Ġindustries": 13284, "Ġede": 25959, "Ġrounding": 48237, "ajÄħ": 11133, "ĠHeavenly": 38352, "Ġfactories": 24813, "Ġrho": 20293, "Ġsomethin": 39374, "©ng": 21077, "Ġbusy": 5856, "ÑĥÐ»ÑĮ": 13618, "ĉ": 197, "Ġemitted": 44897, "ĠÐ¿Ñĥ": 30836, "opoly": 27891, "ĠAllied": 45620, "Ġthen": 550, "Ġpik": 49928, "Ġprohib": 16015, "Ġwashed": 16300, "ĠÐ¸ÑģÐ¿Ð¾Ð»ÑĮÐ·Ð¾Ð²Ð°ÑĤÑĮ": 33728, "¦¬ë": 7134, "Ġseit": 16452, "Ġguarantee": 10815, "Ġelev": 7701, "ĠtambÃ©": 22562, "ÑĪ": 1198, "ĠCommunity": 10421, "ĠÐ»Ð¸Ñĩ": 29936, "warz": 31991, "ĠBennett": 40620, "Ġcompact": 14679, "Ġjuga": 14462, "aders": 15221, "Ġåı¯ä»¥": 43269, "Ġfeet": 3521, "orno": 21998, "Ġmeasure": 3481, "ĠIII": 16317, "Ġexcellence": 21268, "ìĥģìĿĦ": 46032, "Sha": 23429, "Ġprivileged": 25293, "ierno": 19689, "ÄŁin": 31955, "Ġdeterminant": 41296, "elo": 10590, "Ġran": 5872, "Ġupset": 8340, "ĠÕ": 14822, "<|4.80|>": 50604, "tail": 14430, "Ġbombard": 42894, "ĠTruck": 44600, "ĠShopify": 43991, "Ġl": 287, "ĠIG": 26367, "ocado": 21636, "usters": 17181, "Ġumbrella": 21925, "Ġdistract": 9945, "Ġsap": 18985, "ĠSuper": 4548, "gam": 33815, "ĠDoc": 16024, "ĠChannel": 13553, "ĠÐ·Ð°Ð½Ð¸Ð¼": 25396, "gan": 1275, "kie": 22872, "<|19.24|>": 51326, "ĠPage": 21217, "Ġestud": 13542, "Ġbetray": 15560, "Ġstealth": 25756, "ÑĢÐµÐ¹": 42578, "BACK": 40880, "Ġphotographer": 19494, "wang": 19031, "Ġshot": 3347, "Ġspots": 10681, "ĠÃ©l": 11810, "Ġimports": 41596, "Ġsnow": 5756, "Ġ30": 2217, "ĠINF": 35971, "idan": 31675, "Â": 126, "Ġcinnamon": 22969, "Ġgrief": 18998, "Ġallerdings": 35489, "è¶ħ": 19869, "Ġzost": 31873, "ëĲĲ": 49280, "ZY": 26888, "lerini": 33760, "Ġpowin": 27310, "Ġshut": 5309, "ìĻ": 5485, "âĢĮ": 47807, "Ø§Ø®": 47283, "Ä±yor": 7618, "sud": 49800, "ĠbÄĻdÄĻ": 39240, "Ġunlike": 8343, "Ġmontage": 40184, "ĠÑħÐ¾ÑĩÐµÑĤÑģÑı": 48453, "Ġwritings": 30083, "RL": 10740, "Ġconson": 30843, "Ġmultic": 30608, "Ġbegins": 7338, "Ġsignatures": 32322, "OW": 5769, "Ġtool": 2290, "ĠMent": 33140, "Ġplais": 29286, "ĠJae": 20916, "forward": 13305, "Ġfr": 431, "Ġtreated": 8668, "ĠBurns": 41195, "ĠXing": 33040, "Ġwell": 731, "<|1.24|>": 50426, "<|27.32|>": 51730, "ÐºÐ°Ñı": 14801, "SL": 47012, "cznie": 19923, "ĠMath": 15776, "nosis": 46080, "htaking": 46275, "ĠëĬ": 7707, "aceut": 23645, "uled": 45893, "ĠÐ½Ð°Ð¶": 35675, "hoven": 33654, "ĠTamil": 39938, "ĠSpeaking": 13069, "Ł¬": 6235, "ĠTob": 26350, "ĠRecords": 31928, "Ġaltura": 39398, "Aust": 47215, "zel": 12971, "Ġeinen": 4891, "ĠBrazilian": 23435, "Ġsto": 22784, "ritos": 42887, "kat": 20876, "itet": 16341, "Ġdescend": 16333, "Ġnerves": 23078, "ĠAth": 16487, "ĠBrexit": 24480, "ilingual": 38219, "ĠAct": 3251, "<|27.42|>": 51735, "éĤ£éº¼": 20504, "Ġreconsider": 40497, "ÐµÐ·Ð´Ðµ": 46683, "Ġpediatric": 27477, "Ġsoon": 2321, "ĠpÃ©ri": 36321, "ĠGos": 41272, "ĠIRA": 37993, "Ġhabitat": 20110, "íĨµëł¹": 39045, "ĠShu": 26655, "Ġespecial": 15342, "ĠBT": 31144, "ĠInformationen": 46753, "ĵ¤ëıĦ": 46313, "Ġuz": 16851, "ĠDang": 29580, "Ġhighlighted": 17173, "man": 1601, "amb": 2173, "Ġpore": 41459, "Ġleftovers": 43011, "à¸Ī": 14190, "ounced": 37879, "ÿ": 187, "<|9.18|>": 50823, "Ġeaten": 12158, "ny": 1634, "Ã¤ng": 9935, "Ġfather": 3086, "Ġfait": 3887, "Ġmiteinander": 43127, "Ġsque": 8447, "Arin": 47405, "Ġfra": 6600, "cled": 24804, "<|15.42|>": 51135, "ĠStuart": 36236, "ĠÑģÐ»Ð¾Ð²": 20319, "Ġpublications": 25618, "nants": 41508, "comes": 9055, "Ġteachings": 21037, "ĠCre": 9549, "Ð¾Ð²Ð¾Ð¹": 29825, "Ġnotably": 31357, "ĠMission": 20170, "ĠSelbst": 29712, "SC": 20839, "imizi": 40813, "Ġzoning": 37184, "believably": 41268, "ĠÄ°ns": 45379, "Ġlake": 11001, "Ãªs": 11987, "Ġanybody": 4472, "unes": 15001, "White": 47589, "<|8.68|>": 50798, "ation": 399, "ĠMatrix": 36274, "Ġak": 9308, "ĠArgent": 15183, "Ġpickup": 25328, "ĠSymphony": 46891, "DB": 27735, "AUDIENCE": 37152, "culus": 36002, "Ġanim": 2383, "ĠìĿ´ìł": 41049, "Ġplugging": 42975, "acas": 43786, "Ġcumin": 40950, "ĠChild": 9004, "Ġclinically": 48392, "Ġ1984": 27127, "ĠPron": 27723, "Ġseparation": 14634, "ĠBike": 45699, "Ġannih": 40430, "committee": 47235, "Ġbuying": 6382, "Ġata": 48639, "ĠHarper": 37216, "Ġbiography": 37062, "ĠJu": 13582, ",\"": 2494, "Ġwife": 3836, "ommen": 5132, "ĠìĺĪë": 22551, "ĠTaylor": 12060, "Ġsiihen": 40581, "Ġdessus": 30677, "Ġweather": 5503, "Ð°ÑĢÐ¸Ñī": 43028, "ĠSurface": 36052, "<|29.16|>": 51822, "<|notimestamps|>": 50363, "Ġìľ¤": 36844, "<|13.46|>": 51037, "Ġclub": 6482, "Ġvia": 5766, "icional": 33010, "rh": 48759, "ĠDV": 17021, "åı": 2129, "Ġdetection": 17784, "meric": 1555, "Ġestate": 9749, "Ġepisodes": 9313, "Ġgobierno": 29254, "ĠMargaret": 24177, "Ġtys": 38156, "Ġemployee": 10738, "osity": 20373, "Ġsooner": 15324, "ovan": 47936, "ĠÐ³Ð»": 10735, "Ġstrains": 39110, "ĠParker": 20155, "Ġclosing": 10377, "Ġculinary": 39273, "ĠTitan": 17731, "ĠmaniÃ¨re": 22267, "Ġration": 24258, "Ġearned": 12283, "chuss": 36695, "ìĭ¬": 12766, "<|startoftranscript|>": 50258, "illery": 25857, "Ķë": 3261, "ĠTesting": 45517, "ĠÑģÑĢÐµÐ´": 20446, "Ġfrater": 41168, "ĠInstr": 39785, "å¥¶": 42525, "<|ne|>": 50313, "ÑĸÑĹ": 29536, "Bill": 49783, "Ġdescription": 3855, "ĠÐ¿Ð°ÑĢ": 11813, "ĠStelle": 26629, "ĠWhether": 8503, "Ġsmooth": 5508, "Ġpenis": 28282, "Good": 14649, "ĠÐ·Ð²ÑĥÑĩ": 48031, "Ġsod": 15047, "Ġsir": 4735, "ographical": 48434, "ĠëŃĲìķ¼": 18410, "ĠJOSH": 36883, "<|19.70|>": 51349, "Ġ×ŀ×¦": 44015, "<|27.00|>": 51714, "ìĿĳ": 27994, "ì£¼ëĬĶ": 35541, "Ġfulfilling": 25800, "Ġthroughout": 3710, "45": 8465, "Ġmitad": 46895, "Ġtener": 11640, "Ġmisses": 29394, "aÄĩ": 43379, "Ġhealth": 1585, "Ġshops": 14457, "éĻĲ": 43446, "è·³": 29366, "ĠWeb": 9573, "lett": 32547, "NET": 35554, "ĠFire": 7652, "ĠA": 316, "Ġinspirational": 33554, "Ġain": 7862, "æ³": 6847, "ĠfrÃ¥": 13237, "ĠCommand": 17901, "è³": 13352, "prend": 32725, "Ġnegotiation": 27573, "ĠNonetheless": 45437, "Ġreiter": 25211, "Ð½Ð°ÑĩÐ°Ð»Ð°": 33755, "ĠShare": 14945, "Ġwprowad": 46733, "Ġsitzt": 49734, "Ġzweite": 37456, "ìħĶìķ¼": 45911, "fle": 38921, "LET": 43727, "aton": 25781, "zony": 44479, "ĠDamas": 49327, "Af": 32104, "ĠWeise": 41947, "Ġregardless": 10060, "Ġconstantly": 6460, "Ġnered": 28085, "¶Į": 20353, "ÑĭÐ²Ð°Ð¹ÑĤÐµÑģÑĮ": 46944, "Ġruth": 38225, "CTV": 41391, "å¿": 4263, "ĠOrange": 17106, "fik": 31230, "Ġveloc": 7806, "ĠÐ¾Ñī": 40065, "Ġcoherent": 36239, "Ġê°Ĳ": 10892, "Ġassert": 19810, "Ġdoit": 19193, "ĠRAW": 40539, "CHEERING": 41294, "Ġinstruction": 10951, "Ð»Ð°ÑĢ": 23988, "áº¥": 6785, "Ġperf": 13826, "ĠÐ¾ÑĤÐºÑĢÑĭÐ²": 44543, "æľĽ": 22694, "ĠAmer": 22597, "****": 24396, "ĠÐ¿Ð¾Ð´Ð¿Ð¸Ñģ": 27386, "ĠÐ±Ð¾Ð»ÑĮ": 7351, "<|24.42|>": 51585, "ĠgÅĤ": 18117, "ĠBuzz": 29209, "<|9.80|>": 50854, "Ġmotto": 32680, "Ġmunicipal": 27177, "ĠDN": 21500, "da": 2675, "ĠDenver": 26270, "Ġwrit": 10912, "Ġscrap": 23138, "ĠÑĢÑıÐ´": 32921, "Ġdenen": 19998, "inda": 6837, "ĠInaudible": 48655, "Ġarab": 38557, "¯¸": 6587, "Ġoptimal": 16252, "ĠCem": 48852, "Ġinstitutions": 8142, "iment": 2328, "ĠÑįÑĤÐ¸": 11012, "ĠÐ¿ÑĢÐµÐ²": 34393, "Donald": 15111, "Ġvivid": 23603, "ĠChristianity": 17326, "ĠNoise": 44821, "Ġearth": 4120, "ĠLegion": 33024, "Ġdemands": 15107, "Ġcau": 42951, "Ġpegar": 22418, "Ġninth": 28207, "MER": 42620, "íĮ": 7827, "ĠUna": 15491, "Ġquello": 22813, "ĠØ¥ÙĦÙī": 30731, "Ġobject": 2657, "Ġcomplaints": 19585, "Ġshuttle": 26728, "ĠUm": 3301, "ĠMich": 3392, "Ġpersonne": 17219, "Ġcoarse": 39312, "Ġì°": 5122, "P": 47, "ror": 2874, "istling": 37174, "iennent": 28977, "æĺ¯ä»Ģéº¼": 35851, "Ġevolved": 14178, "Ã®": 7517, "guard": 27547, "ĠAnth": 12727, "Ĉ": 196, "Ġbeide": 35831, "Ġ73": 28387, "Ġindifferent": 48502, "Ġë¬´ì": 12540, "Ġbeni": 19723, "Ġminut": 13951, "Ġkara": 29555, "ĠBild": 15746, "ĠTry": 6526, "æº": 16084, "ĠbÃ¼tÃ¼n": 27977, "Ġmilit": 19142, "Ġvirtual": 6374, "Ġmainten": 7780, "æ¬¾": 48798, "aland": 12789, "Ġaucun": 35361, "Ġvolcan": 31117, "Ġpossibility": 7959, "aren": 4484, "esse": 7357, "ĠÎĮ": 43692, "ĠDiese": 18993, "Ġhinge": 28822, "ĠEmpire": 12197, "ĠCorner": 42391, "Ġzwr": 49111, "Ġpequ": 26758, "ĠÐ¿Ð¾Ð½Ð¸Ð¼Ð°Ñİ": 35112, "ĠRJ": 46810, "ĠGuin": 44117, "Ġeconomy": 5010, "omat": 34295, "gef": 13529, "kra": 42913, "ĠResistance": 45647, "ĠConfederate": 45000, "ĠduÅ¼o": 26673, "Ġlangue": 40318, "Ġattrib": 9080, "ĠìĤ´ì§Ŀ": 22384, "ĠLima": 50217, "usive": 23053, "Ġais": 24938, "Ġfried": 10425, "Ġoverlooked": 32269, "Ġreliably": 49927, "ÐµÐ¶Ð´": 41979, "ughter": 2395, "ĠKurd": 32305, "ĠÐ±ÐµÑģÐ¿": 32971, "įëĭĪëĭ¤": 27169, "ĠDieses": 39201, "ĠScient": 18944, "ĠÑĩÐµÐ»Ð¾Ð²ÐµÑĩ": 41365, "maal": 30371, "iek": 19487, "ĠìķĪ": 4811, "Ġalgo": 8655, "Ġmacam": 44921, "ĠÑģÐ¾Ñģ": 33165, "ĠFreund": 29685, "ĠSoul": 13588, "Ġtermin": 10761, "Ġalarms": 45039, "'...": 37474, "ĠUms": 46963, "Ġfunds": 8271, "Ġacre": 32656, "Ġroadmap": 35738, "æĥ³": 7093, "bsp": 22424, "ĠOut": 5925, "è¨±": 40914, "teokbokki": 34357, "çµĤ": 29371, "ĠGORDON": 35269, "Ġtad": 29622, "ĠAlex": 5202, "ĠAnnie": 26781, "ĠÐ±Ð»Ð¾Ðº": 42222, "Ġì§Ħíĸī": 32544, "Ġdisturbing": 21903, "ĠAry": 39960, "Ġlambda": 13607, "ĠìĬ¤íĥĢìĿ¼": 45881, "èĢĮå·²": 48420, "ĠTerra": 25366, "Ġfragrant": 37296, "Ð¾Ð²Ð°Ð½Ð¸Ðµ": 36136, "Ġveux": 16389, "ĠÄĳi": 13264, "ÑĤÐ¾ÑĢÐ¸Ð¸": 47772, "laughs": 3608, "çĹħ": 30986, "Ġwaits": 40597, "kiego": 42349, "Ġwish": 3172, "Ġâĸ": 29405, "Ġsigma": 12771, "Ġhaving": 1419, "Ġ×ľ×Ķ": 13995, "Ġros": 18953, "ÑıÑĤÑĮÑģÑı": 40986, "¶Ģ": 6301, "DA": 7509, "ĠPis": 43263, "ì¸ł": 34130, "Ġnicht": 1979, "Ġvorher": 29195, "Ġviolence": 6270, "ìĻĢ": 7590, "à´": 46503, "Ġfacebook": 23372, "Ġtherm": 8810, "Ġmasala": 35614, "ÐµÐ²Ð°": 35946, "cely": 42879, "ĠAntes": 39325, "ĠDES": 27083, "Ġrefin": 44395, "ãĤĤ": 4801, "ĠÐ¿Ð¾Ð½Ð¸Ð¼": 15084, "Ġorganizing": 17608, "haft": 25127, "ĠSAS": 33441, "Ġbinder": 45630, "ISTIN": 40346, "<|7.08|>": 50718, "Ġerre": 28641, "Ġintentions": 19354, "ĠSystem": 8910, "aco": 11428, "aci": 22086, "Ta": 35676, "ÑĸÑģ": 32738, "èŀ": 43772, "Ġalter": 11337, "Ġban": 5643, "ĠÐ²Ð¸Ð´Ð½Ð¾": 41239, "ĠDis": 4208, "fest": 32348, "Ġallein": 37673, "ĠRiot": 49536, "Ġdarum": 27313, "ĠEntwicklung": 39654, "Ġdoet": 44138, "ĠíĳľíĺĦ": 34232, "ÐĶÐ°": 15839, "ĠÑĢÑĭÐ½": 37314, "orsun": 8450, "ĠBitcoin": 11414, "ĠTitle": 26768, "onscious": 11941, "íĸĪëįĺ": 30504, "acting": 41090, "ĠbugÃ¼n": 37141, "ĠktÃ³rych": 30382, "<|19.68|>": 51348, "Ġcough": 22777, "Ty": 22464, "ega": 6335, "Ġfera": 50169, "ĠManuel": 34362, "Ġpers": 868, "Ã©qu": 20183, "<|24.06|>": 51567, "ĠPara": 11107, "Ġcompatibility": 34237, "Ġlayer": 4583, "Kap": 35372, "Ġvisits": 17753, "Ġunited": 18883, "erman": 11821, "version": 29153, "ĠDeveloper": 44915, "ĠHeh": 34984, "ĠKiss": 24297, "Ĥł": 24095, "è¨ĺå¾Ĺ": 30872, "ĠObserv": 42547, "Ġinne": 24170, "Ġnasty": 17923, "jourd": 13111, "Ã¡fic": 23858, "ĠExercise": 44307, "ë²Ī": 22050, "Ġcompounds": 21810, "ĠhÃ¤r": 6533, "ĠLl": 32717, "Ġorigins": 22721, "Ġfresh": 4451, "Ġhospital": 4530, "Ġintroduces": 31472, "ĠEvil": 20528, "Is": 6802, "5000": 44557, "ĠSet": 8928, "ĠBened": 39753, "Ġfunctional": 11745, "ula": 3780, "Ġautonom": 18203, "ĠØµ": 20328, "ĠkaÅ¼dy": 31615, "Baby": 39767, "Ġfriction": 17710, "Ġpuis": 9093, "ĠÐ³Ð¾Ð»": 14932, "ion": 313, "Ġforma": 8366, "ĠShop": 16319, "+.": 45585, "Ð°Ð·": 1990, "ĠJerusalem": 15393, "Ġtheatre": 18711, "ĠÑħÐ¾Ð´": 23571, "Ġsaute": 41223, "Ġtradition": 6994, "Ġweave": 29145, "ĠmÃ¡xim": 31031, "Ġfuck": 3275, "Ġkeh": 39616, "ĠGenius": 45818, "ĠÑģÐ¿Ð¸Ñģ": 49918, "ĠMoscow": 18298, "Ġabsolutamente": 49285, "ĠÐ°Ð¼ÐµÑĢÐ¸ÐºÐ°Ð½": 46263, "Ġleaked": 31779, "ĠÐłÐ°Ð·": 28972, "ĠThree": 6244, "ĠCay": 38287, "Ġgelir": 44011, "Ġtestimon": 30963, "ĠHof": 37379, "Ġnavig": 7407, "ĠScholars": 33846, "ariamente": 45149, "Ġìĸ´ì¨Įëĵł": 49856, "08": 16133, "<|16.18|>": 51173, "ĠDreams": 41887, "program": 32726, "ĠZelda": 25298, "Ġinitiation": 43569, "Ð´": 856, "Øµ": 9381, "Ġmismos": 47458, "ĠÐ»ÑİÐ±Ð¾Ð¹": 42803, "Ġletters": 7825, "ext": 3828, "ĠÐ¾Ð±Ñģ": 47963, "ĠArmen": 22302, "Ġchocolates": 42018, "kem": 29597, "Ġverb": 9595, "Ġdisse": 17581, "Ġvuelta": 41542, "Ġ100": 2319, "Ġcannot": 2644, "ãĤį": 12488, "ëĬĶ": 1098, "Ġsentiments": 41146, "ĠWAR": 48331, "Ġprospective": 39377, "ill": 373, "Ġnoche": 29735, "Ġìĺ¤ì¼ĢìĿ´": 30567, "Ġbutt": 6660, "Ġpairs": 15494, "ĠOtto": 41716, "ĠtambÃ©m": 6274, "ĠDas": 2846, "raÃ§Ã£o": 37864, "Ġ2010": 9657, "RI": 5577, "ĠÐ¾Ð¿ÑıÑĤÑĮ": 31545, "Ġlasting": 20714, "Ġfloating": 12607, "ĠJON": 27838, "raits": 29323, "ĠAlors": 9946, "Ġsued": 33864, "ì§": 1372, "Ġsofa": 28668, "ĠLaunch": 28119, "ĠCDs": 45257, "ĠÃ¼Ã§": 29630, "Wait": 20376, "Ġsucc": 21578, "Ġdirectory": 21120, "Ġfountain": 29451, "ĠCause": 10865, "Ġdarkest": 33460, "ĠpiÃ¹": 10589, "kke": 47764, "Ġties": 14039, "Ġiets": 24791, "oure": 44283, "Cause": 7585, "ĠDort": 32308, "Ġders": 39636, "ĠìľĦíķ´ìĦľ": 30238, "Ġpurse": 28345, "Ġleast": 1935, "ĠBeta": 33286, "anship": 27140, "æ°": 6610, "ĠYouTube": 3088, "Ġlinha": 33768, "Ġloops": 16121, "idy": 38836, "Ġabbrevi": 35839, "Ġvegg": 22644, "Ġudah": 25231, "Ġmotiv": 5426, "Ġintersection": 15236, "ichten": 24681, "Ġmon": 1108, "ĠìŀĪê³ł": 18683, "Ġcomeback": 23464, "lol": 34606, "ina": 1426, "Ġsaddle": 30459, "ĠHugh": 25893, "Ġtark": 44777, "ĠproduÃ§Ã£o": 49147, "Ġbowel": 40094, "×Ł": 14388, "Ð°Ð»Ð¾ÑģÑĮ": 16122, "Ġsanctuary": 34390, "Ġhomes": 7388, "Ġselves": 41900, "Bon": 42145, "ĠJoÃ£o": 21302, "Ġarrow": 11610, "ĠGUY": 37931, "uten": 7886, "ĠÑģÐ¾": 7425, "Ġzwei": 12002, "Ġhighlighting": 26551, "beitet": 32401, "ites": 3324, "Ġspins": 31587, "Ġtubing": 43349, "isk": 7797, "Ġinvestments": 13784, "ores": 2706, "Ġremain": 6222, "Ġsled": 46242, "Ġnigga": 41626, "berg": 6873, "Ġszyb": 36456, "ÑĭÑģ": 29476, "ĠEP": 25330, "ĠBurg": 32911, "Ġvara": 17234, "Ġembrace": 14038, "Ġholiday": 9960, "Ġcollar": 20672, "ĠØ£ÙĬ": 36632, "Ġsyntax": 28431, "<|25.64|>": 51646, "Ġsinking": 28148, "ĠBean": 38454, "<|4.56|>": 50592, "ma": 1696, "<|24.90|>": 51609, "ischen": 6282, "Ġdancing": 8898, "åĪ°åºķ": 33883, "Ġapplications": 5821, "ĠSono": 48344, "Ġbuck": 14894, "Ġì¹´ë©Ķë": 37680, "<|11.66|>": 50947, "Ġtsunami": 39032, "Ġconjunction": 27482, "<|22.30|>": 51479, "Ġfirsthand": 38599, "rieben": 24027, "Ġdenn": 10471, "ĠJup": 22125, "Ġ×ĳ×¢": 24464, "Ġinteiro": 45633, "ĠGoodness": 39863, "ĠLovely": 33925, "Ġharden": 50203, "<|23.12|>": 51520, "ĠPL": 6999, "ĠIsa": 19718, "Ġmascot": 42339, "Ġinternet": 4705, "å·±": 17200, "Us": 29211, "nad": 36567, "Ġpoor": 4716, "Ġjew": 13149, "ÑģÐºÐ¾Ð¼": 29166, "gasping": 47230, "Ġhold": 1797, "Ġquota": 45171, "afft": 29445, "ĺ": 246, "ologists": 12256, "ĠRelig": 33436, "ĠpiÄĻ": 32677, "Ġpill": 8100, "Ġoperator": 12973, "å¹¸": 36482, "Ġdesignation": 40838, "ĠConst": 8574, "ĠÑįÑĤÐ¾Ð³Ð¾": 10751, "Ġchirping": 36682, "ĠmuchÃŃs": 29353, "ĠThemen": 39229, "Ġresponses": 13019, "ĠìĹħ": 32892, "ĠMighty": 45874, "ĠMenge": 40723, "anni": 35832, "ĠSI": 29083, "Ġinvis": 13308, "enseful": 30398, "¦¬ë©´": 40093, "ĠPictures": 45877, "78": 30693, "Ġtug": 33543, "Ð¸Ð·Ð½ÐµÑģ": 43635, "ĠHope": 6483, "éģł": 34489, "ĠKai": 20753, "Î¼Î±ÏĦÎ±": 40370, "etime": 9764, "å®ĺ": 31929, "Ġooh": 17024, "Ġchess": 24122, "icus": 36496, "ĠÐ¼ÐµÐ½ÑĮ": 31752, "<|sa|>": 50344, "wic": 22295, "rawd": 15889, "Ġfantasy": 13861, "Ġmystery": 11422, "Ġvisit": 3441, "ĠungefÃ¤hr": 41285, "elujah": 26138, "Ġtranscription": 35288, "Ġsurpr": 3083, "Ġcelebration": 14184, "Ø§Ùħ": 10943, "Ġforged": 40226, "ĠTalking": 22445, "Ġdivul": 47291, "æºĲ": 47402, "ĠPAT": 31485, "dens": 32468, "Ġinc": 834, "ĠTe": 1989, "ĠGina": 34711, "Ġ1983": 31758, "ait": 1001, "Ġìķħ": 43843, "Ġrealization": 25138, "Ġimproves": 24771, "ĠRochester": 39895, "à¯ģ.": 35439, "Ġ04": 50022, "wid": 17697, "ĠBRI": 27466, "ĠTaliban": 26478, "Ġderni": 20562, "ĠHag": 34758, "board": 3787, "tra": 17227, "ì¢": 14227, "Ġcere": 11643, "Ġdoctr": 46040, "ELLER": 38025, "Ġyeux": 36163, "GER": 34389, "Sl": 46922, "ĠMmm": 12146, "ĠØ§ÙĦÙĦÙĩ": 21984, "Ġskulle": 20750, "Ġcolder": 31020, "çŃīä¸Ģä¸ĭ": 24554, "Ð°ÑĪ": 6835, "Ġzaczy": 43811, "Ġnak": 20332, "liamo": 49926, "ĠEng": 2469, "ìĸ´ìļĶ": 4213, "ëĭ´": 35021, "Ġå¤§": 28589, "Ġpreserv": 45905, "Ġnetworks": 9590, "¨¸ëĭĪ": 46355, "Ġarch": 3912, "Ġmonetary": 26388, "KO": 37719, "Ġpanic": 14783, "Ġceremonies": 36176, "Ġorb": 14715, "èŃ": 11823, "ĠUne": 16701, "Ġ×©×ŀ×": 36327, "Ġgle": 48956, "ĠVer": 4281, "ĠHoff": 29135, "abel": 18657, "gate": 22514, "ĠPors": 29416, "Ġtanto": 10331, "Ġefecto": 46783, "map": 24223, "ĠBett": 45083, "Ġgo": 352, "Ġhypertension": 46172, "Ã§i": 45860, "outer": 23985, "ĠTibetan": 44963, "Ã©es": 6836, "Ġseminar": 29235, "ÐµÐ½Ð¸ÐµÐ¼": 21297, "<|28.94|>": 51811, "<|13.74|>": 51051, "cream": 30277, "<|5.68|>": 50648, "ëıĻ": 23056, "Ġappreci": 3616, "Ġpopcorn": 25334, "ĠSetting": 21063, "Ġzaten": 22089, "owers": 23054, "ANG": 12419, "Ġaviation": 28831, "ĠStuff": 31347, "ĠBacon": 42460, "ĠKon": 12718, "Ø§Ùģ": 31845, "ìĸ´ìĦľ": 11315, "ref": 33115, "Ġlightning": 16589, "ĠZhan": 49550, "Ġfunctions": 6828, "Ġbor": 14828, "Ġcumpl": 37483, "Ġfist": 21849, "Ġdeswegen": 26482, "Ġkullan": 27443, "Ġengineers": 11955, "Ã«l": 36343, "eting": 9880, "Ġconos": 49892, "Ġtoo": 886, "ension": 3378, "Ġseu": 7986, "ãģ¾ãģģ": 37566, "Ġtolerant": 45525, "urf": 21844, "edral": 24764, "ĠDud": 42622, "iÃ¨me": 24541, "Ġcaring": 15365, "Ġanten": 18858, "ĠØ§ÙĦØ·": 41950, "ĠâĢĳâĢĳ": 45217, "Ġextinct": 35094, "aurais": 44608, "ĠÑħÐ¾Ñĩ": 13057, "norm": 13403, "Ð¾ÑĹ": 49065, "ĠNina": 29204, "ìĪĺ": 8449, "ÃŃp": 28236, "ĠAdam": 7938, "250": 23538, "Ġtoe": 13976, "Ġanalytics": 15370, "ĠcuÃ¡l": 44318, "ĠAlison": 41001, "ĠAlfred": 28327, "Ġdictator": 42852, "Ġsanity": 47892, "Ġunbelievable": 16605, "Ð»Ð¸Ð½": 25958, "ĠbeÄŁ": 44863, "Ġshaky": 44785, "itating": 16350, "35": 8794, "Ġrural": 11165, "Ġclo": 20123, "Ġskull": 11743, "Ġrented": 32381, "Ġseen": 1612, "uiÃ§Ã£o": 40593, "cellent": 5866, "Ð°ÑĤÐ¾Ð²": 48885, "ĠProfessional": 30011, "baj": 9338, "×ķ×ł×Ļ×Ŀ": 47210, "Ġcozy": 29414, "Ġmaint": 3604, "AB": 13868, "Ġking": 4867, "astes": 40246, "ĠKash": 32356, "Ġclosest": 13699, "Ġfeminine": 24648, "ì³Ĳ": 31318, "Ġdiscourse": 23938, "Ġretali": 37924, "Ġthief": 23176, "Ġinvari": 33270, "Ġsuk": 46432, "å¸¸": 11279, "ĠFang": 25409, "Ġscrew": 5630, "ĠÐ¡Ð°Ð¼": 31152, "Ġíķłê²ĮìļĶ": 43258, "Ġobserv": 9951, "Ġstruggle": 7799, "ĠÐµÑĳ": 18346, "ENE": 35190, "Ġgray": 10855, "ÑĸÑĶ": 46592, "Ġviel": 5891, "Ġweb": 3670, "antal": 40542, "åįĹ": 31021, "Ġfil": 1387, "Ġdisconnect": 14299, "<|20.62|>": 51395, "Ġdisregard": 44493, "å®ļ": 12088, "gines": 12659, "Look": 12863, "ĠRepublicans": 12017, "Ġpolishing": 47258, "Ł½": 21498, "<|6.12|>": 50670, "Ġdirect": 2047, "Ġqualified": 15904, "Ġcuanto": 36685, "ĠÃĵ": 35232, "enga": 31494, "·¨": 24435, "íĥķ": 47780, "hehe": 23500, "éļ¨": 48890, "Ã¢te": 33680, "Ġacademics": 25695, "Ġdiscussing": 10850, "ulated": 6987, "<|22.58|>": 51493, "ĠEconom": 14821, "ut": 325, "Ġbred": 34133, "æĽ²": 30753, "Ke": 18570, "Ġhaar": 39371, "ĠStar": 5705, "icle": 3520, "Ġbring": 1565, "Ġinfilt": 29085, "ĠgegenÃ¼ber": 41830, "Ġgarde": 47903, "Ŀ¼ëĬĶ": 13182, "Ġmonter": 47945, "Ġsuggestions": 13396, "ÙĤÙĪÙĦ": 39648, "Ġurine": 27638, "Ġreconoc": 43838, "Ġdancers": 25199, "bros": 29781, "Ġsmoothie": 36328, "ĠApplication": 39512, "ĠXV": 44707, "Ġzaj": 33729, "ensen": 32934, "ĠPrix": 48736, "ĠìĹ¬ëŁ¬": 31784, "ĠìŀĲê¸°": 37257, "ascular": 22084, "aked": 7301, "Å¼e": 2875, "ĠPose": 40174, "liter": 40632, "brid": 11349, "ĠRechts": 36597, "Ġitem": 3174, "Ħ": 226, "Ð¾ÑĢÐ¼": 9167, "Ġtranquil": 35337, "Ġglacier": 48021, "Ġlobb": 35673, "Ġseemed": 6576, "Ġexpressing": 22171, "Ã¤nn": 24507, "ĠTheme": 42428, "Ġwsp": 17757, "ower": 968, "ĠPayPal": 39906, "ìłķ": 6170, "ce": 384, "Ġacceptance": 20351, "three": 27583, "ĠBott": 28479, "Ġbaseball": 14323, "ĠBardzo": 38559, "Ġassumed": 15895, "SQL": 39934, "Ġfeast": 23707, "ĠGra": 8985, "lectric": 38421, "áº¯c": 30838, "Ġheaded": 12798, "ĠResp": 22480, "ĠSong": 11862, "æ»¿": 32197, "Ġpodr": 15305, "Ġsure": 988, "Ġever": 1562, "ĠSmithson": 44350, "Ġdisappeared": 13954, "<|23.54|>": 51541, "<|15.84|>": 51156, "ILL": 8621, "ieben": 38243, "ĠæīĢä»¥": 45168, "Ġrzecz": 36833, "letter": 21248, "clip": 21614, "ĠLevi": 33987, "awy": 41961, "Ġfeder": 38024, "åĭķ": 12572, "ãģĹãĤĥ": 49948, "Both": 24268, "Ġrealms": 42824, "Ġchuckles": 29151, "Ġgadgets": 37635, "<|1.96|>": 50462, "anÄ±n": 26081, "Ġyem": 32525, "Ð¾Ð¶Ð°Ð»ÑĥÐ¹": 24752, "idents": 6026, "Ġherum": 49675, "Ġinvitation": 17890, "otted": 11252, "ĠCompass": 50179, "Ġmosquitoes": 39394, "ĠDinge": 25102, "gest": 2629, "ĠÑĢÑĥÑģ": 27198, "ìķĦëĭĪ": 37256, "Ã§ek": 19088, "ĠChristie": 46111, "iggle": 19694, "Ġprecon": 47473, "ðŁİ": 28864, "ĠMcCarthy": 44085, "ssen": 8718, "ĠíĶ": 8074, "ĠVari": 32511, "ÛĮ": 4135, "Ġaprender": 24916, "i": 72, "Ġmakeup": 6567, "Ġíģ": 9414, "lden": 35963, "ĠvidÃ©os": 25417, "ISSA": 29001, "Ġkaf": 35426, "Ġassociates": 36914, "comfort": 27289, "ĠAlberto": 45709, "Ġiced": 46091, "lÃ©": 29728, "åĲĳ": 24282, "ĠAfrica": 7349, "Ġpeople": 561, "Ġterm": 1433, "PE": 5208, "very": 448, "Ġstroll": 42812, "Ġdrin": 24534, "ados": 4181, "ëĬĲ": 31627, "ANNA": 40682, "Ġvictims": 11448, "oby": 13944, "Ġrough": 5903, "ĠGund": 38299, "ĠSouth": 4242, "iza": 13427, "ĠHab": 14225, "Ġsparks": 44102, "Ä±ma": 37722, "ya": 3016, "Ġ×ĳ×Ĳ×": 33167, "Ġcentered": 18988, "ĠÑģÐ¿ÐµÑĨÐ¸": 25665, "Ġconnector": 19127, "Ġcredits": 16816, "ĠìĻĦë": 36683, "ĠIls": 17979, "Ġtunes": 38498, "ĠÐ¿ÑĢÐ¸Ð´": 21255, "ĠTrue": 13587, "<|10.26|>": 50877, "Ġeveryday": 7429, "Ġshoulder": 7948, "Ġawards": 15193, "Ġmooi": 38583, "ĠìłĦ": 6831, "ĠPrior": 24032, "ÄĻt": 46788, "Int": 25597, "Ġdetal": 33185, "Ð¾Ñģ": 1885, "res": 495, "Ġano": 19816, "osition": 5830, "pps": 49184, "Ġprecedent": 37388, "\")": 17830, "Ġbound": 5472, "Ġinference": 38253, "nek": 23255, "owanie": 22028, "duction": 40335, "ashi": 15612, "Ġfall": 2100, "Ġcorner": 4538, "ĠBert": 29594, "ĠBY": 26930, "Ġnajbardziej": 41857, "RC": 28437, "ĠKaw": 31795, "ĠÐ»ÑİÐ´Ð¸": 15850, "Ġillusions": 49836, "Ġforms": 6422, "tv": 24641, "Ġandra": 25299, "Ġsouvenir": 44361, "Ġ1982": 31352, "Ġbunch": 3840, "Ġazt": 39566, "ATE": 20047, "Ġvillain": 17906, "<|18.58|>": 51293, "<|29.78|>": 51853, "ĠJames": 5678, "ĠAlÃ©m": 44457, "ĠAbd": 27548, "Ġfruitful": 49795, "Ġsost": 41585, "Ġuntil": 1826, "ĠÐ²ÑĤÐ¾ÑĢ": 19823, "Ġaurait": 29531, "ĠTeles": 48595, "Ġintox": 40809, "Ġì¹ĺë": 38366, "ÏĪ": 34169, "Ver": 36929, "ĠÑĤÐ°ÐºÐ¾Ð³Ð¾": 31158, "ìĨĲ": 45443, "ÃŃll": 40641, "ĠAdventure": 26718, "ĠSym": 28877, "Ġconse": 4425, "Ġnorms": 24357, "ÑĩÐ½Ð¾": 10542, "Ġmarkings": 39087, "Ġnormalmente": 38217, "eder": 10020, "bar": 5356, "ĠStarting": 16217, "oden": 33482, "Ġlogging": 27991, "Ġlata": 46722, "ainen": 30416, "v": 85, "Ä±": 699, "Ġincumbent": 45539, "Ġspecialize": 37938, "Ġsoap": 14587, "Ġinduction": 33371, "Ġê·¼ë": 9564, "æ··": 48640, "Ġgrace": 10042, "iments": 8321, "ĠSmooth": 42404, "ĠAlgun": 46816, ":\"": 31330, "Ġgroup": 1594, "éĢĻæ¨£": 8377, "åħ¨": 11319, "Ġtrain": 3847, "OTHER": 48467, "Ð¾Ð³ÑĢÐ°ÑĦ": 29046, "acking": 14134, "Ġobedient": 42541, "ĠFamilies": 45081, "ĠCru": 13586, "Mother": 41689, "Ġbuffs": 50164, "çı¾": 9581, "Ġdiscoveries": 28400, "Ġclues": 20936, "ittee": 5375, "Ġdeixa": 26208, "Ġpert": 13269, "92": 21821, "ĠKansas": 19422, "ĠEugene": 37059, "Ġcurd": 47443, "ÏĢÎµÎ¹": 39533, "Ġwhit": 47548, "ç¤¾": 27658, "Ġcliche": 46705, "Ġdiff": 7593, "ĠëĤ´": 6918, "ĠDiversity": 44187, "Ġtrays": 47496, "ĠKauf": 44590, "ĠcÅ©ng": 22747, "Ġmá»Ľi": 37328, "Ġskelet": 32321, "Ġdelicious": 4809, "Ġperpendicular": 26734, "Ġalguna": 20651, "Ġmost": 881, "ĠBryce": 35109, "Ġhilft": 42493, "OSSTALK": 39624, "Ġawaits": 45955, "Ġhorizontally": 33796, "---": 20075, "ĠÐºÐ¾Ð¼Ð¿": 14380, "ĠPetersburg": 42367, "mart": 18696, "Ġmari": 35555, "steps": 20413, "Ã¢ncia": 25677, "ĠgroÃŁen": 23076, "Ġpractically": 15667, "Ġocur": 26430, "Ġangry": 6884, "Ġbiáº¿t": 28432, "ĠTor": 7160, "<|26.58|>": 51693, "Ġìĸ¸ìłľ": 43790, "uana": 20070, "Ġvitesse": 49573, "Ġspared": 49577, "Ġrectangular": 31167, "Ġunle": 25272, "Ġkingdom": 10231, "ented": 6003, "ĠBir": 7145, "achi": 21791, "ĠKomm": 18400, "Ġinjustice": 24750, "Ġap": 1882, "Ġtemos": 14247, "èį": 31409, "Ġlekker": 44125, "ĠKad": 32248, "ois": 7376, "ĠÐ°Ð±ÑģÐ¾Ð»ÑİÑĤ": 32078, "Ġunstoppable": 48261, "ĠSunny": 34665, "Ġstartup": 18578, "Ġcareg": 25087, "Ġvallahi": 45338, "Ġmusique": 34108, "Ġë§ŀìķĦìļĶ": 35273, "Ġclair": 41375, "strom": 38673, "Ġsliding": 21169, "when": 18822, "Isn": 48310, "Ġrelieved": 27972, "Ġshotgun": 24734, "Ob": 45483, "ermo": 46096, "chten": 21043, "Ġpueden": 14714, "Ġilk": 28912, "Ġgrandes": 16640, "Ġanys": 32319, "ĠìķĦì§ģ": 22729, "ĠCHRIS": 17353, "ĠÑĢÑĥÐ±Ð»ÐµÐ¹": 40851, "yect": 22680, "Ġzitten": 35242, "Ra": 41873, "Ġpeuple": 49186, "Ġcommun": 1199, "Ġcalculator": 24993, "Ġslipped": 28989, "Ġmatter": 1871, "Inaudible": 24986, "Ġlogos": 40654, "ĠFT": 46675, "Ġpersona": 12184, "Ġplate": 5924, "Ġprospects": 32933, "Ġdownloads": 36553, "Īë": 2196, "ĠParece": 45419, "ĠSheriff": 32492, "Ġbutterfly": 22140, "Ġmethy": 36599, "Ġunrest": 35103, "ĠSaw": 27307, "Ġlocated": 6870, "<|23.90|>": 51559, "cit": 45135, "ĠWool": 46307, "oret": 26262, "é¥": 41520, "Ġcandies": 43877, "£¨ë": 29693, "Ġvisas": 45922, "Ð¼Ð¾ÑĤÑĢÐ¸ÑĤÐµ": 36469, "ĠWij": 46721, "ĠLe": 1456, "ragt": 32243, "ĠsÃ¶yle": 16928, "sight": 28654, "ĠFamilien": 36451, "What": 3748, "Ġnames": 5288, "ä¸ĥ": 29920, "Ġliving": 2647, "ĠHallo": 21242, "ĠAnk": 42483, "Ġcabin": 9401, "Ġelection": 6618, "Ġtents": 39283, "Ġbeau": 29891, "Ġcob": 39527, "pm": 14395, "Ġoldest": 14026, "Ġacqu": 6667, "Ġobsolete": 46333, "ocus": 15206, "WAN": 42843, "ĠGovern": 5515, "ìŀĲëĬĶ": 36958, "Ġpid": 44540, "Ġversion": 3037, "ĠWild": 10904, "Ġfancy": 10247, "Br": 22170, "Ġenormously": 39669, "Ġum": 1105, "Ġprzypadku": 41955, "Ġcess": 47052, "agara": 38816, "è«ĸ": 29340, "ĠTri": 10931, "ĠÑĤÑĢÐ°Ð²": 46647, "ĠClear": 14993, "Ġciv": 13779, "cock": 29779, "Ġmagnet": 15211, "Ġillness": 10152, "assemb": 29386, "verbs": 43348, "ientras": 22148, "ĠÎ¼ÎŃ": 27730, "phem": 41245, "Ġadvocates": 25160, "Ġprecis": 7974, "ĠWithout": 9129, "ĠOliv": 42477, "enh": 39123, "Ġbuilding": 2390, "åĩ": 6336, "Ġrecruitment": 28240, "ĠÙĪØ¬": 49610, "Ġprote": 5631, "..]": 23548, "pri": 36391, "ĠÑģÐ¾Ð²": 11030, "profits": 32480, "ãĤ«ãĥ³ãĤ¿": 40972, "sized": 20614, "ĠìĺģìĥģìĿĦ": 42942, "ĠÐºÐ°ÐºÑĥÑİ": 45244, "ysÅĤ": 39508, "<|4.44|>": 50586, "ÐµÐ»ÑĮ": 3908, "æĬ": 7235, "tery": 12733, "ĠÐºÑĢÐµÐ¿": 46584, "Ġlimitations": 15705, "ĠdonÃŃt": 36311, "ĠSTOP": 38344, "Ġacquisition": 21668, "<|25.28|>": 51628, "Ġobviamente": 36325, "isko": 43442, "Ġhardware": 8837, "éłŃ": 19921, "arna": 21394, "ĠLatino": 25422, "who": 13506, "Ãªm": 13213, "Ġ230": 35311, "ĠÐ½Ð¸ÐºÐ°ÐºÐ¸Ñħ": 47357, "life": 9073, "<|11.30|>": 50929, "ĠÐ²ÑģÐµÑħ": 17260, "ĠCoconut": 45875, "ĠHDMI": 30811, "ĠDef": 9548, "ĠÐ¿Ð¸Ñģ": 39739, "Ġorganizer": 41363, "Ġsimplified": 26335, "Ġpouvoir": 14874, "Ġmonitoring": 11028, "Ġprecurs": 41736, "Ġdisease": 4752, "Ġmont": 8143, "Ġurgently": 49390, "Ġperm": 4784, "Ġmanifested": 42775, "ĠAgr": 24454, "Ġcostumes": 22695, "ä¸ī": 10960, "ĠDouble": 16633, "bean": 17097, "gunt": 14857, "Ġatrav": 33325, "Ġversatile": 25057, "ĠTrying": 20180, "idge": 3815, "Ġed": 1257, "æĿ¿": 43664, "Ġdestruction": 13563, "ãģĦãģŁãģł": 32418, "Ġglimp": 25727, "Ġnotor": 46772, "ĠSeb": 22374, "Ġhelfen": 29966, "¡": 94, "uke": 15420, "Ġexploded": 27049, "ĠKu": 20311, "cÃ³w": 29268, "Ġcontext": 4319, "Ġvaried": 22877, "ĠMeg": 9986, "Ġwould": 576, "Ġdiagnostic": 27897, "klich": 9056, "Ġwealth": 7203, "omas": 7092, "Ġcafes": 48851, "Ã³l": 15741, "Ġdanced": 32909, "ĠWoods": 31559, "udi": 26000, "Ġmeiner": 20529, "Ð°Ð½Ð°": 15253, "Ġposture": 18502, "tar": 23480, "ĠGreek": 10281, "Ġapprendre": 46609, "êµ¬ìļĶ": 23111, "ãģŁãĤģ": 49983, "p": 79, "Ġguitar": 7531, "Ġglam": 28133, "<|23.20|>": 51524, "Ġrequires": 7029, "ãģ«": 4108, "Ġstora": 43323, "Ġexceeds": 43305, "ìĿ¸ê°Ģ": 41755, "ıĻ": 8309, "Ġsounding": 24931, "<|14.36|>": 51082, "Ġê¸°ë¶Ħ": 37149, "Ġlively": 30866, "ĠÙħØ¹": 20449, "art": 446, "Sun": 42455, "Ġrolled": 14306, "ÑĤÐ°ÐºÐ¸": 27430, "ĠWave": 28530, "Ġhust": 25822, "ĠÐĿÐ°Ð¿": 28167, "Ġcaps": 13855, "Ġgrim": 36010, "ĠØ§Ø¨": 48127, "ĠÎµÏĢ": 26752, "Ġcrec": 31668, "Ġfauc": 49567, "Ġsubd": 31662, "Ġaquarium": 30149, "Ġfundo": 40201, "ĠÐĺÐ·": 24588, "Ġlon": 9155, "Ġstew": 22654, "Ġinvent": 7962, "Ġinheritance": 32122, "ŀĺëıĦ": 38371, "Ġmaintaining": 14916, "zte": 45127, "rying": 19076, "Ġ78": 26369, "ereum": 24585, "ĠDruck": 33320, "ĠBrisbane": 32222, "æĻ": 5094, "Ġmapped": 33318, "Ġcamino": 34124, "Ġjoy": 6258, "je": 2884, "Ġíĺ¼ìŀĲ": 36028, "Ġdesire": 7516, "ĠìŀĪìĸ´ìĦľ": 27937, "akra": 34401, "ĪëıĦ": 22616, "Ġshouldn": 4659, "ÏĦÎ¯": 30393, "çĦ¶å¾Į": 10213, "ĠOoh": 7951, "Ġabsorbed": 20799, "ĠBiden": 9877, "ao": 25548, "ìĸ´ëıĦ": 34296, "Ġnationale": 49974, "Ġdiagnost": 43215, "ÈĽ": 15918, "çĦ¶åĲİ": 26636, "arsh": 7064, "Ġrainy": 27181, "Ġtransporting": 49302, "odie": 49257, "Ġmadam": 28882, "Ĩ": 228, "ĠWer": 14255, "Ġlargo": 31245, "ĠNacht": 31133, "gebaut": 42858, "æĦŁè¬Ŀ": 40143, "Ġmultitude": 36358, "ĠVeg": 12895, "Ġwarfare": 24490, "ĠMountains": 30970, "Ġscratched": 40513, "Ġtitle": 4876, "eredith": 28714, "Ġthesis": 22288, "ĠAnfang": 25856, "ĠChem": 21357, "Ġabuse": 9852, "<|1.20|>": 50424, "ente": 1576, "ĠMIT": 13100, "Ġannual": 9784, "Ġbolt": 13436, "acÄĥ": 44929, "ĠÐºÑĥÑĢ": 28975, "Ġalcohol": 7658, "çĶ": 3526, "Ã¶ren": 26377, "Ġpumping": 27131, "Ġaware": 3650, "Ġengaged": 8237, "Ġtranslate": 13799, "<|24.70|>": 51599, "Ġpelvis": 34617, "ÑĩÐ¸ÑĤ": 9607, "anting": 18571, "ouched": 36740, "ĠIran": 8283, "ĠFoot": 20989, "ĠÐ´Ð¾Ð²": 20124, "Ġmethyl": 48441, "<|8.52|>": 50790, "ĠBahn": 44337, "Ġswag": 42064, "Ġsmiles": 28083, "ĠdiffÃ©rent": 19384, "Ġbaw": 40463, "aden": 14771, "Ġlean": 11659, "gua": 20845, "ĠAirl": 34421, "ĠÑģÐ¾Ð±ÑĭÑĤÐ¸": 42654, "acji": 13152, "Ġsummation": 28811, "ultan": 19911, "eee": 37954, "Ġgibi": 11033, "addin": 41284, "LAUGHS": 24352, "<|22.14|>": 51471, "Ġcharismatic": 41109, "Ġinjection": 22873, "ĠìĤ¼": 32391, "Ġìĸ´ëĬĲ": 34918, "ĠBeweg": 46757, "ĠÐĿÐµ": 11512, "ĠXL": 37210, "Ġtáº¡i": 37773, "×£": 38261, "Ġdemonst": 5516, "ê³¼ë": 39106, "Ġrespectfully": 45201, "Ġexpelled": 44368, "ĠÐ²ÐµÐ´ÑĮ": 28026, "Ġdevelopmental": 30160, "ablo": 21991, "Ġreper": 28946, "ÑģÐ»": 14393, "ĠSearch": 17180, "Ġprimary": 6194, "æĻ¯": 50218, "romagn": 23746, "Ġreflects": 18926, "ĠÐ¾Ð±Ñī": 17224, "Ġfriendships": 30003, "Ġmanageable": 38798, "ĠÐ¿ÐµÑĢÐµÐ´": 15621, "uciÃ³n": 30813, "iffe": 31387, "):": 4507, "Ġendurance": 30325, "ĠAppreciate": 37601, "Ð²ÐµÑĤ": 10828, "Ġminim": 4464, "Ġmais": 2420, "Ġallergy": 41505, "ĠPriv": 39691, "ĠNov": 31948, "coins": 36989, "inku": 48669, "oti": 8206, "Ġfrightening": 31043, "umuz": 34884, "metics": 31236, "jut": 44090, "Ġessence": 12801, "åī": 5935, "Ġtowel": 15755, "<|25.66|>": 51647, "Ġmegap": 34733, "ĠDartmouth": 47883, "<|sw|>": 50318, "Robert": 47960, "Ġovercome": 10473, "Ġmonkeys": 29534, "rÃ¡": 30218, "ĠíĻķìĿ¸": 31288, "é¦": 11748, "H": 39, "Ġmulheres": 43244, "amente": 3439, "Ġdisciplined": 40061, "Ġcran": 39685, "ond": 684, "Ġspic": 41418, "ĠÐ·Ð²": 13591, "ĠTransportation": 35095, "ĠCheng": 24363, "ĠNest": 31581, "Ġë¶Ļ": 24618, "Ġvul": 7452, "Ġmach": 2246, "è§ģ": 23813, "ĠëĮĢíķ´": 48374, "Ġê·¸ëŀ¬": 36185, "<|23.92|>": 51560, "á»ĳi": 24273, "Ġblessing": 13869, "AME": 31296, "Ġarche": 37897, "Ġinstalled": 8899, "à¯Ĥ": 32956, "oin": 14312, "Press": 20516, "ven": 553, "ihat": 41650, "Ġerfahren": 49472, "íĻķ": 36378, "Ġspend": 3496, "Ġtestify": 31381, "Ã¶n": 3239, "undos": 36518, "ĠOnePlus": 41352, "åĻ¨": 34386, "ĠBar": 4156, "Ć": 194, "Ġstatus": 6558, "ĠGOOD": 28771, "Ã¤g": 50041, "Ġìĭł": 13042, "Ġìľ¼": 37163, "Ġ1975": 32454, "UNKNOWN": 47774, "ĠNorm": 8702, "Ġconsegue": 27179, "zeÅĦ": 49689, "Ġ×ŀ×©": 23950, "ĠGrove": 43111, "Ġvalores": 38790, "ĠgÃ¼Ã§": 48015, "éģ": 3330, "Ġturb": 18252, "flu": 49253, "ÙĪÙĨ": 11536, "Ġpretend": 11865, "Ð¼Ð°Ð½": 35968, "Ġparticipation": 13487, "Ġadmit": 9796, "Ġaggressively": 32024, "ĠCalendar": 43583, "ĠTat": 19645, "Ġmater": 2389, "Ġlongitud": 39596, "ĠÐ²Ð½ÐµÑĪ": 50025, "ĠMi": 10204, "Ġpur": 1864, "venes": 41541, "Ġflock": 34819, "Ð°Ð½ÑĤ": 15073, "ĠFerr": 25443, "Ġidentities": 24239, "Lee": 39548, "¬´": 18129, "Ġbutter": 5517, "asons": 3646, "ĠGandhi": 34717, "Ġnecklace": 24563, "Ġheat": 3738, "Ġprey": 21107, "open": 15752, "Ġpressed": 17355, "uso": 24431, "ãģĿãĤĮ": 13873, "Ġshe": 750, "nde": 16404, "âĺ": 17717, "afar": 47030, "Ġcute": 4052, "ĠLing": 20977, "ĠYoutuber": 49219, "ĠKonst": 44200, "Ġoffline": 21857, "Ġging": 21924, "Ġå°ı": 43454, "ìĽĲìĿ´": 43262, "ĠFair": 12157, "ł¤ê³ł": 18914, "roid": 6490, "Ġthin": 5862, "ĠÐ´Ð½Ñı": 36115, "ä¸ľ": 38409, "ĠmÃ¬nh": 14526, "Ġgood": 665, "ĠìľłíĬľë": 39163, "Ġag": 623, "ĠDoctor": 10143, "nee": 48210, "Ġë°ľë": 20414, "ĠjÃ³": 31390, "leigh": 45533, "Ġcrochet": 9387, "Ġwiel": 20570, "Ġrespe": 40792, "Ġmez": 28966, "Ġkendi": 29723, "Ġwatering": 33028, "Ġboleh": 25835, "book": 2939, "Ġgarbage": 14150, "ł¹": 25565, "Ġcontempl": 19935, "Ġdiscern": 30868, "ĠSoon": 17610, "ijk": 6940, "ĠGew": 19063, "ĠâĪĴ": 48554, "eng": 1501, "Ġcutter": 25531, "Ġpouquinho": 31114, "Ġbah": 12913, "Ġìļ¸": 40814, "Ġclaiming": 19232, "ĠìĿĮìķħ": 37851, "Ġinterpersonal": 47102, "ĠWohn": 22741, "ĠSingh": 27529, "Ġvis": 1452, "start": 24419, "Ġpee": 21343, "Ġcoun": 3465, "Ġtrains": 16329, "ĠgerÃ§ekten": 35784, "Ġrect": 11048, "Ġreplied": 20345, "aries": 4889, "cous": 39939, "cu": 12032, "oku": 13275, "Ġparch": 35765, "Ġxem": 47852, "Ġglaube": 13756, "Ġë§Įëĵł": 40628, "¼": 120, "Ġbelo": 13878, "Ġìŀ": 1332, "Ġdisappears": 25527, "ãģ©ãģĨ": 18395, "Ġniche": 19956, "Ġtrillion": 18723, "ĠWik": 23377, "ibe": 47622, "ĠKont": 20629, "kiye": 31137, "Ġpodium": 26827, "Ġlongest": 15438, "ancia": 22862, "ÃŃss": 36375, "<|21.68|>": 51448, "Ġpas": 1736, "Fih": 17468, "ê·ľ": 38791, "Ġpalavras": 46169, "Ġwater": 1281, "ĠÐ²Ð¾Ð·Ð¼Ð¾Ð¶": 31544, "ä": 160, "å¦¹": 37562, "Ġexpensive": 5124, "ĠMCU": 39415, "ĠÐ´Ð¸Ð²": 49829, "Ġderiv": 10151, "nie": 2766, "bility": 39802, "Ġawarded": 19100, "jing": 38863, "Ġê·¸ëŀ": 18158, "cciones": 35560, "ĠRogers": 29877, "pper": 3717, "ĠWo": 6622, "Ġ1900": 28898, "ĠAsk": 12320, "pod": 43388, "Ġcorrelated": 38574, "<|24.24|>": 51576, "ĠÐ¼Ð¾Ð¶": 4710, "ĠLikewise": 30269, "Ġunfolding": 44586, "Ġreferred": 10839, "ettu": 42747, "Ġindust": 2735, "ention": 1251, "Ġdwell": 24355, "icking": 10401, "ĠAffairs": 21721, "Ä±mÄ±": 22569, "Ġgrade": 7204, "ĠCher": 14825, "ĠHertz": 46910, "andid": 48810, "Ġdepressing": 36355, "Ol": 38056, "ĠSny": 49464, "Ġstoryline": 30828, "ĠNit": 37942, "Ġherzlich": 45919, "Ġspinach": 27784, "Ġpermits": 30990, "Ġinvit": 43714, "ĠÐ¾Ð±ÑīÐµ": 48078, "ĠÑģÐ²Ð¾ÐµÐ¹": 25346, "Ġê³¨ë": 42142, "Ġcharacterized": 29361, "ologique": 43136, "Ġseaweed": 29449, "ÑĤÑĭ": 16759, "ĠÙĪÙĩ": 37037, "æ²¹": 14420, "Ãª": 1307, "Ġvest": 15814, "Ġteste": 49586, "ĠMu": 15601, "Ġgravel": 30001, "<|2.56|>": 50492, "Ġdocumentation": 14333, "Ġrejection": 26044, "Ġgh": 33937, "ĠÐ¿Ð¾Ñĩ": 12079, "Ġconsecut": 27154, "vert": 3281, "Ġbik": 26730, "ĠMercury": 31780, "wire": 42689, "ĠgÃ¥r": 19831, "å¢ĥ": 47885, "Ġequation": 5367, "ĠÑĢÐ¾Ð»": 26725, "ĠÐ¿ÑĢÐ¾Ð¸Ð·Ð²Ð¾Ð´": 28685, "iÄĩ": 12757, "weed": 21272, "ĠConsumer": 39494, "Ġamplitude": 27433, "Ġfi": 15848, "Ġblocks": 8474, "íĬ¸ë¥¼": 35078, "Ġseniors": 21069, "atur": 19493, "<|8.58|>": 50793, "íķĺìĭł": 47022, "Ġlows": 34794, "acco": 18662, "ðŁİµ": 38830, "areth": 40414, "Ġprayer": 8767, "Ġcomplexities": 48705, "Ġincluded": 5556, "ĠÐ½Ñĸ": 46645, "ciÃ³n": 5687, "rÄħ": 32881, "ĠFurther": 15364, "ĠbyÅĤ": 16673, "raul": 25074, "Ġprocesso": 27939, "ĠHeath": 46622, "ĠMarkt": 39774, "ĠCloud": 8061, "Ġwarriors": 25303, "Ġbreaking": 7697, "Ġê³µ": 9273, "<|4.98|>": 50613, "Ġpars": 21156, "ians": 2567, "<|17.70|>": 51249, "Äħd": 18962, "Ġetern": 10533, "Ġminimalist": 50192, "ĠÐ¿ÑĢÑĭ": 50236, "ad": 345, "Ġmeanwhile": 29252, "Ġ130": 19966, "ĠHen": 8651, "Ġgiant": 7410, "ĠVol": 8911, "åĦĦ": 25459, "Ġê°Ģì¡±": 46008, "Ġdips": 47814, "zieh": 28213, "ĠDot": 38753, "ĠÐ¼Ð¾Ð¶ÐµÑĪÑĮ": 46442, "Ġlocations": 9253, "Ġpests": 47645, "ĠÑĤÐ°": 18752, "Ġelevation": 25827, "pur": 35801, "ue": 622, "Ġincredible": 4651, "Ġdeton": 39920, "Ġsorted": 25462, "ÑĢÐ°Ð»": 45463, "ĠëĤĺë": 12623, "ĠëĦĺ": 20237, "Ġheight": 6681, "Ġsinger": 11564, "lav": 36243, "ĠprÃ³": 8565, "Ġcherish": 38277, "åĬ": 5087, "Ġambos": 41425, "igen": 3213, "also": 41551, "Ġhardened": 42605, "ĠUganda": 48764, "Ġterra": 26298, "ĠSold": 20064, "Ġreleases": 16952, "Ġ1950": 18141, "Ġeyesight": 49887, "ĠÐ´Ð¸Ñģ": 37929, "anÃ§a": 22930, "ĠLaughs": 33439, "Ġbillionaire": 42358, "Ġfert": 10700, "Cam": 31030, "wort": 13802, "Ġfingers": 7350, "Ġfortun": 10506, "ĠìĥĿ": 6439, "ĠConnie": 49558, "Ġreinvent": 33477, "Ġanytime": 13038, "Ġhips": 15233, "ĠGeme": 31266, "Ġneurons": 22027, "ophy": 29087, "Ġconfessed": 41428, "Ġplat": 3403, "ĠMen": 6685, "ĠÐ¼ÐµÐ¶Ð´Ñĥ": 24098, "Ġpiercing": 42972, "ĠUV": 17887, "Ġcontradiction": 34937, "ê·¸ëŀĺ": 44959, "Ġspaghetti": 28556, "Ġmobilize": 48637, "ocused": 33176, "ÑĸÑĩ": 33702, "íĻľ": 40602, "Ġincoming": 22341, "Ġfeminism": 37187, "ĠFaz": 33154, "Ġsequencing": 32693, "Ø±Øª": 43500, "<|28.24|>": 51776, "<|15.64|>": 51146, "Ġcreativity": 12915, "´ëıĦ": 48157, "ĠÃ©tÃ©": 8862, "Ġsupermarket": 25180, "<|25.58|>": 51643, "ä¸ĭéĿ¢": 47150, "osse": 14353, "ĠGL": 16225, "\".": 1883, "ĠVeter": 21881, "ereal": 46036, "ĠCy": 10295, "Ġprayers": 16860, "ĠJAKE": 45452, "ÐºÑĥÑİ": 35119, "ĠInterview": 35599, "ologist": 9201, "Ġbland": 29849, "ĠROBERT": 26458, "Ġcandles": 23774, "Ġhistogram": 49816, "èªį": 22041, "Ġmilligrams": 45147, "Ġìĸ´ì¨": 46478, "Ġfout": 41907, "<|12.90|>": 51009, "<|5.60|>": 50644, "ĵľë¦´ê²ĮìļĶ": 41413, "ĠUM": 31335, "ĶĶìĺ¤": 49117, "oooo": 12506, "Ġcoupling": 37447, "Ġtranqu": 17640, "Ġaconte": 14888, "ĠMonaten": 46193, "ventions": 15051, "ination": 2486, "Ġìĭ": 2811, "Ġemergence": 36211, "Ġì»¤": 38687, "Ġdaher": 36971, "Ġ;": 12562, "Ŀ¼ìĦľ": 48367, "ĠKyoto": 48470, "ĠLoch": 49912, "ĠBare": 43957, "çºĮ": 29583, "ĠIndustrial": 32059, "lene": 21323, "rÃ¼": 31759, "ĠSurviv": 48859, "allas": 19394, "Ġson": 1872, "Ġ2011": 10154, "Ġatte": 42783, "Ġë°Ķë": 9040, "top": 19337, "Ð¬": 37796, "Ġhelp": 854, "Ġspiral": 25165, "Ð¸Ð¿": 13306, "Ġble": 5408, "Ġnothing": 1825, "Ġwillingly": 44675, "ĠÐ·Ð½Ð°ÑĩÐ¸ÑĤ": 24013, "ĠTransform": 27938, "ĠeBay": 33803, "ists": 1751, "ĠAJ": 32759, "ĠYoshi": 45676, "Ø£": 10721, "Ġorient": 8579, "Ġreel": 34973, "Ġviktig": 49706, "orean": 25885, "iforn": 5203, "ĠIsland": 7637, "°ĸìĹĲ": 46902, "ÐµÑģÑĤÐ½Ð¾": 28779, "ĠScandin": 42403, "ĠChart": 49762, "Ġdeficit": 22132, "Ġmaioria": 44384, "Ġfalei": 29800, "Ġcomputational": 28270, "Ġredeem": 37715, "Ġpendulum": 44103, "REAM": 28649, "Ġczasie": 42667, "Ġshowcase": 20388, "Ġviolations": 30405, "ells": 13677, "Ġped": 5670, "Ġwanna": 1948, "ĠFam": 7342, "cl": 3474, "ĠThompson": 23460, "cular": 17792, "Ġboth": 1293, "ĠÐ¿ÑĢÐ¾ÑħÐ¾Ð´": 39782, "ĠEles": 31096, "Ġsuite": 14205, "Ġtutto": 23048, "<|16.14|>": 51171, "Ġgleichen": 49069, "Ġdisorders": 20261, "ĠìĹ´ì": 40039, "ĠfÃ¶rsta": 44203, "Ðļ": 8169, "ĠSo": 407, "Ġsleeves": 24555, "Ġbeacon": 41669, "Ã´le": 22313, "mad": 16413, "Ġprevents": 22367, "ĠOption": 29284, "ãĤĪãģĨãģ«": 34483, "Ġsells": 20897, "Ġliteral": 20411, "ĠGum": 48862, "Ġpoverty": 10958, "ĠÐ´ÐµÑģÑıÑĤ": 45884, "ĠsÃ¤ger": 37607, "Ġtemperatures": 12633, "ĠSoo": 28784, "lez": 20336, "ĠEvan": 22613, "Ġinherit": 21389, "ations": 763, "ĠKitchen": 23135, "Ġlen": 40116, "Ġprotesters": 34509, "ĠÐĹÐ°Ð¿": 49612, "åħĦ": 24982, "Ġmodule": 10088, "Ġhari": 33264, "Ġestiver": 46578, "employ": 12112, "Ġpermet": 20696, "Ġdarkness": 11262, "ĠÐ´": 1070, "Ġslee": 12931, "eb": 34727, "ÐµÐ½": 1008, "Ġ\"...": 21642, "Ġsleepy": 24908, "Ġtaper": 36277, "å¤§æ¦Ĥ": 32044, "Ġrecon": 9993, "Ġczym": 31466, "aur": 3463, "Ġintegr": 3572, "ĠGracias": 26909, "Ġkeynote": 33896, "ax": 2797, "Ġcease": 27887, "ĠUnion": 8133, "ĠdaÃŃ": 48113, "Ġlearner": 33347, "Ġlaying": 14903, "pro": 4318, "<|14.32|>": 51080, "Ġmechanics": 12939, "profit": 14583, "Ġtrusting": 28235, "ĠEuch": 46668, "Ġhacked": 36218, "Ġsoi": 46098, "Ģë": 2366, "Ġheadaches": 35046, "Ġhá»įc": 46786, "Ġauf": 2501, "ometown": 21462, "ĠÐºÐ°Ð¶Ð´": 15698, "ĠKel": 19158, "ĠÐ½Ð°Ð·ÑĭÐ²": 20922, "Ġscares": 35721, "ashed": 12219, "Ġwebcam": 39490, "Ġreincarn": 48343, "unge": 27588, "ĠMore": 5048, "ĠCub": 21300, "Star": 24659, "Ġhoping": 7159, "Ã¡is": 32133, "Ġescri": 30598, "ÐºÐ¾Ðµ": 22128, "rel": 4419, "Ġouvert": 47683, "ĠFa": 12710, "ĠÐ¾Ð½Ð¸": 7515, "ĠGreat": 3769, "ference": 5158, "Ġrevers": 14582, "Ġlaughing": 5059, "Ġour": 527, "Ġì½": 10630, "Ġexpecting": 9650, "kim": 25112, "Ġnoticing": 21814, "Ġmec": 25186, "ĠGeral": 48527, "Ġanalyze": 12477, "ĠCas": 16100, "Ġunst": 18799, "Ġgrandfather": 14754, "Ð½Ð¾Ðº": 48717, "Ġquit": 10366, "Ġdemol": 26933, "Ġradish": 31136, "ĠAnglo": 49570, "ĠãģŁ": 25581, "Ġconfession": 29154, "Ġclipping": 49320, "Ð¸ÑĤÑĭ": 43608, "Ġprioritize": 25164, "Ġloading": 15114, "rus": 13783, "Ġdance": 4489, "People": 35069, "ĠVerantwortung": 43423, "Ġ26": 7551, "g": 70, "ĠìĿ¼ë": 16623, "ger": 1321, "Ġsmelled": 40453, "Ġflames": 23743, "Ġgrounded": 23535, "Ġë³´ìĭľë©´": 42872, "Ġwed": 6393, "ĠCathy": 39799, "Ġclan": 25887, "ining": 1760, "esser": 14239, "Ġmentioning": 18315, "Ġfleeing": 41885, "Ġ125": 25276, "Ġhablar": 21014, "BO": 15893, "Il": 37961, "ĠHerman": 44676, "ĠARE": 22515, "Ġconsidered": 4888, "rare": 35559, "anners": 25792, "ĠOfficer": 15434, "Ġrelationships": 6159, "Ġwarnings": 30009, "Ð°ÑĨÐ¸Ñı": 21235, "Ġlistened": 13207, "Ð¸ÑĤÐµÐ»Ñı": 36491, "Ġcommunities": 4456, "Ġcoating": 20163, "ĠFreddie": 41264, "13": 7668, "éĢĻéº¼": 21269, "ĠFor": 1171, "ĠÙĤØ§ÙĦ": 50239, "Ð²Ð¸Ð½": 36823, "umbs": 7808, "ĠÏĢÎ¿Î»": 30403, "Ġdonn": 33258, "ä¿Ŀ": 24302, "illÃ¤": 21823, "Ġrental": 21468, "Ġshiny": 16997, "Ġtornado": 27935, "Ġnah": 17170, "ĠuÅ¾": 46803, "Ġracks": 47063, "Ġprisoner": 28114, "ìĹĲ": 1517, "Ġenf": 10667, "ä»Ķ": 49385, ".âĢĭ": 14900, "Ġspe": 768, "ĠErik": 33143, "ĠEqu": 15624, "Ġslides": 9788, "ĠApache": 46597, "Ġguit": 31108, "Ġhalf": 1922, "Ġmoo": 37284, "igrade": 41278, "ĠWOMAN": 30837, "Ġdeclaration": 27606, "Ġcud": 40287, "ĠFuj": 43915, "Ġdona": 48583, "ĠHehe": 45185, "Ġjoystick": 48074, "ĠbeÅŁ": 39213, "Ġrapid": 7558, "enza": 23691, "Ġreflected": 15502, "ilon": 15754, "è§ī": 24447, "Ġtravers": 23149, "Ġtrees": 5852, "gary": 36214, "ĠíĮ¬": 45480, "ĠPart": 4100, "Ġdash": 8240, "ĠÐ±ÑĭÐ²": 28951, "Ġnause": 34735, "Ġinve": 32957, "ÙħÙĥÙĨ": 43020, "Ġextinction": 33163, "Ġeconomic": 4836, "Ġmundial": 41740, "97": 23247, "áº¡o": 43789, "iaÅĤ": 8908, "ĠConsider": 17416, "Ġoblig": 9270, "ì´": 15241, "Ġhinter": 23219, "tir": 24000, "ĠOur": 2621, "Ġanimations": 22868, "Ġprinces": 41536, "Ġinqu": 13570, "anka": 21729, "ĠLebanon": 29532, "lear": 5797, "Ġnies": 48100, "Ġundergrad": 14295, "ĠMitar": 32900, "Ġmerit": 24527, "Ġtriggers": 22827, "zeigt": 39869, "Ġcolonial": 19066, "âĢ¦?": 33061, "Ġbinary": 17434, "aÅ¼": 18264, "ĠSy": 3902, "äºĶ": 21001, "Ġmein": 10777, "Ġinvaluable": 40367, "ĠDepending": 22539, "ĠKÃ¶": 43197, "ĠOrganization": 23979, "íķĺê¸°": 22700, "Ġdir": 4746, "ĠJENN": 35635, "ĠDame": 34447, "union": 42137, "Ġinvestir": 49646, "Ġfocuses": 16109, "ĠÃ§ocuk": 25216, "ĠPsychology": 42827, "Ġlately": 12881, "ĠRey": 17547, "Ġnumbers": 3547, "<|17.64|>": 51246, "Ġovercoming": 38047, "Ġinverse": 17340, "<|7.24|>": 50726, "Ġreview": 3131, "Ġtel": 15284, "ĠPanel": 38996, "ĠÐ¾ÑĤÐ¼ÐµÑĤ": 47318, "ı": 237, "ĠAbdul": 42591, "Ġburg": 41000, "Ġspanning": 47626, "ĠPo": 6165, "Ġmittlerweile": 41999, "90": 7771, "Ġhors": 11912, "ĠXu": 23082, "Ġobwohl": 48428, "Ġcomparisons": 33157, "urning": 10656, "ahon": 45080, "pay": 22038, "<|14.82|>": 51105, "Ġinterested": 3102, "<|20.32|>": 51380, "text": 25111, "Ġpoz": 21281, "<|4.46|>": 50587, "<|12.80|>": 51004, "<|24.00|>": 51564, "naire": 32551, "Ġì¤Ģë": 18647, "Ġemp": 4012, "ĠBulgaria": 47737, "Ġciento": 47361, "Ġtutor": 35613, "Ġ1955": 46881, "Ġestudio": 44286, "ĠFlor": 8328, "Ġdeste": 38738, "vio": 28226, "Ġgeneric": 19577, "Ġnom": 5369, "Ġëª¨ëĳĲ": 27615, "Ġ×Ĳ": 8428, "ĠOptim": 35013, "ĠMorgan": 16724, "orgt": 36698, "Ġsele": 23264, "ĠBP": 40533, "ĠTage": 29724, "medi": 3130, "Ġpagan": 38238, "ĠOrig": 13895, "Ã§e": 32115, "Ġescol": 25603, "Ġgraduated": 13693, "ĠVeronica": 43498, "compass": 25052, "ĠÐ¿Ð¸ÑĪ": 37979, "Ġseus": 17004, "vir": 46551, "ÐºÐ¾ÑĹ": 48939, "Ġenvisioned": 47733, "Ġcompose": 35925, "ĠCR": 14123, "lassen": 44898, "oof": 29496, "Ġenables": 17077, "ĠApply": 25264, "Ġ×Ķ×ĸ×Ķ": 28776, "ĠWoman": 15794, "ÅĤad": 10358, "Ġshelter": 13341, "Ġpartial": 14641, "ĠTuc": 42272, "ĠShen": 22636, "adelph": 20598, "ĠMap": 22053, "asy": 5871, "Ġnamely": 20926, "ãģ¨æĢĿãģĦãģ¾ãģĻ": 29707, "Ġlui": 8783, "uar": 20766, "bnb": 36237, "Ġgetan": 45599, "Ġserie": 23030, "Ġcontinent": 18932, "ĠBie": 34972, "Ġnos": 3269, "ĠTamb": 18176, "Ġmerchandise": 34485, "Ġpurp": 3527, "Ġpoem": 13065, "Ð°Ð´ÑĨ": 42208, "ĠÐŀÐ½": 12409, "Ġclay": 13517, "Ġstared": 44738, "<|13.08|>": 51018, "Ġstudied": 9454, "Ġelephants": 33015, "mund": 35578, "aged": 2980, "ëĵ¤ìĿĦ": 37513, "åįĥ": 20787, "ĠPrince": 9821, "Ġtasting": 26223, "Ġsophisticated": 16950, "Intro": 50247, "DI": 3085, "Ġoccurrence": 36122, "pe": 494, "Ġlakh": 33314, "ä¸»": 13557, "ĠKomb": 34678, "ĠÑĢÑĥÐºÐ¸": 39304, "Ġcomparing": 15763, "ivities": 43539, "ĠëĶ°": 49150, "Ġess": 2097, "Ġaddressed": 13847, "æĩĤ": 29624, "Ġ?": 2506, "Ġvibrant": 21571, "ĠprzedsiÄĻbior": 43477, "apers": 14441, "đ": 205, "ĠZie": 46340, "ĠAdri": 32447, "Ð¾Ð±Ñī": 32977, "ĠversÃ£o": 41471, "Ġerlebt": 47372, "Ġmant": 10845, "Ġdepict": 31553, "è¬Ŀ": 6350, "Ġraus": 17202, "ĠSacramento": 38360, "Ġribs": 21400, "Ġê·¸ëŁ¼": 13929, "ĠTÃ¤": 41204, "Ġproposing": 29939, "Ġwhip": 22377, "Ġ500": 5923, "Ġsollten": 29096, "Ġì»¬ëŁ¬": 26691, "ĠHARF": 27602, "Ġunfinished": 41037, "Ġstick": 2897, "Out": 28353, "mes": 5814, "Ġdistinguish": 20206, "ĠExpect": 46318, "Ġbinding": 17359, "Ġ150": 8451, "Ġwelt": 43119, "IFA": 35340, "Ġhect": 37358, "TIN": 13758, "ĠÃ¤ndern": 47775, "ĠBible": 6544, "Ġsince": 1670, "ĠAnal": 16128, "ĠBets": 49352, "~~~": 20409, "ê±": 4261, "ÑĥÐ´Ð°": 12248, "ĠSchl": 16420, "ĠdÃ©cidÃ©": 43206, "Ġcondemn": 30733, "ĠprÃ©s": 11761, "Ġlace": 33469, "iko": 10770, "łĪìĿ´": 38845, "Ġanything": 1340, "Ġstandpoint": 15827, "ARIN": 36304, "Ġgettin": 34568, "ĠÐĿÐ°Ð´Ð¾": 48562, "Ġmill": 1728, "ank": 657, "Ġhumano": 30985, "Ġrespectively": 25009, "ĠAus": 9039, "inary": 4066, "arella": 34704, "çĻ¾": 31906, "Ġmentions": 23844, "geons": 30636, "ĠFot": 46771, "ÑİÑģÑĮ": 24551, "ãħĭãħĭ": 6444, "Ġerg": 26585, "Ġdebated": 42212, "Ġexempt": 30425, "AP": 4715, "phen": 47059, "argent": 29757, "ĠSwitzerland": 23312, "ãģ¾ãģ§": 28176, "ĠTheres": 33902, "llor": 19205, "ĠÅĽrod": 28580, "Ġadmitted": 14920, "ÑĨÐ¸Ñı": 17651, "ĠPack": 18466, "ĠFix": 25538, "ĠMarcus": 26574, "Ġgenommen": 38715, "yt": 4328, "Ġdispute": 25379, "ĠBlock": 17500, "ĠìĹŃ": 19427, "ĠRabbit": 42092, "Ġconstitution": 11937, "ĠÐ²Ð¾Ð·Ð¼Ð¾Ð¶Ð½Ð¾": 26740, "ĠSection": 21804, "è·Ł": 9678, "Start": 33996, "bula": 37775, "Ġvitamins": 27920, "estra": 32036, "aran": 17142, "Ġdesem": 38850, "Hola": 48529, "Team": 38588, "Ġadelante": 40214, "Ġinvestigation": 9627, "Ġë¸": 13947, "ZA": 39431, "Ġ2023": 44377, "ĠÐĴÑģÐµ": 18029, "Ġsuffers": 33776, "pin": 17836, "Ġcapitalist": 31354, "Ġneutron": 44362, "Ġbinnen": 35958, "Ġfailure": 7763, "ĠJon": 7745, "<|28.02|>": 51765, "åĳ½": 25236, "Ġbelonged": 28611, "Ġregardez": 49841, "<|0.78|>": 50403, "Ġdramat": 42749, "Ġblended": 27048, "Ġhabil": 36565, "ĠÐĴÐ¾ÑĤ": 9756, "<|8.14|>": 50771, "ĠAlrighty": 43301, "arp": 6529, "nem": 25989, "ĠØ¢": 19753, "Ġstoked": 49145, "ĠABOUT": 50249, "Ġziemlich": 28901, "ĠÃ¥": 8841, "Ġbaby": 3186, "__": 10852, "ĠBuddha": 16375, "ĠTom": 5041, "Ġras": 26815, "Ġproductos": 46363, "unting": 14559, "ãģ¯": 3065, "ĠEssentially": 23596, "ê¹Įì§Ģ": 8786, "à®": 878, "Ġdiscovery": 12114, "awk": 31451, "agu": 31686, "++": 25472, "ĠF": 479, "ĠVielen": 22502, "ĠBaltimore": 22749, "lait": 35235, "Ġdet": 1141, "Ġveil": 30705, "Tr": 14252, "ĠvielÃ¤": 36470, "ĠEngineering": 16215, "sem": 19872, "Ãªter": 37754, "ĠWoo": 10468, "Ķë¡ľ": 18839, "graduate": 47187, "Ġinputs": 15743, "ĠSeiten": 45200, "ifiable": 30876, "Ġgeneralized": 44498, "ĠMini": 18239, "ĠKristin": 42189, "Ġleuke": 45970, "Ġducks": 34468, "muffled": 47503, "Ġsuf": 46282, "Ġadjustment": 17132, "ĠmÃł": 13901, "Ġsubmarine": 33995, "ĠÐ¼Ð¾Ð³Ð»Ð¸": 37118, "ĠÐ·Ð°ÑĤÐµÐ¼": 45288, "Ġoppon": 8292, "Ġpinpoint": 40837, "ĠÄĩ": 45854, "grow": 26685, "Ġfaud": 38694, "ienst": 27366, "Ġoyster": 32005, "Î¹Î±": 8311, "Ġeasily": 3612, "<|24.92|>": 51610, "Ġbetrayal": 42700, "Ġmotorcycle": 20554, "Ġloser": 24606, "Ġlease": 24961, "Ġshort": 2099, "Ġdetected": 21896, "Ġfascinating": 10343, "Ð½Ð°ÑĢÑĥÐ¶": 42286, "Ġìĭ¶ìĿĢ": 26912, "'T": 18010, "Ġìĭ«": 33649, "ĠPang": 49499, "ĠÑĤÐ¾Ð³Ð´Ð°": 21696, "Ġsampai": 38569, "Ġblob": 46115, "<|6.58|>": 50693, "Orange": 41206, "Ġmarks": 10640, "çĵľ": 36727, "Ġwerde": 24866, "Ġholog": 38541, "uns": 26684, "controlled": 49344, "Ġheader": 23117, "ĠëĤľ": 19252, "Ġasta": 43405, "prov": 49911, "ĠKazuya": 47730, "ĠCave": 41100, "Ġenm": 48786, "ĠKrishna": 27153, "Ġê²°êµŃ": 42335, "ĠÑįÑĤÐ¾": 2691, "Ġturned": 3574, "ĠAbove": 32691, "<|27.70|>": 51749, "ãģ¨ãģĦãģĨãģĵãģ¨ãģ§": 39341, "Ġmag": 2258, "isters": 7423, "Ġsinging": 6726, "uchs": 37503, "ĠÐ¿Ð¾Ðº": 7240, "rece": 44209, "Ġwasting": 20457, "ONA": 49659, "ĠViá»ĩt": 32936, "Ġaltri": 33707, "Ġbidding": 39702, "ĠParam": 34882, "what": 5479, "ĠÑģÐµÐ±Ñı": 15403, "ispers": 31018, "å·²ç»ı": 49161, "ĠìĿ´ê±°ë¥¼": 46208, "Ġher": 720, "ĠidÃ©": 39227, "Ġwi": 26393, "Ġfinite": 19362, "ĠPAL": 46390, "acked": 25949, "ĠOM": 16954, "ĠMT": 37333, "Ġla": 635, "unky": 25837, "Ġsupports": 9346, "Ġdense": 18011, "Ġcadre": 39546, "Ġpul": 8331, "ĠLuna": 27355, "ĠÑģÑģÑĭÐ»": 41480, "Ġganhar": 40200, "Laugh": 38303, "ĠPath": 21914, "Ġglimpse": 25838, "Ġindividually": 16652, "Ġfashioned": 40646, "ĠíĽ¨ìĶ¬": 42489, "eni": 15711, "ĠWendy": 21850, "<|10.32|>": 50880, "ĠWrestle": 34744, "ĠMult": 14665, "istor": 23882, "aphrag": 45557, "Ġoluyor": 23597, "Sm": 26578, "ĠModern": 19814, "ĠÃĸz": 47498, "Ġskate": 18237, "ĠÈĺi": 41820, "ster": 3120, "Ġspecified": 22206, "Ġowns": 19143, "Ġconfirmed": 11341, "Ġê°ĻìķĦìļĶ": 12196, "ĠÃ§ev": 45921, "ĠTwice": 46964, "Ġheavenly": 29406, "Ġspor": 43729, "ament": 2466, "ĠPowers": 47278, "Ġìĺ¤í": 25586, "Ġsoldier": 15632, "Ġtables": 8020, "ĠBritish": 6221, "ê²©": 15231, "rob": 16614, "geord": 36161, "<|2.30|>": 50479, "Ġjego": 26542, "ĠmoÅ¼na": 17790, "Ġdus": 14284, "Ġ/": 2460, "Ġseront": 39400, "ĠNEW": 36373, "ĠCurrently": 19964, "Ġemployed": 20115, "KEN": 40136, "iverse": 5376, "ĠìĥĿê°ģìĿ´": 34581, "ogene": 23360, "politik": 46424, "ĠSchweiz": 46834, "Ġrenamed": 40949, "Ġfaz": 4375, "eniz": 40372, "TA": 8241, "Ġwhim": 47271, "Ġmerak": 39668, "ĠEaster": 9403, "ĠConference": 22131, "ÅĽ": 1788, "iant": 5798, "Ġbuilt": 3094, "ĠMercedes": 22899, "ĠÐ·Ð°Ð³": 25770, "Ġmathematical": 18894, "Ġjakim": 49410, "ç¿Ĵ": 34025, "ĠVitamin": 33515, "Ġyogurt": 20997, "ãģ®ãģ§": 23072, "ĠNicholas": 22924, "Ð°ÑĢÐ¸": 16370, "ĠÑģÐ¸Ð»ÑĮ": 34158, "ĠÑģÐºÐ°Ð·Ð°Ð»": 24980, "Ġrez": 48060, "cies": 4629, "arn": 1083, "anging": 9741, "Ġmiejsc": 32754, "Ġdolphin": 46759, "ĠMedicaid": 24779, "usst": 26340, "ĠDare": 42320, "Ġpredic": 47336, "Î¯Î¿": 49669, "heiro": 20267, "Ġcontrolled": 10164, "ĠRu": 15702, "Ġadrenaline": 35649, "ĠSchools": 26997, "Happy": 31496, "ÏĦÎ±Î½": 26263, "Ġko": 8384, "ĠÐ¾ÑĤÑģ": 29870, "MK": 48855, "Ġ140": 21548, "ĠÃ©conom": 31171, "Ġfum": 43845, "kit": 22681, "×ŀ": 8430, "Ġmeisten": 29708, "Ġcapacidad": 43507, "Ġspectral": 42761, "ĠHim": 5920, "Ġglued": 28008, "FL": 31455, "ìĻ¸": 46994, "Ġrevolves": 47934, "Ġmunicipalities": 39748, "Ġsubstrate": 27585, "Ġframework": 8388, "Ġwarm": 4561, "Ġleaders": 3523, "Ġmessy": 16191, "Ġstopping": 12767, "Ġopacity": 41693, "ĠÐ±ÐµÑĢ": 24562, "á»ĳc": 24426, "ĠLay": 20084, "Ġskipped": 30193, "Ð½Ð¸ÐºÐ¸": 18994, "ĠReddit": 32210, "ĠHum": 12877, "³Ģ": 43858, "Ġcolony": 23028, "Ġfinishes": 23615, "Ġdangers": 27701, "ĠBi": 13007, "Ġexciting": 4670, "Ġlivre": 24735, "Ġentendu": 41489, "Ġëĵ±": 15722, "ĠCann": 29866, "Ġanterior": 22272, "Ġjunior": 16195, "2018": 35023, "anken": 18493, "Ġtouring": 32487, "Ġprincipe": 47656, "Ġslap": 21075, "ĠTib": 24474, "Ġasymm": 37277, "Ð´Ð°": 3444, "å¥½åĲĥ": 34669, "æŃ²": 26256, "ĠÑĤÐ²Ð¾": 25144, "rising": 42125, "Ġteen": 8921, "Ġweak": 5336, "ĠOfficial": 38577, "Ġspikes": 28997, "Ġsearch": 3164, "Ġpose": 10774, "ushima": 49754, "Ġthoroughly": 17987, "ĠGinger": 34637, "ĠLaur": 29906, "Ġdenominator": 20687, "Ġrester": 37197, "Ùĥ": 4117, "Ġrain": 4830, "Ġquestionable": 37158, "<|11.96|>": 50962, "ĠRW": 42513, "Ġprop": 2365, "åĲį": 15940, "ĠGarrett": 40266, "ĠcÃ¡i": 14830, "íķ©": 26640, "Ġbenut": 38424, "Ġhospitality": 31207, "Ġwire": 6234, "Ġpriest": 15703, "ĠÅº": 50212, "Ġwide": 4874, "Ġblends": 37619, "ĠLeader": 22650, "<|28.82|>": 51805, "Ġcapabilities": 10862, "Ġê°Ģìł¸": 36434, "Ã³ÅĤ": 16181, "Ġdisagre": 23926, "Ġaffects": 11807, "ãģ¨": 3193, "Ã¼": 774, "ench": 40765, "umin": 7112, "Ġsenator": 24664, "ĠMurder": 44370, "Prof": 43227, "uced": 41209, "ìĹĪëĬĶëį°": 27501, "Ġgall": 8527, "ĠìĭĿìľ¼ë¡ľ": 47270, "ĠìĹĨëĭ¤": 50174, "Ä±yoruz": 24459, "ĠÄĳáº¿n": 26353, "Ġkup": 37534, "ÐµÐ½Ð½Ð°Ñı": 41994, "Ġpregnancy": 16120, "ep": 595, "ê·Ģ": 46862, "Ġkeyboard": 10186, "Ġminds": 9634, "amÄ±": 48688, "vant": 5219, "Ġcongrat": 9774, "ĠRights": 16352, "ĠìĬ": 6955, "Ġemployers": 16744, "Ġwinning": 8224, "ÑĢÐ°ÑģÑĤ": 46300, "Ġquestion": 1168, "Ġgir": 14703, "ĠBoys": 21963, "Ġcolored": 14332, "Ġtiming": 10822, "ĠAle": 9366, "Ġbullied": 33603, "endre": 37850, "ĠÈ": 36726, "Ġtheo": 40594, "Ġonwards": 34230, "Ġeggplant": 43018, "Ġinternacional": 37382, "Ġweakened": 42613, "Ġhace": 10032, "ĠÐ½ÐµÐ²": 21224, "ĠSmile": 38499, "ĠDra": 15971, "<|10.44|>": 50886, "ìĹ¼": 43814, "kk": 12809, "Ġagrees": 26383, "ADE": 41671, "Ġdeinen": 49362, "uster": 8393, "Ġregist": 11376, "Ġmethane": 32521, "<|3.90|>": 50559, "ll": 285, "Ġ×ĳ×Ķ": 40435, "ĠTC": 34150, "ĠPit": 32136, "ì¸": 18388, "Ġpresented": 8212, "ocal": 36483, "Ġresigned": 41180, "Ġproceeds": 32280, "ont": 896, "Ġawak": 13726, "Ġautomotive": 32866, "Ġgrades": 18041, "Ġresponding": 16670, "ĠOUT": 22451, "Ġded": 4172, "Ġfirefight": 25256, "ÐµÑĤÐµ": 10524, "Ġ1969": 32090, "ĠVER": 27686, "Ġtossed": 42768, "åħī": 20690, "Ġ-âĻª": 45499, "Ġplans": 5482, "åģļ": 10907, "Ġ365": 22046, "nas": 18979, "ati": 6908, "ĠsÄ±": 30201, "Ġproportions": 32482, "Ġresc": 9610, "Ġproving": 27221, "Ġdemocrats": 47665, "Ġfulfil": 41054, "ĠSyria": 13314, "Ġconstituents": 30847, "Ġsuppress": 26835, "ĠDar": 7803, "Ġgains": 16823, "ê¹Ģ": 41062, "ĠEther": 38636, "ell": 898, "cÃ¼": 49694, "ĠShall": 12128, "Ïĩ": 7597, "Ġreflect": 5031, "Get": 18133, "Ser": 31859, "ulse": 19258, "ĠNokia": 43980, "James": 32263, "ÑĨÐ°": 11530, "<|28.66|>": 51797, "Ġgedaan": 44419, "ais": 1527, "<|4.76|>": 50602, "millimeter": 38274, "Ġzam": 19876, "ĠDude": 12042, "Ġthought": 1194, "ĠRep": 3696, "ĠJASON": 33524, "å¹«": 32187, "ĠHAS": 38461, "Ġnivel": 24423, "idades": 10284, "Ġhiá»ĩn": 48079, "Ġponytail": 49138, "<|28.42|>": 51785, "Ġnicely": 9594, "ĠFisher": 26676, "à¸²à¸ģ": 32550, "ĠBrussels": 38717, "Ġcurated": 47851, "Ġrealistically": 40734, "Ġbiscuit": 39327, "Å¼enia": 48830, "Mania": 45637, "ĠrÃ¤": 39442, "ìĪ": 5500, "Ġforward": 2128, "Ġassembled": 24204, "gas": 10549, "ĠÐĴÑģÐµÐ¼": 37367, "å±Ģ": 34703, "ĠØ¶": 48812, "ber": 607, "Ġseamlessly": 38083, "Ġcolle": 5913, "Ġhills": 21379, "ĠÐ²": 740, "ĠMun": 17050, "enee": 35674, "ĵ": 241, "Ġnod": 15224, "owitz": 22799, "Ġdriven": 9555, "ĠtecnologÃŃa": 48055, "ĠPhysics": 38355, "Ġintric": 30242, "Ġfacilit": 38770, "ikes": 8916, "orters": 12168, "ĠFelix": 30169, "Ġcapture": 7983, "archy": 13988, "Ġspoiled": 32439, "Ġwarten": 46907, "Ġsetup": 8657, "irst": 653, "engo": 30362, "ĠWillie": 39912, "fil": 19776, "Ġhorizontal": 12750, "Ġya": 2478, "Ġcommentary": 23527, "Ġcosm": 22207, "Ġcoughing": 39375, "ĠÑģÐ¿Ð¾ÐºÐ¾Ð¹": 47471, "ĠAg": 2725, "Ġbringing": 5062, "Ġupfront": 30264, "Ġmarca": 30582, "aug": 20056, "uckle": 32540, "ĠWalt": 28260, "ĠArticle": 35230, "coll": 33891, "çĿĢ": 20708, "Ġgesprochen": 42714, "Ġinfluenced": 15269, "Hay": 39075, "ìłĪ": 23583, "peÅĤ": 31457, "Ġimmature": 49539, "Ī¬ë": 48458, "Ġrecognized": 9823, "å·§": 43605, "Ġinnocence": 35796, "åĸĤ": 35142, "<|25.40|>": 51634, "Ġmer": 3551, "Ġbacteria": 11763, "Ġimposing": 40288, "Ġintrodu": 2814, "'ve": 600, "imento": 10030, "Ġvowels": 44972, "ĠBy": 3146, "Ġcondu": 15504, "Ġmourning": 42947, "èĥĮ": 46329, "NOUNCER": 34387, "ĠSt": 745, "Ġministers": 26220, "craft": 5611, "ĮĢë¡ľ": 15527, "ĠTu": 7836, "Ġdecl": 7488, "ĠÑĤÐ¾Ñĩ": 23045, "Ġvolatile": 34377, "ĠNah": 13933, "Ġlies": 9134, "Ġheadset": 26850, "Ġcrushing": 31317, "Ġjaw": 18162, "ĠYuri": 33901, "ãģĭãģ£ãģŁ": 25785, "ĠiPhone": 7252, "adaki": 48457, "ĠMelbourne": 27496, "ĠAhora": 18840, "ĠIv": 26546, "Ġbos": 30641, "ĠRick": 11224, "VES": 46467, "ĠfÃ¼r": 2959, "ĠÐ´ÐµÑĢÐ¶": 27565, "Ġmiserable": 22321, "facing": 44046, "Ġfreaked": 37853, "Ġprocent": 38826, "ĠÑĥÑĪ": 38521, "Ġwrapped": 14226, "ÎµÎ¹Î±": 41198, "Ð¾Ð»Ð°": 44342, "<|21.58|>": 51443, "Ġaber": 4340, "ĠdÃ©f": 30456, "Ġrealm": 15355, "Ġjourneys": 36736, "Ġliberals": 48617, "Ġteng": 10370, "ĠÑĢÐµÐ´": 42845, "Ġpickles": 38910, "Ġdomest": 39125, "Ġcentralized": 32395, "Ġpathways": 22988, "Ġsurprises": 22655, "ĠAvoid": 41061, "ĠChamp": 9863, "Ġaftermath": 34095, "INDISTINCT": 43248, "aat": 40841, "BC": 7869, "ĠCouncillors": 44912, "ĠLets": 15655, "Ġtoolkit": 40167, "Ġcurv": 33900, "ÑĥÑİ": 3924, "ĠÎ»": 15015, "Ġlabor": 5938, "Ġquarter": 6555, "Ð°Ð»ÑĮÐ½ÑĭÐ¼": 45384, "ĠBoard": 10008, "ĠÐ¼ÑĥÐ¶Ñĩ": 40051, "Ġbras": 19993, "Ġpassive": 14975, "Ay": 31983, "Ã¼ÅŁ": 8743, "Ġneg": 2485, "ĠÐ½Ð¸": 13686, "Ġvolts": 22322, "Ġhunch": 47630, "è¿Ļä¸ª": 15368, "Ġrainbow": 18526, "Ġkontroll": 47107, "ĠMarines": 39331, "ÑĸÑı": 34299, "ĠCream": 25358, "Ġexploration": 16197, "<|12.06|>": 50967, "Ġmasses": 23935, "your": 23093, "Ġopenly": 23109, "ĠChallenge": 17517, "+": 10, "Ġbudgets": 26708, "ĠrazÃ³n": 38310, "Ġacadem": 19267, "Ġbasin": 34863, "Ġgoosebumps": 48305, "hua": 30107, "Ġuniform": 9452, "Ð¢Ð°Ðº": 39005, "ãģ©": 7594, "ĠcrÃ©d": 37368, "Ġmanifests": 50252, "Ġpledge": 26819, "Ġkho": 49627, "ĠPolitical": 34265, "ĠVictory": 37976, "Ġneden": 34828, "ĠPrincess": 13903, "ĠEner": 11132, "Ġbuoy": 42841, "POS": 41916, "Ġgrupp": 47477, "ĠLooking": 11053, "Ùĭ": 14111, "ĭ": 233, "Åŀ": 28705, "ĠMillion": 33959, "Ġìŀ¬ë": 16526, "ê¸´": 17381, "ë§Ŀ": 46407, "Ġshelters": 36643, "Ġonly": 787, "Ġflavored": 37261, "ĠOpening": 41137, "ĠìĦľ": 17397, "Ġgefunden": 36923, "pert": 15346, "????": 25629, "Ġaby": 24457, "Äĩ": 2162, "oon": 4106, "Ġíŀĺ": 30326, "uhan": 24729, "kor": 19339, "ì¡´": 46808, "Ġcors": 46511, "aines": 19295, "ĠJUD": 16418, "Ġensemble": 19492, "Ġdependencies": 36606, "Ġarrogant": 30467, "ĠSan": 5271, "Ġfest": 6633, "user": 18088, "Ġformulate": 47881, "æĪĳè·Łä½ł": 34012, "Ġdirty": 9360, "OUGH": 34723, "ĠiT": 30882, "ãĤī": 5154, "Ð½ÑıÑı": 41884, "Ġpolish": 20452, "Õ": 145, "ouch": 2220, "Ġpressing": 12417, "<|1.98|>": 50463, "<|18.88|>": 51308, "ĠheiÃŁ": 39124, "Ġnorthern": 14197, "inel": 40952, "Ġphenomenon": 14029, "Ã³w": 3901, "ĠíĻķìĭ¤íŀĪ": 50149, "Ġcartoon": 18569, "Ġitaliano": 48486, "Ġcyt": 40248, "Ð»Ð°Ð³": 25464, "ĠCrunch": 44233, "Ġprovin": 17629, "Ġprovider": 12398, "Ġbolts": 18127, "wiet": 39083, "Ġgenere": 41553, "max": 41167, "ĠnÃºmeros": 36545, "Ġdrinking": 7583, "Ġart": 1523, "Ġconsequence": 18326, "quin": 29360, "Ġensuring": 16882, "Or": 21520, "ãĤĮ": 4132, "Ġpotrzeb": 37595, "Ġactivists": 23042, "ĠsÃ¶": 12643, "ign": 788, "ĠSpark": 23424, "Ġdocumentary": 15674, "ĠTruly": 43548, "appa": 25637, "<|20.78|>": 51403, "<|20.84|>": 51406, "ĠMeng": 29090, "Ġplain": 11121, "inf": 19920, "Ġcuent": 46414, "ĠFahren": 29109, "ĠÑĤÐ°ÐºÐ¸Ðµ": 20113, "Ġpropag": 12425, "ĠìĦłìĥĿ": 33600, "Ġpaar": 16509, "ĠLondon": 7042, "hots": 27495, "Ġyacht": 39629, "voice": 42268, "mani": 43717, "ëł¥": 21946, "à¹Ħà¸Ķ": 25977, "Ġface": 1851, "ĠfÃ¼hrt": 39671, "Ã¼m": 8966, "loud": 29221, "Fi": 13229, "uerdo": 22412, "ĠLore": 36994, "normal": 23157, "ĠìŀĪìĬµëĭĪëĭ¤": 10552, "ines": 1652, "ĠmÃ¼sst": 49481, "Ġhealthy": 4627, "ĠCox": 41576, "Ġmim": 12247, "Ġrichest": 35098, "Ļ": 247, "Ġencoun": 7669, "ĠHear": 30685, "Ġ\"-": 31672, "Ġthor": 11588, "ĠBroadway": 19414, "Ġtalk": 751, "Ġdenote": 45708, "ĠpowiedziaÅĤ": 48539, "Ġtails": 28537, "Ġìŀłê¹": 24155, "ĠTing": 43196, "Ġsniff": 31101, "ÃŃst": 19512, "ĠRede": 39056, "nia": 12679, "itutional": 41859, "×Ļ×ķ×ª": 18896, "motion": 44968, "cion": 10015, "ĠÐºÐ¾ÑĤ": 39535, "Ġmultipl": 12788, "ĠNue": 47970, "Ġapplause": 9969, "can": 7035, "Ġcap": 1410, "ĠLess": 18649, "vers": 840, "Ġjumps": 16704, "Ġhebt": 28339, "Ġhungry": 8067, "Ġmajors": 31770, "Ġhides": 35953, "Ġprecipitation": 37662, "Ġbard": 7685, "Ġå°į": 8748, "Ã¡n": 7200, "Ġgry": 41974, "ĠDun": 11959, "quency": 48154, "Ġlashes": 25552, "chter": 26690, "Ġorganizations": 6150, "Ġsamb": 47822, "ĠTrend": 37417, "Ġevacuate": 48570, "Ġoutdoors": 20980, "Ġcows": 19148, "Ġpunished": 22365, "for": 2994, "Ġdigo": 22990, "Ġendors": 37676, "Ġrejected": 15749, "ĠUnder": 6974, "çķĮ": 21185, "Ġoutstanding": 14485, "ĠJing": 19534, "Ġshedding": 49934, "Ġaccident": 6398, "Ġpopulation": 4415, "Ġmelt": 10083, "Ġrecorded": 8287, "ÐµÐ»Ð°": 19097, "Ġcherche": 41644, "Ġchewing": 31444, "Ġover": 670, "ĠÐ¿ÑĢÐ¸ÑĢ": 41640, "Ġfulfilled": 21380, "way": 676, "Ġonder": 20756, "indistinct": 16041, "hnlich": 35646, "erst": 16398, "Ġcommanded": 34359, "Ġdots": 15026, "Ġantioxid": 33369, "çĪ¶": 34131, "Ġparalysis": 49507, "ibel": 44685, "Ġfight": 2092, "Ġmeilleur": 41457, "where": 1992, "ĠÐ½ÐµÐ±Ð¾Ð»ÑĮÑĪ": 32692, "Ġscenery": 25805, "Ġà®Ĵ": 37240, "Ġempire": 17506, "ĠDerek": 22887, "ĠOj": 47100, "ĠDz": 39448, "ĠDifferent": 20825, "ĠÑģÐºÐ¾ÑĢÐµÐµ": 41420, "Ħľ": 3556, "shit": 19186, "Ġcascade": 50080, "á¸¥": 39887, "<|17.04|>": 51216, "ìĿĮë": 36831, "Ġchallenge": 3430, "Ġdecide": 4536, "eled": 31689, "ĠArrow": 40269, "ĠCons": 6923, "ÐļÐĲ": 20869, "×ķ×©": 17329, "ÏĦÎ¿": 10600, "Ġcounseling": 23889, "ĠÑĸ": 8934, "Ġlacking": 20889, "Ġê³³": 25177, "<|1.14|>": 50421, "Ġeens": 31246, "ĠÏĦÏīÎ½": 39575, "æľ¬å½ĵ": 37505, "ĠÐ³ÑĢÑĥÐ¿": 27530, "á»įn": 47246, "Ġmedieval": 24078, "Ġfiltration": 43623, "Ġmitig": 15699, "Ġgerne": 15689, "Ġjokes": 14439, "Ġcovered": 5343, "'D": 41063, "emark": 26721, "ÑĥÑĪ": 8288, "member": 38249, "Ġballs": 9803, "ĠNatur": 34571, "wald": 33262, "çŁ³": 36783, "ĠFPS": 26429, "<|15.06|>": 51117, "<|10.70|>": 50899, "ĠWi": 14035, "Ġprevalent": 30652, "Ġfurther": 3052, "Ġcommittees": 25998, "´ìĦľ": 4555, "ĠTammy": 48030, "ĠiTunes": 33017, "Ġdecorations": 32367, "Ġsurrounding": 11498, "Ġsnip": 37482, "Ġ260": 44624, "dal": 36694, "Ġrecur": 18680, "Ġexpressions": 15277, "Ġsatisfy": 19319, "Ġstories": 3676, "eau": 22290, "Ġconducting": 21749, "ĠSed": 31213, "Ã¡nd": 18606, "Ġ401": 37510, "Ġinvoke": 41117, "<|24.66|>": 51597, "ĠprÃ³p": 21431, "Ġduty": 9776, "iy": 4727, "Ġcriminal": 8628, "Ġmanera": 13913, "Ġstatist": 16012, "Ġai": 9783, "Ð¾ÑģÑģ": 15770, "ĠRomanian": 49963, "Ġgeh": 13218, "ä»½": 36266, "rÃ¤": 11397, "²½": 36547, "ĠÐ²Ð¾Ð·ÑĮ": 45097, "Ġcurved": 24991, "ĠMaterial": 29160, "ĠTheir": 6710, "ĠÐ¼Ð¾ÑĢ": 24127, "Ġcatchy": 47168, "Ġposs": 1402, "Ġcigarette": 26184, "assy": 20712, "Ġunderneath": 7223, "Ġmom": 1225, "ĠRams": 28990, "Ġmonk": 27698, "bior": 33362, "Ġnunca": 13768, "Ġmandates": 48662, "AKI": 23225, "ãģĳãģ¦": 39736, "ìĹĪëĭ¤": 41741, "Ġmanif": 8173, "£¨": 13033, "Ġeraser": 46018, "Ø¸": 19913, "Ġfim": 31603, "Ġstereotype": 38229, "ĠÑĤÐ°ÐºÐ¸Ñħ": 28572, "acions": 43724, "Ġam": 669, "Ġvague": 24247, "Ġseguir": 18584, "Ġsekarang": 29047, "<|10.72|>": 50900, "Ġsym": 6697, "rice": 21299, "chÃ©": 11131, "Ġnaturale": 40877, "Ġ==": 4141, "ĠØ§ÙĦØ®": 33962, "Ġexpansion": 11260, "Ġconductor": 29957, "Ġ:": 1982, "Ġbueno": 11974, "Ġspecialty": 22000, "Ġcalendar": 12183, "Ġnotebook": 21060, "moon": 33895, "Ġëª»": 10239, "Ġdetriment": 35430, "Ġhugs": 42149, "<|27.16|>": 51722, "ĠOh": 876, "ĠMobil": 47188, "Ġë³´ëĬĶ": 40891, "ĠUnless": 16581, "Fonda": 35286, "Ġnháº¥t": 41081, "¤íĶ": 35219, "Ġpatents": 38142, "Ġreturns": 11247, "Ġwordt": 20365, "acks": 7424, "displaystyle": 38993, "Ġdivers": 6111, "Ġserait": 23139, "<|21.82|>": 51455, "Ġfigures": 9624, "ogeneous": 31112, "Ġliquor": 29162, "rukt": 19977, "image": 26624, "ĠNICK": 32175, "Ġplup": 45312, "ĠEs": 2313, "ĠUN": 8229, "Ġacknowledging": 30904, "Ġremarkably": 37381, "ĠFAR": 27235, "Ä±ÅŁ": 4951, "Ġprizes": 27350, "Ġscans": 35116, "Ġfreue": 43195, "<|15.44|>": 51136, "<|2.12|>": 50470, "emaker": 49523, "ĠEver": 12123, "mem": 17886, "Ġeine": 3018, "Ġoriginal": 3380, "Ġroommates": 46886, "Ġkolay": 44999, "ĠJungle": 44021, "ĠAuf": 9462, "olin": 31178, "Ġloh": 46957, "ĠíĹ": 13431, "ĠÐ²ÑĭÐ³Ð»ÑıÐ´Ð¸ÑĤ": 40670, "ĠBarb": 14876, "ĠczÄĻ": 18544, "ĠâĻ": 873, "ĠTheater": 26548, "astics": 21598, "ĠIz": 30296, "Ġrefle": 36549, "idelity": 33343, "Ġja": 2784, "Ġcheesecake": 41348, "lingen": 39900, "ĠmogÄĻ": 41737, "Ġshocks": 37066, "ĠBak": 12063, "Ġadjust": 4369, "×Ļ×ļ": 25988, "Ġvoix": 37188, "ĠKaty": 42959, "<|17.62|>": 51245, "Ġacceleration": 17162, "bait": 41274, "Ġíĸī": 21484, "Ġê·¸ëłĩì§Ģ": 32667, "æ·±": 24043, "EX": 39814, "Ġpraise": 13286, "Ġelabor": 16298, "Ġschizophren": 41532, "Ġreaches": 14235, "ĠcomplÃ¨tement": 31331, "<|17.90|>": 51259, "ili": 2312, "ĠãĤĵ": 42961, "ihi": 48747, "Ġcarro": 23428, "Ġmathematics": 18666, "Ã¡g": 21099, "à¸Ń": 5104, "Ġreimburse": 41685, "lins": 49682, "nh": 5728, "ĠMM": 34191, "Ġê±¸": 14240, "Ġresponder": 36416, "Ġhots": 36121, "ray": 3458, "ifer": 9361, "rika": 21499, "ilik": 41470, "ĠSid": 19797, "Ġkto": 23780, "Ġstatistic": 29588, "Ġë¡ľ": 26142, "à®³": 10078, "Ġdog": 3000, "acula": 41422, "Ġtruly": 4908, "lauf": 36488, "<|19.98|>": 51363, "ĠYan": 13633, "ĠbyÅĤa": 23936, "ĠJamaica": 42927, "Ġbeyond": 4399, "Ġweeds": 26370, "ummer": 30906, "Ġinjuries": 14799, "ioned": 37579, "resses": 40352, "ĠKimchi": 38428, "<|10.12|>": 50870, "Ã¨t": 18177, "Ġarrested": 12469, "Ġjar": 15181, "ling": 1688, "Ġdarker": 12741, "Ġthrew": 11918, "ĠTransport": 22309, "oj": 37224, "Ġreturned": 8752, "ĠPrison": 38888, "ĠBody": 21329, "ĠÑĤÑĢÑĥÐ´": 36853, "itÃ¤ten": 49289, "ĠÐ¡ÐµÐ³Ð¾Ð´Ð½Ñı": 35913, "Ġprobiot": 45710, "Ġminha": 11720, "Ġenhanced": 21191, "Ġpersonn": 30194, "çļĦæĹ¶åĢĻ": 49873, "Ġcav": 13971, "Ġinstantly": 13518, "ê³µ": 14913, "áºŃt": 25296, "Ġê³łë¯¼": 41936, "Ġencl": 20987, "Ġexpired": 36587, "Father": 44773, "ĠAP": 5372, "Ġstunned": 35394, "Ġsenses": 17057, "ĠEduc": 9517, "ENS": 30174, "ĠwÅĤaÅĽciwie": 50108, "This": 5723, "ract": 1897, "Ġshortages": 46765, "Ġë¶Ħëĵ¤": 20147, "ĠBart": 22338, "Ġhoras": 19548, "Ġphilosop": 9237, "Ġentrepreneur": 14307, "zeitig": 32075, "esin": 40697, "ĠTae": 24478, "ĠMilwaukee": 35321, "é¡ĺãģĦ": 26079, "ĠPOW": 39272, "Ġundocumented": 40472, "poke": 48776, "ĠGrow": 18476, "Ġìµ": 12568, "Ġformul": 49990, "Ġunhappy": 22172, "ilia": 24169, "Ġphrase": 9535, "ĠsÄħ": 9015, "backs": 17758, "Ġsubject": 3983, "Ġeyeliner": 30788, "LE": 2634, "ĠIndust": 16018, "ÄĻp": 18085, "Ġslippery": 28100, "Ġdeeply": 8760, "Ġcalcium": 20918, "thern": 8846, "ĠStrand": 47517, "?..": 46863, "Ġplumbing": 39993, "achsen": 31625, "Ġnet": 2533, "values": 46033, "Ġdisci": 6507, "<|24.44|>": 51586, "<|28.56|>": 51792, "Ð¾Ð´Ð½Ð¾": 44356, "18": 6494, "Ġepile": 41855, "Ġcompetitive": 10043, "<|19.76|>": 51352, "balls": 19194, "Ġhertz": 45830, "ĠCrown": 22375, "Ġwestern": 13231, "<|11.74|>": 50951, "ĠPolsce": 35567, "Ġdije": 39414, "wal": 29530, "Ġops": 44663, "Ġcons": 1014, "ĠìĤ": 2774, "Ġimplementing": 18114, "esa": 13708, "ĠÐ´Ð¾ÐºÑĥÐ¼": 43031, "Ġunde": 40981, "ĠGB": 26809, "Ġtiger": 21432, "ĠHeights": 44039, "Ġpsychology": 15105, "Ġskin": 3178, "Ð¼Ð¾ÑĤÑĢ": 11128, "ĠGift": 44890, "ĠAdditionally": 19927, "Ġpunkt": 39561, "ervice": 25006, "Ġì²«": 22707, "<|7.98|>": 50763, "<|4.08|>": 50568, "Ġelevator": 18782, "Ġtough": 4930, "Ġbrainstorm": 35245, "eros": 16771, "Ġdiesel": 21258, "ĠAE": 32207, "Ġpickle": 31433, "Ġbrought": 3038, "coal": 28037, "hammer": 39985, "Ġcyber": 13411, "Ġadvances": 25297, "ĠDust": 26483, "Ġpottery": 45272, "<|5.72|>": 50650, "<|7.52|>": 50740, "Ġrobot": 7881, "ĠëŃĶê°Ģ": 20729, "ĠÐ²ÑĢÐ¾Ð´Ðµ": 41079, "indre": 28786, "ommy": 10165, "Ġsponsors": 22593, "ĠÐ°ÑĤ": 46998, "Ġaround": 926, "Ġescr": 49865, "Ġtoget": 1213, "Ġvisualize": 23273, "<|0.62|>": 50395, "<|5.48|>": 50638, "opedia": 47795, "Ġrover": 45767, "éĮ¢": 29483, "áº¿t": 13888, "Ã©e": 3856, "Ġlivestream": 29782, "Ġconven": 7158, "Ð¸ÑĤÑĮ": 3258, "ĠDave": 11017, "Ġyep": 18633, "mit": 3508, "ĠOlga": 48288, "Ġstones": 14083, "ĠWalmart": 25237, "Ġheals": 45653, "<|0.96|>": 50412, "Ã¼st": 44244, "Ġtraged": 16019, "Ġcomfort": 3400, "ĠCum": 26337, "Ġflaps": 50065, "Ġvom": 10135, "Ġstream": 4309, "edge": 12203, "Ġdiss": 7802, "ĠÑģÑĥÐ´": 30103, "Ġcentral": 5777, "ĸ´": 25982, "<|2.86|>": 50507, "ĠFar": 9067, "ĠÐ½Ð°Ð¹ÑĤÐ¸": 31993, "Ġmuitas": 25705, "Ġneces": 11909, "ĠSecretary": 9126, "Ġkal": 7788, "<|18.56|>": 51292, "Ġargue": 9695, "bling": 18262, "ĠKim": 5652, "ju": 8954, "Ġweirdly": 48931, "Ġtinc": 43240, "ä½łè¯´": 42405, "Ã¤chen": 45118, "Ġelect": 2185, "alone": 24806, "Ġpink": 7022, "Ġunreal": 25754, "duino": 36262, "Ġturnover": 37137, "Ġà®ĩ": 12894, "ĠpaÅĦstwo": 42233, "amed": 3475, "Î®ÏĤ": 42647, "ĠÐĿÐ°Ð¿ÑĢ": 36552, "ĠHarrison": 34272, "ĠPre": 6001, "ishop": 18091, "Ġfetch": 23673, "isti": 45308, "ĠLiber": 14175, "Ġsolu": 24807, "reated": 26559, "Ġìłľë": 23406, "Ġdoss": 47831, "Ġmovies": 6233, "<|14.64|>": 51096, "ĠmÃ¡ximo": 38876, "Ġsame": 912, "ĠBACK": 42467, "Ġprodukt": 42816, "Ġenjoyment": 32013, "ĠPiet": 41970, "Ġpeacefully": 36485, "SH": 17308, "Ġsj": 20601, "Ħ°": 26267, "Ġfavor": 2294, "ãģĦãģĨ": 9444, "Ġnormal": 2710, "<|23.58|>": 51543, "Ġcombining": 21928, "Ġnoted": 12964, "cis": 26720, "Ġdirig": 35243, "ĠEarly": 18344, "Ġsociedade": 45789, "Ġentreprene": 8354, "Ġsadece": 32945, "ĠTagen": 41721, "ìĭĿ": 10436, "LA": 11435, "ĠEddy": 35062, "Ġabide": 39663, "é»": 6173, "Ġparecer": 44885, "ĠIslands": 23492, "Ġshades": 20639, "Ġbrief": 5353, "ĠBI": 23524, "Ġcontrad": 15858, "<|29.94|>": 51861, "ĠCT": 19529, "Ġseasoning": 23421, "ĠìĦłë¬¼": 44956, "ĠÐ½Ð°Ð·Ð°Ð´": 28724, "Ġtour": 3512, "ĠMem": 8731, "ickt": 40522, "Ġdragon": 12165, "acular": 14700, "instr": 50024, "Ġdumplings": 31721, "ĠFUCK": 26154, "à¹Ĭ": 43375, "Ġclosure": 24653, "ĠFif": 21501, "ĠhÃ¤uf": 39735, "Ġdesperation": 48980, "ä¸įå¤ļ": 33364, "ĠProduct": 22005, "ãģ£ãģ¦ãģĦãģĨ": 46896, "ĠGallery": 29733, "hem": 28005, "cell": 4164, "ĠExactly": 7587, "ra": 424, "Ġsauce": 4880, "Ġexplosives": 46421, "<|3.56|>": 50542, "Ġlesser": 22043, "bli": 32117, "ĠBand": 15462, "Form": 49855, "Ġfooting": 45959, "Ġslogan": 33052, "Ġout": 484, "aso": 35281, "Ġsaliva": 43540, "á»§": 28903, "cio": 8529, "Ġvoiced": 42246, "ete": 3498, "akan": 14910, "ìĭľì£ł": 37822, "ĠRYAN": 32354, "Ġaffairs": 17478, "Ġloos": 40454, "Ġpenny": 24178, "ĠNAU": 44789, "iosis": 48783, "alÄ±m": 12714, "ĠÐ½ÑĢÐ°Ð²Ð¸ÑĤÑģÑı": 33652, "Ġpromot": 6609, "Ġintegral": 11573, "Ġsusceptible": 31249, "iro": 5182, "binary": 48621, "ĠÐĺÐ»Ð¸": 34361, "Ġmotivations": 39034, "ĠÐ½Ð¾Ð²": 10022, "æĻĤéĸĵ": 20788, "Ġdisagreement": 38947, "á»±c": 27951, "Ġflux": 19298, "Ġkilow": 41295, "Ġadv": 1551, "Ġtrending": 28692, "PO": 34885, "ĠìĽĢ": 40481, "Ġevents": 3931, "ĠWarm": 40353, "<|sk|>": 50298, "<|19.80|>": 51354, "æ¨Ĥ": 34043, "itic": 44592, "athan": 9390, "Ġprepared": 4927, "Ġwished": 25811, "Ġpresidency": 26702, "Ġtempo": 8972, "Ġëª¸": 30205, "Ġeinzel": 36731, "Ġplugged": 25679, "Jin": 37340, "esus": 26739, "Ġwoj": 40758, "ĠRapt": 38115, "Ġkami": 34502, "cart": 44672, "iniz": 9328, "Ġoverlay": 31741, "Ġfingert": 25948, "Ġroman": 41362, "**": 4852, "ĠJas": 34023, "Ġhormones": 22453, "å¥½å¥½": 30164, "ĠJeremiah": 40460, "Ġcorresponds": 23249, "Ġren": 8124, "inkles": 23870, "ĠmitÃ¤": 30451, "Ġexpanded": 14342, "TH": 9620, "egan": 43118, "ĠPode": 39168, "caster": 42640, "ÑĢÐ°Ð²": 5608, "olie": 49448, "Ġparticipants": 10503, ".)": 4273, "ĠìŀĪìľ¼": 47324, "ĠÐºÐ¾Ñģ": 31839, "Ġbuenos": 49617, "ĠBuddhism": 24744, "prech": 22895, "ĠNaj": 31576, "Ġairline": 29528, "ĠChamber": 25401, "Gs": 33715, "ilant": 25824, "ĠíĮĮë": 44475, "è¢«": 23238, "ĠAbg": 35407, "ĠestÃł": 22093, "Ġsettled": 14819, "ĠThankfully": 28344, "ÐĹÐ«ÐļÐĲ": 24974, "ulty": 5773, "Ġvandaag": 41901, "ector": 20814, "Ġfooled": 33372, "<|6.98|>": 50713, "liest": 16850, "Ġpresets": 41865, "Ġinvestig": 4557, "Ġmyth": 9474, "ĠOttawa": 40767, "Sen": 38340, "Ġdevoted": 21815, "current": 49827, "ĠtÃ©c": 25564, "wh": 1363, "×ķ×Ł": 14838, "Ġorg": 14045, "RY": 16359, "ĠÐ½Ð¸Ð¼": 25793, "æ½": 35622, "ĠSiber": 42608, "sigh": 35143, "Ġgovernmental": 43391, "ĠFry": 31822, "ifty": 37177, "written": 26859, "based": 6032, "Ġempezar": 31168, "Ġactivation": 24433, "ims": 18857, "Ġå°įåķĬ": 49155, "Ġstimulating": 43671, "Ġplung": 37663, "Ġkleinen": 26512, "Ġspatial": 23598, "ĠAllah": 4574, "ĠÐ¼ÐµÑģÑĤÐµ": 36534, "Ġolur": 16538, "ĠFormula": 35872, "Ġtem": 1383, "ĠÐĴÑĤÐ¾ÑĢ": 49732, "Ġalmighty": 47534, "fortable": 10124, "ijuana": 21992, "Ġmanque": 48124, "Ġcheg": 22115, "esearch": 10177, "Ġ103": 48784, "ĠFerm": 43261, "ĠBachelor": 23193, "ĠMine": 11620, "Ãĸ": 25719, "ing": 278, "purpose": 42601, "Ġquais": 44075, "istinct": 13986, "uestas": 47794, "ĺëıĦ": 8226, "å§Ķ": 44230, "Ġsnatch": 46328, "alk": 667, "fic": 1786, "Ġdiscrimin": 20828, "pot": 17698, "Ġsoftly": 30832, "ĠKrie": 35579, "iger": 4810, "Ġcombine": 10432, "Ġfam": 1087, "ches": 3781, "Ġgek": 14037, "Ġanno": 46277, "Ġdependent": 12334, "Ġcubed": 36510, "Ġmang": 32432, "akes": 3419, "ĠÙĩÙĪ": 31439, "Ġbutterflies": 31987, "ĠHep": 30578, "Ġintroduction": 9339, "Ġviolet": 46480, "otechnology": 43594, "Ġresponsibility": 6357, "łĪë": 29494, "ĠFury": 40327, "Ġê²ĥìĿĢ": 33825, "Ġimmer": 5578, "ĠrÃ¡pido": 24893, "Ġcountries": 3517, "Ġcompt": 15660, "ŀ×¨": 18520, "ĠogÃ³le": 29229, "More": 33986, "ĠCM": 20424, "ERO": 37494, "SAY": 40853, "Ġpatients": 4209, "ÑĥÑĤÑĮ": 13967, "Ġcrashes": 28642, "haupt": 19276, "Ġgou": 21301, "BERG": 46233, "Ġhandles": 18722, "ĠÐ´Ð¾Ð»Ð³Ð¾": 37515, "Ġpromptly": 48594, "Ġbucks": 11829, "Õ¡Õ": 23279, "eres": 9931, "Ã¿Ã¿": 19551, "feeding": 42231, "ĠEverest": 47591, "Ġese": 10167, "Ġeen": 3881, "Ġtheoretical": 20864, "äº¬": 31375, "Ġinvasion": 21575, "Ġtransparency": 17131, "throp": 14222, "Ġwindshield": 39996, "Ġseres": 44721, "Ġinstruments": 12190, "ĠOy": 40023, "Ġpainters": 48643, "ĠÐ³Ð¾": 6778, "ĠTsch": 44461, "íĶĦë": 42334, "Ġmythology": 30871, "å·²": 15701, "Ã¨te": 22279, "arat": 18452, "narrator": 48634, "Ġaccent": 11982, "Ġelectromagn": 27528, "Ð»Ð¸ÑģÑĮ": 31524, "?!?": 38825, "ĠSusan": 15160, "Ġrings": 11136, "åıĳ": 28926, "Japanese": 48354, "ĠVA": 18527, "åħ±": 15408, "ä½İ": 41377, "Ġhorrific": 29248, "iry": 12781, "ĠMant": 32829, "ĠMais": 6313, "Ġranges": 22526, "ÐµÑĤÑĮ": 9108, "Ġfiquei": 49647, "ĠëĽ": 40589, "vity": 23110, "ĠBuenos": 38058, "Ġonto": 3911, "Ġdurant": 43941, "ĠReady": 9944, "club": 40607, "ĠCEO": 9282, "Ø·": 9566, "Ð°Ð½Ñģ": 15720, "Ġva": 2773, "Ġbizim": 23439, "Ġether": 37096, "ĥ": 225, "Ġhandwriting": 39179, "ĠâĢĭâĢĭ": 8701, "ucht": 10084, "ĠRobert": 7977, "Ġwomb": 34310, "Ð¾Ð³Ð¾Ð´": 46928, "iamo": 7415, "Ġdeshalb": 28457, "Ġì¶ľ": 25420, "çıŃ": 44695, "ĠÑĢÐ°Ð´Ð¸": 34748, "Ġwheat": 16691, "ua": 4398, "Ġod": 3611, "ĠJet": 28730, "Ġc": 269, "Ġíĺ¹": 27088, "ĠÎ¿": 11383, "Ġcriticized": 28011, "Ġvois": 18297, "Ġcuá»Ļc": 50138, "ĠMittel": 35079, "Ġpotem": 36513, "iels": 44189, "Ġenfrent": 33771, "<|4.30|>": 50579, "Ġä»ĸ": 35414, "<|0.58|>": 50393, "lyn": 9896, "Å¼ej": 38493, "avior": 38387, "ĠJK": 35973, "ĠNur": 17612, "Ġmastery": 37951, "ĠMummy": 46569, "isz": 23848, "Ġtowards": 3030, "gestellt": 26293, "ĠSoc": 43627, "Ġmoisturizer": 47588, "esterol": 21947, "Ġ1500": 22671, "ĠpÃ¡": 40639, "ĠíĶ¼ë¶Ģ": 30192, "ssa": 39516, "ĠFucking": 33342, "gh": 9030, "Ġweitere": 30020, "Ġdeployment": 19317, "ĠRafael": 43173, "ĠêµŃ": 13858, "Sorry": 29761, "ĠRen": 12883, "omin": 6981, "Ġcloudy": 33060, "eterm": 35344, "Ġsinus": 41503, "ÑĳÐ¼": 12868, "Ġjars": 38239, "agon": 6709, "ĠÐ²Ð¾Ð´Ñĭ": 44391, "ä»Ĭ": 6480, "ÂŃ": 47781, "<|28.34|>": 51781, "Ġtemat": 32954, "Ġ400": 8423, "odel": 41147, "Ġneurolog": 28351, "iajÄħ": 48125, "ĠReaper": 49956, "daughter": 34633, "ĠÑĥÑĩ": 13774, "Ġexecution": 15058, "ĠAkbar": 48665, "Ġneo": 41977, "Ġdepths": 28439, "Ġpremi": 11222, "Ġvaz": 37533, "ÐµÑģÑĤÐ¸": 19154, "Ġpup": 19784, "Ġfala": 21580, "âĨ": 24198, "ìĿ´ì§Ģ": 25721, "Ġglamorous": 48760, "Ġeve": 34225, "æİ": 6900, "Ð¸ÑĩÐ½Ð¾": 40680, "Ç": 131, "Ġtoca": 43514, "ĠEnviron": 19286, "ìĹĲìĦľ": 4885, "Ġboca": 34624, "<|22.22|>": 51475, "ĠShiva": 34729, "Ġsupreme": 27756, "Ġabout": 466, "Ġphotography": 13865, "Ġsogar": 19485, "atted": 32509, "Ġtriste": 33526, "Ġcel": 9277, "Ġhatte": 13299, "HAHA": 21803, "emi": 13372, "Ġharvest": 11917, "Ġpais": 34955, "å·®": 21679, "<|17.46|>": 51237, "ĠCosta": 28440, "Ġbook": 1446, "adomo": 40633, "Ġbugs": 15120, "ĠGRANT": 30204, "Ġairports": 36561, "Ġdiscl": 17092, "Ġvampire": 28592, "Ġgerms": 44010, "Ġclose": 1998, "alon": 34979, "Ġretreat": 15505, "Thr": 47256, "Ġunint": 29466, "Ġplanned": 8589, "Ġgen": 1049, "Ġguests": 9804, "ĠMeu": 34398, "Ġmanagers": 14084, "Ġmotorcycles": 46813, "ĠpaÃŃses": 23070, "Ġclassroom": 7419, "Ġdok": 25037, "ŀĪ": 5387, "ìħ": 6961, "isure": 28084, "Ġduo": 28127, "ĠYouth": 24312, "Ġproduce": 5258, "Ġãħĭãħĭãħĭãħĭ": 38032, "Ġdialogue": 10221, "ìĿ¸ëį°ìļĶ": 36229, "Clintus": 29549, "Ġirrational": 39914, "Ġelectronic": 10092, "ĠÐŀÑģ": 38590, "Ġtare": 49423, "ĠTabii": 41770, "Ġtagged": 40239, "Ġintake": 18060, "ĠÐ±ÑĭÐ»Ð¾": 8060, "çľŁçļĦæĺ¯": 45698, "Ġmono": 35624, "ĠBJ": 37830, "klore": 45044, "ilians": 21738, "cole": 27247, "Ġrighteous": 16153, "ĠìķĦëĭ": 16996, "åķı": 11361, "<|23.38|>": 51533, "Ġseverely": 26271, "Ġeducating": 28835, "unuz": 33923, "onic": 11630, "ĠnÃ¥gra": 40842, "26": 10880, "Ġdisruptive": 37865, "anbul": 35335, "Ġsuggests": 13409, "Ġleftover": 27373, "ĠFrancisco": 12279, "ìłĦë": 49730, "ĠRal": 23038, "Ġprecio": 46916, "Ġaccurately": 20095, "Ġìĥīê¹": 44105, "Ġapologies": 34929, "cussion": 25049, "Ġmuk": 31475, "Ð±Ñĭ": 25477, "Ġcelebrated": 19366, "Ġigen": 31305, "ĠgrÃ¡fic": 34613, "ĠFeng": 23715, "ĠCreating": 40002, "into": 17246, "<|4.20|>": 50574, "Ġmount": 3746, "alls": 39655, "ĠÐºÑĢÐ°ÑģÐ¸Ð²": 26679, "Ġconnectivity": 21095, "ĠNow": 823, "unts": 21253, "...'": 42327, "Ġgrants": 16101, "ĠUFC": 48072, "Ġessen": 41749, "ÅĤby": 34635, "Ġnearest": 23831, "Ġspool": 48884, "<|8.90|>": 50809, "Ġdefinitions": 21988, "ĠKard": 31050, "Ġpolygon": 48242, "Ġcareless": 46187, "ÐµÑĤÑĥ": 48007, "Ġkomm": 6669, "Ġassessed": 36051, "Ġframe": 3920, "Ġsesame": 21994, "ĠBoot": 37263, "éĴ": 25153, "Ġmathematic": 32811, "Ġbaik": 34867, ",'": 12529, "Ġsafe": 3273, "Ġfallen": 11547, "Ġê°ľìĿ¸": 36734, "ĠOnion": 46295, "Ġdouble": 3834, "ĠSe": 1100, "åŀ": 33701, "chÄĻ": 23006, "Ġbid": 12957, "dling": 35543, "Ġheut": 42793, "ìķĦ": 2230, "Ġcor": 1181, "Ġad": 614, "Ġwrestle": 43251, "ĠKy": 12237, "Ġgekommen": 32732, "ĠZach": 21028, "ĠbÄĻdzie": 10562, "Ġchampionships": 41433, "Ġslavery": 15641, "è¢": 19688, "ãĥ¼ãĥ«": 35307, "ĠChina": 3533, "Ġempre": 43223, "ĠQueen": 10077, "ĮëŁ¬": 39530, "acceptable": 29888, "ĠElection": 45074, "ĠÐŁÑĢÐ¸": 22059, "ìŀ¥ëĭĺ": 33273, "Ġkamera": 43246, "Ġowner": 7289, "Ġembr": 9392, "Ġcurrencies": 36886, "ìĿ´ìĬ": 37641, "Ġsurpass": 27650, "ĠTHE": 5663, "Ġdolphins": 44835, "Ġtimelines": 45886, "espÃ¨re": 29997, "ĠGuang": 35815, "Ha": 23745, "ĠTru": 21388, "Rec": 48883, "Ġdata": 1412, "Ġslower": 14009, "Ġallevi": 33201, "Ġfic": 14591, "itchen": 5825, "Ġhistorians": 26442, "ìĬµëĭĪëĭ¤": 3115, "Ġail": 48283, "Ġdividing": 26764, "Ġacum": 41343, "Ġpermanent": 10996, "Ġrempl": 36576, "OU": 4807, "Ġpurity": 34382, "ĠSchr": 46191, "ĠHoover": 46382, "Ġongoing": 10452, "Ġjournalism": 23191, "Ġhistor": 4058, "Ġconfront": 12422, "asma": 17494, "ĠStadt": 20550, "67": 22452, "rÃ©": 10521, "arthy": 42305, "Ġnimmt": 38891, "Ġassunto": 50219, "Ġhow": 577, "ĠRather": 16571, "iyim": 46966, "Ġjunt": 22739, "Ġencompasses": 49866, "à¯ĩ": 10478, "Ã©rie": 10746, "Ġestilo": 37470, "ĠcÅĵur": 43207, "<|7.26|>": 50727, "Ġwebs": 2859, "è¥": 15663, "Ġarose": 37192, "ĠHopkins": 29999, "ãħĭãħĭãħĭ": 30021, "<|11.70|>": 50949, "nÄħ": 13113, "Ġsubstant": 11889, "èĤī": 31980, "Ġcollide": 49093, "Ġduplic": 17154, "gging": 10877, "nahmen": 24221, "bok": 21666, "ĠWILL": 18194, "eenth": 46066, "Ġconvictions": 44757, "Ġwarum": 24331, "ĠCarson": 38731, "ĠÑĩÐµÐ»Ð¾Ð²ÐµÐºÐ°": 25109, "avil": 22891, "ĠEmmanuel": 44421, "Ġseria": 20809, "Ġelemental": 39427, "Ġattempt": 5217, "ĠDF": 48336, "ĠChe": 3351, "chant": 24628, "Ġbank": 3765, "Ġeyes": 2575, "ĠCOM": 35074, "ĠÐ½Ð°Ð»": 32750, "ĠMenu": 43343, "pants": 46462, "Ġhidden": 7633, "<|6.46|>": 50687, "ĠBou": 43833, "Ġbijvoorbeeld": 43061, "Ġ×ĺ": 27265, "working": 22475, "Ð°Ð±Ð°ÑĤ": 42304, "laugh": 33181, "Ġalliances": 45855, "Ġíļ¨": 33571, "pez": 15144, "Ġconcurrent": 37702, "ĠeducaciÃ³n": 48861, "ĠrÃ¤tt": 38494, "ÐµÐ½Ð¸Ñı": 5332, "Ts": 33424, "æĻļ": 27080, "ÙĬÙħ": 32640, "place": 6742, "Ġrumors": 21201, "Ġschme": 46459, "è±": 19517, "ĠØ§ÙĦØ§": 42963, "ĠÐ¿Ð¾Ð´ÑĤ": 46103, "ITE": 31540, "ĠEthereum": 26894, "ĠÆ¡i": 43144, "gend": 9395, "Ġbegitu": 49707, "Ġwhooshing": 44825, "ĠZig": 50004, "acion": 18803, "Î¼Îµ": 9104, "ifications": 7833, "Ġíķĺë£¨": 33918, "ĠÃĩ": 6256, "ĠBeck": 19184, "Ġvender": 44281, "ĠSoftware": 27428, "Ġmungkin": 32633, "ìĬµëĭĪê¹Į": 32443, "Ġcruising": 42180, "ĠEdit": 33241, "Ġsitting": 3798, "ðŁĺĤ": 47951, "Ch": 6546, "ĠDieser": 39609, "ĠÐ±Ñĭ": 2768, "Ġvulnerable": 10955, "Ġpaperwork": 27953, "<|24.32|>": 51580, "ĠTed": 14985, "Ġtrem": 7813, "ĠLight": 8279, "Ġcalam": 43936, "Ġpada": 26069, "åħ": 2347, "Ġcic": 27464, "Ġmehrere": 44677, "ĠìĿ´ëłĩê²Į": 5483, "Ġantibiotics": 26922, "Ġstan": 27984, "ennis": 11307, "lieÃŁ": 24476, "ĠSee": 3008, "Ġexerc": 4057, "Ġuser": 4195, "iser": 6694, "inch": 12415, "Ġmoisturizing": 44134, "ä¸įåĲĮ": 47123, "Ġcaptions": 44832, "ĠaÃ±": 37837, "ĠCraft": 29991, "Ġê·¸ë§Į": 39067, "iÃ¨re": 10195, "ì¸µ": 44284, "Ð½Ð¾Ðµ": 6126, "alties": 26471, "Ġnecesita": 45485, "ĠBali": 40664, "Ph": 24382, "ĠettÃ¤": 9894, "ĠAbsol": 43965, "Ġbolag": 48452, "Ġdrawn": 10117, "Ġpupils": 38404, "Ġconex": 49509, "Ġcertainty": 27022, "ĠÐ±ÐµÐ»": 29430, "Ġparach": 33927, "Ø¹Ø©": 27884, "Ġunacceptable": 31812, "ĠSize": 35818, "ĠPriest": 37052, "rency": 10457, "Qu": 8547, "ê¸°ëıĦ": 19236, "Ġexpos": 30076, "ĠëĲ©ëĭĪëĭ¤": 23630, "Ġteddy": 45116, "Ð½ÑĭÑħ": 5783, "ĠCampus": 28095, "&": 5, "ĠëıĮë": 34324, "unintelligible": 31460, "ĠAssassin": 43176, "Ġmomento": 9333, "ì²ĺë": 18180, "Ġra": 3342, "ĠSARAH": 41666, "Ġwithdrawal": 30646, "Ġelim": 24333, "ngulo": 37308, "Ġdeclared": 15489, "Ġmonth": 1618, "ĠClay": 21392, "Ġtumor": 22512, "Ġdocs": 45623, "Ġpursuing": 20222, "ĠÃ§ok": 7343, "thing": 825, "ÑĤÐ¾ÑĩÐ½Ð¾": 24840, "ĠSans": 21504, "ì¼": 12397, "Ġdeuts": 23004, "03": 11592, "à¸µà¹ī": 18074, "Ġturning": 6246, "Ġfoarte": 46499, "Ġbarrels": 33138, "kah": 37605, "ĠCasa": 44843, "ĠinglÃ©s": 49766, "gments": 37148, "Ġterminal": 14709, "ĠComing": 12473, "Ġadmire": 21951, "ĠQR": 32784, "Ġmily": 38728, "ĠÐ³Ð»Ð°Ð·Ð°": 49664, "Ġkindly": 29736, "ØŃ": 5016, "ĠMean": 12302, "ĠSAM": 9617, "Ġsperm": 32899, "<|19.58|>": 51343, "rospect": 28713, "ĠpequeÃ±a": 47177, "ĠLISA": 42448, "ugal": 17812, "Ġscared": 5338, "<|14.30|>": 51079, "Ġhandicap": 45975, "×¨×ĳ": 42062, "ÑĥÐ¶": 5726, "Real": 45261, "ĠbakalÄ±m": 28812, "ĠFer": 10728, "cÄĻ": 37965, "ĠvÃ¡": 36625, "Ġbon": 4428, "Ġì§ľ": 35609, "ĠdÃ©t": 22312, "bumps": 41655, "Ġpsy": 31673, "Ġcrocodile": 43652, "F": 37, "Ġfazendo": 20741, "ìĿ´ë": 4250, "èĢ¶": 22143, "ume": 2540, "<|22.24|>": 51476, "<|4.26|>": 50577, "Ġscrewdriver": 27282, "Ġëĵľë": 13356, "mot": 29778, "Ð¿Ð¾Ð»Ð¾Ð¶": 37251, "ĠFarm": 19991, "month": 23534, "Ġmerge": 22183, "code": 22332, "NOISE": 26877, "ĠÑĢÑĭ": 22791, "Ġjustement": 27807, "Ġsanctions": 21342, "Ġknitting": 25498, "ĠÐ¿Ð¾Ð²": 10499, "Ð¸Ð¼Ð¾": 14365, "æŃ¤": 17947, "Ġchin": 14210, "ĠMOO": 49197, "ÑĨÐ¸Ð¹": 42495, "ìį¹": 39077, "Ġtoddler": 44348, "Ġleg": 1676, "ĠGI": 26634, "urai": 27012, "ĠZombie": 48952, "Ġ//": 29178, "ĠÑĤÐ¾Ð³Ð¾": 11283, "ä¸ĸçķĮ": 24486, "ĠTan": 17046, "ĠÃ¼berzeug": 48598, "Woman": 14361, "izer": 6545, "ä¸ĢäºĽ": 38515, "Ġpressures": 23573, "ĠSund": 6942, "Ġlarg": 11034, "ĠNolan": 43707, "Ġrepresentative": 12424, "Ġ1985": 28962, "rul": 35972, "CP": 20049, "Ġdiscrete": 27706, "Ġlethal": 34562, "Ġmientras": 26010, "ĠEdwards": 35836, "Æ°a": 27060, "orar": 42967, "ĠMona": 43731, "OTH": 28200, "ithm": 32674, "itto": 34924, "Par": 46087, "ÑıÑħ": 24725, "ĠAdrian": 31746, "43": 17201, "ĠItÃŃs": 47806, "ydia": 37622, "GG": 27561, "Ġpand": 4565, "Ġthemselves": 2969, "umble": 16473, "Ġuphill": 39132, "Ġneuro": 16499, "UN": 3979, "Ġentscheiden": 44560, "ĠCh": 761, "Ġstakeholders": 17779, "ĠLevel": 16872, "sterdam": 27608, "Ġkernel": 28256, "Ġeyelid": 39386, "ĠìķĪëħķíķĺìĦ¸ìļĶ": 19289, "Åº": 10659, "risk": 33263, "met": 5537, "Ġtimer": 19247, "emat": 8615, "Ġsteamed": 32375, "Ġsoftware": 4722, "iggers": 20942, "ĠÐ»Ñİ": 5716, "Ġmatrix": 8141, "Ġpourrait": 25590, "ĠìĤ¬ê±´": 49653, "ĠteÅŁekkÃ¼r": 44002, "ladÄ±m": 37282, "ared": 1642, "Ġyog": 16570, "Ġtyres": 42564, "ĠÐŁÑĢ": 8567, "ĠRisk": 45892, "Ġedition": 11377, "uation": 16073, "nya": 7457, "cak": 27481, "Ġcylinders": 42166, "Ġproceed": 8991, "Ġpone": 40192, "ĠMust": 13252, "Ġ×Ĳ×ķ×ª": 23601, "Ġdropped": 8119, "Ġirre": 16014, "ĠHook": 33132, "Ġdum": 16784, "Ġliaison": 49431, "é¦Ļæ¸¯": 27141, "ĠíĨµ": 17006, "ĠÎ·": 18231, "jadi": 30574, "lax": 25923, "ĠHarris": 17426, "prob": 41990, "Ġcultivation": 45924, "Ġguiding": 25061, "Ġmotor": 5932, "Ġreminiscent": 44304, "ëĬĺ": 7822, "Ġresposta": 42126, "uate": 10107, "Ġjogos": 39307, "Ġshooters": 45526, "Ġpakai": 49062, "ìĤ": 3972, "Ġgenau": 12535, "Ġtrud": 32007, "Ġgranting": 50204, "Ġha": 324, "ĠUma": 21939, "ĠReality": 33822, "Ġmushroom": 12094, "Ġorgas": 44834, "Ġsitcom": 49530, "q": 80, "arÄ±m": 31260, "<|29.48|>": 51838, "ĠÐ²ÑģÑİ": 32341, "Ãºn": 9453, "ĠAndreas": 38785, "umba": 49353, "æīĢä»¥åĳ¢": 40685, "ĠSeÃ±": 30807, "Ġpouch": 27781, "apt": 2796, "Ġherd": 29484, "ĠÐºÐ°ÐºÐ¾Ð¹": 16898, "Ġ1967": 33193, "<|15.16|>": 51122, "ÑĢÐ¾Ð´": 10004, "mel": 10909, "ĠNam": 10684, "Ã©ra": 28199, "rep": 19919, "Ġyouth": 7503, "Ġwykon": 46702, "ĠGust": 32337, "Ġgibt": 6089, "Ġgene": 12186, "Ġproposal": 11494, "ĠWY": 46410, "ĠCaleb": 30331, "Ġtief": 45100, "lightly": 44872, "ĠÏĥÏħÎ½": 49025, "Ġoro": 45150, "kl": 7837, "Ã¢r": 42648, "Ġknead": 28602, "Ġjudges": 14449, "ĠAssist": 49633, "ĠOrgan": 12538, "iendo": 7304, "Ġcooked": 9267, "Ġuploads": 48611, "ĠBOY": 34909, "xes": 47047, "Ġrestoring": 36349, "Ġespecialmente": 41546, "ÏİÏģÎ±": 44352, "chain": 11509, "ĠSam": 4832, "Ġprag": 33394, "Ġrailway": 25812, "Ġsalute": 33673, "Ġaunque": 21962, "<|11.72|>": 50950, "Fit": 49901, "Ġresearch": 2132, "Ġcoupled": 29482, "Ġwa": 5406, "Ġeyebrows": 19916, "ĠGodzilla": 38046, "enda": 7639, "atories": 30077, "Ġjullie": 29633, "ĠRicky": 25247, "ĠDent": 41622, "íĥĿ": 23529, "Ġmug": 23610, "Ġroaming": 42680, "ĠmÃ¶j": 37606, "Ġprzep": 30829, "Ġíĺ¸": 26932, "×ķ×ĵ×Ķ": 41403, "ÑĸÐ»ÑĮ": 16651, "plo": 21132, "Ġsow": 19766, "ĠHills": 25663, "Ð°ÐµÑĤ": 3310, "Ã¶ff": 30453, "Ġprz": 6541, "Ġ×ľ×": 5001, "ĠCorn": 21590, "arde": 10866, "<|1.84|>": 50456, "adow": 11528, "Ġtalented": 13467, "Ġcheerful": 36942, "Ġmesures": 42265, "ĠFlow": 32792, "Ġhosp": 3872, "Ġdt": 36423, "Ð°ÑĶ": 19408, "ĠëĤ´ì": 25097, "ldigt": 19341, "ĠJian": 35423, "Ġcompilation": 40261, "Bar": 38666, "ĠGoPro": 30259, "ĠMed": 3982, "empor": 11840, "Ġforsk": 45321, "ĠGET": 28091, "ĠMonth": 24255, "ĠÑįÑĤ": 4030, "Ġdia": 6801, "ight": 397, "chemistry": 48353, "kten": 47120, "ĠIstanbul": 36340, "ĠMouse": 29383, "ĠØ§ÙĦØ¬": 25724, "ĠÐŀÐ´": 20125, "Ġreload": 25628, "ĠHerrn": 41791, "ĠSorry": 4919, "Ġowning": 29820, "Ġcentimeter": 31914, "ãģļ": 18216, "Ġopis": 45477, "çĸ«": 31670, "Ġmother": 2895, "ì§¸": 18211, "leep": 7927, "amm": 5136, "Ġrepay": 27522, "Ġincomplete": 31709, "ooo": 18728, "ĠExamples": 48591, "Ġìĸ¼ë": 21699, "Ġsera": 15021, "Ġtheres": 42551, "Ġnumerical": 29054, "Ġtales": 27254, "ĠIL": 40413, "ĠBeginning": 45705, "ĠEagle": 27926, "éķ·": 15353, "Ġwatts": 31247, "Ð½ÑĮ": 18399, "ĠMel": 7375, "Ġimbalance": 43007, "inental": 38653, "Ġfav": 33801, "Ġìį¨": 32575, "Ġ<<": 47425, "ĠGreen": 6969, "ĠTeaching": 34244, "Ġcompliment": 16250, "Ġrecomend": 40292, "ptic": 32307, "Ġcharged": 11109, "Ġwij": 24770, "uldade": 48504, "Ġmayor": 10120, "ĠEun": 17965, "æ©Łæľĥ": 46520, "Ġcrank": 21263, "ĠÐ¼ÑĥÐ¶": 22081, "ÙĥÙħ": 24793, "Ġrept": 29143, "æĶ¿": 18523, "ĠDynamic": 45440, "Ġsingle": 2167, "ĠìĹ¬ëŁ¬ë¶Ħ": 14707, "ĠOpp": 15666, "ĠJuda": 35300, "arian": 10652, "ĠBurada": 43776, "Ä±lan": 50095, "ĠPhiladelphia": 21205, "æĿ¯": 45458, "oln": 14110, "Ġasynchronous": 49174, "ĠStellen": 41893, "Ġnam": 8835, "Ġbadly": 13425, "otz": 18530, "Ġdemos": 33788, "Ġked": 42472, "ĠëĤ¨ìŀĲ": 35266, "Ġboring": 9989, "Ġnacional": 29836, "ĠQuesto": 38167, "hone": 6487, "ĠìĤ¬ëŀ": 7727, "Ġtorment": 36662, "ĠFlex": 29208, "owiÄħ": 47886, "atal": 40478, "ĠPel": 21083, "Ð»Ð°ÑģÑĤ": 32465, "Ġhavia": 28855, "anÃ§ais": 17032, "Ġvisited": 11220, "iblical": 21101, "Ġantiqu": 41036, "Ġaccusing": 47436, "Ġspac": 39404, "Ġkiller": 13364, "ĠLauren": 18915, "Ġairpl": 13781, "Ġvengeance": 43818, "Ġjestem": 29627, "¦½": 18306, "cards": 40604, "Ġê²": 2525, "abor": 3816, "enty": 4179, "Interviewer": 16432, "ĠBerlin": 13848, "gement": 48122, "ĠOriginal": 30022, "<|18.16|>": 51272, "èĪī": 42828, "Ġqueue": 18639, "<|2.00|>": 50464, "wo": 6120, "Ġsimples": 21730, "36": 11309, "ĠìĬ¤í": 11196, "<|yi|>": 50335, "Ġelements": 4959, "<|11.00|>": 50914, "Ġcontribution": 13150, "edd": 38786, "Ġshameful": 49600, "Ġhumility": 27106, "ĠNicki": 47608, "ÑĢÐµÐ¼": 7049, "ĠVoice": 15229, "ĠÐ´Ð¾Ð²Ð¾Ð»ÑĮÐ½Ð¾": 31777, "Ġliter": 2733, "ĠAny": 2639, "Ġindul": 28626, "Ġíĸīë³µ": 36921, "Ġcig": 13474, "ĠSK": 21483, "Ġgatherings": 36247, "ĠmÃªme": 5698, "Ã¡c": 21563, "unda": 11946, "invest": 31498, "ĠÐºÐ°Ð¶ÐµÑĤÑģÑı": 26147, "Ġstrive": 23829, "Ġsized": 20004, "@": 31, "lijk": 12416, "Ġcath": 17763, "yah": 42534, "men": 2558, "Ġsegundos": 40108, "Ġtilted": 43229, "coin": 8562, "erer": 29566, "Ġbite": 7988, "ĠWarner": 31769, "Ġterrace": 47232, "ather": 1172, "iele": 15949, "Ġlar": 1613, "ÏĦÏĮ": 49778, "ĠlÃ¶": 25209, "ated": 770, "Ġëį°": 20883, "Ġvale": 15474, "ĠPopular": 37637, "rison": 17029, "ĠHughes": 41102, "Ġverst": 48960, "ĠChapter": 18874, "chat": 20057, "Ġpulley": 48399, "Ġadapter": 22860, "ãģĿãģ®": 20564, "zone": 16896, "<|3.44|>": 50536, "Ġpulse": 17709, "ols": 19385, "Ġmetric": 20678, "iable": 9364, "ĠThing": 30902, "Ġloaded": 13210, "ĠPAUL": 26379, "ìĦ±ìĿ´": 32105, "ĠìĿ´ë²ĪìĹĲ": 40692, "uff": 1245, "Ġextracted": 34086, "Ġpaste": 9163, "ÑĢÐ°Ñģ": 17184, "ĠÐ·Ð°Ð¿Ð¸Ñģ": 36426, "ĠPhillips": 24565, "ker": 5767, "atchet": 36080, "Ġall": 439, "saw": 31287, "Ġkana": 42372, "licht": 20238, "ĠëĪĦë": 30225, "Ġmandated": 47563, "Ġyere": 42044, "Ġnosso": 14347, "Ġdipping": 35584, "ĠëĮĢíķ´ìĦľ": 27382, "Ġhumanities": 36140, "Ġwszystkie": 31723, "shaped": 23103, "iÃ¨rement": 29922, "ĠFlint": 35587, "Ġsubscribed": 16665, "opa": 33097, "ĠTown": 15954, "ĠCoordin": 39620, "EP": 8929, "ĠÑĤÐ¾Ð¼": 13294, "Ġfurry": 47073, "eed": 5033, "ĠhatÄ±r": 47323, "ĠÐ·Ð°Ð»": 32897, "ä¸Ģ": 2257, "ĠVog": 46359, "ĠgÃ¶ra": 20541, "<|11.82|>": 50955, "Ġchapter": 7187, "prit": 24047, "kg": 18302, "Ġcorruption": 17959, "date": 17393, "Ġmoonlight": 48058, "Ġfent": 39395, "Ġcharacteristic": 16282, "ĠFuÃŁball": 49487, "Ì": 136, "Ġsurvey": 8984, "pei": 46238, "Ġmarketers": 48003, "ĠSaya": 16568, "Ġlemon": 11356, "ĠNBC": 31504, "ĠÐ¿ÑĢÐ¾Ð³": 20192, "Ġbites": 26030, "Ġlimite": 39946, "èĪŀ": 32721, "Ġtag": 6162, "ĠìĿ´ìķ¼ê¸°": 37576, "Ġmagician": 38614, "Ġscaff": 40889, "ĠShak": 47459, "ìĭľëĬĶ": 18147, "ĠëĦĪ": 12963, "Ġerst": 11301, "ĠÙ¾": 21453, "ĠFolks": 39275, "Ġfilho": 36919, "ĠCollect": 31896, "uez": 31221, "Ġtowns": 18104, "Ġlaps": 24971, "ccoli": 26334, "allen": 31181, "Ġintestines": 44429, "ĠMoi": 20256, "Ġsini": 30368, "Ġkar": 7917, "Ġsponge": 23134, "Ø³Øª": 14851, "ĠDNS": 35153, "Ġdietary": 37421, "Ð½Ð°Ð»": 35168, "ĠEvet": 16729, "Ġkillers": 39369, "Ġassigning": 49602, "Ġdobr": 23067, "Jo": 20846, "ĠDial": 29658, "Ġstatements": 12363, "Ġ1945": 28253, "Ġsimulator": 32974, "ÐķÐĿ": 41682, "Ġkep": 36428, "icket": 20551, "Ġsuspicious": 17931, "Ä±mÄ±zÄ±": 48119, "<|0.10|>": 50369, "<|17.76|>": 51252, "ĠÐ½Ð°ÑģÑĤÐ¾Ð»ÑĮÐºÐ¾": 47779, "eted": 10993, "breaking": 20602, "<|25.68|>": 51648, "<|4.48|>": 50588, "ĺë¥¼": 18855, "Ġgladly": 47307, "Ġbrutal": 17878, "Ġcollision": 24644, "Ġfus": 34326, "manas": 36226, "Ġana": 34178, "Id": 42739, "Ġpalace": 15207, "ĠHit": 9217, "ukan": 22324, "Ġsubmerged": 46985, "ĠÐ¸Ð·Ð±": 38995, "Ġpenso": 48005, "ĠSense": 33123, "ĠÐ½Ð°Ð²ÐµÑĢ": 23237, "icular": 14646, "Ġunto": 16521, "qi": 26344, "Ġcontenido": 47117, "Ġgren": 20313, "Ġfoto": 19176, "ĠMichel": 23709, "ĠKia": 45505, "Ðĸ": 28308, "Ġbecoming": 5617, "ĠÐŁÑĢÐ°Ð²": 39793, "ĠcÃ³d": 40210, "ĠGene": 18083, "Ġcrazy": 3219, "ĠKIM": 38985, "Ġfiller": 34676, "Ġsincere": 16941, "Ġteacher": 5027, "ĠMitarbeiter": 38324, "ÙĪØª": 35473, "wert": 26521, "ĠGeor": 27909, "beits": 21604, "ĠìľĦìĹĲ": 38388, "ĠSue": 25332, "ellschaft": 22055, "Ġcommented": 26940, "ĠGermans": 18116, "Ġfools": 38625, "Ġvault": 27134, "pr": 1424, "Ġorganizers": 35071, "jamin": 21241, "Ġmodel": 2316, "ened": 5320, "Ġsnapping": 42727, "clears": 43496, "ĠInfrast": 38425, "Ġpac": 15165, "ĠwÃ¤hrend": 33624, "uden": 32940, "Ġreminded": 15920, "yorum": 5826, "ĠdoÄŁru": 28297, "âĢ¦\"": 25572, "ìĹ¬ë": 39020, "Ġlocking": 23954, "Ġville": 23019, "Ġfosse": 24528, "Ġlosers": 37713, "Ġminus": 3175, "ĠOlympic": 19169, "ì¶Ķ": 25023, "ĠMATT": 6291, "åħ§": 28472, "ĠIf": 759, "ĠÐ´ÐµÐ²": 20572, "sca": 44239, "ĠKons": 48163, "heit": 8480, "ĠBTS": 17951, "Ġpozw": 40557, "tight": 41738, "ÑĢÑĥÑĤ": 47220, "unte": 7070, "ijn": 6041, "<|bs|>": 50315, "ÙĬÙģ": 33911, "ĠDow": 20947, "hit": 37068, "Ġslab": 38616, "zeug": 19303, "Ġjourney": 4671, "ĠFiona": 42556, "Ġprzysz": 44018, "Ġglut": 33249, "ìĹĨìĿ´": 50082, "Ġoptimize": 19719, "Ġclothing": 11502, "NY": 27647, "ĲĲ": 35606, "ateurs": 25929, "Ġrate": 3314, "Ġsuperiority": 48668, "Ġembro": 27925, "Ġanti": 6061, "Ġfeeling": 2633, "Ġveo": 41319, "rÃ£o": 36837, "Ġonc": 40592, "Ġonde": 14396, "Ġstartups": 28041, "Ġdisclosure": 30392, "Ġconsumes": 48823, "<|12.58|>": 50993, "ď": 203, "Ġempieza": 44577, "Ġserves": 13451, "Ġbiking": 40276, "ìķĦìĦľ": 18461, "ĠPartner": 32736, "Ġmeas": 5731, "Ġlac": 28027, "ĠAzerbai": 41937, "çĦ¡": 16976, "Ġcrave": 46875, "ĠÐ¿Ð¾ÑģÑĤ": 27877, "Ġqualities": 16477, "acle": 7041, "ening": 4559, "Ġcelebrities": 23200, "ĠÃĸyle": 34883, "Ġarma": 46422, "Ġhappened": 2011, "Ġrepresent": 2906, "Ġexc": 1624, "oshop": 18000, "Ġsynergy": 50163, "su": 15091, "oit": 27845, "rij": 11105, "ventional": 46105, "Ġ[(": 9128, "Ġdeserted": 47983, "Ã¼ber": 12670, "Ġabbiamo": 22815, "Ġsilicone": 28778, "Ġfloss": 49697, "ystem": 9321, "Ġcurly": 32066, "Ġê³¡": 34895, "Ġafterward": 40411, "Ġhiss": 33182, "Ġfilters": 15995, "ìĬ¤ë¥¼": 35967, "ĠMassachusetts": 19979, "Ġonion": 10916, "ĠKo": 10509, "Ġaccelerate": 21341, "Â´": 6945, "Ġcoment": 14541, "<|2.70|>": 50499, "ĠÑĩÐµÑĤÑĭ": 39644, "ĠÑģÑĤÐ¾": 13552, "ĠFranklin": 22010, "Æ°Æ¡ng": 24605, "Ġprepares": 39418, "^": 61, "ietet": 45531, "ÑĪÐµÐ¹": 43201, "irteen": 27114, "ĠMÃ¤nner": 36907, "estial": 33741, "Ġcomed": 18418, "ĠLuego": 45665, "Ġdemonstrate": 11698, "ensible": 30633, "ĠMÃ¤r": 46084, "Ġenable": 9528, "Ġrejecting": 45401, "×Ĵ×Ŀ": 50141, "Ġsophom": 32931, "å¥½åĲ§": 40221, "Ġdepreci": 40609, "kins": 10277, "Ġearnest": 48171, "Ġmango": 23481, "Ġmats": 43366, "gesetz": 33506, "Ġembry": 31588, "Ġbei": 4643, "Ġlines": 3876, "ĠGrammy": 47332, "Ġsoldiers": 8892, "Ġapo": 50165, "Ġautumn": 24604, "Ġexile": 37984, "Ġescaping": 32554, "emale": 17272, "Ġchaotic": 27013, "ĠSeit": 34321, "Ġbike": 5656, "Ġincreasing": 5662, "Ġsyll": 20223, "ĠUFO": 28318, "innen": 11399, "Ġhab": 3025, "Ġpresup": 47640, "ĠOczywiÅĽcie": 42980, "xide": 34454, "Ġreporters": 26249, "ĠAlleg": 47486, "Ġexplos": 9215, "Ġimpaired": 36762, "awan": 41814, "Ġmuscle": 8679, "Ġtotally": 3879, "Ġsegur": 22179, "ĠKathy": 30740, "<|1.68|>": 50448, "ĠÐ¡Ð¾Ð²": 45680, "Ġmosquito": 23970, "Ġscri": 5545, "vil": 20202, "eline": 5440, "Ġconferences": 22032, "waÄĩ": 25234, "Ġcentres": 30096, "eday": 16826, "Ġuncover": 21694, "Ġgraduates": 13577, "Ġcucumbers": 43354, "ĠDON": 20403, "Ġdatabases": 22380, "ĠDisneyland": 34797, "Ġadmissions": 29856, "enser": 30041, "ĠMin": 2829, "Ġaspire": 41224, "Ġcannon": 25938, "blade": 41825, "Ġindirectly": 37779, "Ġì¦Ŀ": 33830, "ĠClin": 24240, "Ġdra": 1617, "plays": 45755, "ishops": 48056, "ĠPlayer": 24920, "áº«n": 35400, "ĠChief": 10068, "airy": 47413, "Ġsine": 18609, "Ġpresenters": 36987, "Ġsell": 3607, "Ġmoons": 34139, "åĽ½": 16086, "Ġunut": 37997, "Ġghee": 45172, "Ġrout": 4020, "Ġreferendum": 31957, "edom": 5086, "ĠRivera": 47388, "Ġdeserving": 48781, "ĠGOT": 36525, "ĠYo": 7616, "Ġwan": 46930, "Ġintensive": 18957, "Ġìķł": 21459, "ĠThem": 37354, "Ġpockets": 16491, "Crowd": 43849, "avez": 25975, "èĢĮ": 11070, "Î¿ÏħÎ½": 20867, "Ġestamos": 10382, "Ġshorter": 11639, "Ġdeeper": 7731, "ĠN": 426, "Ġvocal": 11657, "Ġretract": 41107, "cz": 3689, "Ġprohibited": 32069, "Ġasshole": 28599, "ĠLET": 40866, "Ġìĸ¼ë§": 33502, "<|24.82|>": 51605, "Ġearbuds": 40441, "ĠFind": 11809, "abol": 14923, "Ġresearcher": 21751, "Ðŀ": 7876, "Ġplural": 25377, "Ġintentar": 46596, "power": 9513, "ispering": 35237, "Ġuseful": 4420, "Ġgarant": 22251, "Ġdetta": 48888, "Ġinaccurate": 46443, "Ġllamado": 47055, "Ġup": 493, "inese": 48629, "ĠWhitney": 39466, "Ġ65": 11624, "Ġdime": 36330, "Ġcautious": 25278, "ãģĿãģĨãģĿãģĨ": 45422, "Ġdigit": 14293, "Ġguards": 17652, "icha": 48710, "ĠÎº": 4903, "Ġaun": 15879, "orted": 14813, "<|26.98|>": 51713, "<|28.92|>": 51810, "Ġonboard": 24033, "wegs": 32793, "Ġconsisting": 33921, "Ġprotests": 20174, "å¾Į": 5661, "INGING": 24763, "Ġw": 261, "Ġcriminals": 23474, "ĠHistorical": 46124, "Ġqu": 421, "jekt": 14930, "avirus": 10868, "KE": 8522, "ĠÐ¿ÑĢÐ¾ÑĤ": 15602, "č": 201, "ĠØ®": 16490, "Ġtransformed": 16894, "ĠTwitter": 5794, "ory": 827, "Ġbottlene": 44641, "<|21.94|>": 51461, "ĠDuring": 6842, "Ġphenomen": 9388, "ĠJub": 43560, "ĠFau": 48820, "ĠLeslie": 28140, "Ġhairstyle": 32770, "zyka": 40940, "¦°": 12811, "ĠalÃ©m": 30388, "ĠPHP": 47298, "Ð²Ð°": 20635, "Ġorbiting": 48985, "ĠderriÃ¨re": 31465, "Ġtrusts": 45358, "Ġchanger": 22822, "750": 45396, "Ã¼zik": 10920, "Ġmobile": 6013, "noch": 41608, "Ġticking": 33999, "iyet": 34747, "ESCO": 47024, "Ġsensible": 25380, "ĠGoodbye": 15528, "Ġco": 598, "Ġsorry": 2597, "Ïİ": 8828, "Ġdenomin": 16244, "ĠMagic": 16154, "ĠHunt": 31740, "Ġcries": 29206, "ĠDrug": 35806, "Ġreset": 14322, "Ġtin": 15935, "çķª": 33118, "ability": 2310, "page": 15161, "Ġcarbohyd": 26328, "ĠØ´": 13412, "ĠSau": 22557, "á»ĩn": 19679, "Ġà®": 2548, "veis": 22479, "wirtschaft": 38877, "Ġindividuals": 5346, "Ġinsult": 15285, "ĠGolf": 30176, "ĠRoute": 39142, "Ġexhibitions": 41522, "<|it|>": 50274, "obile": 13632, "Ġinternationally": 24422, "Ġcoloc": 12327, "ĠmÃ£": 22410, "ĠÑĹ": 27902, "ĠÃ§a": 2788, "Ġlegislation": 11329, "Ġtipos": 37105, "Ġspies": 45858, "Ġnine": 4949, "Ġcucumber": 28725, "ordre": 48981, "ĠÐºÐ¾ÑĤÐ¾ÑĢÐ¾Ðµ": 32000, "urp": 20130, "Ġakan": 16281, "ĠCleveland": 27846, "Ġoften": 2049, "ĠíķĺëĬĶ": 10914, "¶": 114, "Ġmultiple": 3866, "Ġcompanies": 3431, "Ġmental": 4973, "Ġdelighted": 18783, "ĠJer": 8139, "DJ": 48383, "ĠPRES": 30247, "ĠÏī": 46653, "ĠVoiceover": 46117, "Ġmadness": 28736, "Ġbumped": 42696, "ĠCos": 15855, "<|22.78|>": 51503, "Ġsoll": 7114, "ĠBC": 14359, "Ġambulance": 26744, "ksom": 32663, "itta": 21870, "leben": 41467, "Ġinnych": 36286, "Ġspreadsheet": 27733, "chuck": 25340, "Ġhing": 24895, "Ġcurs": 13946, "Ġdischarged": 37081, "ĠÐ´Ð°Ð²Ð°Ð¹": 28869, "ĠCompare": 48523, "ĠHarlem": 44196, "Ġslack": 29767, "ormal": 24440, "Ġglitch": 23552, "Ġdamping": 49588, "handed": 25407, "ĠWhose": 28463, "Ġmurder": 6568, "osos": 33894, "ĠPolit": 13812, "ĠDÃ©": 31153, "ĠBock": 47672, "Ġê¼Ń": 25881, "ĠÏĥÏħ": 23415, "neck": 47921, "<|14.78|>": 51103, "Ġinjections": 47178, "Ġfilt": 29148, "atus": 37926, "otine": 39658, "Ġì¼Ģ": 46142, "ĠìĺĽëĤł": 48646, "Ġcrossed": 14622, "sa": 5790, "ìĸ¼": 40603, "Ġdetermin": 15957, "Ġimporting": 43866, "ollen": 26669, "Ð¿Ð¾Ð²": 35723, "Ġï·": 28081, "rows": 28251, "oni": 17049, "Ü": 152, "¸": 116, "Ġprobl": 15201, "ĠHonor": 16922, "cia": 2755, "TE": 13639, "ĠCao": 38176, "dade": 45894, "egen": 8113, "ĠJoe": 6807, "ĠMeyer": 47207, "Ġartillery": 31115, "Ġhiring": 15335, "wyn": 28284, "íĻĶë": 23419, "Ġhazardous": 40020, "ĠÙĦÙħ": 32767, "Ġanaly": 6459, "Ġcual": 10911, "Ġfoul": 23491, "ĠExec": 17662, "Ġpreserved": 22242, "å¸Ĥ": 27261, "ĠFl": 3235, "Ġsalvar": 48873, "Ġgenome": 21953, "ĠperÃ²": 12673, "Ġawkward": 11411, "Ġster": 18924, "Ġcustomizable": 47922, "³": 111, "ĠparlÃ©": 38570, "Ġwahr": 21628, "Ġsotto": 43754, "achment": 23908, "mpre": 6516, "ĠBet": 6279, "Ġpsych": 4681, "ĠÐ·Ð°Ð½": 18596, "Ġorganisms": 22110, "ĠJUST": 33310, "Ġirrig": 26129, "Ġespecially": 2318, "Ġdy": 14584, "<|14.84|>": 51106, "Ġbuddies": 30649, "<|3.74|>": 50551, "Ġcriticisms": 48519, "Ġdank": 35121, "Ġepid": 13510, "¥¼": 2429, "Ġterribly": 22903, "best": 25331, "igor": 47131, "Ġenfim": 48937, "Ġstylish": 30301, "Ġhayat": 26918, "ä½ı": 21632, "Because": 21831, "Ġscheme": 12232, "Ġlud": 15946, "income": 30673, "bir": 10119, "Ġëª¨": 11722, "Ĳľ": 14987, "Ġparental": 41113, "Ġinequalities": 41874, "ĠRudolph": 47292, "ä¸įä¼ļ": 47928, "ĠÐ½Ð¾Ð²ÑĭÑħ": 46308, "Ġdrauf": 22763, "Ġfire": 2610, "Ġinstit": 4348, "Ġtran": 14404, "<|bo|>": 50347, "Ġsleeps": 37991, "anno": 13484, "cka": 39342, "urally": 6512, "Ã¼yorum": 33332, "ĠAm": 2012, "Ġ?]": 16587, "ĠNZ": 41089, "Sim": 39392, "ĠÑģÐ²Ð¾Ñİ": 23069, "ĠÑįÑĦÑĦ": 33607, "ifferent": 15790, "Ġkunt": 34199, "Ġpresidents": 27611, "mern": 44243, "ĠDak": 18051, "Ġfinally": 2721, "epher": 21676, "ĠCalled": 45001, "Ġgreens": 22897, "Ð°Ð¿": 4219, "Ġgrateful": 7941, "ologies": 6204, "OMAN": 26418, "ĠIya": 47600, "andom": 4606, "Ġi": 741, "Ġcomenz": 29564, "frage": 40449, "zeit": 13712, "ĠGimme": 48047, "ĠOwner": 43290, "ĠÑĤÐ°ÐºÐ¶Ðµ": 16584, "Ġins": 1028, "ĠKnow": 10265, "Ń": 255, "Ġtraveler": 46138, "Ġtrunk": 19849, "Ġgeneral": 2674, "Ġimplement": 4445, "note": 22178, "ÏĮ": 4826, "een": 10685, "ĠMayo": 46406, "Ġvot": 3478, "Great": 30604, "Ġnouns": 48184, "enschaft": 20996, "Ġaugment": 29919, "Ġlaundry": 19811, "igi": 19789, "ĠØ¨Ø¹": 45030, "Ġcommandments": 40289, "ĠÐ¸Ð´": 17255, "Ġintuit": 16224, "................": 45409, "Ġzipper": 29887, "them": 47959, "boo": 19985, "<|4.54|>": 50591, "ĠÐķ": 6538, "ĠSlow": 17703, "ĠÐ¿Ð¾Ð¼Ð¾ÑīÑĮÑİ": 36387, "Ġimprov": 29424, "Ġ2019": 6071, "Ġdzi": 31981, "Ġwhoa": 13310, "Ġbande": 46836, "Ġupside": 14119, "Ð°ÑİÑĤ": 6406, "Ġextremes": 41119, "ĠìĺģíĻĶ": 44869, "Ġbanned": 19564, "Ġpastel": 38100, "kea": 39153, "he": 675, "iiii": 42526, "Ġlisteners": 23274, "ĠPens": 45035, "oubl": 46680, "ĠBarr": 28694, "Ġfelt": 2762, "iteit": 45967, "Ġgrate": 46214, "×¢×Ŀ": 49661, "Ġgrandson": 31657, "Ġrestart": 21022, "isiej": 50117, "Ġnuances": 38775, "harma": 29171, "Ġëį": 5596, "Ġprogress": 4205, "uclear": 30335, "Ġtemp": 18274, "Ġê²ĥì²ĺëŁ¼": 44052, "olf": 7491, "incarn": 41801, "Ġparalyzed": 41919, "ĠSched": 44926, "ÃľNDNIS": 23222, "Ġgradually": 13145, "Ġsavage": 42512, "parents": 19901, "PR": 15958, "ially": 2270, "Ġacet": 37848, "ĠFocus": 21862, "Ã¡ri": 11758, "ĠSkip": 46405, "ĠChoice": 37080, "ĠImmer": 42676, "Ġmorph": 25778, "ye": 1200, "ĠÐ·Ð°Ñģ": 27819, "×ŀ×Ļ×Ŀ": 46637, "Ġpalavra": 40960, "ICES": 40407, "ìŀĸ": 9522, "ìĭľê³ł": 24303, "ĠÐ´Ð¸": 28255, "<|26.60|>": 51694, "Ġneol": 49512, "Ġtamam": 18536, "Ġsupercomputer": 36708, "ĠíĶĦë¡ľ": 27758, "aupt": 13343, "ĠBlack": 4076, "Ġparanoid": 43948, "/.": 48550, "Ġtow": 10966, "ĠçľŁçļĦ": 32790, "Ġheh": 37791, "ĠíķĺëĬĶëį°": 29600, "ktop": 13031, "ä»£": 19105, "Ġpony": 27342, "Ġpercentage": 9668, "Ġtracker": 37516, "llie": 21382, "Ġà®ĩà®²": 49465, "gression": 13338, "raw": 5131, "Ġgoals": 5493, "ĠìķĦëĭĻ": 45842, "Ġinflam": 15987, "ĠImportant": 42908, "ĠSommer": 35022, "netes": 22334, "ĠÐ¿Ð°Ð¿": 39322, "Ġeighty": 26348, "Ġsplit": 7472, "Ġcomb": 2512, "owych": 19605, "<|18.48|>": 51288, "ĠmatiÃ¨re": 46600, "Ĺ": 245, "Ð¸Ð½Ð¾Ð²": 27499, "Ġgy": 15823, "Ġbuscar": 26170, "achte": 26136, "Ġvere": 16443, "ĠÐ¸Ð½": 6635, "å¹¾": 23575, "Ġbandwidth": 23647, "idian": 34681, "Ġeff": 1244, "Ā": 188, "Ġbedtime": 45850, "Ġê²½ìļ°ìĹĲëĬĶ": 45745, "born": 10324, "apper": 34456, "ilot": 31516, "ĠSyl": 33349, "Ġimmigration": 13554, "Ġbrat": 47869, "Ġspaceship": 39185, "Å¾e": 29913, "Ġlorsque": 40629, "ĠÙĨÛģ": 43596, "<|14.98|>": 51113, "Ġfollower": 35413, "ÄĻd": 6298, "May": 19533, "íĸī": 12724, "ĠUK": 7051, "ĠFactory": 36868, "Ġcommands": 16901, "Ġthumb": 9298, "Men": 30505, "ĠÐºÑĢÑĥ": 26970, "ĠÃ¼brigens": 38215, "ĠKings": 21855, "Ã¨le": 29844, "essional": 44226, "founded": 49547, "Ġdirekt": 20315, "Ġinterpreted": 26749, "Ġvisible": 8974, "ommes": 16733, "ĠBetty": 30270, "Ġtriple": 15508, "ote": 1370, "chas": 41299, "ĠNuclear": 42528, "etten": 30759, "å¤©": 6135, "Ġsunflower": 48215, "ĠÑĥÐ²Ð¸Ð´": 21974, "Ġopposition": 13504, "à¸Ķ": 9345, "Ġshown": 4898, "Ġincorrect": 18424, "Ú¾ÛĮ": 36078, "Ġcalculated": 15598, "Ġfurious": 33470, "object": 41070, "Ġmissions": 13744, "hel": 18063, "æł·": 14496, "Ġcomments": 3053, "<|5.42|>": 50635, "èĨ": 39708, "ĠÐ½Ð¸ÐºÐ¾Ð³Ð´Ð°": 29375, "Mike": 25519, "ĠOA": 48424, "ĠLah": 45862, "ÑĮÑı": 14195, "arg": 33544, "ould": 429, "ÑģÑĤÐ²Ð¾": 9631, "ĠEsta": 20547, "Ġmaneuver": 25976, "Ě": 214, "æ¾": 25621, "ATA": 44811, "æĢİä¹Ī": 15282, "Ġlongo": 40558, "ĠÐ³Ð¾Ð²Ð¾ÑĢÐ¸ÑĤ": 25083, "amorph": 50232, "Ġverstehen": 37352, "Ġfears": 15649, "mis": 45634, "rio": 6584, "io": 1004, "ĠNegative": 43230, "ĠLOU": 49486, "ientes": 20135, "awn": 11251, "ĠWarriors": 40161, "ĠReal": 8467, "Ġperme": 30287, "Med": 42954, "Ġsheriff": 37103, "Ġbranches": 14770, "giving": 15441, "Ãłn": 22476, "ascal": 27303, "compl": 43856, "ĠContain": 43732, "ificar": 25625, "Ġinflation": 15860, "ĠDue": 18980, "Ġ21": 5080, "Ġ×Ĵ": 15413, "Ġfinalement": 28623, "Ġbrushed": 40694, "Ġvorbere": 48391, "Ġri": 19739, "ĠEmmy": 45580, "Ġë¨¹ìĸ´ë": 28428, "DD": 20818, "aimer": 43378, "quinho": 27339, "ãģ¡ãģ¯": 30492, "æĶ¿åºľ": 41116, "ĠRyan": 9116, "ĠEinsatz": 38474, "Ġcertificate": 15953, "Ä±ndaki": 47028, "ĠmÃ©th": 45404, "Ġconsiste": 49066, "Ġletzten": 18226, "Ġallt": 23612, "Ġfacets": 49752, "Ġdunno": 22751, "Ġsimpler": 18587, "Ġnecessity": 24217, "inder": 5669, "Ġboats": 17772, "Ġradial": 38783, "Ġile": 15465, "wasser": 48309, "ĠAmerica": 3374, "Ġintent": 8446, "Ġdarauf": 18654, "Ġcommentaires": 46663, "ĠÐ½Ð°Ð¿ÑĢ": 18296, "walk": 12490, "rot": 10536, "issance": 14431, "Ġbathtub": 42901, "Ã¤tze": 30179, "Ġgigabytes": 42741, "Ġreprodu": 11408, "ĠKA": 31233, "xus": 32618, "ĠFBI": 17441, "Ġdepending": 5413, "jÅĽÄĩ": 44536, "Ġconsisted": 38227, "įĶëĿ¼ê³ł": 19129, "çľŁ": 6303, "ĠDeutschland": 14802, "ĠØ§ÙĦØ³": 21136, "gs": 21559, "Ġjeans": 18880, "wiad": 32997, "taa": 43695, "<|2.40|>": 50484, "niej": 10402, "Ġmacro": 18887, "Ġseben": 46031, "nel": 6396, "lled": 5929, "ulus": 26107, "Ġporta": 28598, "ĠIst": 12810, "isations": 47791, "ives": 1539, "Ġprosec": 22382, "ãģĲ": 35849, "Ġlain": 29272, "tw": 20270, "ãĥĥ": 8276, "wagen": 28717, "Ġcarre": 30919, "ĠdiferenÃ§a": 38336, "ĠTerror": 36174, "ĠGuan": 41431, "Ġwhom": 7101, "Ð¾ÐºÐ¸": 48110, "à¸ķ": 11526, "ĠKampf": 45126, "åħĪçĶŁ": 33083, "Ġparticular": 1729, "ÐµÑģÑı": 17615, "Ġwiem": 26522, "ĠNil": 47398, "<|2.90|>": 50509, "Ġgoat": 23608, "Ġshortest": 31875, "Ġress": 24689, "Ġcredentials": 27404, "ĠHis": 2812, "ĠCurrent": 15629, "2019": 30620, "adays": 11113, "Rh": 31121, "Ġmarshm": 29817, "ĠRegent": 36687, "´ìĭ¬": 28569, "à¸£à¸°": 47376, "Ġprotection": 6334, "Ġtrembling": 47354, "ÏĮÏĥ": 41292, "ç¥": 12695, "Ġequival": 9052, "ican": 8914, "<|12.56|>": 50992, "Ġtirar": 29239, "ãģªãĤĵãģĭ": 27646, "Ġsubsequently": 26514, "uuuu": 43779, "Ġapproval": 13317, "éĹľ": 14899, "á¹Ľá¹£": 34726, "Ġlick": 30940, "Ġlados": 40301, "hÃ£": 36320, "ĠDay": 5226, "Ġlemons": 47098, "Ġ55": 12330, "Ġthy": 15196, "iller": 10497, "ĠInvestment": 43427, "Ġimported": 25524, "ĠMessage": 45947, "Ġlitres": 49259, "ĠCanvas": 25725, "die": 11231, "onym": 12732, "EST": 14497, "Ġbol": 8986, "Ġestim": 8017, "ãģłãģķãģĦ": 24034, "Ġpreced": 16969, "otypes": 19477, "Ð°Ð»ÑĮÐ½Ð¾Ð¼": 49980, "Ġlose": 3624, "<|21.08|>": 51418, "ãĤĮãģŁ": 35478, "ktion": 9780, "Ġaula": 41642, "Ġeleven": 21090, "abei": 12449, "ato": 2513, "worthy": 23727, "uish": 33786, "ĠAnytime": 39401, "ĠToby": 40223, "Ġ127": 47561, "ê°": 1126, "Ġrug": 18329, "ĠGeb": 24984, "oine": 44454, "ĠBasically": 8537, "Ġcomputer": 3820, "Ġescaped": 20397, "Ġnicest": 45516, "Æ°á»Ł": 48443, "ĠHani": 39731, "Ġdeben": 49187, "ÑģÑĤÐ²Ñĥ": 42104, "Ġbreasts": 34331, "ëĭ¹": 11752, "Ġinterconnected": 36611, "Ġinex": 29961, "<|24.62|>": 51595, "Ġprivileges": 32588, "aphor": 18560, "ress": 735, "Ġapostle": 50244, "Ġsupremacy": 35572, "ĠFalse": 50040, "Ġghost": 8359, "ĠgroÃŁes": 48875, "rÃ¨s": 32524, "Ġattributes": 17212, "éĺ": 10034, "ĠLotus": 44769, "wach": 50038, "ĠPiece": 42868, "ĠSAR": 18748, "Ġorganisations": 22270, "iga": 9900, "ĠDrum": 40320, "Ġsober": 26212, "å¤§çļĦ": 39156, "venth": 37439, "ky": 4133, "ĠPip": 35396, "Ġperse": 20607, "ĠJag": 9014, "Ġspraw": 22734, "ĠColombia": 22677, "Ġsunt": 35171, "Ġdiffer": 743, "inya": 28507, "Ġridge": 34651, "ĠAmazing": 14165, "Ġsunrise": 33675, "ĠUnterschied": 41414, "zug": 29742, "Ġcells": 5438, "esters": 38561, "Ġdarf": 19374, "Î¹Ïĥ": 36876, "ĠkÃ¶nnte": 17646, "ĠFight": 12371, "Ġcane": 27518, "ĠALEX": 27351, "Ä±sÄ±": 28495, "Ġduh": 43763, "ÑıÐ¶": 18233, "Jake": 49501, "Ġjoints": 19949, "Ġopponent": 10620, "ĠComm": 3046, "Ġdeles": 30789, "ÃŃda": 39080, "Ã»t": 30692, "ãģĹãģ¾ãģĻ": 17048, "Sec": 29511, "neys": 14859, "Ġeconomies": 23158, "ÑİÑĤÑģÑı": 21816, "ĠHans": 17926, "éŁ": 13665, "Ġpresentation": 5860, "Ġbes": 4097, "×Ļ×ķ": 21827, "boro": 46669, "Ġschlecht": 32427, "Ġmesh": 17407, "ĠMys": 37795, "wor": 28321, "Ġsale": 8680, "Ġexercise": 5380, "akt": 5886, "Ġakkor": 44439, "ĠÐ³ÑĢÐ°ÑĦ": 45799, "Ġmodels": 5245, "Â»,": 21606, "Ġroofs": 48555, "Ġdestru": 34235, "Ġê°ĻìĿĢëį°": 21864, "Ġcateg": 4847, "Ġhearts": 8852, "flows": 33229, "96": 22962, "Ġsimpl": 6883, "Ġmorals": 46849, "Ġvacation": 12830, "Ġbem": 7577, "<|14.48|>": 51088, "<|4.70|>": 50599, "Ġparticle": 12359, "ĠRegional": 30341, "Ġdiplom": 20053, "ĠPharise": 47742, "Ġtalked": 2825, "Ġedges": 8819, "Re": 8524, "<|20.18|>": 51373, "Ġvideo": 960, "Ġgur": 40642, "cej": 20811, "ĠdÃ©mocr": 47146, "ê°ĢëĿ½": 46918, "31": 12967, "Ġvertices": 32053, "uter": 20314, "Ġdigamos": 36430, "<|18.62|>": 51295, "ĠÑĥÐºÑĢÐ°ÑĹ": 48350, "ĠÑĢÐµÐ¶Ð¸Ð¼": 37710, "Ġ2017": 6591, "eremi": 36758, "OWN": 17536, "ĠMÃ©": 23580, "ĠWestern": 8724, "Ġpsychopath": 47577, "ĠÐ¾ÑĤÐ¿": 22344, "ĠÐ¿Ð¾ÐµÑħ": 49519, "Ġfier": 16334, "Ġchron": 19393, "degree": 34368, "mil": 28674, "ĠBren": 31200, "ĠKardash": 37959, "Ð¾ÑĩÐµÐ¼Ñĥ": 28807, "ĠÐ½Ð¸ÐºÐ°Ðº": 23127, "ĠUs": 4958, "otal": 38180, "Ġpolls": 24264, "ĠUhr": 30084, "Ġrhetoric": 29604, "Ġvos": 13845, "ãģĤãģ£": 28913, "æ¬¢": 28566, "Ġobstacles": 17735, "Ġdominated": 23755, "<|19.54|>": 51341, "ques": 7519, "Ġbalanced": 13902, "Ġaccur": 5771, "ĠTerr": 36591, "ì±ħ": 36648, "Ġknee": 9434, "ĠStall": 48010, "Ġmiracle": 14660, "Ġeighth": 19495, "Ġamusing": 47809, "å§ĳ": 46563, "Ġmirror": 8013, "Ġnhiá»ģu": 28272, "Ġcredible": 32757, "czenia": 38517, "ĠWe": 492, "wechsel": 26934, "Ġvolunteer": 13835, "<|0.72|>": 50400, "ĠgÃ¶r": 8362, "<|27.98|>": 51763, "storm": 17367, "Ġblanc": 34437, "rett": 14313, "Ġchamber": 13610, "ĠÐ°Ðº": 13790, "Ġcomprendre": 26856, "Å³": 28102, "éĻ³": 45769, "Ġze": 5277, "Ġíķĺë": 5832, "fÃ¶r": 15610, "IF": 12775, "ĠSMS": 38107, "rill": 37480, "Ġracism": 12664, "Ġpest": 31068, "illa": 5291, "Ġcouch": 16511, "ius": 4872, "ĠFaster": 46665, "ĠHogwarts": 46539, "Ġalrededor": 43663, "Ġfats": 29885, "Ġroku": 19451, "Ġsabor": 48648, "Ġexpl": 1490, "ĠlÃłm": 22319, "nam": 5378, "Ġconocer": 35241, "ĠProse": 50058, "urst": 48273, "ween": 1259, "Ġkeyboards": 47808, "Ġkung": 49304, "ĠUnreal": 34464, "ĠMV": 17663, "ĠRhod": 36951, "ĠÐķÐ³Ð¾": 32908, "ĠSuz": 24232, "Ġcanned": 36462, "Ġ1300": 48156, "Ġele": 1118, "ĠÐ¿Ð¾Ð´ÑħÐ¾Ð´": 44617, "ĠkÃ¶nnten": 37411, "Ġexperiences": 5235, "ĠYun": 18007, "Ġprecautions": 34684, "Ġdepuis": 16062, "ÐµÐ´Ð¸Ð½": 30741, "mun": 23717, "Ġdiode": 40787, "ĠPositive": 46326, "Ġfamilia": 24050, "Ġ101": 21055, "Ġdiffuse": 42165, "ych": 16384, "Ġtogether": 1214, "Ð²Ð¸Ð´": 42172, "Ġjaar": 22579, "Ġcomin": 35814, "ĠNevertheless": 26554, "ĠDarr": 44007, "ĠRam": 9078, "headed": 28409, "lusion": 6485, "Ġbottle": 7817, "Ġoutlook": 26650, "Ġsatisfying": 18348, "×ķ×¡": 24622, "ĠKenn": 12369, "deal": 46394, "Ã©nt": 37239, "porter": 37356, "Ġdisplays": 20119, "Ġcopying": 27976, "Ġfui": 27863, "Cho": 44473, "Ġ[?": 16127, "Ġacquis": 17883, "sst": 20407, "ĠÑĤÐµÑĢ": 21168, "Ġcri": 12815, "plain": 34821, "Ġoutputs": 23930, "amar": 45207, "ĠComplete": 34687, "Ġcomen": 36222, "Ġdealt": 15991, "sych": 4202, "ĠImpossible": 36808, "Ġquieter": 43339, "ÐµÑĢÐµ": 23498, "Ð»Ð¾Ð¼": 28209, "ç¾": 7248, "íĻ": 6048, "Ġturbo": 20902, "Ġparent": 2596, "Ġpineapple": 25740, "ĠWait": 3802, "Ġaproximadamente": 48892, "<|24.08|>": 51568, "Ġribbon": 20921, "Ð½Ð¾Ð³": 50237, "Ġgranddaughter": 44411, "Ġinviting": 18202, "ĠProv": 15685, "ĠJP": 34336, "ĠÐ¢ÑĥÑĤ": 35358, "nÃŃ": 28988, "akin": 12709, "ĠMoment": 19093, "ĠOklahoma": 21183, "rodu": 2323, "Ġpatri": 18311, "ĠÐ¿Ð¾Ð½ÑĢÐ°Ð²": 34752, "Ġdoubt": 6385, "Pa": 18968, "ãģµ": 18100, "Ġrapping": 44333, "ux": 2449, "ãģī": 30590, "uely": 48863, "Ġsaus": 16534, "ëªħ": 16330, "Ġgraft": 44767, "ĠìĽĲ": 13499, "ĠÑģÐ°Ð¼Ð¸": 34085, "ĠJimmy": 15709, "ĠpersÃ¶nlich": 42699, "Ġì¶Ķì²ľ": 40264, "Ġevent": 2280, "á»ĵi": 15695, "Ġaffirmative": 45270, "Ġincomes": 42458, "ĠStephan": 16672, "ĠNash": 25012, "ĠÑıÐ·Ñĭ": 29364, "ù": 181, "Ġconstitutes": 44204, "Ġ27": 7634, "Ġexped": 19348, "Ġadventures": 20905, "ĠDC": 9114, "orn": 1865, "ateral": 17274, "Ġniece": 39991, "Ġcircuit": 9048, "st": 372, "Ġê°ķ": 14623, "Ġ×Ĳ×ł×Ļ": 16707, "ĠÐ¾Ð¿Ð°Ñģ": 39393, "ĠLt": 44451, "ĠMay": 1891, "Ġproclaimed": 49091, "Ġadventure": 9868, "ĠÑİ": 29488, "Ġbull": 4693, "scheid": 29811, "ĠISO": 25042, "Ġdestro": 15311, "ishi": 27537, "Ã¶k": 23581, "unted": 19015, "<|23.32|>": 51530, "Ġkir": 33497, "Ġbeispiel": 37155, "ĠÐ¿ÑĢÐ¾Ð±Ð»ÐµÐ¼Ð°": 48264, "æ³¨": 26432, "æĦ": 4820, "<|eu|>": 50310, "Ġbaked": 19453, "gery": 7337, "Ġfaults": 36090, "eszcze": 14143, "Ġobrigado": 41774, "ooked": 29262, "hmm": 10250, "Ġexhib": 8144, "antry": 42057, "Ġcamoufl": 39491, "pool": 17374, "ì³¤": 43445, "Ġadmission": 24668, "Ġkok": 28376, "Ġattaching": 39074, "Ġecological": 31054, "<|4.10|>": 50569, "ãĤĤãģĹ": 49412, "Ġgrilled": 25183, "ĠPronunciation": 45496, "Ġpizz": 36075, "Ġgw": 29255, "ĠExtra": 29429, "Ġ2014": 8227, "Ġbrighten": 49007, "Ġforth": 5220, "If": 8031, "Which": 33785, "Ġharms": 48505, "ulously": 25038, "Ġtweaks": 46664, "chluss": 41372, "Ġbird": 5255, "Ġerfolg": 39447, "Ġsubstantial": 16726, "ĠCareful": 32932, "Ġsoundtrack": 27029, "Ġchinese": 47272, "Ġgard": 5628, "Ġphysicists": 48716, "icho": 33082, "Ġtraject": 18257, "ĠDIS": 49028, "cling": 12455, "ÐµÐ½Ð°": 13362, "Ġresistor": 37672, "ĠTE": 19744, "ĠImmedi": 32157, "Ġvoy": 7552, "adores": 11856, "ĠÑģÐ²Ð¾Ð¸Ñħ": 30316, "uis": 8479, "ructured": 46847, "Ġcomforting": 38439, "Ġatm": 22582, "Ġãģ®": 21171, "dad": 20034, "Ġcuriosity": 18769, "Ġvalleys": 45614, "adic": 43341, "und": 997, "ĠWal": 9707, "Ð¾Ð²": 1055, "Ġdadurch": 35472, "ĠKnowing": 25499, "ľëĮĢ": 36718, "Ġë£¨ë": 48512, "Ġpuede": 8919, "!!!!!": 28493, "Ġiz": 14736, "Ġabdominal": 38701, "Ġabstraction": 37765, "Ġformations": 39652, "irement": 28575, "cence": 25434, "è·": 6563, "ĠSeattle": 15721, "ĠÐºÐ¾Ð½ÐµÑĩÐ½Ð¾": 15271, "opus": 23280, "ĠFeed": 33720, "Ġrelated": 4077, "Ġgoverning": 30054, "ìĿ¼": 6403, "ìļ": 3220, "auft": 28245, "Ġderived": 18949, "åĦ": 12827, "ted": 14727, "ĠSmells": 44355, "ĠDenise": 38133, "News": 35766, "Ġconcrete": 9859, "*)": 34634, "Ġbouncy": 49704, "Ġintroductions": 48032, "Ġomn": 36874, "ĠRonnie": 46131, "Ġexamination": 23874, "ĠEthi": 29380, "ĠBlood": 17428, "Ġmeditate": 29989, "Ġtama": 45342, "Ġactivated": 18157, "Ġintuitively": 46506, "ismus": 25327, "Ġpháº£i": 23394, "ĠRecord": 27401, "Ġëĭ¨": 16818, "ĠSchwe": 24343, "Ġdiret": 48196, "TI": 5422, "trans": 24999, "ÑĢÐ¾Ð´Ðµ": 35381, "´ìĹĲìĦľ": 42659, "Ġbalance": 4772, "Ġknows": 3255, "è§": 6758, "ĠÐ´Ð°Ð²": 12472, "ĠVie": 24130, "Ġimpeachment": 33663, "ĠLunch": 44958, "Ġconditioner": 33558, "Ġstagn": 32853, "Ġenvy": 30530, "Ġmagnific": 21623, "Î»Î»": 14870, "Ġcell": 2815, "Ġchampionship": 19070, "ìĶ©": 24317, "ussen": 29202, "Ġoccasions": 20641, "Ġmonte": 35437, "ĠÐ¶": 2989, "Ġspooky": 30510, "uks": 27999, "Ġantibiot": 19388, "connect": 9826, "æŃ": 4287, "ĠBeruf": 36688, "Ġê¶ģ": 29342, "Ġdrills": 36126, "Ġtender": 15036, "Ġincentiv": 35328, "ris": 5714, "stat": 19435, "Ġband": 4116, "ĠÐ´Ð¾Ð»Ð¶Ð½Ð¾": 40475, "Ġmonks": 32201, "ĠRegular": 45659, "Ġjeux": 35093, "ĠìķĬìķĺ": 29558, "uary": 6164, "Ð°ÑģÑĤÑĮ": 31789, "Ġchili": 15575, "Ġlun": 19039, "Ġexempel": 34999, "ĠBen": 3964, "Ġextensively": 32636, "ÑĥÐ¶Ð´": 37044, "ĠÐ¸Ñħ": 9642, "ĠBetter": 15753, "Ġreligions": 21212, "³´ì": 20107, "¸Ķ": 48411, "Ġstayed": 9181, "èĥ": 19095, "çĶµ": 42182, "ìĪĺë¥¼": 45510, "ĠFantastic": 21320, "ĠArts": 12407, "Ġvorstellen": 34346, "íĺ¸ë": 45706, "ĠFront": 17348, "Ġphenomena": 22004, "ĠiÃ§inde": 34283, "Ġmetall": 20866, "ĠStudy": 27039, "Ġexemple": 12223, "ĠSomeone": 8734, "Ġattached": 8570, "Ġê¸°ìŀĲ": 41483, "'t": 380, "Ġreception": 21682, "ĠAi": 16993, "Ġsavior": 41327, "Ġcover": 2060, "Ġincorporated": 21654, "Ġmasks": 11830, "isen": 11106, "ĠSandy": 27390, "iram": 40359, "Ġdensity": 10305, "Ġalumni": 16347, "Ġact": 605, "Ġdivid": 4996, "Ġpea": 49178, "ĠPresent": 33253, "tern": 2231, "åĬłæ²¹": 19310, "ĠEQ": 33580, "Ġdich": 10390, "<|6.38|>": 50683, "Ġmusimy": 43449, "Ġsebel": 46122, "olithic": 42878, "ĠMercy": 35626, "Ġhol": 4091, "ãģĬãģĦ": 33261, "rek": 20012, "jours": 11615, "Ġende": 19099, "ature": 1503, "araus": 46483, "ĠWindows": 8591, "ĠÐ·Ð°Ð²": 13388, "Ġmoins": 13099, "iph": 24595, "Ġlem": 7495, "Go": 12104, "ĠìĤ¬ëŀĮë": 18078, "Ġverte": 16167, "Ġhart": 36644, "ĠlÃ©g": 27122, "Ġgebracht": 40744, "ĠÐºÐ°ÑĢ": 13560, "ĠTalk": 8780, "ĠÎ¤Î¿": 44524, "ĠSÃ¥": 12728, "ĠCrew": 29857, "ĠTiere": 38810, "<|26.08|>": 51668, "ipping": 6297, "Ġbandits": 49043, "Ġmeasurement": 13160, "ĠGentlemen": 38316, "ĠOo": 39308, "Ġounce": 29860, "ĠGREEN": 47262, "Ġoli": 24072, "ĠÑįÐºÑĢÐ°Ð½": 41643, "å¨": 19976, "Ġdishon": 37127, "Ġdry": 4016, "è°¢": 11340, "Ġinvolves": 11626, "Ġgroundwater": 40511, "ĠSnap": 18254, "stÃ¤nd": 16913, "pared": 45573, "ader": 8312, "Ġcouncils": 39187, "Ġrelease": 4374, "elyn": 49449, "Ġemotion": 8913, "ĠUr": 9533, "Ġasking": 3365, "qualified": 46094, "Ġblessed": 12351, "Ġaccepts": 33538, "ĠEM": 16237, "<|3.00|>": 50514, "ĠkiÅŁ": 28212, "Ġheavily": 10950, "Ġscar": 10569, "zier": 33352, "Ãło": 20807, "Rah": 42077, "Ġwhirring": 36861, "timer": 38013, "burn": 21763, "Ġpublishing": 17832, "covery": 21352, "ÃŃcio": 26162, "ĠSwami": 33018, "sto": 20875, "ĠHet": 12045, "ĠJahres": 44360, "ĠÐ¿Ð¾Ð»ÑĮÐ·Ð¾Ð²": 44803, "ĠHamp": 30303, "Ġadopted": 12175, "Vi": 41093, "ĠíĥĦ": 46979, "Ġsomm": 41854, "Ġoverhe": 29807, "ĠMARK": 20606, "uzu": 48323, "ì§Ħ": 8097, "ders": 15633, "Ġselber": 23888, "ĠJul": 7174, "Ġpursue": 12392, "ĠClark": 18572, "ĠÄ°s": 45053, "íķ´": 5302, "ĠÐ±Ð¾ÑĢ": 30101, "ĠKayla": 36797, "ĠfÃ¤llt": 42870, "bet": 10671, "ĠVed": 26084, "Ġheard": 2198, "cidos": 46579, "igram": 33737, "ĠHerausforder": 37888, "Ġê¸Ī": 34120, "ĠAllies": 44949, "bec": 8123, "Ġdirectly": 3838, "ê³¼": 7097, "Ġposition": 2535, "Ġkomen": 27190, "Ġ[": 542, "Ġdisappointed": 13856, "Ġmajestic": 49561, "ĠÐ¿ÑĢÐ¾Ð¸ÑģÑħÐ¾Ð´Ð¸ÑĤ": 28548, "Ġweird": 3657, "Ġnegotiations": 20476, "ĠBre": 7090, "Ġenrich": 18849, "Ġarchive": 23507, "bike": 30283, "ãģªãĤĭ": 29218, "ĠHelp": 10773, "ligh": 36641, "Ġciao": 42860, "Ġpremium": 12049, "ĠíĴ": 21442, "Ġstos": 43581, "Ġquar": 4723, "Ã©ner": 29535, "Ġfret": 24189, "Ġsupporter": 28600, "eg": 1146, "æµ·": 20078, "iny": 3519, "ala": 5159, "Ġwatches": 17062, "ocr": 3617, "ãĥł": 32026, "comb": 38763, "Ġhimself": 3647, "Ġlogar": 41473, "Ġhypnot": 42944, "Ġgr": 677, "Ġtort": 10806, "ĠìŀĪì§Ģë§Į": 49355, "ĠëĶ°ë": 15933, "Ġë¨": 5108, "Ġsuc": 1965, "ioxid": 30565, "ĠNicolas": 38268, "ĠhistÃ³": 33196, "ĠtÃ©cnica": 45411, "ļ©": 22621, "Ġpriority": 9365, "prochen": 23902, "Ġphenomenal": 17778, "Ġremo": 4595, "Ġpartout": 32955, "äºĮ": 11217, "<|26.80|>": 51704, "imate": 2905, "Ġworry": 3292, "Ġì±": 14097, "Ġalt": 4955, "ĠDevOps": 43051, "èµ°äºĨ": 35267, "Ġroad": 3060, "Ġpets": 19897, "ĠBloomberg": 40363, "ĠWheels": 49372, "ĠÑģÐ²Ð¾Ð¸": 25375, "×Ĳ×ª": 18044, "Ġpreset": 32081, "å®¶": 5155, "naments": 23680, "Ġìĥģ": 8563, "MB": 47554, "ÑįÑĤ": 11967, "Ġreduces": 18081, "ĠSeal": 46207, "ikke": 38735, "ĠHond": 45260, "ĠOR": 19654, "ĠCreed": 39103, "Ġmapping": 18350, "Ġwhale": 25370, "ativa": 18740, "Ġlleg": 11234, "Ġczy": 6430, "Ġtoxicity": 45866, "Ġdedication": 21813, "Ġrunway": 26642, "Ġtea": 5817, "Ġsá»ĳ": 44983, "ĠMG": 36856, "Ġemergencies": 43483, "Ġmode": 4391, "pes": 5190, "æ¥½": 35479, "ĠÑģÐ¾Ð·Ð´": 20247, "ĠÐ½Ð°ÑĪÐµÐ³Ð¾": 45309, "Ġsnaps": 19206, "print": 14030, "ãĢİ": 16553, "itation": 4614, "ĠOlÃ¡": 41811, "ĠZimmer": 37243, "Ġstarve": 46755, "Ġgros": 18638, "ry": 627, "Even": 25931, "è¨": 5396, "yl": 5088, "izza": 7176, "Ġcertainly": 3297, "Ġattorney": 13469, "Ġ160": 21243, "ĠÑĢÐ°Ð¹": 37590, "ĠcientÃŃfic": 37053, "Ġyounger": 7037, "osexual": 22255, "ĠÑĩÐ°Ñģ": 13562, "ĠNavy": 15659, "iums": 47954, "ĠíĶ¼ë": 24009, "Ġapplication": 3861, "<|14.50|>": 51089, "ĠEstamos": 34563, "Ġunpre": 19237, "ĠSalvador": 32586, "Î¯": 3721, "ĠBattle": 11846, "Ã©v": 26375, "ĠOra": 43672, "Ġchrom": 16209, "ì¹ĺê°Ģ": 49334, "ë³": 10708, "Ġsworn": 40068, "Ã£os": 46550, "veda": 45716, "ĠPowder": 35781, "×Ļ×ª×Ļ": 42151, "Ġ1890": 47725, "Ġantibodies": 28356, "Ġshattered": 35209, "ĠTolkien": 48824, "Ġconc": 1588, "Ġbursts": 41663, "ĠSimple": 21532, "Ġrebuilding": 36717, "ource": 2948, "Ã°": 23436, "Ġsix": 2309, "Ġcont": 660, "Ġreflection": 12914, "ĠHEL": 38856, "Ġrh": 33418, "Ġworrying": 18788, "Ġwat": 6858, "Ġkits": 22095, "ĠBeispiel": 13772, "Ġposso": 22501, "Ġgece": 48173, "inent": 11058, "ĠBonnie": 32170, "Ġreduction": 11004, "uje": 13008, "Ġ1": 502, "ĠMein": 18382, "Ġqueer": 20323, "Ġdrugiej": 47373, "Ġcray": 33073, "Ġsendo": 22589, "ĠVal": 7188, "Ġconvin": 9854, "Ġadvancement": 35764, "Ġdecided": 3047, "á¹Ľá¹£á¹ĩa": 35501, "Ġproph": 17051, "aste": 9079, "Ġverder": 47196, "æĴŃ": 49993, "à¤¨": 35082, "ĠÐ¢ÐµÐ¿ÐµÑĢÑĮ": 25238, "ĠìŀĪ": 2297, "Ab": 23695, "ĠBed": 19893, "Ġíķ": 1362, "Ġvariance": 21977, "ĠBeet": 28798, "×¨×ª": 40831, "ĠDance": 16114, "ĠGardens": 45268, "ĠKosten": 47391, "Ġavatar": 36205, "Ġgrit": 30133, "Ġimpairment": 42025, "hod": 2926, "Ġrecomm": 2616, "Ġgalaxy": 17639, "Ð¾ÑĩÐºÑĥ": 39116, "ĠÐ¾Ñħ": 28871, "ancies": 32286, "Ġdelicate": 21417, "Ġobra": 22798, "å¤ļå°ĳ": 41492, "Ġê¹Į": 49124, "ĠidÃ©e": 34832, "Ġparl": 13734, "ĠDaf": 31582, "ĠSecret": 7400, "Ġfishes": 41734, "Ġabortion": 22902, "Ġìĺ¤ë¥¸": 46673, "Ġíĭ°": 42417, "<|15.20|>": 51124, "Ġ!": 2298, "ì£¼ê³ł": 38179, "ĠÑĢÐµÐ°Ð»ÑĮÐ½Ð¾": 38001, "ĠëĶ°ëĿ¼": 24453, "ãģĤãĤĬãģ¾ãģĻ": 37020, "×ľ×Ļ": 42468, "ĠhiÃ§bir": 31151, "min": 2367, "ÑĢÑĥÑĪ": 28841, "Ð¸ÑģÑĮ": 10363, "ansas": 14527, "Ġpajamas": 43625, "Ġcaution": 23585, "Ġlobby": 21067, "Ġproduct": 1674, "æĪĳä¹Ł": 27761, "ĠlÃ³g": 48475, "Ġheel": 9430, "Ġbiscuits": 36301, "ek": 916, "Ġmicrobes": 35996, "<|de|>": 50261, "ĠHolly": 10055, "ë¯¼": 23762, "ĠOpportun": 39441, "Ø¯Ø©": 41891, "iksi": 39664, "ê°ĲìĿ´": 36201, "ĠSoviets": 41354, "<|27.96|>": 51762, "Ġevapor": 26315, "Ġimposs": 38802, "<|26.90|>": 51709, "Ġsupplemental": 48604, "Be": 6524, "Ġshaded": 48067, "ĠCOMM": 36041, "roph": 11741, "ĠMemory": 38203, "Ġtogg": 26911, "Ġextracting": 49844, "ĠShe": 1240, "ĠCollins": 27973, "Eng": 31254, "Ġfair": 3143, "ĠUniversity": 3535, "Ġappointed": 17653, "Ã©rica": 32716, "Ġacoustic": 26753, "ONE": 14248, "anna": 1795, "ĠGanze": 35206, "Ġtrench": 39052, "ĠAM": 6475, "ĠSUN": 42596, "Ġatmosphere": 8018, "×Ļ×¤": 27671, "ìĽł": 36450, "Ġsuits": 15278, "once": 26015, "Ġsortir": 26906, "Ġawful": 11232, "Ġtaka": 28017, "etus": 40506, "uras": 12907, "idÃ©": 35146, "Ġjogar": 39248, "Ġeuro": 14206, "<|15.68|>": 51148, "Ġopio": 24434, "ģ": 223, "<|1.00|>": 50414, "Ġperdre": 46254, "ĠÑģÑĤ": 3266, "ĠMask": 25414, "Ġparameter": 13075, "ĠTest": 9279, "ĠFresh": 22843, "ĠUnbelievable": 39523, "beiter": 29565, "Ġtaken": 2726, "<|0.70|>": 50399, "encing": 13644, "Ġaliment": 17043, "Ġì¡°ë": 42707, "æ¯Ķ": 11706, "ĠHail": 32495, "Inter": 13406, "ĠtÃ¤tÃ¤": 50187, "ĠMadison": 22874, "Ã¼f": 39733, "Ġfrontal": 34647, "ĠMaggie": 29107, "Ġ?!": 31363, "ĠEat": 14429, "Ġstatistics": 12523, "ĠMoy": 47254, "Ġhostel": 48879, "astern": 32579, "Ġì±Ļ": 49414, "éĢĻåĢĭ": 6287, "ëĬĶì§Ģ": 32087, "ĠSimone": 41652, "Ġrunt": 49435, "ãĢģ": 1231, "ĠhjÃ¤l": 42822, "ĠmayorÃŃa": 35342, "d": 67, "ĠNGO": 31456, "ĠGeneration": 23898, "ancy": 6717, "ĠRiver": 8640, "Ġreag": 26949, "ected": 39963, "ultura": 49944, "Ġpassa": 23880, "ificaciÃ³n": 40802, "Ġmov": 2402, "arlos": 39734, "ĠPut": 4935, "ĠDIRECTOR": 35929, "ĠMarx": 21703, "ische": 7864, "Ġrefuge": 10991, "Ġwerden": 4604, "Ġrotary": 45811, "Ġmeget": 36411, "ĠKem": 30097, "Ġcommemor": 30461, "ĠUkraine": 14081, "ÑģÑĤÐ°": 11459, "Ġvacc": 3900, "Ġë§ĽìŀĪëĬĶ": 49051, "ÙĪØ³": 41779, "ĠFreddy": 31445, "ãģĿãģĹãģ¦": 25092, "ĠÐ´Ð¾Ð»Ð»Ð°ÑĢÐ¾Ð²": 35902, "zieÄĩ": 21214, "ĠSl": 6187, "Ġenjoys": 29750, "ĠCAL": 50188, "ĠPersonally": 21079, "Ġencry": 17972, "æ¬": 5988, "Ġ104": 47757, "Ġstaging": 41085, "ieur": 20679, "Ġinterestingly": 25873, "bot": 18870, "rophy": 40826, "rest": 4149, "Ġahh": 28612, "uros": 8977, "Ġreacts": 33305, "ĠmÃ¡r": 40331, "alid": 31509, "<|29.50|>": 51839, "Ġapprenticeship": 47070, "Ġgrilling": 49961, "Ġaj": 17680, "ÃŃ": 870, "pipe": 50042, "Ġcourtyard": 41364, "<|27.82|>": 51755, "Ġincar": 23694, "Ġgenres": 30057, "Ġwireless": 14720, "ĠGab": 11995, "will": 17044, "arity": 17409, "Comm": 39206, "hadow": 31933, "Ġvlogs": 30575, "Ġhuh": 7020, "ĠOna": 49793, "Ġguten": 31277, "Ġdifferent": 819, "ĠCycl": 49173, "ĠVanguard": 46648, "Ġoccas": 15319, "æ°ĳ": 16113, "ÑĥÐ»ÑıÑĢ": 35215, "AY": 4299, "Ġcaptures": 27986, "Ġcharm": 18904, "Ġfue": 9248, "Ġroster": 29892, "Ġê±´": 13507, "Ġtypically": 5850, "uite": 21681, "ĠÑģÐ¼Ð¾ÑĤÑĢÐµÑĤÑĮ": 43922, "Ã¤lle": 31447, "Ġcrappy": 36531, "Ġverf": 40660, "Ġê²ģ": 23178, "Ġetwa": 28369, "Ġvalue": 2158, "ÑĨÐ¸": 3706, "Ġcodes": 14211, "Ġsabes": 37790, "Ġê°Ĳë": 41398, "ãĥ¯": 39613, "ĠDus": 17916, "ixon": 23226, "Ġrepresenting": 13460, "<|25.82|>": 51655, "ĠMIKE": 25208, "è¿": 3316, "ÐµÐ²Ð¸Ñĩ": 42110, "Ġunfortunate": 17843, "Ġgeschrieben": 47397, "ĠChev": 44236, "Ġadministr": 9737, "iens": 24594, "Ġfruits": 12148, "YN": 22315, "ĠProbably": 9210, "Ġhole": 5458, "ĠOch": 13128, "Ġsymptoms": 8332, "è±¡": 45007, "ĠGrowth": 48345, "Ðĵ": 20784, "èĵ": 39198, "Ġboots": 15194, "FE": 28182, "Ġplayful": 30730, "grown": 38413, "Ġmultiplic": 17596, "ĠBrit": 4760, "<|2.78|>": 50503, "Ġteamed": 47426, "ĠÃ©Ã©n": 39133, "ĠìŀĲìĹ°": 39635, "ĠëĥĦìĥĪ": 49985, "Ġwrap": 7019, "ĠÑĢÐµÐ¶": 28418, "Ġstains": 40733, "ĠLo": 6130, "<|5.14|>": 50621, "annt": 39878, "acie": 30805, "ĠLOT": 42930, "Ġchloride": 35434, "ĠIron": 13720, "Ġvolunteering": 33237, "Ġlifespan": 40361, "Ġpigeons": 48297, "ĠØ£ÙĨØ§": 41850, "ÑĥÑħ": 11576, "Ġcontributor": 42859, "ĠÑĢÐ¸Ñģ": 31393, "Sur": 36616, "ĠDuck": 29266, "zelf": 34686, "aleÅ¼": 45494, "Ġpastor": 21193, "ĠANNOUNCER": 35629, "Ġquietly": 19141, "coon": 48092, "Ġtutorials": 17616, "Ġproyecto": 32285, "Ġtill": 4288, "Ġplant": 3709, "Ġenforcement": 11475, "Ġvarsa": 48440, "Ġsingular": 20010, "ĠJAM": 26238, "Ġsur": 1022, "Ġaff": 2096, "reci": 3326, "Ġhighest": 6343, "Ġcompiled": 36548, "Ġpleas": 35122, "Ã¸": 6715, "Ġsolve": 5039, "riminal": 46885, "ĠOnce": 3443, "ĠSports": 20191, "Ġbever": 46524, "Ġdu": 1581, "×ľ×ľ": 46148, "ĠNear": 22200, "GO": 11601, "Ġsinful": 41861, "Ġrag": 17539, "Ġmodeling": 15983, "ĠluÃ´n": 35690, "Ġoui": 14367, "avors": 11759, "ĠMandarin": 42292, "Ġeben": 11375, "OC": 30087, "0000": 33202, "Ġtack": 9426, "ĠHighway": 30911, "iece": 46566, "×Ļ×¢": 26438, "Ġkaz": 30623, "Ġ330": 45374, "Ġreference": 6408, "ĠÃ´ng": 34835, "opher": 16754, "ĠNing": 39417, "Ġrevolutionary": 22687, "Ġbreath": 6045, "<|4.58|>": 50593, "Ġremoves": 30445, "here": 6703, "Ġist": 1418, "rir": 10949, "ĠIsab": 35686, "Ġcer": 10146, "iston": 47345, "Ġuniformly": 48806, "ĠActually": 5135, "Ġsixt": 13074, "ĠÑģÑĤÐ°Ð²": 25709, "Ġtangible": 27094, "cji": 19649, "ĠFREE": 48511, "ĠÐ¸Ð½ÑĤÐµÑĢ": 12073, "Î»ÎŃ": 35780, "ÐµÐ½Ð½ÑĭÐ¹": 28488, "ist": 468, "confidence": 47273, "Ġmouth": 4525, "ĠíĤ": 21959, "acey": 29059, "Ġcoconut": 13551, "ĠìĦŀ": 45048, "Ġsilently": 40087, "Ġbestimmt": 46871, "Ġappoint": 7602, "Ġencima": 40265, "Ĕ": 208, "æĿ¾": 36897, "Ùı": 10859, "ĠWalker": 23974, "Ð¾Ð¼Ðµ": 45540, "<|13.52|>": 51040, "Ð°ÑİÑī": 18718, "Ġtrib": 15039, "Ġwarning": 9164, "ĠSnake": 33885, "ĠìĤ¬ëŀĮëĵ¤": 39570, "Ġiss": 1620, "NT": 30817, "ĠnegÃ³": 31008, "Ġannouncer": 49574, "Ġbursting": 45713, "¢": 95, "iers": 4890, "ÑĨÐµÐ½": 23447, "iskt": 23606, "å®Ł": 33197, "Ġcarbs": 30801, "Ġfear": 4240, "Ġglide": 41848, "Ġdew": 48745, "Ġasked": 2351, "ĠëĬĲ": 34378, "Ġunrealistic": 42867, "ĠLinux": 18734, "Ġwillkommen": 46439, "á»įi": 34282, "ĠWarsaw": 41662, "abling": 20112, "è®Ĭ": 26327, "Ġexca": 24933, "ĠVers": 12226, "Ġê°Ķ": 28676, "ĸ": 244, "aff": 2518, "çĤºä»Ģéº¼": 18987, "Ġaccept": 3241, "ĠINT": 43140, "ĠìĿ´ìķ¼ê¸°ë¥¼": 48974, "dzie": 13096, "ĠPain": 24943, "<|12.70|>": 50999, "wy": 9726, "ĠGrandma": 22657, "Ġtech": 7553, "Ġmettre": 14997, "idente": 40114, "ĠÙĥØ§ÙĨ": 25961, "Ġfond": 9557, "estones": 34853, "ĠbaÄŁ": 33071, "ĠÐ¸ÑģÑĤÐ¾ÑĢÐ¸Ð¸": 40203, "ĠMajesty": 10665, "Ġregeneration": 43813, "aning": 8415, "Ġadjac": 22940, "Ġanniversary": 12962, "ieni": 35462, "åįĪ": 44237, "ìĺĢìĬµëĭĪëĭ¤": 43476, "Ġimpatient": 36895, "Ġcol": 1173, "icaid": 23840, "Ġgenerals": 41346, "uler": 26318, "ĠRud": 18636, "Ġgrapp": 27165, "Ġbao": 45296, "Ġaujourd": 14023, "Ġmillimeters": 24388, "Ġquarterly": 38633, "Ġê°ĸ": 27668, "First": 27454, "ulent": 23405, "rah": 15688, "è²»": 50071, "Ġleider": 29115, "VI": 25322, "Ġalma": 32634, "Ġabra": 33693, "çĨ": 21805, "zusagen": 32868, "<|12.02|>": 50965, "...âĢĭ": 26980, "ĠTomorrow": 17499, "Ġdays": 1708, "dzy": 39858, "Ġshy": 12685, "Ġprocurement": 35183, "ĠRaf": 29611, "<|27.88|>": 51758, "Ġmoy": 32018, "ĠÐĶÐ°": 9149, "Ġneighborhoods": 20052, "paced": 47038, "åĳĬ": 16846, "å¡Ķ": 23965, "ĠShell": 22863, "ĠëĲĺê³ł": 30597, "Ãºde": 34458, "OT": 5068, "Ġchall": 2076, "ä»Ĭå¤©": 12074, "ĠZealand": 13883, "<|10.78|>": 50903, "å¯¹": 8713, "<|17.54|>": 51241, "Ġwee": 32753, "icia": 15341, "Ġwildlife": 19199, "Ġrealize": 4325, "Ġdoomed": 33847, "è¨Ń": 39035, "ĠTail": 46074, "Ġsoil": 6704, "Paul": 26434, "ĠmÃ©g": 43510, "uated": 27275, "Ġacept": 43568, "Ġrespectable": 44279, "PS": 6273, "Ġbesser": 18021, "Ġfit": 3318, "Ġpoorest": 44925, "Ġexports": 31428, "Ġbeliever": 23892, "ÙĤØ·": 47432, "eez": 22544, "Ġtransitional": 46452, "ĠGenau": 22340, "ĠWant": 11773, "ĠPJ": 30549, "awia": 34953, "Ġbroch": 48147, "Ġstabbed": 35726, "Ġ12": 2272, "Ġprayed": 22532, "ÐµÐ¹ÑĩÐ°Ñģ": 8427, "Ġmesma": 21921, "arial": 44745, "×Ľ×©×Ļ×ķ": 44074, "Ġsplendid": 47575, "Ġboxing": 24424, "ĠHOL": 44069, "uggling": 29921, "Î±": 1529, "46": 16169, "<|16.42|>": 51185, "Ġrecycle": 32162, "Ġpris": 16163, "<|29.36|>": 51832, "bracht": 23404, "balance": 29215, "Ġplanners": 49674, "Ġwrapping": 21993, "ĠFlip": 28210, "Ġhyung": 33216, "Ġ20": 945, "ĠKÃ¤": 40502, "ĠÎ§": 48924, "ĠHaha": 19131, "Ġassociation": 14598, "Ġpartir": 13906, "rend": 4542, "ĠìľĦíķľ": 41475, "ãģįãģ¾ãģĻ": 22851, "Ġabnormal": 32847, "âĢ": 913, "Ġmo": 705, "ĠÏħ": 28049, "æĢķ": 21164, "lette": 36563, "Ġgrease": 24867, "Peter": 28947, "ĠDespite": 11334, "Ġfique": 35497, "ĠArmenian": 41581, "Ġ×Ļ×ķ×ĵ×¢": 45764, "Ġelegant": 21117, "ĠDok": 29768, "ĠMoss": 39591, "Ġhoused": 36084, "éŃļ": 40042, "Ġstain": 16441, "Ġexfol": 46935, "Ġinsulation": 30508, "Ġsean": 37670, "Ġmisconception": 41350, "vous": 16514, "Ġhackers": 39766, "iej": 7764, "Ġcalidad": 42955, "ĠCol": 4004, "ŀ×ª": 40339, "Ġbelonging": 22957, "Ġaccumulate": 33384, "ÑĩÐµ": 32595, "Ġperformance": 3389, "Ġdeparture": 25866, "Ġevenly": 17658, "Ġdeposited": 42002, "lasting": 29346, "Ġcharity": 16863, "ĠzupeÅĤnie": 49922, "Ġmorgen": 36593, "Ġprincipals": 45333, "Ġglor": 26623, "iliz": 47043, "®": 106, "ĠSpect": 27078, "ĠÐ·Ð°Ð¹": 40133, "<|21.72|>": 51450, "Ġdites": 48291, "ÑĥÐ³": 22638, "Ġtehd": 44812, "ĠKylie": 39424, "ĠSTEVE": 40878, "Ġtensor": 40863, "ĠCommonwealth": 35295, "Ġeffort": 4630, "edes": 48490, "ÙĪÙĤ": 30543, "Ġbooty": 34793, "Ġketo": 44299, "à¸ľ": 29560, "Ġbending": 22487, "íķ´ìĦľ": 8275, "Ġhey": 4177, "<|7.12|>": 50720, "okes": 8606, "ĠTool": 15934, "ĠÎĳ": 18793, "Ġflies": 17414, "Ġjeg": 10610, "Ġprojected": 26231, "Ġadequ": 15747, "âĢİ": 27867, "atra": 33593, "Ġspread": 3974, "ECT": 39904, "ĠProvince": 40649, "ĠStudien": 49496, "ĠMemphis": 26743, "Ġmeringue": 50044, "ĠVienna": 31024, "Ġìĸ´ëłµ": 43961, "ĠHoÅŁ": 45958, "Ġë§ĽìĿ´": 47003, "Ġtoxic": 12786, "const": 25279, "Ġmammals": 35408, "Ġhelicopter": 19803, "ĠëĦĪë¬´": 6924, "ç»Ļ": 23197, "ĠJew": 5679, "ãģĵãģ¨": 13235, "poons": 17361, "Ġdamages": 28536, "Ġsubscribing": 19981, "Ġcarve": 33832, "Ġë§ĽìŀĪìĸ´ìļĶ": 46778, "ĠÏĦÎ±": 16900, "Ġstake": 10407, "Ġacc": 1317, "yi": 8461, "apat": 22602, "Ġcaves": 32288, "ĠTemper": 34864, "Ġsis": 26288, "wave": 35461, "ì»¤": 17390, "Ġdisposal": 26400, "ĠÐ¿Ð¾ÑĤ": 6364, "Ġsheet": 8193, "alog": 44434, "ĠCPU": 13199, "arespace": 45337, "íĿ¬": 11975, "Ġbulky": 42986, "My": 8506, "ĠTiffany": 28104, "ÑĥÑĪÐºÐ¸": 41760, "´ìŀ": 28364, "Ġimpul": 41767, "ĠfÃ¼h": 18813, "Ġlookin": 36186, "<|20.02|>": 51365, "Įëį°": 50158, "Ġtiro": 44188, "Ġinsanlar": 36130, "ĠrÃ³wnieÅ¼": 20532, "enk": 32160, "ĠÙĪØª": 34683, "Ġestavam": 43711, "lage": 22519, "pected": 10729, "<|23.68|>": 51548, "Ġimagine": 3811, "Ġexcuse": 8960, "ĠHillary": 23284, "tawa": 36254, "Ġinjured": 13408, "Ġinbox": 35067, "Ġmodelo": 27825, "ĠPor": 5269, "á»Ĺ": 35857, "ç¬ĳ": 11600, "Ġsieht": 14289, "ierungs": 40908, "Ġporch": 35513, "ĠKÃ¼": 30726, "ĠGoes": 44471, "BERT": 22184, "ETH": 16083, "Ġfen": 26830, "Ġfeared": 30629, "Ġincidence": 41726, "Ġbanks": 10237, "ĠThor": 17777, "Ġapert": 22939, "ĠÃªtes": 18935, "Ġresid": 13141, "AND": 8070, "Ð¸Ñģ": 3323, "<|14.08|>": 51068, "Ġcompletely": 2584, "Ġako": 43567, "Ġmess": 2082, "Girl": 25192, "ĠNewman": 49377, "Ġë§İìĿ´": 8358, "<|8.70|>": 50799, "<|oc|>": 50328, "Ġsqueezed": 39470, "Ġ???": 29678, "ÑĭÑĩÐ½Ð¾": 35214, "Ġimpost": 47804, "Ġá": 21879, "Ġshr": 9884, "Ġretailers": 33519, "ansa": 38734, "Ġtrial": 7308, "Ġbanget": 24909, "Ġrows": 13241, "Ġqualify": 20276, "ĠnajwiÄĻ": 48636, "Ġemphasizing": 45550, "Ġavanz": 42444, "ichi": 18543, "Ġpar": 971, "å¿ĺ": 26677, "Ġstaged": 45178, "Ġà®ĩà®°": 26277, "olics": 33763, "ı¼": 25116, "Ġehrlich": 40872, "Ġfps": 44981, "Ġoutfits": 22331, "Ġmilliseconds": 34184, "ound": 554, "ĠEduardo": 45819, "gom": 30851, "Ġtelescope": 26114, "å³": 26555, "esehen": 18380, "Ġreaders": 17147, "Ġcalling": 5141, "oop": 15812, "icky": 20539, "Ġholistic": 30334, "liner": 36849, "Ġunjust": 37046, "ats": 1720, "ĠGeez": 43836, "Ġphot": 2409, "Ġracist": 16419, "Ġstall": 19633, "Ġcommitted": 7784, "Ġphases": 18764, "Ð¸Ð·": 5572, "Ġmorte": 37392, "ĠFilip": 28241, "stag": 37077, "Ġsizz": 43828, "ĠURLs": 43267, "ĠDP": 42796, "lining": 31079, "Ġmagnes": 28860, "ĠWhats": 22051, "ĠUpper": 36926, "ĠOmega": 27645, "Ġbuild": 1322, "ĠRob": 5424, "OOK": 24213, "Ġadminister": 22096, "<|19.14|>": 51321, "Ġbaba": 31568, "iggles": 19469, "cier": 27674, "³ĳ": 44504, "inflamm": 45684, "ĠTigers": 37699, "Ġguy": 2146, "Ġdua": 40173, "zia": 40395, "ĠOi": 31610, "ever": 1054, "third": 25095, "Ġsupercom": 27839, "ĠNet": 6188, "Ġreact": 4515, "ratic": 25198, "Ġguard": 6290, "ĠForest": 18124, "ĠRat": 24269, "Ġdirection": 3513, "Ġdefence": 25913, "emary": 37529, "Ġorigin": 4957, "ĠNurs": 32992, "ØªÙĬ": 31371, "Ġcirculating": 39749, "Ġauss": 5730, "la": 875, "ogg": 36754, "à¤¹": 44500, "ÐµÑĢÑħ": 26937, "Ġexagger": 19123, "Ġbarbecue": 21877, "ĠvÃł": 10274, "Ġolurs": 41607, "Ġhits": 8664, "ĠUnlike": 17657, "ìĦľ": 2393, "ĠØŃ": 11331, "oupe": 23266, "×Ļ×Ĳ": 18936, "Ġanalogy": 21663, "Ġdinner": 6148, "ylan": 24691, "ĠMeh": 29337, "Ġpavement": 38305, "ĠÐ¿ÑĭÑĤ": 28806, "Ð¾Ð»ÑĮÑĪ": 24110, "oly": 16453, "semb": 15750, "Ġmedium": 6399, "Ġentreg": 32843, "istle": 16088, "Ġeating": 3936, "isoft": 47929, "watch": 15219, "esti": 21597, "Ġmouse": 9719, "ĠfÃ¶r": 4816, "ĠCaitlin": 50131, "Ġbesl": 47118, "Ġtraffic": 6419, "Next": 31002, "este": 8887, "Ġshaping": 25945, "Ġalarm": 14183, "Ú©": 6007, "Ġdesaf": 34587, "QU": 26078, "itched": 41328, "ĠMa": 4042, "Ġunl": 32118, "ĠTIME": 36096, "<|9.22|>": 50825, "vest": 5571, "Ð¸ÑħÐ¾Ð´": 23947, "ĠÐ·Ð°Ð¼": 13597, "<|27.10|>": 51719, "ĠPDF": 17752, "broken": 37947, "ĠDNA": 8272, "ĠSleeping": 49618, "Î¿Ïį": 14940, "ĠUsually": 11419, "Ġgained": 12634, "ĠdÃ¶": 26089, "orney": 10423, "Ġsang": 9980, "Ġhousehold": 9888, "Ġchut": 45373, "Ġhyvin": 36180, "ivo": 6340, "Ġshares": 12182, "ĠPu": 13605, "Ġcensorship": 40985, "Ã¢u": 24325, "è·ŁæĪĳ": 47472, "adece": 25978, "<|28.98|>": 51813, "73": 33396, "ĠDebatte": 48930, "ĠLoud": 48259, "kÃ¤": 21036, "Ġpict": 2317, "ĠMex": 6496, "ĠMorgen": 35570, "wards": 2015, "Ġmodules": 16679, "Ķê°Ģ": 13833, "idays": 13177, "Ġstrokes": 24493, "Ġacad": 5558, "Ġsurvived": 14433, "Ġlicensed": 25225, "æĦıæĢĿ": 16697, "aney": 40584, "Ġdocumented": 23007, "Ġgarn": 25067, "ĠElle": 16227, "Ġstress": 4244, "izione": 35740, "ĠÑįÐ¿": 43985, "Ġdoubles": 31634, "ÑĤÐ¾ÑĢÐ°": 26250, "ĠSoutheast": 27906, "ĠMexico": 8612, "Ġsibling": 39409, "bl": 5199, "Ġexotic": 27063, "opol": 19946, "arus": 31241, "ä¸Īå¤«": 39642, "ĠSilicon": 25351, "<|9.86|>": 50857, "Ð¾Ð»Ð¾": 33087, "<|28.64|>": 51796, "ĠCRIS": 49256, "speaking": 14579, "obyl": 49913, "guru": 32266, "éĺ¿": 13594, "Ġoffset": 18687, "à®ķà®³": 15094, "ĠSit": 14523, "ĠVerein": 47431, "ĠÐ³Ð¾Ð»Ð¾Ñģ": 42390, "ĠISBN": 47874, "Ġoppose": 28355, "å®": 2415, "ĠElla": 29261, "Cra": 46796, "Ġautism": 21471, "ĠCl": 2033, "ĠÐ±Ñĥ": 21646, "¤": 97, "ÐµÐ½Ð½Ð¾Ð³Ð¾": 44620, "zh": 41032, "fall": 6691, "Ġbacklog": 47364, "ĠChung": 38314, "Ð°Ð½Ð¸Ñı": 8831, "Ã¼k": 8370, "Ġpics": 46690, "ĠÐºÐ¾Ð»": 10706, "ellow": 21348, "ĠShadow": 19036, "edsiÄĻ": 38395, "ĠÐ³Ð¾ÑĢÐ°Ð·Ð´Ð¾": 45607, "Ġplaces": 3190, "Ġanci": 34856, "ulator": 16381, "ĠCohen": 32968, "ĠPot": 9145, "bras": 38182, "ĠWhe": 17040, "Ġcamping": 19470, "<|18.00|>": 51264, "ĠGol": 36319, "Ġì«": 37453, "×©": 5365, "02": 12756, "Ġministre": 31122, "Ġenergies": 25737, "ĠDisc": 19839, "Ġunified": 26787, "ĠVergleich": 47998, "ĵľë": 6300, "Ġbrowse": 31442, "ĠEvents": 45314, "ãģĵãĤĮãģ¯": 25212, "ĠMull": 41621, "Ġalgumas": 23207, "ìŀĪëĬĶ": 33670, "ĠÑĤÑĭ": 5991, "Ġswitches": 19458, "Ġdiabetic": 50238, "Ð¿ÐµÑĢÐ²": 44488, "Ġstruct": 6594, "Ġknight": 26054, "ĠðŁ": 7385, "MO": 18976, "<|10.56|>": 50892, "Ġworm": 23835, "ĠCauc": 44044, "Ã³s": 12994, "ĠmÃ£e": 29392, "à¸±à¹ī": 27216, "ĠÙĪ": 4032, "<|20.24|>": 51376, "ilateral": 37751, "ìĪĻ": 47522, "Ġperson": 954, "ĠJahre": 15557, "rift": 35742, "ĠlÃ¤uft": 31807, "æĥħæ³ģ": 39391, "was": 6569, "Ġcage": 17302, "Ġapprentices": 31715, "ç«": 11957, "ÏĦÎ¬": 19389, "ĠÐŃ": 5381, "ĠÐ¼Ð¾Ð»Ð¾Ð´": 28801, "aryn": 39008, "noÅĽÄĩ": 23293, "Ġcá»©": 46619, "Ġglobalization": 40518, "Ġcalculations": 20448, "ĠBonus": 44917, "ĠAndrea": 24215, "strings": 50035, "<|13.80|>": 51054, "<|17.80|>": 51254, "ĠCarlos": 19646, "ĠQuebec": 38903, "ÐĿÑĥ": 20058, "Ġproxy": 29690, "Ġê±°ì£ł": 26957, "Home": 47974, "weight": 12329, "ĠPizza": 24469, "ĠTensorFlow": 37624, "Ġcontinents": 38598, "<|7.30|>": 50729, "Ġexpire": 45447, "Ġwerk": 37585, "Ġpela": 14820, "lÄ±ÅŁ": 40840, "ĠNIH": 28716, "Ã©nom": 46247, "ĠÑģÐ¾Ð·Ð½": 41334, "Ġeks": 30724, "Ġbead": 24117, "Ġsmack": 36348, "Ġlearners": 23655, "ĠLand": 6607, "Ġalltid": 45861, "century": 32889, "Ġpim": 33917, "Ġmicroscop": 30483, "Ġgrabbed": 18607, "Ġsiz": 13723, "ĠÑģÐºÐ»Ð°Ð´": 46185, "Ġathletics": 37964, "æķħ": 43045, "Ġmisf": 47351, "Ġenemies": 7805, "Ġblindfold": 44846, "iz": 590, "ĠVold": 48791, "Ġninja": 31604, "Ġcampus": 4828, "Ġstark": 17417, "ĠíĮĢ": 31448, "ĠÐ¿Ð¾Ð´Ð¾Ð±": 35229, "Ġequity": 10769, "á¸": 32478, "Ġarrows": 19669, "enger": 10210, "ĠDeborah": 39695, "Ġcitation": 45590, "raft": 4469, "Ġvarios": 33665, "uses": 8355, "ĠDoll": 20059, "Ġbusiness": 1606, "Ġrugby": 43895, "mentation": 19631, "æ°Ķ": 42204, "Ġë°Ķê¿": 45795, "Ġdiving": 20241, "ĠíĹĪíĮĿ": 41756, "bout": 30722, "Ġtane": 23233, "Ġense": 12567, "ĠCen": 38065, "Ġhints": 27271, "Ġvy": 44766, "ÑĢÐ¸ÑģÑĤ": 39085, "Ġesse": 6755, "<|12.66|>": 50997, "Ġrecommendation": 11879, "Ġargues": 38218, "used": 4717, "Î²Î±": 48298, "ç°¡åĸ®": 31995, "ĠfÃ¸r": 40314, "Ġregulator": 36250, "£¼ë": 47412, "Ġ×ľ×ł×ķ": 44946, "owany": 23341, "orama": 32988, "Ġnuo": 37802, "Ġlouder": 22717, "Greg": 48254, "ĠÐ»Ð¸": 7444, "Ġchange": 1319, "ĠÐĴÑĭ": 11886, "lk": 43308, "Tod": 22249, "åı¦": 22762, "ĠTherm": 38957, "ĠJES": 49350, "ĠEe": 25046, "<|8.94|>": 50811, "å¾ŀ": 21068, "ĠvÃŃde": 6951, "Ġcoupon": 33390, "Ġtranslating": 35030, "î": 170, "Ġinvestment": 6078, "Ã©rio": 37237, "ĠGlue": 49832, "Ġneighbor": 5987, "ĠConsole": 44152, "Ġimmortal": 31414, "ĠNight": 10190, "ĠASHLEY": 23834, "ÏģÏİ": 28758, "midt": 39000, "Ġ×Ľ": 7127, "ivid": 1843, "ÐµÐ½ÐºÐ¾": 37794, "Ä±Ä±": 35734, "atique": 20728, "Ġedit": 8129, "fun": 15930, "<|22.20|>": 51474, "ĠPortuguese": 22759, "ĠYears": 24569, "ÑĸÐº": 27281, "Ġflavour": 22190, "Ġwhopping": 50043, "ìķĦìķĦ": 41619, "ctar": 46412, "×ķ×ĵ×¢": 40662, "ĠÐ¼Ð°Ð»Ð¾": 37450, "Ġln": 44166, "ĠÃ©tait": 11806, "ĠíĮĶë": 49236, "Ġdemande": 26982, "yst": 38593, "Ġìī": 18804, "length": 45390, "Ġassez": 15774, "iciary": 38801, "ĠGroÃŁ": 34534, "Ġmotivational": 48186, "¶Ģë¶Ħ": 49288, "aku": 15803, "pted": 25383, "Ġmolec": 10646, "ĠÄ°ÅŁte": 34757, "Ġoffen": 35253, "ĠBer": 5637, "Ð°Ð½Ð¸Ñİ": 34537, "Ġunsuccessful": 46258, "Ð½Ð°ÐºÐ¾Ð¼": 45051, "ĠÐ§ÐµÑĢ": 39659, "icularly": 29695, "ĠAmong": 16119, "ĠSUV": 28452, "Ġodpowied": 36574, "ĠãģĦ": 30155, "Ġports": 18160, "ĠDone": 18658, "Ġkhi": 23526, "Ġcow": 8408, "Ġtracking": 11603, "Ã¤che": 32664, "ĠÐ¾Ð´Ð½Ð¾": 30387, "Ġupgrading": 36249, "Ġreasonable": 10585, "Ġcommunity": 1768, "ĠLan": 17482, "Ġmoney": 1460, "ĠJos": 18541, "Ġrisk": 3148, "entle": 5165, "Ġporn": 19444, "Ġagents": 12554, "ĠNPC": 28787, "ĠL": 441, "Ġmedically": 49230, "ĠHello": 2425, "Ġadrenal": 26511, "ĠRegion": 25121, "Ġtendon": 46479, "ĠNeigh": 35917, "ĠìĿ´ìĥģ": 20362, "ĠZu": 23164, "Ġfungus": 39788, "cks": 2761, "ombres": 29947, "ief": 2521, "å¾®": 39152, "Ġdemost": 41556, "Ġpir": 13528, "Ġoh": 1954, "Ġdecomposition": 48356, "Ġeing": 17002, "Ġgj": 20249, "ĠAmy": 12651, "ĠPinterest": 37986, "Ġlayering": 40754, "iba": 17036, "æĭ": 6852, "Ġconcert": 8543, "haul": 39423, "thinking": 39873, "Ġpalm": 17018, "Ġdestroy": 5293, "Ñĸ": 1827, "prechen": 38951, "ÐµÐ½Ð¸Ð¹": 17271, "ĠÎ´ÎµÎ½": 23295, "VIS": 11345, "Ġjoka": 33793, "ãĦ": 29210, "Ġappointment": 13653, "ĠìĺĨ": 29095, "Ġcargo": 19449, "yet": 37180, "<|4.84|>": 50606, "utation": 11380, "<|29.82|>": 51855, "ĠÃ½": 49291, "ĠCBS": 35856, "Ã¨g": 30370, "ired": 1824, "Ġfino": 42560, "<|21.78|>": 51453, "Ġmirac": 30686, "Ġwool": 24181, "Ġtouch": 2557, "ĠëŃĲë": 25205, "ĠFreiheit": 47825, "ĠRT": 21797, "Ġbegg": 44914, "okee": 49319, "Ġbenef": 3070, "Ġdragged": 25717, "à¯Ĩ": 16789, "<|20.14|>": 51371, "Ã©lior": 44795, "Ġfashion": 6700, "vol": 9646, "Ġplats": 48328, "ãħİãħİ": 23798, "ĠGal": 7336, "Ã¡b": 27879, "ĠM": 376, "Ġexploitation": 33122, "Ġhorses": 13112, "Ġsocietal": 33472, "Ġimpulse": 26857, "ä»ĸæĺ¯": 47046, "íķĺìĦ¸ìļĶ": 15377, "Ð¸ÑĢÐ¾Ð²": 10214, "ĠVert": 21044, "ove": 1682, "ardon": 14848, "ĠPixar": 46695, "ĠCommission": 10766, "ĠZion": 32240, "ï¿½ï¿½": 25804, "Å¥": 27101, "Ġpersuade": 31781, "ĠMort": 24977, "Ġrisen": 28614, "Ġï": 25072, "ospace": 35682, "ĠÐ¿Ð¾ÑģÐ»Ðµ": 16107, "ieran": 38516, "Ġverify": 16888, "Ġvu": 9732, "<|5.22|>": 50625, "Ġpuree": 49407, "ĠOk": 3477, "Ġnap": 9296, "ĠThanks": 2561, "ammed": 19859, "Ð¾ÑĤÑĢ": 7954, "Ġscoot": 21375, "åŃ": 8052, "Ġfrustration": 20491, "Ġstationary": 30452, "het": 9092, "urpose": 31345, "ĠëĤ´ê°Ģ": 10474, "Ġquem": 13026, "ĠATM": 46455, "ĠStretch": 38817, "ĠCrimea": 48495, "Ġì¢ĭìĿĢ": 16460, "Ġzm": 17020, "à¹Ģà¸¥à¸¢": 38294, "Ġgetting": 1242, "ĠRank": 35921, "Ġasleep": 11039, "Ġintricate": 38015, "Ġbunker": 39579, "ĠMAS": 42129, "Ġproject": 1716, "uell": 13789, "Ġcharger": 22213, "Ġprere": 38333, "Ġvivir": 39656, "Ġembargo": 23955, "Ġcommittee": 7482, "auth": 40198, "Ġeuch": 10403, "sembly": 19160, "ĠMobile": 22625, "orage": 29226, "Ġproves": 25019, "Ġ×ľ×©": 35769, "Ġgrabbing": 23771, "ĠtÃ´i": 22336, "estone": 19098, "ender": 3216, "Free": 45479, "ĠCHAN": 39235, "Ġvibes": 27636, "Ġcat": 3857, "Ġgaan": 14118, "Ġpolished": 29079, "ÑĢÐ°ÑĤÑĮ": 30260, "ĠëĤĺìĦľ": 43156, "ĠIceland": 28004, "à¸ī": 45987, "Ġpeur": 30071, "LP": 45196, "ĠAgainst": 29995, "hern": 7894, "oux": 30209, "<|transcribe|>": 50359, "ĠReid": 46912, "Ġinterf": 14510, "ĠBrendan": 48484, "ĠHej": 44567, "rain": 7146, "ÑĥÐ½": 12161, "ĠHeil": 45650, "Ġcocon": 12893, "Ġ700": 15204, "Ġcoworkers": 43465, "?!\"": 35271, "Ġleaving": 5012, "alie": 21980, "strong": 28063, "ÑĢÐ¾Ðº": 32948, "lington": 45996, "Ġdares": 50213, "ĠìłĦìĹĲ": 27117, "Ġsecurity": 3825, "<|3.46|>": 50537, "LAUGHING": 42216, "ĠVirt": 19447, "Ġìłľê°Ģ": 7439, "ĠÑĢÐ°Ð·": 4203, "Ġfuse": 31328, "Æ°Æ¡": 24416, "riment": 30591, "Ġshuffle": 39426, "Ġlaten": 36335, "Ġstimulate": 31269, "Ġmen": 1706, "lusive": 7233, "ë§Į": 5978, "ĠÐŀÐ¹": 42724, "Ġroll": 3373, "Ġninety": 25063, "Ġbackups": 50160, "Ġsquared": 8889, "<|6.08|>": 50668, "Ġcustard": 46972, "Ð»Ð¾Ð¶": 24522, "Ġcertificates": 32941, "ujemy": 21767, "atos": 26818, "Ġabge": 37301, "ants": 1719, "ìĿ´ìĸ": 40470, "skin": 45299, "wel": 45512, "ĠOxford": 24786, "Ġf": 283, "çµĦ": 30052, "<|22.42|>": 51485, "´ìĭ¬íŀĪ": 30879, "Ġidiots": 36454, "leness": 45887, "ived": 3194, "del": 18105, "Ġchemicals": 16152, "irsty": 15941, "Ġdam": 2422, "ë²ķ": 26242, "ĠÑįÐº": 13817, "×ĳ×Ķ": 28553, "Ġprince": 16467, "Ġmira": 30286, "ÑĢÐ°Ð±Ð¾ÑĤ": 40410, "ĠFrancis": 19648, "existing": 36447, "Ġexert": 31941, "ĠKingdom": 11277, "Ġfrosting": 37048, "<|28.08|>": 51768, "<|4.50|>": 50589, "Mon": 32498, "Ġautistic": 33272, "ĠMuchas": 35669, "Ġdrunk": 11192, "Ġsucceeds": 49263, "Ġrecovering": 29180, "Ġì¹ĺ": 18447, "Ġoxid": 19924, "Ġê±¸ë¡ľ": 41636, "ê²ĥëıĦ": 47450, "Ġunlimited": 21950, "Ġvel": 14610, "Ġgrassroots": 39522, "Ġestrogen": 44754, "Ġmemorize": 27478, "Ġpetites": 34063, "Ġphysiological": 41234, "Ġpollution": 16727, "Ġziem": 25986, "Ġidee": 49742, "ÄĻdzie": 42643, "Ġsurge": 18989, "Ġcreek": 41868, "erel": 39796, "Ġadditions": 35113, "teil": 30766, "Ġretrouve": 30909, "Ġenjoy": 2103, "ĠInstagram": 5281, "Ġintellect": 10058, "ë°°": 40591, "ĠìĽ": 6891, "ĠÐ¿Ð¾Ð´Ð´ÐµÑĢÐ¶": 30756, "ÙĦÙī": 23942, "Ġcoated": 28489, "Ġweiteren": 44036, "Ð¾Ð¶Ð´": 20037, "Ġatomic": 22275, "ĠGlass": 23752, "Ġmel": 4795, "cip": 11371, "ĠChase": 21384, "...)": 10050, "Ġfar": 1400, "ajes": 29362, "ĠLegends": 28103, "ĠJo": 3139, "ĠSHE": 44179, "Ġfashionable": 40735, "Ġprojekt": 26261, "Ġresume": 15358, "ĠViele": 36022, "ources": 2749, "Ġcongratulate": 24353, "ĠÙħØ´": 37893, "à¸·à¹Ī": 30121, "lares": 19415, "affe": 23629, "Ġtedious": 38284, "ĠJeremy": 17809, "Ġtease": 30444, "<|3.38|>": 50533, "Ġrib": 9162, "<|10.34|>": 50881, "Ġendorse": 29228, "Ġgoo": 33192, "Ġreputation": 13061, "ëĦ¤ìļĶ": 35969, "Ġsupplement": 15436, "Ġamongst": 12918, "ĠmÃ¼": 6047, "Sc": 16806, "Ġmilieu": 34276, "Ġsneak": 13164, "Ġcapable": 8189, "ĠTommy": 19448, "ĠPeriod": 34976, "ĠHels": 45429, "Ġhumor": 14318, "Ġpromotions": 42127, "Ġfaut": 8487, "chief": 30189, "Ġê²ĥìĿ´": 29665, "Exc": 33553, "ÑĢÑı": 22533, "<|3.66|>": 50547, "lection": 5450, "iggs": 32555, "<|1.08|>": 50418, "Ġobvious": 6322, "ĠTrop": 43917, "æĺ¯éĢĻæ¨£": 49603, "seat": 43152, "ĠContinue": 24472, "Ġurged": 44206, "erald": 24250, "Nothing": 42130, "Ġnotamment": 26165, "Ġreward": 7782, "Ġplacing": 17221, "ĠGuy": 14690, "Ġsmartphone": 13307, "Ġholes": 8118, "ĠWas": 3027, "atta": 18405, "Ġdeviation": 25163, "Ġslightest": 41040, "Ġthereby": 28281, "ĠLyn": 15214, "çĶ»": 27126, "Ð³Ð¾ÑĤÐ¾Ð²": 25965, "isin": 33787, "íķĺëĬĶ": 7116, "antically": 49505, "Ġefficacy": 33492, "Ġdebts": 32528, "aller": 22414, "Ġcreat": 1428, "Ġtengo": 13989, "Allah": 26022, "Ġhydration": 43631, "ĠfrÃ¥gor": 48306, "homme": 38073, "Ġdetectors": 46866, "Ġnarcissist": 49130, "ermaid": 32124, "Ġworking": 1364, "Ġbath": 6079, "Ġtopics": 8378, "urer": 9858, "ĠGS": 32047, "Ġexamining": 34662, "ĠEi": 29786, "ĠaÅ¼": 48134, "kus": 35080, "Ġhomeless": 12294, "buat": 45143, "70": 5867, "<|10.28|>": 50878, "isser": 23714, "ying": 1840, "Ġaucune": 40076, "ĠIncred": 27792, "ĠMelt": 48425, "Ġclamp": 17690, "à¹Ģà¸Ľ": 23379, "ĠAfghan": 11393, "ĠSkype": 31743, "kar": 12303, "Ġboot": 11450, "ìĭľê°Ħ": 31099, "ĠBecome": 44308, "Ã¿Ã¿Ã¿Ã¿": 31607, "ĠEntwick": 29397, "<|sl|>": 50305, "Ġpods": 31925, "æĿĳ": 39553, "ĠKaz": 16264, "Ġwow": 6076, "ĠgÃ¼n": 14472, "adi": 5688, "andro": 29173, "ĠNeg": 19103, "Ġpillar": 27592, "uth": 2910, "<|4.32|>": 50580, "ĠBach": 30920, "Ġtopping": 36676, "ĠBelieve": 21486, "Ġbuyer": 24645, "Ġadaptation": 21549, "Ġinput": 4846, "Ġdev": 1905, "Ġinclu": 25520, "ĠìĶ¨": 17394, "Ġtravelers": 35283, "Ġanalys": 23014, "O": 46, "ĠChristians": 12254, "Ġasphalt": 46076, "ĠList": 17668, "Ġë³¼": 18001, "Ġmileage": 43121, "Ġhumming": 34965, "ìħ¨": 15650, "ĠHands": 21369, "Ġfortress": 31826, "Ġpopping": 18374, "ĠMes": 17485, "Ġbaptized": 34006, "ĠPurd": 41632, "Ġautomobile": 38809, "ĠÑģÐ¿Ð°ÑģÐ¸Ð±Ð¾": 37536, "¥´ë": 22702, "uty": 6432, "æ¡Ī": 28899, "x": 87, "Ġache": 29677, "<|28.52|>": 51790, "Ġbekommen": 19256, "Ġbarre": 43834, "à¹Ģà¸Ĥ": 45243, "iera": 10609, "Ĭ¸ë": 28699, "Ġnominees": 49774, "ĠëĨĵ": 28747, "ĠÐ¿Ð¾Ð²ÐµÑĢÑħ": 44397, "ä»Ģ": 5325, "<|1.58|>": 50443, "Ð½Ð°Ð»Ð¸": 47704, "ecd": 26565, "Ġkull": 22511, "Ġaudiobook": 40031, "Ûģ": 6354, "theme": 36965, "ĠHolz": 45455, "ĠÐ¾ÑģÑĤÐ°Ð²": 25969, "Ġthinner": 21905, "ÑģÑĭ": 48271, "Ġsimplicity": 25632, "ayan": 20506, "Ġcontainment": 44058, "Ġemployer": 16205, "ĠWeil": 18665, "Ġrebirth": 49445, "Ġyine": 29088, "ycz": 17466, "Hi": 17155, "ĠSharon": 28573, "æľĢå¾Į": 20578, "Ġchromos": 26824, "Ġcolleges": 15272, "Ġactual": 3539, "Ġfin": 962, "Ġalways": 1009, "Ġpremises": 34266, "Ġcrus": 42603, "ĠClara": 32048, "Ġwart": 45124, "While": 46075, "ĠEST": 47140, "ĠDaddy": 15323, "ĠCaro": 37265, "ĠPing": 33645, "Ġreactive": 28897, "ĠApril": 6929, "Ġcourageous": 33233, "Ġjurisd": 19078, "ĠngÃły": 34481, "Ġbacon": 16400, "ĠRoyal": 12717, "Ġcrashed": 24190, "ĠconteÃºdo": 44144, "ctoral": 20946, "Ġclaw": 32019, "ä¸ºä»Ģä¹Ī": 31006, "Ġvotes": 12068, "ìŀ¥ìĿĦ": 30274, "isel": 39711, "son": 3015, "elson": 20471, "ì£ł": 5837, "Ġrestriction": 29529, "Ġstaying": 7939, "Ġfixing": 19442, "ĠÅ¼ad": 39628, "ĠÐ¾ÑĢÐ³": 24443, "ĠëĨį": 47379, "ĠìĹĨìĸ´ìļĶ": 31162, "Ġpase": 47125, "Ġpacing": 43285, "ĠìķĦë¬´": 30702, "Ġnewsletter": 26469, "ĠBry": 12812, "ias": 4609, "mer": 936, "Ġpesar": 41951, "Ġbilingual": 48757, "ĠResident": 29563, "Ð¸ÑĤÐµÐ»ÑĮÐ½Ð¾": 15884, "Ø³Ø¨": 35457, "Ġsuppressed": 42645, "Ġinstallation": 13260, "Ġfood": 1755, "ĠSeung": 20384, "Ġwalnut": 50136, "Ġintermediate": 19376, "inate": 13923, "mingham": 34164, "ĠAw": 6381, "Ð»ÐµÐºÑĤ": 21579, "ĠSoy": 24758, "Ġler": 32068, "Ġnormalized": 48704, "ÑĥÐ²Ð°ÑĤÐ¸": 36303, "vas": 7967, "Ġpaycheck": 35639, "ëĮĢ": 14173, "ĠTenemos": 44903, "Ġbanana": 14194, "Ġìĸ¼": 22142, "ahlt": 44950, "Ġcamer": 38946, "Ġseriously": 6638, "æ´²": 48706, "åŃ¸": 21372, "Ġscree": 38323, "ĠLite": 32986, "Ġfeeder": 48778, "Ġwillst": 48355, "From": 26219, "Ġfactual": 48029, "Ġbehave": 15158, "ĠOr": 1610, "æĭī": 29717, "rees": 4856, "ĠVital": 48307, "Ġfarmers": 11339, "ĠFrei": 35939, "ĠÐ´ÐµÑĤÐµÐ¹": 38668, "çĦ¶": 5823, "fashion": 34636, "Ġtrous": 34156, "reas": 37868, "Ĭ¸": 21830, "Ġfermentation": 43161, "ĠstratÃ©g": 45023, "Ġsha": 3230, "Ġinvestigations": 25582, "iedo": 36035, "enc": 22660, "Äĵ": 19222, "ivals": 17759, "Ġphysique": 37058, "æĢ¥": 36379, "§Ŀ": 15407, "Ġtouchdown": 34459, "Ġê³¼": 17590, "ĠÐ¾ÑģÑĤÐ°Ð½": 41633, "Ġwars": 13718, "Ġconsecutive": 30497, "Ġye": 606, "cheers": 28857, "inka": 38989, "ĠDemocrats": 12217, "Yeah": 5973, "gesetzt": 42283, "Ġquesti": 29729, "Ġdesen": 18291, "Ġnomination": 30375, "via": 11617, "ĠÐ½Ð°ÑĪ": 8253, "herical": 34340, "Mad": 33432, "Ġalgunas": 27316, "çŃ": 7973, "ĠÐ¿ÑĢÐ¾Ð±Ð»ÐµÐ¼": 20920, "ĠLew": 14542, "Ġquien": 20108, "ãĤ¦": 20745, "kami": 48737, "Ġvastly": 41426, "ĠRex": 35678, "ĠBehind": 20475, "Ġnaming": 25290, "ĠMorrison": 33767, "ĠButt": 40801, "Ġfiber": 12874, "quarter": 43363, "Ġunintended": 49902, "Ġsixteen": 27847, "ĠBundesregierung": 46876, "Ġeas": 1195, "ĠMumbai": 34309, "Ġcoward": 30776, "Ġbrighter": 19764, "éĽ¢": 32662, "Ġwaste": 5964, "ÐµÐ¶Ð´Ðµ": 48013, "illions": 46279, "pl": 564, "Ġnoises": 14620, "ĠvardÄ±": 36339, "ĠbientÃ´t": 34653, "ê°Ģì§Ģ": 26683, "Ġbananas": 22742, "rito": 17492, "<|23.44|>": 51536, "ĠAuto": 13738, "Ġwalls": 7920, "ÙħÙĦ": 42213, "ĠBene": 27702, "ĠGordon": 19369, "ĠnÄĽ": 46911, "ĠStaff": 16440, "Ġstrikes": 16750, "ijd": 14675, "acakt": 40707, "Ġpositiv": 40806, "400": 13741, "ìµ": 43910, "Ġtiene": 7066, "Ġlá»Ľ": 47864, "çĦ": 4971, "Ġunnie": 49665, "igne": 26341, "Ġë°ľ": 13825, "Ġlugar": 11467, "ift": 2008, "Â·Â·": 44409, "Ą": 192, "Ġinversion": 43576, "name": 16344, "kop": 43855, "uche": 17545, "ĠPy": 9953, "ĠDidn": 11151, "Ġconvinced": 12561, "ĠêµŃë¯¼": 37336, "Ġtreasure": 12985, "èĹ": 21782, "Ġanch": 12723, "Ġtournaments": 32004, "zenia": 14320, "ĠCertain": 13407, "Ġassemble": 22364, "<|5.24|>": 50626, "íģ¬": 12504, "Ġcrisp": 22952, "Ġgesam": 39746, "Ġnarrower": 46751, "Ġaccording": 4650, "ĠAdams": 25214, "Ġunlock": 11634, "ĠSci": 16942, "×Ĳ": 7972, "ĠposiÃ§Ã£o": 49842, "ĠGlobal": 14465, "Ġarising": 44900, "Ġsad": 4227, "ĠJazz": 32213, "Ġproximity": 27632, "ĠEso": 27795, "Ġì°¸": 18255, "ÑģÑĤÑĢÑĥÐ¼ÐµÐ½ÑĤ": 42412, "iosity": 40729, "heid": 26013, "ardi": 38126, "Ġberm": 50001, "ĠfÃ¶rst": 32864, "ÐµÐºÑģÑĤ": 34879, "ĠMill": 7190, "Ġavo": 3641, "Ġlodge": 47706, "uteur": 42312, "Ġhappily": 19909, "rig": 7065, "ãĤ¿ãĥ¼": 30736, "ĠLanguage": 24445, "oted": 23325, "Ġjurisdiction": 27285, "Ġìĸ´ëķĮ": 43884, "ÙĬ": 1829, "?)": 4827, "Ġhatten": 20441, "ĠDlatego": 47184, "ĠCooking": 36647, "keln": 32099, "Ġscratching": 29699, "ĠÑĤÐ¸Ð¿": 26264, "FBE": 26468, "ĠAmericas": 38415, "ĠSicht": 36615, "Ġracial": 12131, "ĠAp": 8723, "Ġìĭ¤í": 37403, "Ġhandful": 16458, "Ġwhipped": 27918, "Ã©d": 7811, "ĠThan": 18289, "Ġzip": 20730, "Ġunemployment": 17438, "Ġadvocate": 14608, "Ġtightened": 49673, "Ġquelques": 16597, "ierten": 29632, "æĢ»": 33440, "ĠWorking": 18337, "aczy": 14691, "bringen": 39455, "ende": 5445, "ĠOz": 29843, "Ġforte": 23235, "Ġtighter": 30443, "ĠSOL": 36011, "Ġthi": 30994, "ĠíĮ¬ë": 47132, "Ġdevoir": 48920, "rese": 49838, "Ġinteract": 4648, "stock": 23914, "omp": 8586, "Ġresides": 47157, "Ġmister": 26562, "Ġannoun": 4262, "ĠXiang": 37935, "Ġdru": 38864, "Ġcle": 1233, "ĠArmor": 44679, "Ġmight": 1062, "ĠìĹĨìĿ´": 33353, "becca": 17073, "Ġamazingly": 31762, "ram": 2356, "Ġtasted": 25003, "istine": 42745, "ĠOcean": 18101, "iliyor": 34845, "orus": 26867, "ĠMarvin": 48722, "Ġrupees": 24638, "ensional": 11075, "ĠRangers": 40703, "Ġcolours": 16484, "Ġmarrow": 47739, "Ġreps": 27007, "alnÄ±z": 42751, "Ġcualquier": 21004, "Ġstay": 1754, "going": 8102, "ĠBalk": 36289, "ãĤĵãģ§": 35356, "Ġmasuk": 42364, "color": 23851, "ANO": 48129, "å¾Ĺ": 5916, "Ġusual": 7713, "ĠpaÅĦst": 21868, "oise": 38800, "Ġnuc": 6304, "Ð¾ÑĤÑĢÐ¸": 30936, "ļ": 248, "Ġë§İ": 5671, "ir": 347, "89": 21115, "opard": 22918, "Ġverste": 22442, "Ġobstruction": 49711, "alu": 4929, "Ġdestroys": 36714, "Angel": 43643, "wing": 7904, "pic": 37509, "arth": 18352, "ĠÐ¿ÐµÑĢÐµÐ²": 28106, "Ġvotre": 10087, "Ġdevi": 31219, "Ġconflicts": 19807, "<|25.08|>": 51618, "Ind": 21790, "ĠÐºÑĤÐ¾": 12278, "ĠPerry": 17334, "åĲ¸": 46431, "è©ķ": 39115, "ĠSM": 13115, "Ġaudible": 41317, "breaker": 43847, "airs": 4094, "miyor": 28585, "Ġdoll": 2722, "Ġarr": 5539, "ĠPalestinian": 28202, "Ġoops": 34166, "haus": 23321, "det": 17863, "Ġcomplet": 1557, "adequ": 34209, "Ġknew": 2586, "Ġdebug": 24083, "º": 118, "Ġìĵ¸": 42776, "ĠAcademy": 11735, "ìĤ´": 26082, "Ġpersuaded": 47693, "ĠUb": 30230, "ĠLeon": 13244, "Ġaccom": 4223, "determ": 49136, "elier": 46273, "Ġmotivo": 35804, "lab": 44990, "ĠPlaid": 30030, "Pod": 40742, "Ġmeaningless": 33232, "´ìŀ¥": 47992, "Ġexpress": 5109, "<|14.44|>": 51086, "Ġgoverno": 34685, "Ġupload": 6580, "geld": 49591, "Ð½Ð¸ÑĨÐ°": 37267, "Ġpu": 2362, "Ġmindful": 14618, "borg": 33151, "blue": 42113, "ĠÐ¾Ð±ÑĢÐ°ÑĤ": 29851, "Ġarchitect": 6331, ",...": 16007, "jud": 9218, "ĠBo": 3286, "undai": 43014, "Ð½Ð¾Ð¼": 9950, "Ġwelding": 25393, "health": 19225, "assium": 27609, "åĪ©": 23700, "Ġessentially": 4476, "Ġmart": 12396, "oys": 44131, "Ġpendant": 17338, "ĠValley": 10666, "ìłĦìĹĲ": 41169, "ĠGob": 24287, "Ġmanip": 9258, "Ġquero": 18738, "Ġminded": 36707, "ksam": 28665, "Ġfellas": 47242, "ĠVive": 44288, "ĠÐł": 6325, "Ġemission": 29513, "ĠìķĦ": 2216, "Ã¤nger": 35174, "ĠTÃ¡": 20907, "Ġtale": 17172, "Ġmut": 5839, "ublik": 48620, "Ġë³ĳ": 32245, "Ġcosmic": 27614, "Ġeman": 28211, "Ġneglected": 32701, "ubl": 32144, "Ġtenim": 36012, "ĠìĻĶ": 17766, "Ġpreference": 17502, "!!)": 33826, "Ãªte": 12943, "ĠGomez": 43537, "ĠSven": 49787, "ĠCrash": 31787, "ĠÐºÐ¸Ð½Ð¾": 49874, "Ġê´ľì°®": 18286, "Ġkrit": 42825, "ĠÐ²Ð°Ð¶Ð½Ð¾": 38851, "Ġgold": 3821, "ÅĤu": 24066, "ĠAu": 12160, "esi": 21181, "Ġmois": 19230, "Ġkijken": 30446, "Ġperd": 12611, "Ġbu": 758, "Ġrefugee": 25622, "face": 2868, "Ġê²½": 9537, "ĠSign": 13515, "EM": 6683, "Îµ": 2080, "Ġaffect": 3345, "ĠZap": 34018, "Ġhak": 35720, "ĠHeidi": 40947, "Ġfilming": 8869, "ĠConserv": 26870, "ãĤ±": 32639, "Ġcontrollers": 26903, "ĠÑĥÑĢÐ¾Ð²": 25200, "Ġinsight": 11269, "Ġadaptive": 27912, "ĠTraffic": 46950, "vere": 5887, "Ġveel": 16550, "Ġinvert": 33966, "à¹Ģà¸£à¸²": 43063, "iego": 12200, "Ġlenses": 18059, "Ġheav": 3577, "que": 1077, "Ġpurl": 48943, "<|14.62|>": 51095, "ÃĹ": 37550, "Ġdisl": 43186, "),": 3824, "Ã¼rÃ¼": 26481, "ĠAttorney": 23283, "Ġpeculiar": 27149, "chin": 32167, "Ġimpose": 26952, "Ġregions": 10682, "Ġphosphorus": 46741, "Ġrul": 8551, ".......": 43807, "Ġpla": 15256, "Ġcerta": 44438, "ĠDepot": 45445, "Ġones": 2306, "Ġprocessor": 15321, "Ġrelie": 21680, "ĠCanyon": 29170, "TO": 15427, "éª": 49657, "ARY": 24634, "Ġtteokbokki": 47025, "ciaÅ¼": 42673, "his": 18300, "ĠSpecial": 11863, "Ġmuy": 5323, "ĠHealthy": 37733, "Ġneural": 18161, "íĺĢ": 23683, "Ġunderside": 49511, "Ġgallon": 30339, "ĠìļĶ": 10161, "inyl": 22946, "Ġjusqu": 20340, "Ġreop": 28994, "ĠÂ§": 49803, "Ġfronts": 40426, "ĠtÃ©lÃ©": 24254, "Ep": 47617, "Ġdl": 37873, "Ġbajo": 30139, "ĠÑĩÐµÑĢÐµÐ·": 17341, "Ġcombination": 6562, "Ġpersonnage": 43952, "ĠAlberta": 43279, "Ġë´": 8649, "á»Ļc": 34259, "ö": 178, "Ġwithin": 1951, "Ġces": 7879, "chutz": 34816, "bru": 7294, "ĠGesetz": 20685, "ĠRobin": 16533, "<|12.14|>": 50971, "Ġconcise": 44882, "Ġmoim": 48569, "isi": 8021, "ĠSqu": 8683, "¯¤": 46652, "oder": 19866, "Ġallies": 14719, "Ġfaithful": 17808, "OO": 3783, "Ġ×ľ×Ĳ×": 45087, "<|5.78|>": 50653, "ĠLane": 26226, "zes": 12214, "Ġreversible": 44788, "clipse": 27197, "ott": 1521, "Ġdilig": 47646, "ìĸ´ê°Ģ": 45017, "ĠvidÃ©o": 11660, "Class": 44621, "ÑĥÐ±Ð»Ð¸": 37412, "ĠìĪ¨": 33354, "alter": 43420, "ĠClar": 28410, "ĠMs": 7741, "Ġcas": 3058, "Brian": 29462, "Ġembar": 18801, "Ġspect": 6177, "Ġclearing": 23937, "Ġdyed": 43199, "ĠAqua": 45591, "Ġ37": 13435, "<|2.22|>": 50475, "Ġteh": 32991, "ensions": 8302, "Ã¼tzen": 42049, "ĠTaco": 37992, "ĠElise": 40545, "<|22.06|>": 51467, "ĠÐ±ÑĥÐ´Ñĥ": 21407, "Ġfase": 33931, "Ġwhile": 1339, "ique": 1925, "ĠhabÃŃan": 44466, "Ġcommend": 35987, "ÑĥÐºÐ¸": 43188, "ĵ¤ìĿĺ": 29990, "ĠÎ¼Î±": 36759, "Ġdefenses": 35989, "ĠPD": 10464, "ĠÐºÐ»Ð¸": 33504, "Ġchill": 11355, "Ġcultura": 30576, "Ġë¬¼": 14403, "Ġmotivated": 14515, "Ġgerm": 19858, "ĠLambda": 45691, "Ġreached": 6488, "Ġdisplaying": 36834, "Ġsenators": 32221, "Ġanxious": 15166, "asan": 40336, "å¥³": 17015, "Ġduy": 37385, "Ġdigestion": 40560, "Ġsten": 28031, "Ġlacks": 31132, "Ġactress": 15410, "FA": 19684, "Ġserge": 46463, "Ġtreadmill": 46374, "ÑİÑī": 24219, "<|22.04|>": 51466, "thy": 28433, "ĠMom": 5576, "heart": 12864, "ĠCapital": 21502, "ĠÅĽwi": 21485, "ĠÐºÑĢÐ°": 38585, "Ġlip": 8280, "Ġbeing": 885, "ficiente": 26863, "Ġìķŀìľ¼ë¡ľ": 30293, "Ġreluct": 25149, "ĠMon": 4713, "§Īë": 44636, "Ġchances": 10486, "yards": 48905, "Ġsar": 13782, "ĠUnter": 12065, "Ġsec": 907, "Ġcilantro": 43626, "ĠVater": 36173, "igers": 24756, "Ġestar": 8755, "æ¨¹": 47169, "Ġbias": 12577, "Ġrehabil": 26043, "ielen": 12844, "Ġobserving": 22107, "Ġflooding": 24132, "Ġfrei": 32542, "ĠÐ²ÑĭÑģÐ¾Ðº": 35998, "ouvert": 43315, "ĠFootball": 31406, "around": 25762, "ĠHoly": 6295, "Ġdownhill": 29929, "Ġchemistry": 12558, "Ġtends": 12258, "able": 712, "Ġjouer": 30823, "uliflower": 39876, "ĠOper": 12480, "Ð¾ÐºÐ¾": 32622, "Ġmouths": 33171, "Ġë¬´ë": 19327, "ĠBunu": 35919, "Ħë¥¼": 21273, "family": 44433, "Ġcl": 596, "ĠKazakh": 38438, "Ġblossoms": 47789, "ĠHAR": 19819, "ĠÐºÐ°Ð½": 18276, "Ġdevices": 5759, "Ġ1080": 24547, "ĠWrestleMania": 49014, "outs": 7711, "ĠBunny": 38803, "Back": 28404, "Ġguess": 2041, "ĠëķĮë¬¸": 11406, "Ġ×Ķ×Ļ×Ķ": 32132, "enson": 31232, "ĠÑģÑİ": 19172, "Bob": 22547, "Ġruining": 38938, "ĠGy": 25911, "emo": 36221, "ìłķìĿĦ": 32913, "ĠEvangel": 36635, "ÑĪÐ¸Ñħ": 29024, "MY": 25859, "Ġsecured": 22905, "åĸľæ¬¢": 41606, "ĠGard": 12882, "ãĤ»": 31223, "cul": 2444, "Ġhire": 11158, "ĠLori": 32698, "Some": 24882, "ac": 326, "Ġovers": 15488, "apping": 10534, "enes": 25973, "<|8.88|>": 50808, "ĠmodÃ¨le": 45631, "kt": 2320, "Ġfishermen": 42670, "ÏĥÏĦ": 22156, "Ġrewrite": 28132, "ĠMaintenant": 36931, "Ġfranch": 13002, "à¤¾": 17937, "Ġprincess": 14742, "ãĥ³ãĤ°": 43017, "Ġreside": 40134, "Ġelse": 1646, "ĠYT": 49002, "Ġparts": 3166, "oting": 17001, "Ġconstra": 11525, "Ġê²ĥ": 4431, "ĠÐ²Ð¾Ð·Ð¼": 18077, "ĠÐ¼Ð½Ð¾Ð¹": 39199, "Ġstellar": 42333, "Ð´Ñĭ": 33275, "çļĨ": 32056, "Ġsuicidal": 43243, "ĠTas": 27293, "ĠíĪ¬": 27256, "Ġcoraz": 25899, "<|29.10|>": 51819, "ĠÐ½Ð°Ð²ÐµÑĢÐ½Ð¾Ðµ": 31159, "æ´": 12136, "Ġbehaviors": 15501, "ĠÙĦ": 5296, "Ã¶st": 36995, "Ġembracing": 31596, "Ġhear": 1568, "Ġê²ĥìľ¼ë¡ľ": 34071, "ĠCSV": 48814, "ÐµÐºÑĤ": 9822, "éļ»": 47857, "ĠBuy": 19146, "å®®": 39194, "è¦º": 9463, "Ġpytanie": 36610, "ĠJackie": 23402, "Ġankle": 21999, "Ġprogrammes": 31097, "alts": 49489, "Ġrif": 13203, "Ġuncon": 35847, "ÐµÑģÑĮ": 5647, "pekt": 23533, "endra": 27332, "Ġpeer": 15108, "Cal": 31279, "Ġpackaged": 38162, "Ġsweet": 3844, "Ġbelongings": 43554, "Ġdock": 20929, "Ġstacked": 28867, "ĠSimpson": 38184, "<|27.74|>": 51751, "ĠnomÃ©s": 40052, "Ġgiggles": 50032, "ests": 4409, "oso": 9869, "ä¼": 7384, "Ġguild": 37435, "ĠPaulo": 21801, "Ġaudiences": 15479, "<|10.96|>": 50912, "Ġdespite": 7228, "<|25.38|>": 51633, "Ð¾Ð»ÑĮÑĪÐµ": 48272, "hof": 35128, "ĠMang": 35487, "ually": 671, "å½±": 16820, "ĠNas": 16151, "Ġride": 5077, "emet": 24370, "chodzi": 34616, "Ġcustomers": 4581, "Ġdepartment": 5882, "Ġhag": 42386, "avier": 25384, "Ġblaming": 32364, "Ġtop": 1192, "ilate": 48104, "Ġsupposedly": 20581, "lich": 1739, "ĠwspÃ³ÅĤ": 39069, "inta": 16071, "Ġconfig": 6662, "worker": 49402, "Ġsubir": 34785, "ĠÐĲ": 3450, "Ġsat": 3227, "Ð»ÑİÑģ": 36467, "ĠVas": 23299, "´ìĭ": 17058, "ĠCheers": 13006, "eking": 38437, "ĠKur": 16481, "Ġsont": 4900, "ĠSofia": 42611, "ade": 762, "hon": 34914, "aksi": 45042, "Ġage": 3205, "Ġconsci": 39271, "ĠÐ´Ð¾ÑĢÐ¾Ð³": 24365, "Ġtills": 46729, "Ġirony": 35365, "łľ": 7589, "market": 16414, "Ġdialogues": 45551, "ĠWhich": 3013, "Ġoptim": 5028, "ĠAuntie": 33878, "Ġcorn": 9046, "Ġbaking": 12102, "ĠìĨ": 4794, "<|17.18|>": 51223, "ê·¹": 38053, "ĠÐ¾ÑĪÐ¸Ð±": 40253, "ĠInnov": 22203, "ĠÐ´Ð¾Ð»Ð¶Ð½Ñĭ": 27581, "Ġsemic": 27515, "Ġdressed": 12386, "PD": 17349, "Ġdiscret": 25656, "Ġconcerned": 5922, "phony": 28616, "Ġspont": 20795, "aju": 33166, "ĠAllison": 32638, "Ġding": 21211, "Ġteamwork": 30015, "ĠÑģÐ¾Ð²ÐµÑĢÑĪ": 26227, "ĠJoey": 23764, "ĠSepar": 43480, "Ġspos": 20443, "Ġcoral": 24955, "om": 298, "Ġolives": 46746, "<|24.10|>": 51569, "cohol": 7210, "acht": 3589, "ĠÐ²ÑĭÐ¿ÑĥÑģÐº": 48777, "site": 30417, "ĠBridge": 18917, "ĠÑĤÐµÐ»ÐµÑĦ": 33356, "Ġtragic": 20385, "ĠMitchell": 27582, "Ġprzedstaw": 45616, "ighs": 10311, "Ġarchitecture": 9482, "Ġpolitician": 26453, "<|7.50|>": 50739, "Ġang": 2562, "iedzieÄĩ": 22078, "fi": 13325, "Ġou": 2820, "Ġshroud": 50077, "ÑĥÑĪÐºÐ°": 34187, "Ġmartial": 20755, "Ġrisks": 10888, "Ġelectrical": 12147, "Ġpreaching": 25381, "ĠHand": 8854, "ĠAfrican": 7312, "ĠArsen": 41218, "Ġcountry": 1941, "ĠExcept": 16192, "Ġidols": 29959, "Ġlawn": 19915, "Love": 24394, "Ġë³´ìĭ": 23531, "Ġê°ľ": 14552, "ĠStrength": 39251, "Ġultras": 37072, "ĠBA": 21050, "Ġcancel": 10373, "ÃŃnh": 26994, "ruce": 41158, "Ġwebsite": 3144, "link": 22473, "Ġschwier": 27546, "Ġsondern": 11465, "ª¨ë": 40025, "ĠShow": 6895, "ĠGa": 10384, "Ġroyalty": 40929, "Ġdiagnosed": 16899, "Ġimproved": 9689, "mumbling": 39528, "ICEOVER": 31992, "Ł¬ìļ´": 40537, "<|21.04|>": 51416, "Ġliv": 11477, "ĠJeff": 7506, "Ġnett": 42084, "ĠAward": 13894, "chez": 30196, "ĠEm": 3968, "ĠTutaj": 41819, "Ġvaccinations": 39333, "Ġfloods": 35536, "ĠëĤ®": 38601, "ĠEliz": 11991, "Ġborrow": 11172, "Ġhouses": 8078, "Ġempresas": 26433, "çĶ¨": 9254, "51": 18682, "Ġcamp": 2255, "Ġìĺ¤": 5175, "Ġdom": 3285, "Ġhumanos": 34555, "Ð°Ñİ": 3776, "Ġdecrease": 11514, "Ġinternal": 6920, "ĠRF": 26204, "ĠPerfect": 10246, "Ġbroadband": 37718, "Ġdescub": 32592, "ĠMotion": 27771, "ennes": 42886, "ĠUSC": 44066, "Ġterrorism": 23917, "<|1.06|>": 50417, "Ġpreoc": 18250, "Ġspherical": 37300, "Ġshove": 35648, "ĠUnderstood": 42832, "Ġtelev": 49492, "ĠAlej": 44568, "ĠÑįÑĤÐ¾Ð¹": 14907, "Ġ×¡": 19713, "ÑĩÐ¸Ðº": 19536, "ÎµÏĦÎµ": 47440, "Ġbothering": 31432, "Ġveg": 24366, "ĠProjekt": 34804, "util": 20835, "ĠÑģÑĤÑĢÐ°ÑĪ": 35611, "ĠCircuit": 36939, "har": 5854, "éģİä¾Ĩ": 49950, "Wow": 14076, "Ġì": 451, "Ġdwa": 35045, "Ġchopping": 35205, "ĠìĮ": 35792, "Ġinte": 2830, "Ġrethink": 34595, "ĠÐķÐ²": 34019, "Ġwaffle": 44328, "ÙħØ©": 46007, "ollow": 49082, "ĠÐºÐ»Ð°ÑģÑģ": 26197, "Ġspacious": 36801, "ific": 1089, "Ġstalk": 21789, "Ġtickets": 12628, "Ġno": 572, "omedical": 41086, "athy": 9527, "Ġzum": 5919, "oration": 9357, "ĠFestival": 16512, "Ġinconvenient": 46196, "Ġscreamed": 41069, "Ġrational": 15090, "Ġdoable": 41183, "Ġdischarge": 21718, "inal": 2071, "Ġdaha": 10545, "Ġhaber": 15811, "Ġláº¡i": 23017, "Ġpacked": 13265, "ĠME": 12003, "Ġneatly": 36634, "Ġstars": 6105, "Ġleads": 6689, "Ġwyst": 48255, "Ġvog": 31273, "ĠKe": 3189, "Ġindicative": 47513, "Ja": 19111, "Ġthorough": 12934, "Ġnegatively": 29519, "talk": 29302, "Ġsorta": 33425, "ĠaprÃ¨s": 13274, "éĻ¤": 32999, "ĠThings": 9514, "ĠÐ²ÑģÐµÐ³Ð¾": 15520, "<|18.32|>": 51280, "ĠBreak": 16925, "ĠiPh": 42048, "ĠsÃŃ": 8600, "ĠjuÅ¼": 10678, "Ġpremiers": 45166, "Ġapproved": 10826, "ĠrzeczywiÅĽcie": 44922, "ĠFederation": 27237, "ĠBishop": 30113, "colm": 32274, "utt": 13478, "9": 24, "Ġbe": 312, "Ġsekali": 45016, "Ġprepar": 8231, "Ġhourly": 48364, "irk": 18610, "é£Łãģ¹": 50067, "áº±": 24125, "ĠfÃ¶rs": 30864, "ition": 849, "Ġmicrophone": 10952, "Ġtoys": 13753, "áº¡n": 12937, "Ġswitch": 3679, "ĠÃ§Ä±ktÄ±": 48378, "ĠKAT": 39274, "Ġprocess": 1399, "ĠRoad": 11507, "ĠÐ¯Ðº": 46116, "ĠFY": 42730, "ugh": 1984, "ĠepisÃ³dio": 50056, "ĠMormon": 39515, "Ġacne": 26480, "Ġundo": 23779, "Ġë°Ķë¡ľ": 15965, "ŀľë§Į": 46034, "cn": 16279, "TS": 7327, "ĠcabeÃ§a": 33056, "ĠProtestant": 38345, "Ġtekn": 32533, "ĠProfess": 7487, "ĠPaÅĦstwo": 42239, "è©±": 11103, "ĠFinally": 6288, "ì´Ī": 27005, "è´": 18464, "ĠPresident": 3117, "ëĦ¤": 17507, "ĠÏģ": 40750, "zÄħd": 23876, "chuckling": 32312, "Ġverbally": 48162, "ĠÑģÐ°Ð¼Ð¾Ð³Ð¾": 42264, "<|22.44|>": 51486, "Ġyum": 26420, "ĠWars": 9818, "Ð¾ÑģÑĮ": 8049, "Ġsampling": 21179, "ĠChancellor": 24778, "Ġrestaurants": 11486, "Ġe": 308, "rolling": 18688, "Ġexiste": 16304, "Ġadverse": 27590, "Ġeventually": 4728, "<|4.72|>": 50600, "Ġskip": 10023, "Ġsm": 899, "right": 1938, "<|19.36|>": 51332, "ĠGuinea": 46793, "ĠAustralian": 13337, "Ġstrike": 9302, "Ġsuspects": 35667, "Ġcommercials": 33666, "<|22.82|>": 51505, "æĺ¯ä¸įæĺ¯": 23034, "Ġbackl": 32449, "Ġcircumstance": 27640, "ĠLiverpool": 32473, "ĠmÃ¶": 7667, "Ġcondition": 4188, "Ġbleed": 28385, "Ġduring": 1830, "éłĲåĤĻ": 38418, "endes": 34533, "ĠLOL": 15086, "Ġcloth": 13619, "Ġobsess": 35803, "Ġbiological": 13910, "íĬ": 5963, "ĠRuby": 19907, "ĠÐºÑĢÑĥÑĤ": 43217, "Ġsuper": 1687, "Ġdeveloped": 4743, "ick": 618, "Ð¸Ð¹": 6251, "ĠDie": 3229, "Ġafternoon": 6499, "explosion": 49984, "beep": 13537, "Ġbreve": 48517, "Ġbrutality": 41745, "Ġcitiz": 5655, "Ġquer": 7083, "Ġbars": 10228, "Ġmeu": 9230, "Ġunderground": 14977, "Ġgift": 5306, "Ġdrip": 29376, "Ð°ÐµÑĤÑģÑı": 6970, "break": 13225, "ructor": 14535, "ĠInst": 2730, "ĠPas": 14199, "whel": 8746, "Ġfisherman": 48657, "ureau": 15235, "ĠIntegration": 47713, "Ġmanufacturer": 18022, "Ġcharcoal": 30625, "Ġsetting": 3287, "Da": 32409, "Ġrecru": 9372, "Ġhunter": 22970, "Ġblev": 37332, "ĠcÃ©u": 50052, "ciplinary": 24560, "Ġcommod": 19931, "ĠSeven": 14868, "ĠOH": 13931, "ĠWhit": 21693, "æ¢": 19017, "ĠJana": 49164, "isis": 28436, "Ġmoto": 42192, "ĠTal": 10516, "ĠExpl": 12514, "Ġnewer": 17628, "ĠÃĦr": 34403, "ĠRing": 19844, "Ġpreferably": 45916, "Ġdefense": 7654, "Ġcarrot": 22767, "ĠkÃ¶": 15881, "ils": 4174, "Ġpins": 16392, "Ġdost": 20568, "Ġshin": 37124, "ĠiÅŁi": 45377, "oug": 513, "Ġpil": 6429, "Î»Î¬": 30717, "Jesus": 37521, "anim": 17869, "Ġsurviving": 24948, "including": 50010, "ĠÏĦÎ¿ÏħÏĤ": 30320, "ĠÃ³t": 44490, "Ġíļ": 14794, "me": 1398, "Ġgut": 5228, "ĠhÃ¤t": 15344, "Ġprivile": 8670, "Ġincent": 11903, "ĠãģĿãĤĮ": 47765, "Ġapology": 28006, "Ġdistributions": 37870, "wow": 34354, "Ġcookie": 14417, "pecially": 2084, "Ð°Ð¹ÑĤ": 23055, "Ġ1989": 22427, "ĠìĿ´ê²ĥëıĦ": 42118, "Ġclass": 1508, "Ġcarp": 26103, "Ġelkaar": 35930, "Ä±na": 9236, "Ġstripe": 42957, "ĠSoldier": 34660, "Ġbeet": 16658, "uÄŁ": 22135, "ĠBranch": 40482, "Connell": 37335, "Ġsimplest": 22811, "inse": 22134, "ĠÐ¶Ð¸ÑĤÑĮ": 40124, "Ġoily": 27693, "Ġboo": 23113, "Ġhesit": 28336, "Ġdeg": 2821, "Ġnitrogen": 17903, "ĠgÃ¶re": 21032, "Ġcrit": 3113, "ĠTempl": 39563, "<|28.88|>": 51808, "ĠPod": 12646, "ĠDul": 50115, "ĠAlexandra": 45546, "Ġoverturn": 42865, "YU": 19280, "ĠAladdin": 45071, "Ġstruck": 13159, "Ġtweet": 15258, "ords": 5703, "ĠÃ©lÃ©": 46502, "ĠSUR": 37269, "eches": 27789, "Ġora": 33714, "ĠMetal": 23488, "ĠÃ©galement": 20503, "Ġimagery": 24340, "Ġyours": 6342, "Ġauthentic": 12466, "ĠæĢĿ": 47968, "Ġhatred": 21890, "Ġreply": 16972, "Ġassists": 49416, "¦¬": 2250, "ĠCyr": 33146, "ĠÃ´": 24107, "Ã´n": 17140, "ĠÐ¿Ð¾ÐºÑĥÐ¿": 34005, "Ġhoped": 19737, "ĠTwenty": 28789, "Ġlikelihood": 22119, "ĠÐºÐ¾Ð¼Ð¿ÑĮÑİÑĤ": 48488, "Ġassumes": 37808, "ĠLat": 7354, "åĮ": 9937, "Ġmemb": 27942, "Ġmice": 22257, "Ð»ÐµÐ½Ð¸Ðµ": 17943, "ĠShape": 49148, "ĠForget": 18675, "Ð°ÑĤÑĥ": 29771, "cos": 6877, "ĠÐĴÐ¸Ð´": 42888, "ĠDil": 36475, "ç§į": 39810, "Ġcontrast": 8712, "ĠÄ°ÅŁ": 26605, "ask": 3863, "Ġnud": 40045, "ĠPrep": 21684, "Ġconveyed": 49340, "ĠAssim": 40376, "resso": 29652, "Ġdiesen": 12862, "Ġlanes": 25397, "Ġpode": 7468, "êº": 44008, "atherine": 16351, "ĠOMG": 23152, "ede": 4858, "equ": 12816, "ãģ¨ãģĨ": 17880, "ĠÐ½ÐµÑĳ": 44527, "é¦¬": 29098, "ĠÐ½Ð°Ð·Ð²": 27161, "ached": 15095, "idi": 12716, "Ġrelatives": 18201, "Ð¾Ð½Ñĩ": 48446, "Ġanlam": 28940, "Ġendeavors": 49608, "ĠëĺĲ": 7992, "Ġcities": 6486, "Ġip": 28501, "onymous": 18092, "Ġunt": 1701, "Ġcrops": 16829, "Ġcringe": 47081, "ĠÐ²Ð¸Ð´ÐµÐ¾": 15589, "--": 918, "reso": 38021, "Ġripped": 22780, "Ġlidt": 40574, "ĠÑģÑĤÐ¾Ð»": 24053, "ĠSuite": 36637, "Ð¾Ð»Ð½": 20470, "ulif": 38365, "Ġlove": 959, "Ġconsegu": 12706, "ĠImper": 18360, "Ġtangent": 27747, "ĠCool": 8561, "pop": 13872, "ëĭ¹íŀĪ": 44180, "Ġsud": 3707, "ĠÐ±ÐµÑģ": 37658, "Ġwydaje": 49165, "æ°Ĺ": 25870, "aÃ±": 23217, "Ġpartes": 31210, "Ġseparated": 12005, "Ġpedir": 33533, "Ġdis": 717, "Ġign": 5335, "ĠChan": 16064, "ĠTOM": 29473, "Ġenhance": 11985, "ĠCost": 20863, "nesday": 10362, "Ġmote": 49071, "ĠÑģÐ»ÑĥÑĩÐ°Ðµ": 26425, "Ġgear": 7394, "ologia": 24103, "ĠÐ´ÐµÑĢ": 27620, "ĠÐ²Ñĭ": 2840, "ħķ": 12831, "ĠSpicy": 35999, "Ġdedicated": 8374, "Ġtotal": 3217, "ĠMatt": 7397, "15": 5211, "ĠPike": 46791, "omon": 24488, "ĠdifÃŃcil": 17258, "Ġtornar": 41283, "ĠÃ©taient": 25999, "Ġmusical": 9165, "ĠJUL": 40820, "ĠGerilim": 30687, "<|0.60|>": 50394, "<|22.70|>": 51499, "è¨Ĥ": 28320, "<|9.06|>": 50817, "<|2.68|>": 50498, "Ġë§Į": 14671, "Ġcause": 3082, "Ġsegreg": 37630, "ãģİ": 44601, "Ġhairst": 30658, "itÃ©": 5066, "âĻ«": 14157, "nat": 12241, "ĠTak": 9118, "ĠFER": 47882, "Ġcosts": 5497, "Ġaward": 7130, "Ġindices": 43840, "Ġpol": 1180, "lia": 14218, "Ġresurrected": 48825, "ĠPerhaps": 10517, "Ġì´¬ìĺģ": 27874, "nier": 19165, "Ġunnatural": 43470, "yen": 16580, "Justin": 49371, "ÑĤÑĥ": 13549, "Ġì¡": 22116, "ĠFei": 39587, "ĠLOVE": 31351, "crit": 32255, "Ġapplic": 2580, "endo": 3999, "ìĿ´ìķ¼": 15374, "ÑıÑģ": 15293, "79": 32042, "Ġyo": 5290, "ãģķãģĦ": 19557, "Ġsaben": 36670, "cribed": 18732, "Ġtelling": 3585, "Ġdownward": 24805, "<|8.24|>": 50776, "usp": 22490, "Ġpersonalities": 25308, "×¨×Ĳ": 26412, "Ġuhhh": 38594, "ĠSTACK": 49114, "ãģĳãĤĮ": 39256, "ãģ§ãģĻ": 4767, "<|1.18|>": 50423, "Ġëĸł": 43687, "Ġbaker": 48148, "ijah": 32630, "nothing": 49518, "ĠìĹĲ": 20122, "cale": 37088, "ĠStevens": 41727, "Ġocc": 2678, "ĠRum": 31963, "áº©": 35068, "Ġraging": 44173, "squ": 33292, "ĠAls": 12948, "ĠJustin": 11320, "ĠDanielle": 21182, "ĠKids": 15694, "Ġimagin": 23427, "angers": 11186, "Ġscrambled": 49127, "Ġstack": 8630, "rell": 19771, "Ġvrij": 45547, "Ġvoila": 45565, "Ġspeakers": 9518, "Ġexchanged": 38378, "Ġveto": 42910, "Ġallow": 2089, "Ġfreshman": 22154, "ĠWalter": 21572, "<|16.12|>": 51170, "Ġtoothpaste": 39956, "Ġdass": 2658, "Ġcarrier": 17574, "<|sv|>": 50273, "fer": 612, "Ġsta": 11135, "ÐµÑī": 12932, "<|19.30|>": 51329, "Ġeder": 23252, "ĠPri": 8087, "ĠFeh": 35576, "Ð¾ÑĢÐ¾ÑĪÐ¾": 29931, "point": 6053, "ĠÑģÐ¾Ð±Ð¾Ð¹": 32474, "ÑıÐ·": 11124, "otional": 41692, "ym": 4199, "charger": 48942, "exist": 18217, "Ġbib": 24557, "Ġihrem": 30859, "wife": 32779, "Ġimagining": 27798, "ĠÑĤÐµÐ¿ÐµÑĢÑĮ": 16983, "ĠUnderstand": 26093, "Ġopposite": 6182, "ĠQuad": 29619, "Ġsummarize": 20858, "ħĦ": 35530, "<|10.52|>": 50890, "Ġnella": 23878, "Ġperceive": 20281, "atable": 31415, "luent": 43518, "Ġadvers": 17641, "lean": 28499, "Ġmeal": 6791, "Ġdizer": 17159, "Ġtearing": 29401, "Ġgarage": 14400, "Ġbargaining": 42108, "Ġbirlikte": 44642, "ĠIndeed": 15061, "Ġbasically": 1936, "jaw": 22199, "wen": 15615, "Ġforehead": 20472, "ĠÐºÑĢ": 7502, "Ġnegativity": 39297, "Ġdevotion": 30671, "Ġchiff": 37627, "opf": 21828, "ĠHouse": 4928, "irus": 9619, "ĠNatomiast": 36210, "ĠíķĺëĭĪê¹Į": 47490, "thest": 36356, "Ġstro": 8959, "Ġpunya": 32781, "Ġnecesit": 38661, "ÑĮÑİ": 15616, "á»ķ": 20950, "ĠÐ¿Ð¾Ð³": 17724, "ĠLar": 11569, "æł¡": 49684, "esten": 38743, "Ġtapa": 42097, "ĠNether": 18313, "attutto": 48285, "Ġper": 680, "Ġoverc": 40027, "Ġtame": 45774, "Ġintact": 23493, "ëıĦ": 3744, "Ã¨s": 3645, "colored": 42820, "oru": 32963, "Ġdesde": 10188, "Ġprev": 12642, "Ġentities": 16667, "Ġindependent": 6695, "tÃ³": 4547, "ÑĢÐ°Ð²ÑģÑĤÐ²ÑĥÐ¹ÑĤÐµ": 36359, "ĠFirstly": 20042, "isa": 3837, "è³½": 45668, "Ġspace": 1901, "ÑĢÐ¸Ð¿": 50125, "Ġlaunching": 18354, "ĠChong": 43040, "Ġillegal": 11905, "up": 1010, "bleep": 14639, "lichkeit": 41096, "ĠFox": 11388, "Ġcommissioner": 33678, "ĠMix": 12769, "Hub": 21150, "Ġoysters": 42296, "Eric": 34125, "ĠSang": 19037, "cÃŃa": 31298, "ĠAujourd": 32650, "Ġtomatoes": 15135, "ĠÑīÐ¾": 14309, "mans": 44734, "ali": 5103, "J": 41, "ĠìłĦë": 19617, "Ġinhab": 16934, "Ġenv": 2267, "ĠSher": 11789, "Ġhosting": 16058, "Ġutilities": 30482, "ONEY": 49209, "Ġconstructed": 17083, "ìĹĲìĦľëıĦ": 40963, "Ġguru": 29949, "Ġrecovery": 8597, "Ġcopper": 15007, "ĠRoman": 8566, "Ġcaptivity": 48607, "Ġvenues": 32882, "ĠMight": 23964, "ĠRach": 40793, "ĠDonna": 31938, "Ġradiant": 49430, "itud": 21875, "Ġdonating": 36686, "æ§ĭ": 43362, "Ġej": 10012, "Ġdating": 10689, "Ġredu": 2783, "à¸§à¸ģ": 44619, "SOUND": 28625, "åıĪ": 17047, "Ġallons": 34405, "Ġcanvas": 16267, "<|27.38|>": 51733, "ĠKlim": 25136, "Ġ×ŀ×Ĳ": 26295, "ifier": 9902, "ĠpeÅĤ": 43205, "Ġemphasis": 16271, "Ġsabe": 12275, "ĠFDA": 18933, "ĠAsÃŃ": 17419, "Ġsuperst": 29423, "ando": 1806, "ĠBonjour": 25431, "ĠFrankie": 47263, "Ġnoodles": 10480, "ĠAWS": 17650, "Ġsola": 34162, "Ġnarciss": 25771, "Ġcultivate": 33341, "Ġcontrary": 19506, "Ġcollaborate": 18338, "Ġê²ģëĭĪëĭ¤": 27146, "Ġscam": 26917, "åľ°æĸ¹": 30146, "!</": 39373, "ĠRise": 34482, "ÙĬØ¹": 40228, "Ġsushi": 23022, "Ġstolen": 15900, "Ġhates": 23000, "ĠZhen": 27042, "erna": 22250, "Ġinsgesamt": 41438, "ĠìĿµ": 45664, "Ġnow": 586, "loo": 38511, "Ġimplications": 16602, "<|18.96|>": 51312, "Ġfisher": 20698, "æľª": 29954, "about": 21970, "roscop": 38006, "ĠAnother": 3996, "Ġuniquely": 31474, "Ð½Ð¾Ð¿": 35026, "llo": 1913, "ĠChristmas": 5272, "fang": 19134, "z": 89, "Ġbooster": 29275, "Ġprivat": 31856, "ĠViktor": 46844, "legt": 22745, "Ġelders": 22737, "Ġcarried": 9094, "Ġvolatility": 25877, "vl": 42977, "Í": 137, "Ġhotel": 7622, "ëį": 33180, "bows": 21118, "rac": 12080, "Ġregulators": 37311, "Ġpend": 12179, "ĠFrank": 6823, "ãĥ¢": 29183, "ĠYouT": 2898, "Ġshading": 30556, "ĠìķĦëĭĪìĹĲìļĶ": 30809, "Ġskeletons": 45538, "ĠëķĮ": 7765, "Ġíķĺë©´ìĦľ": 37466, "hd": 20272, "ĠPG": 40975, "Ġlabeled": 21335, "mÃ¤ÃŁig": 43132, "Ġtoughest": 35037, "mac": 37065, "ĠDelete": 49452, "Ġfinde": 17841, "Ġjudicial": 26581, "ĠFÃ¼r": 14990, "Æ°ng": 42509, "ifically": 4278, "arett": 25033, "Ġtwist": 8203, "çĶŁ": 8244, "ĠMacron": 32806, "Ġaffiliated": 42174, "Ġdecade": 10378, "Ġsuperpower": 45765, "ĠCuando": 21907, "Ġrak": 35544, "ĠÑģÑĩÐ¸ÑĤ": 22413, "ubernetes": 22457, "ĠCapt": 9480, "ĠPer": 3026, "Ġdemographic": 26331, "Ġusage": 14924, "Ġcoin": 11464, "Ġkommun": 26275, "fry": 35299, "!!!!!!": 50199, "ĠAwards": 22187, "ħĢ": 32710, "ĠCoun": 4780, "éº": 3994, "ĠÐºÐ¾Ð½": 6184, "ĠMJ": 36240, "ense": 1288, "ĠÃ¼berall": 38035, "Ġportray": 15676, "ĠAj": 25862, "èĩ": 6784, "âĻ¬": 42863, "Ð½Ð¾Ð³Ð¾": 4699, "Ġends": 5314, "Ġsky": 5443, "zuge": 46285, "gens": 23212, "ĠNev": 22673, "Ġpasst": 37154, "Ġarms": 5812, "Ã§os": 26828, "ĠYok": 18480, "ëħĦ": 12092, "á»ı": 21920, "Ġchrist": 26586, "Ġcontainer": 10129, "Ġpont": 18770, "ĠTs": 16518, "ÑģÐºÐ¾Ð³Ð¾": 19398, "dig": 25259, "atisf": 25239, "Ġtravailler": 30968, "<|16.58|>": 51193, "Ġdawn": 18192, "Ġformer": 5819, "Ġsuficiente": 33958, "ÅŁ": 1165, "ĠinformaÃ§Ã£o": 48403, "Ġì´Ī": 26631, "Ġlust": 24672, "Ġorchestra": 25280, "ĠYaz": 44962, "Ġsty": 7952, "ĠìŀĪì£ł": 34070, "Ġearly": 2440, "ĠSpin": 29185, "ĠÎĿ": 38854, "ube": 1977, "assing": 42705, "Ġdisput": 37669, "Ġgross": 11367, "ĠPBS": 33517, "ĠNept": 45560, "cott": 34000, "Ġdifficulties": 14399, "ĠÃ§alÄ±ÅŁ": 18107, "Ġchatter": 26929, "ortion": 8136, "ĠCarn": 32254, "ĠDist": 9840, "Ġbenefiting": 47515, "ĠÐ¢Ð¾Ð³Ð´Ð°": 46357, "à¸Ńà¸ģ": 37484, "PP": 17755, "kek": 41888, "Ġsecretly": 22611, "Ġ57": 21423, "ĠTHIS": 17371, "ĠWind": 6320, "Ġminist": 16182, "ĠChloe": 29694, "igma": 16150, "Ġíģ´ë": 30464, "ĠahÃŃ": 12571, "ĠDepois": 34231, "ĠJetzt": 12592, "ĠintÃ©ress": 23243, "Ġorganis": 15223, "ĠmÃ¥nga": 25068, "wives": 48882, "ĠÃ¶ver": 23026, "ÅĽwiad": 37750, "Ġdonde": 10488, "Ġspelling": 22254, "Ġtrouble": 5253, "<|1.28|>": 50428, "hale": 8996, "Ġsurrender": 22185, "Ġquickest": 49403, "0": 15, "Ġsources": 7139, "åĵĪåĵĪ": 15964, "íĦ": 6826, "Kendra": 37530, "icar": 7953, "ĠVanessa": 27928, "Ġ1977": 35092, "Ġtask": 5633, "stell": 17816, "Ġìĸ¼ë§Ī": 44859, "ĠLei": 32593, "Ġarises": 27388, "Ġforgiveness": 18396, "<|7.80|>": 50754, "çĶŁæ´»": 49958, "ONY": 48235, "Ġruins": 24747, "íķ´ëıĦ": 49183, "Ġreduz": 40674, "ĠÐ¾ÑīÑĥÑī": 44966, "Ġterrified": 23051, "Big": 32023, "<|24.56|>": 51592, "Ġdecree": 41071, "Ġdegree": 4314, "<|25.76|>": 51652, "ìłĢ": 11738, "Ġlingu": 21766, "ĠÎ®ÏĦÎ±Î½": 47768, "Ġreasons": 4112, "Ġgarlic": 9168, "Ġinsanity": 47505, "Ġable": 1075, "ĠÐ°Ð±": 25600, "<|18.92|>": 51310, "meno": 43232, "<|11.02|>": 50915, "ĠIKE": 46492, "Ġpilots": 21506, "ĠKle": 17053, "Ġnonprofits": 42851, "Ġvolta": 18765, "Ġvarieties": 22092, "ĠTran": 42971, "ĠÏĢÎ¿Ïħ": 15878, "ĠMart": 5807, "ĠKobe": 46296, "Ġpartisan": 37721, "Ð¸Ð»Ð°": 10578, "Ġcard": 2920, "Ġhelm": 29554, "Ġë©ĭ": 29260, "Ġquarantine": 18138, "åİ²å®³": 20939, "ĠVision": 25170, "ĠGrande": 28384, "nut": 18316, "Ġverm": 26319, "lie": 6302, "Ġastonishing": 35264, "Ġrecord": 2136, "Ġgiraffe": 49897, "lay": 8376, "Ġbereit": 38758, "Ġëĭ¹": 12047, "<|23.74|>": 51551, "Ġdangerous": 5795, "Ġë§Įëĵ¤": 12922, "âĢ¦âĢ¦": 18807, "ĠReporter": 26520, "ment": 518, "Ġtier": 12362, "ĠTL": 40277, "years": 34569, "Ġsistem": 45758, "Ġobe": 36346, "Ġwhy": 983, "Ġìĺ·": 30880, "Ġjudgement": 33473, "Ġfilthy": 40384, "ĠcompliquÃ©": 44290, "ĠlÃªn": 33368, "Ġfreedom": 5645, "åİ": 5014, "<|12.28|>": 50978, "ãĥ¼ãĥ¼": 24291, "Ġgifts": 11449, "Ġeru": 20999, "Ġcrunch": 13386, "alet": 49744, "Ġned": 25614, "there": 15456, "Rel": 49029, "uyorsun": 40419, "BB": 30366, "sei": 43665, "Ġfij": 42001, "lished": 4173, "ully": 2150, "Ġsurve": 11463, "<|15.08|>": 51118, "Ġcod": 17656, "Queen": 47924, "ĠÐ²ÑģÑı": 24614, "Ð°Ð¶": 3234, "cision": 40832, "Ġpack": 2844, "Ġcompleta": 46822, "ĠCatholic": 11981, "ĠÐ¿ÑĢÐ¾Ð±": 15122, "ĠâĻ¬": 22520, "Ġ->": 33798, "ĠCarm": 44530, "ĠKamera": 42728, "Ġgloves": 14976, "Ġinvestigating": 22858, "Ø§Ø·": 41193, "Ġmild": 15154, "ìĹ°": 11557, "eth": 3293, "ĠEller": 45719, "Ġinsp": 3741, "Ġdistingu": 11365, "Ġcomer": 16510, "Ġpi": 3895, "heiten": 38754, "ĠEV": 15733, "ĠÐ½Ð°ÑģÑĤ": 35397, "alsa": 24816, "Ġconspiracy": 20439, "Ġchops": 47514, "Ġmaniac": 47193, "ĠShrim": 47827, "Ġê°Ģìļ´ëį°": 44627, "asten": 47552, "ĠdÃ©b": 36529, "ĠGon": 47403, "azo": 29722, "ĠShanghai": 26135, "voc": 20836, "markets": 48850, "<|25.90|>": 51659, "EO": 6004, "ĠDiane": 30460, "Ġdesigned": 4761, "<|8.00|>": 50764, "iesta": 38804, "Ġprominent": 17034, "immers": 43107, "Ġanarch": 41957, "Ġleche": 50047, "Ġdiscretion": 30140, "fat": 35293, "Ġslipping": 36779, "æľ¬": 8802, "ĠìŀĳìĹħ": 40316, "Ġalbeit": 43654, "ĠÐľÐ¸Ñħ": 50150, "ìĤ°": 16551, "Ġreligion": 7561, "Ġu": 344, "×Ļ×ł×ķ": 39795, "Ġdifferential": 15756, "ĠDemocracy": 43062, "Ġpurely": 17491, "Ġexem": 9659, "Ġnation": 4790, "ev": 13379, "Ġpaws": 46768, "åĪĹ": 43338, "¶Ī": 20026, "Ġspecialists": 25476, "ĠâĢ«": 4738, "Ġdys": 15243, "Ġpancake": 28916, "Ġdelightful": 35194, "ĠDep": 4056, "Ġfrog": 17259, "ufact": 5563, "Ġshrinking": 41684, "ĠìķĦì£¼": 22360, "Ġplantation": 45328, "Ġtraditionally": 19067, "ĠLana": 48750, "Ġshootings": 44314, "ĠClub": 11288, "Ġlay": 2360, "Ð°Ð»Ð°ÑģÑĮ": 19711, "ĠAl": 967, "Ġë¹": 5005, "Ġmay": 815, "Ġsusp": 6535, "ESS": 12268, "nom": 15819, "Ð°Ð¶Ðµ": 9475, "Ġit": 309, "Ġseekers": 47915, "ĠLM": 46529, "Ġgon": 26307, "Ġconstructor": 47479, "ãģ«ãģ¯": 34779, "venge": 46112, "Ð¾Ð±": 2061, "ĠEveryone": 5198, "à¸ľà¸¡": 48968, "Ġdisapp": 4518, "bits": 34010, "Ġmett": 27812, "Ġcalled": 1219, "Ġadvertisement": 31370, "uest": 11493, "ĠSky": 9879, "ĠLegacy": 42838, "Ġplotting": 41178, "ĠÐ²ÐµÑģ": 28244, "Ġswollen": 37559, "æı": 11673, "ĠStunde": 42781, "ĠRefer": 36889, "ĠWITH": 25371, "urgical": 46736, "ĠPow": 14762, "ĠÐ´ÐµÐ»Ð°ÑİÑĤ": 48732, "Ġcaveat": 43012, "install": 40166, "ĠBur": 7031, "Ġpum": 48842, "å¾Ī": 4563, "Ð½Ð¸": 1903, "ĠÐĴÑģ": 10779, "Ġbeleza": 46429, "ĠMichael": 5116, "ricanes": 43524, "Ġprostate": 36108, "<|28.22|>": 51775, "ÃŃvel": 13185, "ĠFranz": 33084, "åĢ¼": 40242, "ĠÐºÐ°ÑĢÑĤ": 34692, "ĠtÃ¤hÃ¤n": 49580, "Ġyelled": 38023, "éĢŁ": 31217, "Ġprojecting": 43001, "Ġdil": 11504, "Ġmiel": 41392, "anor": 29330, "ĠìĻ¸": 27357, "bn": 19404, "selves": 2036, "Ġrebound": 31850, "Ġunmute": 41445, "inee": 22036, "helm": 48319, "Ġrelieve": 30450, "ĠWOODR": 24265, "susp": 31065, "<|17.36|>": 51232, "xy": 12876, "ĠChampions": 14391, "ĠÐ¸Ð³ÑĢÑĭ": 36183, "Ġdisadvantages": 37431, "Ġfalta": 22111, "ĠHere": 1692, "è·¯": 24658, "pero": 49565, "ĠÐ¸Ð³ÑĢÐ°": 37120, "ĵ¯": 39358, "atsÃ¤chlich": 19579, "Ġinstructed": 36384, "ĠsÃ©": 7910, "Ġcans": 21835, "ĠÑģÐ±": 29014, "Ġdrummer": 38535, "agit": 32730, "ìī": 23706, "ìĨį": 11194, "SD": 23969, "ĠÃ¡reas": 48088, "Ġrule": 4978, "ĠKend": 20891, "<|19.04|>": 51316, "Ġstuck": 5541, "Ġharp": 50093, "bread": 31051, "ĠMaker": 35096, "ĠDisney": 8653, "ĠKanye": 37654, "ĠLy": 12687, "Ġ^": 18956, "Ġtired": 5868, "ĠBao": 42099, "ĠFM": 29614, "Ġdevot": 13697, "ĠProte": 43371, "Ġfeel": 841, "ĠBear": 19836, "orem": 37956, "éĸ": 5196, "ĠAri": 9433, "ĠAppro": 29551, "Ġstraight": 2997, "ĠÐ½Ð¾Ð²ÑĭÐµ": 39232, "æ²Ĵäºĭ": 37344, "Ðĺ": 10276, "Ġdemo": 10723, "ĠëĮĢíķľ": 23358, "Ġleveling": 40617, "Ġì»¬ëŁ¬ë": 39177, "Ġvisualization": 25801, "Ġfundamentally": 17879, "ĠPsych": 17303, "glio": 47002, "Ġtraditional": 5164, "ĠUH": 50030, "Ġfreelance": 47875, "ĠdÃŃas": 19527, "ach": 608, "ĠBuck": 22006, "Ġtwee": 30660, "taking": 48625, "ĠÑĦÐ¾ÑĤ": 35896, "Ġlim": 2364, "Ġwheelchair": 22945, "temps": 30537, "ĠUltimate": 26570, "Ġrepresented": 10379, "ÑĢÐ°Ð²ÑģÑĤÐ²": 33186, "Ġbran": 12029, "Stevie": 37145, "isiÃ³n": 36515, "Ġassociated": 6615, "ĠEdge": 19328, "Ã¿": 18798, "Ġ550": 42514, "ÐµÐ½Ð½Ð¾Ðµ": 48061, "Ġniew": 43622, "Ùİ": 6808, "entially": 3137, "Ġench": 35213, "Ģë¦¬": 34374, "Ġvice": 11964, "Ġdibuj": 46621, "ej": 40779, "Ġ1700": 43373, "Ġcausing": 9853, "workers": 37101, "aut": 1375, "åķ": 3284, "ĠEastern": 12901, "Ġarbe": 40476, "Ġë³´ë©´": 19443, "ĠCoca": 32719, "à°": 19135, "ĠNeed": 16984, "Ġeggs": 6466, "ĠOoo": 25547, "Ġaggressive": 10762, "ľ¨": 34057, "Ġmammal": 49312, "Ġnormale": 43646, "ãĥ»ãĥ»ãĥ»": 17562, "ĠAdvanced": 26951, "Ġvienen": 49298, "sted": 30115, "ìŀĲ": 4264, "ĠPatri": 31071, "Ġvisiting": 11700, "osaic": 42261, "æ¢Ŀ": 31106, "Ġagencies": 9504, "ĠLÃł": 22237, "ĠCHEERING": 45465, "Ġmeny": 46975, "Ó": 143, "uding": 33703, "Ġthere": 456, "ĠÐµÑģÑĤÐµ": 43775, "<|24.80|>": 51604, "ĠÎ¬Î»Î»": 41370, "irts": 9899, "Ġincons": 22039, "ĠíĶĦë": 32051, "otom": 42939, "Ġust": 26189, "Ġpropagation": 38377, "ipple": 23476, "åĳ¨": 37390, "xico": 24829, "ĠEen": 25374, "{": 90, "ĠSmoke": 36191, "Ġinterns": 46145, "Ġdisposition": 40293, "ously": 5098, "Ð½ÑĭÐ¼Ð¸": 15076, "encie": 36220, "Ġumbre": 20158, "Ġbackyard": 20036, "ĠðŁİµ": 25674, "ĠTrinity": 33121, "Ġhustle": 34639, "ĠSes": 29827, "Ġpuedo": 21612, "ĠÐ¿ÐµÑĢÐ¸": 45602, "ĠÐ¸Ð¼": 7604, "ĠìķĦëĭĪê³ł": 32510, "Ġcondemned": 36472, "Point": 18705, "Ġcleans": 16912, "Ġdonc": 5926, "Ġ1800": 24327, "Ġmeses": 23922, "Ġcompon": 4026, "overs": 25348, "ĠÅĤad": 47910, "Ġmicrobi": 33234, "æ¨£": 6180, "r": 81, "Ġbeats": 16447, "Ġtrainees": 41316, "<|1.86|>": 50457, "<|16.96|>": 51212, "Ġwindows": 9309, "amiento": 16971, "Ġaprove": 29015, "ĠGary": 13788, "avam": 22561, "ĠCor": 3925, "Ġfemales": 21529, "<|0.02|>": 50365, "Ð¾Ð´": 1435, "ĠÐ±ÑĥÐº": 36761, "ĠOcc": 26191, "Ġdrowning": 37198, "isten": 4821, "ekkÃ¼r": 31629, "Ġpolitique": 26115, "ĠÎ¸": 12622, "Ġprogresses": 41929, "Ð°ÑĤÐ¸Ð²": 30875, "Ġways": 2098, "Down": 34402, "ĠBat": 10066, "Ġaren": 3212, "Ġlearnt": 18991, "oster": 7096, "ĠErfahrung": 49318, "Ġfabrication": 44820, "Ġvaccine": 7007, "Ġzoo": 25347, "cri": 1142, "eling": 11031, "Ġbegun": 16009, "ĠìŀĪê¸°": 48371, "Ġì¹´ë": 24369, "Ġpermission": 11226, "Ġvraag": 46485, "ĠSteuer": 44250, "Ġãħİãħİ": 45824, "ĠëĴ": 14749, "Ġcaus": 3302, "Ġmines": 25398, "ĠButler": 27571, "ĠAudience": 23517, "Ġdysfunction": 32002, "ĠNetz": 38889, "Ġfitted": 26321, "Ġphys": 2529, "Ġnewest": 17569, "lag": 27298, "Ġpoorly": 22271, "ĠGoku": 29138, "Ġrenewed": 30228, "Ġfid": 24553, "ĠSchne": 30343, "ĠAnna": 12899, "Ġadvisor": 19161, "ĠsÃºper": 43282, "Ġnineteen": 31555, "Ġsuggestion": 16541, "Ð½Ð¸Ð¼": 8444, "Ġprocrast": 39306, "ities": 1088, "avored": 22120, "Ġspecialized": 19813, "Ġsuperv": 37971, "ĠÅĽwie": 40078, "Ġpenguin": 45752, "ĠIndiana": 21858, "iji": 26539, "ê¿": 30484, "uÃ§Ã£o": 36770, "jet": 7108, "ĠÃ§Ã¼nkÃ¼": 36336, "Ġlongtemps": 32437, "pak": 45944, "ĠMD": 22521, "Ġnope": 23444, "ĠPETER": 36040, "ĠGilbert": 39003, "nae": 45362, "Ġnarratives": 28016, "oris": 46198, "Ġoutsider": 40484, "Ã¶rper": 25533, "etta": 16593, "ĠÑıÐºÑĸ": 35110, "ĠFighter": 33387, "Ġuda": 44544, "Ġmuito": 4945, "Ġpays": 10604, "ĠBE": 13513, "ĠSon": 5185, "ĠRober": 15800, "ĠEsper": 24142, "ICIA": 44480, "<|6.96|>": 50712, "èĩª": 9722, "Ø¹Øª": 34268, "ĠHungarian": 38034, "ĠmÃ¤nnisk": 45220, "æİ°": 29336, "180": 37078, "Ġaisle": 30916, "Ġcommit": 5599, "Ġparaly": 32645, "Ġplaint": 39112, "ĠListening": 49321, "bus": 21441, "ict": 985, "inander": 20553, "×Ļ×Ŀ": 4672, "Ġconfort": 43392, "Ġcriticize": 31010, "ĠHalf": 15917, "ĠHide": 35118, "ĠSleep": 19383, "Ġoctave": 44441, "ĠGOD": 26831, "Ġbreakthrough": 22397, "iling": 4883, "Ġsofter": 23119, "ÐµÐ³": 4953, "Ġrer": 43819, "ĠDamen": 21131, "Ġgrat": 10158, "ĠEditor": 24281, "Ġpetite": 18319, "otes": 17251, "<|4.92|>": 50610, "Ġ68": 23317, "Ġhour": 1773, "ĠBan": 13850, "Ã¨": 1462, "Pe": 20048, "ĠÐºÐ°ÐºÐ°Ñı": 29334, "Ġbubble": 12212, "VO": 20664, "<|17.58|>": 51243, "ì²´ê°Ģ": 39881, "ĠÐºÐ¾ÑĤÐ¾ÑĢÑĥÑİ": 32355, "ĠÑĤÐµÐ»ÐµÑĦÐ¾Ð½": 44485, "Ġeverytime": 46162, "Ġmolar": 45712, "Ġboards": 13293, "oming": 10539, "quier": 16622, "ĠPat": 4379, "ĠShan": 25536, "Ġpanel": 4831, "ordin": 6241, "cription": 12432, "Ġdevrait": 43356, "Ġcentr": 32199, "çĶ±": 23786, "ĠPrim": 19671, "ĠAngst": 28622, "ĠMm": 8266, "Ġpy": 10664, "Ġgoal": 3387, "Ġrest": 1472, "<|6.36|>": 50682, "<|2.08|>": 50468, "Ġdressing": 17211, "?!?!": 44587, "Ġgrows": 13156, "Ġpopulations": 12822, "ĠAuch": 13382, "Ġsoir": 27105, "Ġmeet": 1677, "Ġdreaming": 21475, "ĠÑģÐ´ÐµÐ»Ð°Ð»": 40653, "ĠGrund": 13941, "ĠLoop": 45660, "ĠED": 18050, "Ġevac": 20245, "orum": 36543, "ĠQuá»ĳc": 41494, "Ø§Ø¯": 18513, "built": 23018, "ĠÐľÐ¸": 47250, "ÐºÐ¾Ð³Ð¾": 21113, "Ġbots": 35410, "ĠÎ¶": 36544, "ÑĢÐ¾": 9938, "Ġamazing": 2243, "Ġluggage": 27744, "Ġandar": 50009, "lings": 20823, "ĠDead": 12550, "ĠFinished": 48188, "yba": 28375, "Ġbrag": 41995, "å½¢": 30900, "Ġrob": 3870, "Ġì°¨": 15391, "izes": 5660, "Æ°á»Ľ": 17059, "Ġvin": 27037, "è©": 6716, "Ġpatter": 3829, "Ġtok": 19164, "Ġcollaborators": 39789, "Os": 31376, "erson": 3953, "çľĭ": 4200, "gun": 7414, "Ġmonopol": 47721, "ä»Ģä¹Ī": 10440, "Ġsubm": 8286, "ERE": 16069, "Ġadore": 32060, "ĠíĨł": 40309, "åįķ": 47446, "Ð»Ð¾Ð½": 31058, "Ġassaulted": 44910, "ĠKent": 15843, "ĠíķĦ": 19620, "folg": 23910, "Ġladder": 18325, "Ġihre": 14280, "Ġcrucial": 11462, "Ġcontroversial": 17323, "Ġë¶ģ": 33215, "Ġcapitalize": 48114, "Ġapproaches": 11587,
[...]
