{"Ġqued": 13617, "ãģĦ": 1764, "ĠCathedral": 46794, "°ë¦¬": 7078, "Ġë¶Ģë¶ĦìĿ´": 47820, "ĠWarri": 23385, "itty": 10016, "<|22.14|>": 51471, "ĠAtÃ©": 31793, "ĳľ": 12139, "<|16.78|>": 51203, "éħĴ": 37486, "ìĭľê³ł": 24303, "<|29.68|>": 51848, "ĠìĦłë°°": 49122, "ìĽĥ": 30668, "Ġgatherings": 36247, "Ms": 26386, "Î¿ÏħÏĤ": 29395, "lr": 40987, "Ġbeloved": 14553, "Ġcover": 2060, "Ġintentional": 21935, "Ġdoubt": 6385, "ĠColombia": 22677, "Ġmoney": 1460, "ĠMorocco": 38782, "ĠChin": 4430, "Ġwavelengths": 47424, "ĠCann": 29866, "ĠHopefully": 10429, "ĠZheng": 31408, "production": 40827, "ĠHurry": 12944, "Ġzucch": 36748, "ĠìĥĿê°ģìĿĦ": 30852, "Ġdivisions": 24328, "Ġcontrac": 48118, "ĠHeroes": 32070, "ĠÐ°Ð²ÑĤÐ¾Ð¼": 27669, "Ġëª¨ëĳĲ": 27615, "Ġdesignation": 40838, "Ġveh": 4221, "ĠOnd": 40091, "liv": 45997, "Ġsimilar": 2531, "æ®µ": 28427, "Ġparentheses": 34153, "Ġlifts": 30501, "ĠNE": 12384, "éģĭ": 32772, "ĠgÃ¶r": 8362, "Ø¯Ø§": 28259, "berty": 48501, "Ġcherish": 38277, "adece": 25978, "Ġdiet": 6339, "Ġvacc": 3900, "IGHT": 21926, "Missy": 47840, "Ġrecherche": 38501, "Ġasking": 3365, "Ġincrease": 3488, "Ġamazed": 20507, "ĠCorps": 20169, "ĠtÃº": 15056, "Ġreminis": 33765, "Ġships": 11434, "etzt": 3524, "Ġthinner": 21905, "ĠÐ§": 7099, "ĠÑĢÐ¾Ð±": 30971, "ĠDum": 29572, "Ġcongrat": 9774, "Ġexpenses": 15506, "ĠWest": 4055, "ÑĥÑĢÑĭ": 36106, "Aust": 47215, "atchet": 36080, "Ġtransparen": 16165, "ĠÃ©normÃ©ment": 41595, "Ġcelebration": 14184, "<|20.72|>": 51400, "<|1.88|>": 50458, "adi": 5688, "Ġsubscription": 17231, "Ġearth": 4120, "Ġlyrics": 12189, "ä½łæĺ¯": 32526, "worthy": 23727, "Ġfamily": 1605, "Ġformat": 7877, "Ġcock": 11241, "Ġacidic": 39514, "Ġhorr": 17582, "Ġleadership": 5848, "´ëıĻ": 30580, "ĠHeidi": 40947, "<|5.74|>": 50651, "osit": 9598, "elim": 23205, "Ġpytanie": 36610, "Ġmile": 12620, "Ġvul": 7452, "foot": 13498, "Ġtills": 46729, "ĠdÃŃas": 19527, "direct": 44868, "è¿ĩ": 16866, "Ġuni": 36435, "Ġpontos": 30676, "ĠEllen": 20306, "ivamente": 23957, "Ġrealise": 18809, "Ġnaked": 15791, "Ġelectrical": 12147, "<|13.32|>": 51030, "Ġwal": 21346, "<|3.88|>": 50558, "asis": 26632, "ĠAZ": 49698, "ÐŃ": 22757, "Bu": 28110, "Ġorientation": 14764, "ĠPAR": 21720, "Ġdick": 18659, "ĠMÃ¼": 21295, "Ġpearls": 35111, "<|11.74|>": 50951, "Ġfiller": 34676, "Ġpier": 9766, "Ġfighter": 15932, "Ġaccommodate": 21410, "ĠDell": 33319, "ĠÐ¿ÑĢÐ¸Ð½": 16003, "aria": 9831, "Ġchuckling": 48167, "Ġformidable": 41246, "Ġaide": 40890, "WAN": 42843, "Ġdez": 45057, "Ġlawyers": 16219, "ĠÐ·Ð°Ð²": 13388, "ĠPutting": 31367, "ĠMatte": 47544, "×Ľ": 7460, "becue": 20102, "íĨµëł¹": 39045, "ĠClo": 31901, "Ġstraight": 2997, "Ġenduring": 36562, "ĠvÃ¥r": 26477, "ĠWILLIAM": 32613, "ĠLed": 39367, "ĠØ£ÙĨØ§": 41850, "Ġhistories": 30631, "Ġemotions": 8462, "Ġrescue": 13283, "Ġaku": 21093, "Ġwillingness": 25069, "éį": 41668, "sama": 37275, "Ġauth": 6979, "Ġperpendicular": 26734, "Ġcloudy": 33060, "ĠSpit": 39108, "Ġlengthy": 35374, "ĠÐ¿Ð°ÑĢ": 11813, "ĠStage": 25907, "ĠBrew": 42906, "Ø°Ø§": 15730, "á¿": 39849, "Ä±yÄ±": 48684, "your": 23093, "ĠGy": 25911, "ÙĪ": 2407, "Ġdoubling": 33651, "ê°Ħ": 5989, "Ġsuk": 46432, "<|13.18|>": 51023, "Ġhablando": 29369, "ĠTail": 46074, "vert": 3281, "æ°Ķ": 42204, "ĠUnivers": 14052, "asz": 19601, "æİ°æİ°": 48166, "amientos": 43466, "Ð¸ÐºÐ°": 17286, "Ġinterpreter": 34132, "×¨×Ļ": 38339, "eremy": 13579, "ipples": 37674, "mentation": 19631, "stop": 13559, "ĠUg": 28690, "Ġknead": 28602, "Ġbishop": 34470, "âĺĨ": 41985, "Ġmileage": 43121, "Ġdeclare": 19710, "Ġwounded": 21906, "Ġalgunas": 27316, "ITCH": 43071, "ĠwÃ¤r": 45779, "Ġjedes": 36119, "ĠReact": 30644, "Ġcultural": 6988, "<|9.26|>": 50827, "ä¾ĨåĪ°": 44321, "Ġoxide": 28421, "çī©": 23516, "Ġdirect": 2047, "ĠÎķ": 18236, "unden": 10028, "Ġì¸¡": 41696, "ĠíħĮ": 30516, "Ġteas": 11488, "Ġnotebook": 21060, "ĠÑģÑĤÐ¾ÑĢÐ¾Ð½": 17635, "ĠOW": 38329, "ĠrÃ¤tt": 38494, "alles": 37927, "ĠÙĪÙĩ": 37037, "Ġpernah": 41136, "Ġdevices": 5759, "Ġwizard": 25807, "ĠÐ¿Ð¾Ð»ÑĥÑĩ": 9478, "Ġthank": 1309, "acles": 9918, "ĠÐ°Ð¼ÐµÑĢÐ¸Ðº": 34958, "Ġemerges": 38965, "Ġminorities": 30373, "ĠJuliet": 33532, "ĠBlend": 44836, "ĠQur": 26094, "ĠÐºÑĢ": 7502, "yo": 8308, "Ġgift": 5306, "<|27.48|>": 51738, "Ð¾Ð½ÑĮ": 48325, "Ġfaites": 29902, "ĠResistance": 45647, "Ġsis": 26288, "ì¹ľ": 25286, "ĠSuzanne": 48901, "Ġcuenta": 17868, "ĠÐ´ÑĥÐ¶Ðµ": 39919, "acial": 25980, "Ġroutine": 9927, "zam": 28915, "Ġfinely": 31529, "Ġreci": 4214, "×Ļ×ļ": 25988, "lingt": 45219, "essional": 44226, "Ġbrand": 3360, "Ġsesi": 13315, "ium": 2197, "Ġsteel": 8269, "ĠW": 343, "alg": 20422, "Ġcouple": 1916, "Ġmycket": 16780, "Ð¾ÑĢÑĭ": 42342, "ì¦Ī": 20235, "Ã®t": 20028, "theme": 36965, "Ġcler": 25902, "ĠHayÄ±r": 30102, "ĠBroad": 14074, "<|18.42|>": 51285, "Ġë¹łë": 36351, "ĠëĤł": 16316, "<|16.56|>": 51192, "Ġeighth": 19495, "ĠLeonardo": 36523, "Ġseit": 16452, "ĠGavin": 24020, "ĠUnf": 8170, "<|23.00|>": 51514, "iset": 42907, "ĠëĦ": 3214, "ishna": 20348, "bridge": 18249, "ĠVeron": 38600, "ĠTake": 3664, "Ġreaches": 14235, "Ġstay": 1754, "Ġvoyage": 30729, "system": 28215, "ĠÑĥÑģÐ»": 24636, "More": 33986, "ÑĢÐµÑĤ": 31242, "Ġabre": 41594, "Ġë¶ģ": 33215, "Ġproduction": 4265, "Ġdegli": 32079, "Ġnegatives": 40019, "ĠlÃłm": 22319, "hape": 42406, "ĠSind": 35405, "ĠìĺĨ": 29095, "Ġprofessionals": 11954, "Ġmonastery": 37821, "oglo": 45841, "Ġdicht": 48774, "isexual": 38505, "ĠSig": 37763, "ĠgroÃŁes": 48875, "ask": 3863, "Ġreverse": 9943, "Ø¡": 38207, "Ġmerci": 30532, "<|0.92|>": 50410, "ambled": 43390, "Ġuncovered": 37729, "ĠÑģÐ°Ð¼Ð°": 40517, "omet": 649, "Ġviolated": 33239, "Ġdesse": 17864, "Ġ2020": 4808, "<|15.86|>": 51157, "Ġcozy": 29414, "Ġfind": 915, "ĠCheese": 23738, "ĠÏĦÎ·Î½": 17309, "ĠProduction": 30088, "lÄ±k": 22359, "åĸľ": 13620, "Ġpractitioner": 32125, "Ġregarded": 26047, "ilate": 48104, "ĠSyrian": 24081, "Ġsig": 4556, "ĠScreen": 25823, "funded": 43589, "Ġtester": 36101, "85": 19287, "okrat": 19795, "Ġmutations": 29243, "à²": 11891, "Ġdiciendo": 42797, "ĠØ§ÙĦØ·": 41950, "Ġalike": 20025, "Ġgender": 7898, "ĠSasha": 29276, "¹ł": 19211, "Ġ280": 41229, "Ġlayer": 4583, "ĠAND": 8093, "Ġperson": 954, "ĠìĹ¬ê¸°ìĦľ": 25404, "Ġtiáº¿": 34923, "Ġimportantly": 8906, "OTT": 29525, "rent": 1753, "ĠCancer": 26127, "tal": 32831, "timer": 38013, "Ġundergoing": 40033, "Ġbunlar": 37921, "Ġwig": 24094, "9": 24, "Ġleaves": 5510, "łë¥¼": 39988, "mp": 2455, "Ġstim": 8983, "wol": 48481, "igers": 24756, "<|22.32|>": 51480, "Sound": 44830, "friend": 5540, "came": 3005, "ÐµÑĤÑĭ": 18810, "Ø§Ø¬": 26108, "Ġtreats": 19566, "Ġbeh": 1540, "Ġrelatives": 18201, "doc": 39966, "stan": 18758, "Ġtestament": 35499, "ĠMichel": 23709, "Ġencourage": 5373, "uate": 10107, "Ġbelieve": 1697, "Ġfilmmakers": 35018, "Ġflavours": 49450, "ĠChu": 25585, "ĠspoÅĤec": 36851, "á½": 26376, "ĠØ§ÙĦØ®": 33962, "Ġrefer": 2864, "Ġinvited": 9185, "ooo": 18728, "ĠciÄĻ": 35484, "issÃ¤": 38354, "ach": 608, "ĠMater": 19188, "Ġconferences": 22032, "<|10.84|>": 50906, "ĠâĪ": 28462, "Ġsubstrate": 27585, "ĠGoku": 29138, "ĠDiskuss": 45963, "ĠMinor": 36117, "Ġperformer": 30248, "www": 17919, "Ġcry": 3305, "Ġstopped": 5936, "ÏĦÎ¿Ïį": 47249, "ĠOh": 876, "ĠAj": 25862, "Ġbekannt": 39167, "Ġdisappointment": 28175, "ÃŃss": 36375, "liest": 16850, "¶": 114, "Ġemergencies": 43483, "Ġleb": 17111, "Ġpeak": 10651, "ĠStop": 5535, "ĠTek": 27821, "å¤ļ": 6392, "ÑĭÑĩ": 21097, "Ġrotor": 26847, "Ġarrests": 48813, "åĹ¯": 21206, "ĠLibya": 36452, "Ġ135": 42652, "Ġchapel": 42617, "ĠHeb": 15606, "ĠAllow": 32225, "Ġturns": 4523, "ĠÅ¾": 17305, "ĠPW": 46375, "ĠÐ½Ð¾Ð²ÑĭÐµ": 39232, "Ġinne": 24170, "ĠHTTP": 33283, "ĠGerald": 38332, "<|21.90|>": 51459, "æĺİçĻ½": 28430, "Ġstrum": 47338, "ueller": 33467, "Ġelectoral": 28633, "Ġlikely": 3700, "Ġprotection": 6334, "Ġcliff": 22316, "ĠGrade": 44452, "Ã¤nde": 26973, "ĠÐ±Ñĥ": 21646, "lim": 4197, "ĠBere": 17684, "Ġhabe": 6015, "bei": 21845, "ĠDemocrat": 27827, "Ġ%": 14189, "onen": 32923, "ctions": 3916, "TE": 13639, "ĠPod": 12646, "ĠOD": 48447, "que": 1077, "Ġëĸ¨": 27436, "ĠOb": 4075, "Ġlobb": 35673, "ĠìĥĿê²¼": 49810, "Ġtopl": 41017, "tera": 23833, "Ġsemb": 20775, "Ġestran": 49461, "Ġspectacular": 18149, "zus": 16236, "Ġmondo": 40499, "Ġdelle": 16485, "ervation": 6864, "ĠDoy": 40059, "Ġpore": 41459, "Ġalmost": 1920, "oples": 15661, "ĠGwen": 42499, "Ġëı": 5189, "cup": 16794, "Ġprochain": 39389, "Ġcompile": 31413, "<|7.50|>": 50739, "<|26.06|>": 51667, "ĠBerlin": 13848, "ĠÐ¼Ð½": 16338, "Ġhizo": 28803, "ĠRak": 43000, "Ġavenues": 43039, "Ġgust": 9679, "Ġnuo": 37802, "ĠAK": 24789, "Ġunters": 20983, "ĠInstit": 33897, "Ġzones": 16025, "Ġem": 846, "Ð¸ÑģÐ»": 47105, "Ġfirefighters": 37218, "Ġcriar": 36882, "Ġload": 3677, "ë°": 8672, "ĠÐŀÐ´Ð½Ð°ÐºÐ¾": 39757, "Ġrating": 10990, "Ġshoulder": 7948, "Ġbicycle": 20888, "Ġshares": 12182, "ãģ®": 2972, "ĠSwe": 29918, "ĠÑģÑĤÐ°Ð½Ð¾Ð²Ð¸ÑĤÑģÑı": 44799, "redit": 20046, "Ġwrench": 25406, "ĠInk": 31147, "wah": 37360, "åħĪ": 10108, "Ġnewest": 17569, "ĠInaudible": 48655, "Ġë´¤": 20727, "Ġwil": 20501, "ĠAndy": 13285, "ĠTherm": 38957, "Ġìłľ": 4424, "Ġ2030": 28638, "Ġsuccess": 2245, "Ġê·¸ëŁ¬ëĭĪê¹Į": 20855, "Ġtremendously": 27985, "he": 675, "Ġjunge": 47877, "Ġtribute": 24722, "Ġtoil": 9499, "Ġelasticity": 46260, "Ġdestroyed": 8937, "<|16.18|>": 51173, "Ġ55": 12330, "Ġphotographers": 33835, "Ġayudar": 38759, "Ġsodium": 20265, "ĠÐ¸Ð½": 6635, "Ġdetach": 43245, "Ġtone": 8027, "Ġregrets": 31214, "orton": 36184, "Ġselves": 41900, "Ġwavel": 22144, "ĠAbigail": 47174, "ĠFusion": 36721, "<|1.10|>": 50419, "bourne": 24905, "iv": 592, "band": 4235, "ĠAN": 5252, "Ġgelir": 44011, "ĠTim": 7172, "Ġminimal": 13206, "ĠØ§Ø³": 24525, "ĠElena": 39603, "Ġslips": 44690, "ĠPAC": 46644, "ãĥ³ãĥĢãĥĽ": 43473, "Ġsurf": 9684, "ì¦": 9760, "ĠÐ²Ð¾ÐºÑĢÑĥÐ³": 45247, "ĠAnglo": 49570, "Ġcomics": 18756, "ì¦ĺ": 23092, "Ġresistance": 7335, "ĶìĿ´íģ¬ìĹħ": 30952, "Ġpewn": 47160, "ĠButter": 22646, "ĠJoh": 19180, "Ġprotecting": 12316, "Ġcocon": 12893, "ĠAug": 6088, "Ġ×¤×Ķ": 40833, "ĠKollege": 28505, "Ġini": 7408, "urable": 25863, "ubine": 47866, "ĠReaper": 49956, "<|6.66|>": 50697, "ĠMiz": 37793, "ĠÐ±Ð°ÑĤ": 47697, "ĠGoogle": 3329, "æ¯Ĵ": 46495, "ces": 887, "Ġabortion": 22902, "Ġinversion": 43576, "ĠDanger": 36619, "Ġturn": 1261, "Ġideological": 35341, "ĠChuck": 21607, "Ġportal": 14982, "ĠEinsatz": 38474, "Ã¼nkÃ¼": 18351, "ĠÅŁimdi": 16391, "ĠKend": 20891, "Ġcleanup": 40991, "§ģ": 25787, "ĠKan": 11120, "ĠìĥĿê°ģìĿ´": 34581, "ĠBitte": 42890, "Ġfalsch": 43340, "à¸Ĺ": 11099, "ensive": 2953, "ìĤ´": 26082, "aaaa": 16425, "ĠìĹĨê³ł": 48724, "born": 10324, "ĠJUSTIN": 41987, "warm": 49240, "Ġteamed": 47426, "Ġbard": 7685, "aimer": 43378, "Ġvirtually": 14103, "Ġplastic": 5900, "dle": 2285, "Ġpreserving": 33173, "Ġbede": 22466, "Ġforgive": 10718, "CU": 25864, "Ġë³Ģ": 25575, "Ġbreat": 3656, "×Ł": 14388, "Ġdrives": 11754, "Ġë¬´ìĹ": 45613, "tense": 39595, "Ġê±±": 39365, "ĠShaw": 27132, "Ġdem": 1371, "Ġtragedy": 18563, "tic": 40907, "ologie": 20121, "ãģ£ãģ¦ãĤĭ": 45350, "orf": 28030, "immen": 32076, "Ġelsewhere": 14517, "ĠÙĦÙĬ": 32239, "esis": 9374, "Ġsimultaneous": 46218, "Brian": 29462, "åį°": 35825, "Ġotur": 41598, "ĠÃº": 6991, "Ġëĭ": 2515, "ithe": 45381, "ĠGuys": 7855, "Ġsaga": 34250, "ĠThanos": 35993, "Ġtravaille": 41072, "irie": 32924, "Ġsav": 11163, "cros": 42471, "ĠAlaska": 19553, "Ġë¶Ħë": 21735, "ĠâĻ©": 36865, "Ġleaning": 23390, "ahon": 45080, "Ġstereotypes": 30853, "ÙĥÙħ": 24793, "Ġtren": 23136, "ĠGuatem": 39462, "angel": 14282, "Ð¾ÑģÑĤÑĮ": 25437, "ĠClaudia": 36785, "ĠaÃ§": 12930, "ãģĵãģĵ": 23509, "ĠDef": 9548, "ĠInf": 11537, "enges": 47077, "Ġoily": 27693, "åīĩ": 46225, "Ġremar": 34329, "ĠParce": 20429, "liness": 32268, "Ġropes": 32964, "å¾Īæľī": 49295, "ĠHonor": 16922, "ĠdonnÃ©es": 40101, "field": 7610, "Ġscenarios": 15077, "Ġrecruitment": 28240, "Ġworks": 1985, "ìĦ±": 8631, "Ġquestioned": 28146, "ĠMedium": 38915, "<|1.20|>": 50424, "ĠMartine": 37195, "ĠAlle": 25318, "oro": 10780, "Ġcul": 11021, "ousing": 24220, "ĠMental": 30294, "Ġburada": 19167, "Ġquier": 23572, "Ġhunted": 44943, "Ġpartner": 4975, "Ġmasked": 45249, "ĠMic": 5818, "Ġparle": 18508, "Ġcoisa": 9614, "Ġcertified": 18580, "ĠDirector": 7680, "Æ°á»£c": 14737, "Ġdisput": 37669, "Ġprepar": 8231, "gary": 36214, "Ġdefinit": 28781, "Redner": 35338, "Ġparticulier": 40400, "Ġadjacent": 24441, "Ġtwenty": 7699, "Ð²ÐµÐ´": 32965, "75": 11901, "ÐµÑĪÑĮ": 7815, "ĠDunk": 47183, "<|19.82|>": 51355, "<|28.22|>": 51775, "Ġconstructor": 47479, "Ġë½ĳ": 38473, "ĠTory": 48743, "ĠAhhh": 27185, "ĠÐ¿Ð¾Ð½Ð°Ð´": 49581, "ĠDual": 37625, "ĠALISSA": 39430, "åĬŀ": 39453, "ĠBle": 30721, "Ġcamer": 38946, "ĠDur": 13710, "Ġpistol": 25385, "ĠTeles": 48595, "Ġlobby": 21067, "Ð¸Ñĩ": 3903, "Ġshorten": 39632, "Ġhac": 46093, "<|7.24|>": 50726, "ĠIst": 12810, "Ġdownt": 11655, "Ġging": 21924, "bok": 21666, "BE": 10207, "Ġcustomize": 19734, "ãĢħ": 45032, "bye": 6650, "ĠÐ¼Ð°Ð»": 19499, "ĠJo": 3139, "Ġìĺ¤ëŀĺ": 46211, "Ġëĭ¤ìĸĳ": 40553, "Ġvielleicht": 12547, "ĠìĦłìĥĿëĭĺ": 37974, "<|29.22|>": 51825, "Ġbri": 33713, "ĠÐ·Ð°": 4396, "Ġmud": 8933, "Ġmacht": 10857, "Ġminut": 13951, "ĠDj": 33464, "uss": 2023, "Ġtha": 43614, "word": 7462, "ĠVed": 26084, "ĠLaughter": 13584, "åł´": 21446, "ÑĭÐ¿": 43708, "ĠfrÃ¥": 13237, "erecht": 48561, "ĠÐ»ÐµÐ³": 22311, "Ġnay": 34227, "Ġhistorians": 26442, "Ġcoordin": 8285, "Ġransom": 38279, "ĠÐ¾ÑģÑĤ": 12574, "ĠSoviets": 41354, "Ġnavy": 31319, "Ġscold": 26437, "Ġbanker": 48008, "Ġcoinc": 13001, "Ġbutcher": 41579, "Ġcooks": 30709, "ACK": 11595, "Ġvoid": 22009, "<|17.06|>": 51217, "<|ml|>": 50296, "ths": 32184, "ĠHamp": 30303, "ĠYoda": 48697, "Ġcombines": 29520, "ĠDoctors": 39090, "ãģĪãģĪ": 39643, "ary": 822, "ieg": 20408, "In": 4575, "ĠLynd": 48800, "Ġsoon": 2321, "BI": 11291, "ĠShake": 27809, "ĠproblÃ¨me": 21111, "ÑıÐ³": 25217, "Ġunsure": 32486, "ĠMeasure": 41436, "gypt": 9176, "Ġpouch": 27781, "ĠKommentare": 46203, "ĠLeo": 19344, "Ġlaps": 24971, "Ġegg": 3777, "ammers": 48414, "å·¦åı³": 29457, "ĠHindus": 49726, "åħ©åĢĭ": 34623, "Ġzwischen": 19875, "Ġtard": 21057, "Ġfellow": 7177, "Ġdrugs": 7766, "ðŁĺĤ": 47951, "cze": 9680, "Ġacost": 44126, "ieron": 14440, "meric": 1555, "Ġformal": 9860, "ĠChoi": 33479, "owner": 34679, "LAUGH": 6664, "ĠAma": 14171, "ĠcuÃ¡nt": 44256, "Ġeres": 30065, "vere": 5887, "ĠSound": 14673, "Ġadjac": 22940, "Ġê²Ģ": 20282, "Ġglossy": 38285, "Ġphysicians": 21966, "ective": 22909, "ĠWarren": 20538, "åĪ©": 23700, "ĠVerein": 47431, "<|14.70|>": 51099, "prised": 42093, "ĠPub": 21808, "ĠJR": 32849, "Ġjourney": 4671, "Ġautomobile": 38809, "Ġ60": 4060, "Ġseg": 3896, "bean": 17097, "Î¿ÏįÎ¼Îµ": 43106, "Ġdishwas": 35992, "ateral": 17274, "æ©Ł": 17543, "respace": 45245, "ification": 3774, "ĠÐ¿ÑĢÐ¾Ð±": 15122, "ĠDire": 5822, "Ġworld": 1002, "Ġsoften": 31356, "ĠSharon": 28573, "ekkÃ¼r": 31629, "Ġmatte": 21592, "Ġtaps": 42536, "sta": 9140, "Ġcarr": 15910, "ÑıÑĤÐ¸": 21689, "Ġpurs": 7088, "ĠDuring": 6842, "ĠMer": 6124, "ĠEbola": 37846, "ĠPacific": 13335, "imes": 1532, "integr": 31131, "Ġdev": 1905, "Ġbuzzing": 29659, "aucoup": 8611, "ĠAth": 16487, "ĠpolÃŃtico": 48641, "ÑĢÐ¾Ñģ": 9225, "ĠìŀĪëĬĶëį°": 19197, "Ġgene": 12186, "ĠluÃ´n": 35690, "Ġsalv": 26858, "Ã¶l": 13072, "jud": 9218, "ĠChallenge": 17517, "Ġcontemporary": 14878, "Ġextraordinarily": 34557, "Ġtransport": 5495, "ĠNether": 18313, "ĠSchol": 27866, "Ġoccupy": 30645, "zaÄĩ": 35873, "Ġinherent": 26387, "Ġcollateral": 41875, "INGING": 24763, "ĠTC": 34150, "Ġprinciple": 8665, "Ġbreath": 6045, "stock": 23914, "åįĪ": 44237, "Like": 19657, "hhhh": 15242, "Ġtrabajando": 40473, "Ġgrote": 39928, "Ġsmelling": 35471, "Ġfake": 7592, "Ġpeux": 14844, "Ġdamaged": 14080, "tz": 23643, "ĠRonaldo": 46132, "hope": 47485, "ĠThrones": 31659, "Ġgrooves": 49359, "icular": 14646, "ĠEngland": 8196, "Ġ...": 1097, "ĠÃ©n": 39315, "Ġoldu": 9761, "Ġaconteceu": 34028, "Ġoatmeal": 47223, "ĠThat": 663, "Ġprere": 38333, "ĠÐ¿Ð¾Ð·": 12188, "Ġwon": 1582, "ĠNews": 7987, "ĠÎ»ÎŃ": 36148, "Ġtended": 34732, "amy": 7804, "Ġstates": 4368, "Ġmodeling": 15983, "ĠzdjÄĻ": 49026, "Ġì¢Ģ": 6796, "Ġdetached": 42050, "Ġexpiration": 39657, "Ġfranch": 13002, "<|11.10|>": 50919, "Ġepile": 41855, "ĠÑĤÐµÐ¼Ð¿ÐµÑĢ": 45609, "é«Ļ": 38760, "ĠCounter": 35607, "ieux": 35371, "Ġëĭ¬ëĿ¼": 42407, "Ġcommentary": 23527, "Ġjourn": 17598, "Ġconception": 30698, "Ġpickup": 25328, "andra": 18401, "rator": 19802, "agens": 27936, "ortune": 27172, "ä½łè¯´": 42405, "Ġpushing": 7380, "Ġdobry": 35884, "Ġhebben": 12116, "ĠÐĹ": 5841, "ÐµÐ»": 1414, "Ġmerit": 24527, "mma": 29577, "ĠëĤ´ë": 15139, "Ġurg": 40199, ".,": 7933, "Ġrestrictive": 43220, "Ġê¸°ë¶Ħ": 37149, "ĠGEOR": 24992, "nesday": 10362, "Ġmeditating": 46850, "Ġfus": 34326, "ĠHBO": 37409, "ĠShannon": 28974, "ĠAccept": 39957, "Ġfailures": 20774, "Ġheb": 8007, "Ġstory": 1657, "ÙĦÙĬ": 20292, "ĠApart": 24111, "Ġmyth": 9474, "Ġirgendwie": 20759, "Ġpossess": 17490, "Ãºlt": 43447, "Ġphysicists": 48716, "Ã¼nd": 9541, "Ġprobl": 15201, "Ġuniverso": 42332, "ĠÑģÐ¾Ð¶Ð°Ð»": 45999, "Ġaimed": 20540, "Ġapproaches": 11587, "asst": 48435, "Ġjong": 38678, "ĠMustang": 37115, "ç¢º": 24293, "Ġlit": 7997, "Ġproceeded": 39053, "aven": 4940, "ĠÐºÐ¾ÑĢ": 11384, "Ġmaj": 13673, "Ġcritique": 25673, "å¸¸": 11279, "Cam": 31030, "Ġneurological": 48185, "ĠLouisiana": 25413, "Ġperiods": 13804, "Ð£": 11887, "Ġrepertoire": 49604, "Ġtopped": 38781, "Ġrooted": 25277, "ĠGeorgia": 11859, "ĠdeÄŁild": 49587, "Ġêµīìŀ¥": 15286, "Ġscen": 4191, "Ġcommented": 26940, "Ġporn": 19444, "ĠLeave": 9825, "Ġhelper": 36133, "Ġsandwiches": 29022, "lÃ¤": 22882, "ĠEn": 2193, "Ġdata": 1412, "uri": 9744, "<|27.16|>": 51722, "<|4.46|>": 50587, "Ġdiversity": 8811, "lier": 2753, "Ġbooklet": 48469, "çĦ¡": 16976, "Ġìŀ¡": 16545, "ĠTrail": 30080, "Ġstems": 27600, "ĠGh": 20321, "ÏĥÏĦ": 22156, "çĪ¾": 41997, "Ġlistening": 4764, "Ġnarciss": 25771, "IND": 18323, "Ġ11": 2975, "Ġattacking": 15010, "¶ĢíĦ°": 12130, "ĠKultur": 46744, "ëĬĶëį°ìļĶ": 14586, "Ġturnout": 42497, "ĠValerie": 46656, "Ġworden": 14054, "Ġ×Ķ×Ľ": 29561, "Ġgerms": 44010, "Ġconhecer": 46235, "agu": 31686, "Ġesses": 18966, "ĠCyberpunk": 46927, "Ġscrib": 39435, "Ġtoothp": 27003, "Ġopp": 1458, "ode": 1429, "Ġorbit": 13991, "ĠOwn": 25964, "Ġesimerk": 50029, "ĠquÃ¡": 38338, "ricting": 37714, "ruck": 8161, "çŃĶ": 28223, "Ġpregunt": 19860, "itated": 18266, "ĠMemory": 38203, "oriented": 27414, "Ġwiping": 40611, "Ġcas": 3058, "ë°Ķ": 47053, "Ġ65": 11624, "If": 8031, "ĠEgyptians": 44119, "hing": 571, "Ġdisputes": 39666, "Ġdominating": 43306, "ĠÐĸ": 18977, "Ġsensations": 36642, "ĠPicture": 35730, "Ġsubsidi": 48296, "Ġoverboard": 49480, "engo": 30362, "Ġscrews": 13050, "ÏģÎ¹": 13477, "ose": 541, "Ġcancellation": 45867, "Ġtorn": 10885, "Ġfriction": 17710, "Ġav": 1305, "Ġration": 24258, "ĠduÅ¼o": 26673, "éª": 49657, "ĠNegro": 45256, "æĺ¯": 1541, "Ġpersone": 29944, "Ġvalue": 2158, "íĳľ": 18923, "ĠSpo": 45011, "ĠJoel": 21522, "Ġturtles": 32422, "Ġalong": 2051, "ĠDe": 1346, "Ġzas": 26530, "Ġexponential": 21510, "Talk": 33210, "ologÃŃa": 29987, "Ġeinz": 21586, "person": 10813, "æĢİéº¼æ¨£": 34253, "Ġmuut": 46785, "tha": 13571, "Ġcourses": 7712, "Ġkuv": 49275, "Ø¹Ùħ": 25957, "ĠMercy": 35626, "ĠStrange": 29068, "Ġminus": 3175, "Ġtechnical": 6191, "entes": 9240, "ĠÐĲÑĢ": 32091, "Ġwife": 3836, "muffled": 47503, "Ġsegments": 19904, "ìĿ´ë¥¼": 35150, "Ġstate": 1785, "Ø±Ùģ": 28480, "ĠNim": 45251, "Ġthanking": 30830, "Ġinitiatives": 16194, "aler": 17148, "ĠÐ¿Ð¾Ð½Ð¸Ð¼Ð°Ñİ": 35112, "Ġdigestion": 40560, "],,": 43192, "ĠSora": 46639, "Ġintest": 21098, "OMAN": 26418, "Ġmars": 30517, "Ġgrocer": 11884, "Ġconstruct": 7690, "Ġinsulation": 30508, "Ġprotocols": 20618, "Ġwaving": 35347, "åı¦å¤ĸ": 26202, "pted": 25383, "ØµÙĦ": 36520, "Ġsingular": 20010, "Ġmanagement": 4592, "Ts": 33424, "Ġforgiveness": 18396, "ĠcÅ": 17846, "<|10.86|>": 50907, "ĠPRESID": 42508, "called": 11880, "Ġimage": 3256, "íĬ¼": 29312, "Ġnie": 2838, "Ġvita": 32712, "ĠdÃ¤r": 12976, "bound": 18767, "Ġ63": 25082, "Ġê¼": 17264, "ĠVideo": 9777, "ĠÐ²ÑĭÑģ": 19361, "ĠMilitary": 28460, "Ġutterly": 30251, "ikte": 34165, "ĠSiber": 42608, "Music": 8710, "onsider": 35879, "ui": 3077, "Ġpresumably": 26742, "ĠInside": 15123, "Ġsigui": 39578, "Ġbomber": 44889, "Ġloose": 9612, "Ġà®İà®©": 17337, "sehen": 27750, "ĠDDR": 49272, "sÄ±n": 22133, "Ġunscrew": 42579, "ĠYuri": 33901, "Scott": 46488, "Ġturf": 42756, "Ġscholar": 17912, "ulated": 6987, "itic": 44592, "ingers": 40180, "ĠIsrael": 5674, "Ġ×Ĳ×ľ": 28379, "ÑĤÐ¾ÑĢÐ¾Ð²": 45961, "åĨįä¾Ĩ": 35961, "richt": 12836, "Ġlearned": 3264, "Ġhappy": 2055, "Ġindirect": 19523, "Bar": 38666, "Ġsteril": 41477, "Ġexperiencing": 11139, "Ã¼hren": 29540, "Ġsencill": 46749, "ĠìĪľ": 23841, "Ġve": 1241, "ific": 1089, "actively": 45679, "Ġcharts": 17767, "ĠVac": 44442, "ĠNic": 14776, "ases": 1957, "Ġlitt": 30267, "ĠWol": 19925, "Ġhistoire": 31202, "íİ": 14605, "Ġseats": 11069, "usters": 17181, "Ġfiring": 16045, "ĠBush": 15782, "Ġwicht": 26244, "Ġsubm": 8286, "Ġfaktiskt": 35988, "Ġinternationally": 24422, "ĠCouncillor": 11731, "Ġcarbono": 48491, "Ã¡nt": 27525, "Ġabsol": 7305, "Ġbet": 778, "Ġbik": 26730, "Greg": 48254, "Ġesque": 28147, "Ġintensely": 43235, "Ġbona": 49012, "Ġsatisfy": 19319, "ĠDonkey": 44217, "Ġserie": 23030, "Ġanthrop": 22727, "Ġshots": 8305, "ilÃł": 10039, "ÑĤÐµÑĢÐµÑģ": 45453, "Ã©tat": 49073, "Ð¾ÑĢÐ¼": 9167, "Ġovere": 38657, "Ġprovince": 16705, "Ġinnovation": 8504, "ĠÎºÎ±Î¹": 8839, "ÃŃp": 28236, "></": 48986, "Ð¾ÑĢÐ¾Ð²": 19716, "Ġdamaging": 25342, "łĪìĿ´": 38845, "find": 35072, "Ġkav": 39039, "ĠÐ¸Ð½ÑĤÐµÑĢ": 12073, "ÏĪ": 34169, "agen": 4698, "Ġzad": 42788, "alo": 10334, "ĠSAT": 31536, "Īëįĺ": 13461, "ĠMarion": 49270, "ĠÐĿÑĥ": 7571, "Ġaos": 25458, "Ġmuseums": 23248, "160": 44158, "Ġintimidated": 40234, "<|26.24|>": 51676, "edi": 10323, "Ġinternation": 19257, "ìĿ´ìĹĪ": 25569, "Ġstrong": 2068, "ĠÑĥÐ¿": 16036, "Ġmatters": 7001, "Å¥": 27101, "ĠHawk": 42219, "Ġcontrolled": 10164, "problem": 47419, "Ke": 18570, "LO": 20184, "ĠYEAH": 43549, "Ġresource": 7684, "pf": 25302, "Ġspaces": 7673, "ĠJeep": 31748, "ĠÑįÑĤÐ¾Ð¹": 14907, "Ġplenty": 7140, "ĠÐ¿Ð¾Ð´ÑĤ": 46103, "Ġakin": 47540, "Ġsalvation": 17456, "<|8.88|>": 50808, "Ġ;)": 41540, "Ġpenguin": 45752, "Ġconcentrated": 21321, "Ġripple": 40688, "ĠamÃ©ric": 39902, "Ġtalking": 1417, "Ġcracking": 25229, "phabet": 20890, "ìķĮ": 48234, "Ġrepar": 33291, "Ġstaged": 45178, "car": 6166, "ĠÑįÐ½": 31037, "ĠæĪĳåĢĳ": 27338, "Ġ1800": 24327, "Ġslate": 39118, "Man": 6652, "Ġrice": 5090, "ĠEssen": 42098, "èī¯": 33950, "Ġfinals": 25526, "Ġbeetje": 27459, "ĠJet": 28730, "Ġconcur": 23702, "jun": 10010, "Ġconjunction": 27482, "ĠÑĤÐµÑĢÑĢÐ¸": 49634, "Ġpurpose": 4334, "Ġattentive": 43661, "Ġë¬´ëĮĢ": 46650, "Ġagre": 4554, "Ġenthal": 46475, "Ġcleansing": 29345, "val": 3337, "ãģķ": 6722, "nent": 17469, "Ġinduct": 31612, "Ġslammed": 50196, "ĠÙĪØ£": 36725, "Ġunter": 8662, "Ġbrack": 12305, "Ġhab": 3025, "Ġfunktion": 20454, "phone": 4977, "scene": 47798, "Ġstar": 3543, "irse": 36097, "ĠUm": 3301, "ĠZac": 48082, "Ġregarding": 8595, "Ġhandc": 46175, "ĠÑģÑİÐ´Ð°": 25306, "ĠStuff": 31347, "Ġbound": 5472, "Ġfinanci": 24323, "Ġprost": 10293, "iso": 19227, "ĠCost": 20863, "bt": 4517, "Ġfeder": 38024, "Ġens": 3489, "Ġdicho": 27346, "ĠjakiÅĽ": 34721, "Ġsmack": 36348, "Ġboom": 9351, "ĠÐ´ÐµÐ¹ÑģÑĤÐ²": 17136, "Ġought": 13416, "ĠÐ²ÑĢÐµÐ¼Ñı": 12039, "Ġdiplom": 20053, "Ġ197": 7560, "Ġlaid": 9897, "íķĳ": 38044, "Ġlibrarian": 42558, "Ġgraduating": 18843, "etas": 35120, "ĠWet": 46046, "ìĭĿ": 10436, "ĠMama": 17775, "<|sa|>": 50344, "ĠMississippi": 20347, "ĠÐĳÐ¾Ð³": 34008, "ĠAaah": 48381, "ĠCamp": 9189, "Ġstud": 972, "ļ": 248, "Ľi": 8971, "ĠHoo": 26796, "add": 25224, "ĠÐ¿ÑĢÐ¸ÑĪ": 22448, "íĺ¹": 47049, "Ġapple": 10606, "Ġnonetheless": 26756, "ĠHej": 44567, "lab": 44990, "Ġhandles": 18722, "<|18.36|>": 51282, "åħ§": 28472, "Woman": 14361, "Ġwent": 1437, "Îº": 4915, "%.": 6856, "Ġquestionnaire": 44702, "Ġoutbreak": 20963, "udos": 35063, "ĠÐ¼Ð¾Ð³Ð»Ð¸": 37118, "Ġdanach": 37784, "ĠBone": 45915, "ĠÐ¿Ð¾Ð»ÑĥÑĩÐ¸Ð»Ð¾ÑģÑĮ": 44405, "azon": 6317, "gesetzt": 42283, "Ġenclosed": 42089, "ĠCome": 2492, "ished": 4729, "Ġcorrer": 49568, "elled": 41307, "ĠÐ§ÐµÑĢ": 39659, "ĠSn": 9264, "ciliation": 27870, "/": 14, "ening": 4559, "Ġtightening": 42217, "Ġsolder": 38128, "Ġvino": 48841, "Ġmood": 9268, "ĠNicolas": 38268, "Ġadjour": 46236, "ĠTÃ´i": 43345, "ronics": 37042, "Ġpuzzle": 12805, "<|29.40|>": 51834, "ĠBirmingham": 34673, "abytes": 24538, "Ass": 20892, "Ġtraverse": 45674, "ĠTun": 21363, "Ġeditors": 31446, "ĠOP": 23324, "isc": 5606, "Ġpockets": 16491, "ĠiPad": 12945, "×ŀ×": 9202, "ìĸ´ì": 2782, "Ġinacc": 37957, "Ġ×ŀ×": 5641, "iner": 4564, "ĠAub": 36927, "ĠBass": 29626, "irteen": 27114, "ĠÑĤÐµÐ±Ñı": 12644, "ĠSoutheast": 27906, "Ġofficials": 9798, "Ġleer": 34172, "Ġverdade": 15203, "ĠWhite": 5552, "ĠSend": 17908, "Ġmetabolic": 36464, "Ġdifferential": 15756, "rare": 35559, "Ġgroups": 3935, "Ġgenerate": 8460, "emen": 14071, "Ġoffense": 17834, "ihi": 48747, "ĠGund": 38299, "Ġleaving": 5012, "Ġins": 1028, "æĻĤåĢĻ": 14010, "emer": 29660, "Ġone": 472, "Ġrepair": 10535, "Ġwealthy": 17707, "Ġtook": 1890, "onds": 10166, "ĠÐ¸ÑģÐ¿ÑĭÑĤ": 46212, "Ġencont": 10176, "Ġtranspose": 25167, "ob": 996, "ĠSettings": 27286, "ìļ´ë": 40071, "Ã¤ndert": 34945, "åıĹ": 23151, "ØŁ": 22807, "ĠKardash": 37959, "Ġhan": 7276, "ĠMarketing": 27402, "Ġliegt": 22421, "²ķ": 30610, "ÅĻ": 15781, "ĠðŁİ¶": 43669, "<|29.72|>": 51850, "Ġplaisir": 32756, "Ġscorp": 46092, "Jo": 20846, "ĠExplain": 39574, "oyo": 26251, "ÑĢÑĥÐ¿": 17451, "ĠVerantwortung": 43423, "ĠJK": 35973, "ĠSophie": 29645, "ĠÑģÐ²Ð¾Ðµ": 42666, "ĠÑģÐ½Ð°ÑĩÐ°Ð»Ð°": 44437, "Ġdevelopmental": 30160, "<|10.54|>": 50891, "Ġrepe": 4301, "Ġì¼Ģ": 46142, "Ġtenemos": 9914, "inky": 22998, "icas": 9150, "ĠNed": 31355, "Ġprise": 49468, "è§Ĥ": 42350, "ĠFraktion": 30648, "ĠpaÅĦstwa": 43289, "\"...": 18332, "Ġeig": 9728, "ĠConservation": 40131, "ĠPaper": 24990, "Ġsnip": 37482, "unning": 25589, "ĠÐ¼Ð½Ð¾Ð³Ð¾": 13347, "ÑħÐ°": 36869, "Ġmolecule": 15582, "Ð½Ñı": 5151, "Ġindoors": 29655, "ĠShow": 6895, "omme": 15117, "ĠserÃ¡": 16502, "à¹ĥà¸Ĭ": 43880, "Ġcalam": 43936, "Ġamigos": 18243, "Ðľ": 10626, "umbling": 14188, "Ġíĺ¹ìĭľ": 34767, "ĠÐ´Ð°Ð²Ð°Ð¹": 28869, "Ġstumbled": 36668, "Ġalguns": 20210, "Ġkys": 35573, "ĠnÃ©cessaire": 46396, "ELIPE": 13013, "Ġprosecution": 37106, "Ð¡Ð¢": 40752, "Ġmagg": 44639, "Ġcapac": 4637, "Ġamb": 3913, "uiten": 42928, "Ġpatio": 42924, "Ġverbess": 49112, "įĶëĿ¼ê³ł": 19129, "Ġmundial": 41740, "<|5.32|>": 50630, "<|23.74|>": 51551, "Ġgefunden": 36923, "Ġmeasures": 8000, "Ġ50": 2625, "Ġprove": 7081, "udd": 26656, "ĠcrÃŃt": 39927, "æŁ": 17238, "ĠCollection": 30981, "Ġintim": 13148, "æ»": 15868, "ne": 716, "Ġinterdisciplinary": 38280, "ĠAU": 7171, "Ġlane": 12705, "aal": 38950, "Ġgibt": 6089, "ĠStretch": 38817, "è¿ĳ": 17463, "Look": 12863, "Ġcardiac": 32129, "Text": 50198, "Ġassistir": 45983, "ĠÄĳá»Ļ": 29075, "ĠUnknown": 32766, "Ġvibrations": 32339, "Ġco": 598, "graph": 34091, "<|5.54|>": 50641, "Ġfunctional": 11745, "ako": 18501, "liamo": 49926, "onces": 8498, "ìļ©": 8761, "<|27.44|>": 51736, "Ġdrawn": 10117, "Ġdrilled": 38210, "ĠGoodness": 39863, "Ġagony": 46025, "Ġlinha": 33768, "ountain": 22838, "Ġwiggle": 33377, "Ġlivre": 24735, "Ġ×Ķ×Ļ×Ĳ": 35422, "Ġoverarching": 45501, "Ġkun": 8215, "ĠMatch": 26178, "ĠLaughing": 46861, "ĠÑĢÐ°Ð±Ð¾ÑĤ": 9197, "Ġlassen": 16168, "Ġinteressant": 37748, "<|so|>": 50326, "ĠHIS": 45470, "ex": 3121, "Ġpillars": 26729, "ĠÐĵ": 7247, "ĠprÃ¨s": 25350, "Ġonto": 3911, "Ġrunners": 33892, "ĠBET": 41804, "Ġpreferred": 16494, "Ġalien": 12319, "rett": 14313, "ĠPure": 29474, ".": 13, "Ġces": 7879, "Ġchew": 21200, "Ġheavenly": 29406, "orean": 25885, "lets": 12541, "Ġcommercially": 41751, "Ġelectrod": 44216, "ĠÐ±ÑĥÐ´Ðµ": 47438, "<|10.40|>": 50884, "Top": 50118, "Ġroasted": 24766, "ÃŃna": 42279, "à¯Ī": 8402, "ĠBO": 22785, "ĠÑ": 1015, "<|22.94|>": 51511, "ocket": 31380, "Ġbilmiyorum": 48699, "ìĽĢ": 45103, "OFF": 45825, "Ġwatershed": 49728, "isher": 9807, "Ġswallow": 20099, "¥´ê²Į": 39930, "ĠAim": 47796, "Ġcompatible": 18218, "ieren": 5695, "ĠGar": 7995, "Ġobjections": 44649, "Ġoraz": 28905, "Ġcommercials": 33666, "uguese": 21609, "maan": 39625, "Ġdiferen": 18959, "Ġeli": 34486, "iot": 6471, "Ġagreements": 21422, "ĠmÃł": 13901, "Ġlo": 450, "Ġclimax": 41329, "chair": 17892, "onder": 8548, "Ġdrag": 5286, "Ġquotid": 44017, "ogy": 7794, "ĠBets": 49352, "Ġtatto": 12096, "Ġ×ŀ×ĵ": 36631, "ividades": 41938, "Ġspectrum": 11143, "Ġwherein": 43531, "aÄĩ": 43379, "iono": 49020, "Ġlack": 5011, "homme": 38073, "Ġbrewer": 39440, "ĠSalut": 33559, "âĤ": 37781, "ĠOttoman": 33435, "ĠÅĽwie": 40078, "ĠSepar": 43480, "Ġrecent": 5162, "ĠsiinÃ¤": 41464, "ĠìĥĿê°ģ": 8594, "oughing": 25875, "Ġbreeding": 26051, "ĠOÄŁlum": 41783, "Ġparticipants": 10503, "Ġfragile": 23847, "Ġpassar": 20630, "ĠcÃ¡i": 14830, "ivesse": 40812, "Ġdrifting": 37973, "Ġvolt": 5962, "ĠPors": 29416, "Ġpos": 1366, "aves": 5423, "ĠStitch": 44871, "ÑģÐ¾Ð»ÑİÑĤ": 29419, "lia": 14218, "Ġirgendwo": 40865, "åĢĭ": 3338, "¥´ì": 41390, "åĳ³": 17268, "Ġpoet": 20874, "HE": 23728, "ĠOffic": 11511, "ä½ł": 2166, "ĠItÃŃs": 47806, "tim": 31208, "à®ªà®Ł": 35032, "<|0.00|>": 50364, "<|10.44|>": 50886, "Ġaprove": 29015, "Ġcorridor": 25602, "Ġë§Ĳê³ł": 35145, "Ġenfants": 22649, "Cola": 42441, "ÈĻ": 10355, "Ġcells": 5438, "Ġacompa": 39226, "ĠUt": 12555, "ĠErn": 24147, "<|21.08|>": 51418, "Ġnawet": 22696, "anya": 8791, "æĸ¹éĿ¢": 39604, "á»ĩt": 21931, "Ġarchive": 23507, "Ġtraz": 37481, "zin": 23584, "sal": 15142, "Ġtriumph": 29156, "Ġtolerate": 25773, "uren": 9873, "<": 27, "04": 14565, "royable": 45976, "vals": 19778, "ĠAnfang": 25856, "ĠEcuador": 41558, "anced": 4864, "ĠlanÃ§": 36251, "Ġprocrast": 39306, "Ġnyt": 21508, "awy": 41961, "ĠMac": 5707, "Ġliteracy": 23166, "Ġãħ": 40978, "ĠÐŁÑĢÐ¸": 22059, "Ġtime": 565, "ĠRaw": 23732, "ĠÐ¿ÑĢÐµÐº": 28939, "Ġsanit": 24533, "plus": 18954, "ĠÑĤÑĭÑģÑıÑĩ": 25025, "Ġyounger": 7037, "ĠVault": 46071, "ĠLD": 33936, "Ġinappropri": 24728, "Ġlineage": 38257, "Ġcampo": 29691, "medim": 48730, "ÑīÐµ": 4805, "Ġsequence": 8310, "ĠìĥĪ": 31184, "Ġdefeat": 11785, "ĠíĨł": 40309, "coin": 8562, "Ġcoupled": 29482, "Ġlimited": 5567, "ouver": 19677, "_": 62, "utors": 30751, "Ġmega": 17986, "ĠFBI": 17441, "Ġdrawers": 38302, "ĠsÃ¶yle": 16928, "Ġportfol": 11688, "ĠUrban": 24885, "Ġreminder": 13548, "ĠvÃ©ritable": 47492, "guard": 27547, "ĠNewman": 49377, "Ġepisodes": 9313, "Ġvitamin": 17163, "Ġforg": 3667, "points": 20552, "×Ļ×©": 16732, "strom": 38673, "<|4.94|>": 50611, "ĠPokÃ©mon": 20104, "Ġshroud": 50077, "ĠÐ¢Ð°Ð¼": 27451, "Ġcorpse": 30324, "Ġcut": 1723, "ĠÐºÐ¾ÑĤÐ¾ÑĢÐ¾Ð¹": 29452, "Ġdecentralized": 32870, "ĠAntarctica": 39866, "Ġevangel": 24546, "Ġentfer": 41940, "Ġwood": 4576, "Ġsizi": 45327, "inf": 19920, "iek": 19487, "uum": 12823, "ax": 2797, "qui": 18170, "Ġbrauch": 45522, "Ġafterwards": 10543, "heric": 23920, "ls": 11784, "ods": 19768, "Ġconsiderable": 24167, "Ġprogramming": 9410, "Ġchord": 14137, "ĠBeni": 44460, "Ġzat": 35802, "Ġkomplett": 32261, "ĠBrill": 30132, "Ġë³Ħ": 47442, "ishop": 18091, "Ġvibrant": 21571, "Ġtrauma": 11407, "ĠInternet": 7703, "çĽ": 5419, "ÐµÐ´ÑĮ": 16878, "Ġlur": 35583, "Ġmamm": 19033, "Ġrol": 34109, "Ġtelescop": 37085, "ĠdokÅĤad": 45864, "Ġrok": 35135, "Ġinformations": 38855, "à¤¾": 17937, "Ġassess": 5877, "mens": 45743, "Ġtents": 39283, "ogr": 47810, "ĠOlha": 19450, "ĠmyÃ¶s": 23623, "Ġcages": 45888, "ĠHamb": 27551, "ĠRoger": 17666, "Ġduy": 37385, "Ġbridge": 7283, "Ġsuit": 5722, "Ġsummoned": 40791, "Ġstill": 920, "ì§Ģê°Ģ": 30232, "Ġjours": 20724, "hop": 9050, "<|18.32|>": 51280, "<|20.08|>": 51368, "Ġann": 2324, "acjÄĻ": 29924, "Ġtrace": 13508, "Ġ35": 6976, "ĠÑģÐ¸ÑģÑĤÐµÐ¼Ð°": 48123, "ĠVerfÃ¼g": 41611, "ľ¨": 34057, "<|7.96|>": 50762, "Ġunderm": 24188, "Ġìŀłê¹": 24155, "Ġera": 4249, "world": 13217, "ailand": 18790, "Ġpige": 26704, "ĠÑĥÐ´Ð¾Ð±": 35943, "Ġvulnerability": 24210, "ĠmÃ©l": 41953, "ĠDans": 16897, "Ġdescent": 23475, "Ġfois": 9576, "ĠLiam": 32860, "ĠChampionships": 46917, "Ġcloud": 4588, "fol": 7082, "ibr": 6414, "Ġallowing": 8293, "ĠCPA": 48672, "urning": 10656, "ĠIh": 10485, "ä¸Ī": 38313, "Ġwissen": 16331, "ngulo": 37308, "Ġsoc": 13598, "bek": 25714, "Ġintellect": 10058, "Ġimmunity": 22701, "Ġchooses": 25963, "Ġpodob": 43024, "ĠArt": 5735, "Ġboiled": 21058, "Ġrespecto": 35694, "Ġdeciding": 17990, "SON": 10388, "Ġnut": 5393, "Ġbehand": 43122, "Ġsmartphone": 13307, "Ġpertama": 49109, "Ġpronunciation": 23338, "Ġtunnel": 13186, "Ġdrastic": 36821, "Ġdeduct": 31513, "Î¿Ïħ": 4486, "acking": 14134, "Ġac": 696, "Ġcommence": 18137, "65": 16824, "Ġpublication": 19953, "ĠDelhi": 26680, "Ġcellular": 29267, "ĠÐ²Ð¾Ðº": 39277, "Ġapprentices": 31715, "ãģ§ãģĻãģĭ": 30913, "orter": 6122, "ĠÚ©ÙĪ": 31561, "oph": 5317, "Ġmasterpiece": 32208, "è¶£": 39835, "ãĥ¼ãĥ«": 35307, "ÑĦ": 3619, "ĠFreud": 41590, "Ġpositioning": 26381, "Ġspiral": 25165, "Ġestablish": 8327, "ëĵľë": 33943, "Ġtadi": 42953, "Å¡ÃŃ": 48651, "Ġintrinsic": 35698, "pur": 35801, "ìłķìĿ´": 38676, "ĠÑģÑĤÐµÐ½": 48357, "Ġattach": 5085, "Ġexhibit": 20487, "Ġanimales": 45102, "haba": 42016, "ĠIoT": 30112, "Ġlanding": 11202, "Should": 38580, "Ġexpert": 5844, "audio": 46069, "Ġdragon": 12165, "ĠÐ¼Ð¾Ð¶ÐµÐ¼": 28815, "ĠJorge": 36875, "Æ°á»Ŀng": 24280, "ĠØĮ": 24637, "ows": 1509, "Ġconversion": 14298, "Ġchuy": 35522, "Ġsoils": 31324, "Hope": 46959, "ĠBian": 39509, "ì¢": 14227, "ĠPierce": 45432, "ĠnatÃ¼rlich": 8762, "Ġtradicional": 47956, "íķĺê³ł": 7040, "Ġë½": 28744, "Ġaccounting": 19163, "ĠÎºÎ¬": 26751, "EN": 2195, "Ġintegrate": 13365, "Ġblanket": 17907, "Ð°Ð¹ÑĤ": 23055, "ĠNeg": 19103, "Ġwatch": 1159, "ĠStalin": 32126, "Ġjersey": 40700, "Ġisolated": 14621, "bal": 2645, "oria": 8172, "ĠJung": 12739, "Ġchu": 40215, "Ġ\"-": 31672, "ĠIf": 759, "Ġriv": 28745, "ÑĢÐ°Ñģ": 17184, "Ag": 37968, "¡ľ": 1955, "Ġquant": 4426, "ĠMetro": 25598, "Ġcarbon": 5954, "Ġwai": 32883, "Ġhil": 28315, "Ġfaith": 4522, "iscal": 14616, "ĠÐ±Ð»": 16709, "ĠSega": 32114, "ÑĤÐ¾Ñĩ": 20483, "ĠChic": 9010, "Ġgreens": 22897, "Ġlifespan": 40361, "ĠSm": 3915, "Ġsiege": 34147, "Ġ67": 23879, "ĠAi": 16993, "Ġet": 1030, "Ġexc": 1624, "ĠZu": 23164, "ĠFallout": 38457, "paper": 22104, "Ġmoo": 37284, "Ġdef": 1060, "Ġmathematical": 18894, "quir": 45568, "ĠTIME": 36096, "Ø§ÙĨ": 7649, "ĠÑĤÑĢÐ¸": 22068, "Ġstead": 23721, "Ġkon": 5897, "ĠBrend": 25425, "Ã¤h": 6860, "''": 15025, "Ġlater": 1780, "ãģ³": 38761, "Ð¼Ð°": 14229, "ound": 554, "Äĥ": 4089, "<|10.50|>": 50889, "Ġnegativity": 39297, "Ø®": 9778, "ĠBr": 1603, "Ġveya": 49223, "confidence": 47273, "ìĹŃ": 18015, "ÏīÏĤ": 22788, "udge": 16032, "iah": 13984, "done": 45939, "ÐºÐ¸Ðµ": 12338, "90": 7771, "Ġclo": 20123, "Ġopioid": 32837, "Ġspent": 4418, "ĠÐ¿ÑĢÐ¾Ð¸Ð·": 16769, "ĠEf": 31840, "Ġorph": 23896, "ĠÐ¾ÐºÐ¾Ð»Ð¾": 40573, "Ġglauben": 47139, "Ġwiel": 20570, "ĠFreeze": 48096, "Ġcleans": 16912, "ĠBeing": 8891, "lares": 19415, "Ġmez": 28966, "HYUN": 46625, "ĠpoczÄħtku": 43959, "~~~": 20409, "ĠAffairs": 21721, "Ġsubmerged": 46985, "Ġslightly": 4748, "DE": 22296, "ĠRef": 16957, "Jan": 46356, "Ġcolabor": 49629, "Ġdrainage": 32973, "ortun": 1584, "ê°ĢìļĶ": 28517, "Ġscri": 5545, "ĠUl": 24853, "Ġweaker": 24286, "ĠìĦŀ": 45048, "Ġprescribed": 29099, "ä»ĸçļĦ": 31309, "Ġboys": 6347, "JE": 48474, "Ġlocals": 23335, "Ð»Ð¸Ð²": 15054, "ĠCON": 16596, "Ġspouse": 23013, "ĠÐ·Ð½Ð°": 6766, "Ġdesire": 7516, "<|23.30|>": 51529, "Ġmoeten": 26175, "q": 80, "Ġsno": 43287, "Ġachei": 44961, "ieben": 38243, "<|20.88|>": 51408, "ĠWish": 27697, "Ġtego": 8627, "Ok": 26616, "á»£": 27836, "Ġearnest": 48171, "ĠTokyo": 15147, "Ġsechs": 41945, "Ġflat": 4962, "Ġunf": 3971, "ĠRif": 48549, "was": 6569, "Ġdazz": 44078, "iquer": 23909, "ĠShooting": 45739, "ÑĪÐ¸Ð±": 37782, "Ã¡veis": 42530, "Ġvisually": 19622, "Ġdass": 2658, "¶Ī": 20026, "environ": 46848, "áº¥n": 43975, "Ġadministered": 36123, "Ġsurviv": 12324, "Ġcharged": 11109, "rael": 5416, "facing": 44046, "Ġcontrolar": 47843, "Ġinjured": 13408, "<|17.54|>": 51241, "ĠProblem": 11676, "ĠDif": 35940, "ÐµÑģÑĤÐ½Ð¾": 28779, "ĠNASA": 12077, "um": 449, "ĠGosh": 19185, "Ã¼ler": 29297, "Ġcovenant": 26661, "Ġsmoked": 27205, "ä½ķ": 11906, "Ġreserve": 17824, "Ġicon": 6528, "ĠdÃ¶n": 24782, "Ġtraction": 23558, "Ġdiagon": 17405, "Ġbitter": 13871, "Ġsch": 956, "Ġza": 7949, "ĠÐ²Ð¾Ð¹": 26055, "Ġãĥ": 15096, "ĠMacBook": 31737, "Ġclapping": 19978, "ĠÑģÐ°Ð¼ÑĭÑħ": 37241, "Ġbenchmark": 18927, "ĠÐºÐ¾Ð½ÑĦ": 45751, "Ġpitching": 37499, "Ġbattling": 33752, "Ġmattress": 20625, "Ġsignal": 6358, "ç´Ħ": 30889, "rim": 5565, "ĠEmb": 24234, "Ġteleport": 28050, "ĠìĺĪìģ": 20684, "ĠÐ·Ð°Ñģ": 27819, "åĽĽ": 19425, "Ġtrophy": 28639, "Ġspecialty": 22000, "ìľłë": 49965, "Ġadvertisers": 42679, "Ġverschiedene": 35411, "Ġmegap": 34733, "ĠÐ½Ð¸Ð¼": 25793, "Ġtemu": 33346, "Ġíķĺê³ł": 10301, "Ġlass": 45829, "Ã¼ÅŁ": 8743, "Ġìĺ¬ë": 12917, "Ġdeine": 28395, "ought": 930, "ĠÐ»Ð¸": 7444, "Ġcra": 2094, "ĠÑĹ": 27902, "Ġcabinet": 15188, "Ġëª¨ë¥´": 20502, "Ġtrip": 4931, "ĠÑįÐºÑģÐ¿": 29030, "Ġpse": 25505, "Ġplead": 48642, "ĠStandards": 44546, "Ġwest": 7009, "Ġdriveway": 38276, "Ġgelatin": 45174, "ĠÐ½Ð°Ð·ÑĭÐ²": 20922, "ropic": 39173, "ĠAny": 2639, "Ġmild": 15154, "è¹": 39540, "lude": 32334, "Ġpathetic": 35506, "ĠÐ»ÑİÐ´Ð¸": 15850, "Ġeinmal": 11078, "Ġtests": 6921, "obra": 24393, "ĠGul": 43314, "ĠuÄŁ": 43222, "ĠGro": 12981, "ĠWarsaw": 41662, "Che": 15683, "å¥¶": 42525, "ĠÐ¼ÑĥÐ¶": 22081, "ĠKel": 19158, "Ð¾Ð¶ÐµÑĤ": 22180, "rev": 40382, "Î¿ÏĤ": 22281, "ãģĿãģĹãģ¦": 25092, "Ġmilit": 19142, "Ġtob": 20676, "ĠTambiÃ©n": 25682, "Ġfloor": 4123, "ĠHispanic": 29559, "Ġale": 6775, "ĠÃ½": 49291, "ĠMonkey": 34862, "ipple": 23476, "ĠKe": 3189, "bie": 7392, "05": 13328, "Ġprogress": 4205, "Ġcep": 45026, "ĠCarnegie": 47301, "Ġagile": 30072, "ĠSap": 49287, "ĠÐ´Ð°Ð»": 22500, "emente": 16288, "×ĳ×¨×Ļ×Ŀ": 38228, "ĠGiov": 47089, "å·ŀ": 46974, "ĠÐ¼Ð¸": 13803, "<|14.30|>": 51079, "Ġshaving": 36481, "anta": 5983, "Ġappoint": 7602, "ĠSolomon": 32209, "Ġremarkably": 37381, "ĠEmail": 49482, "Ġincoming": 22341, "ĠContain": 43732, "Ġfait": 3887, "ĠÎ¬": 22554, "ĠìĹ¬ëŁ¬ë": 10791, "Ġreserv": 16454, "ĠìķĪë": 9658, "ĠÑįÐº": 13817, "Ġprecautions": 34684, "Ġcaso": 9666, "Ġeach": 1184, "Ġê·¸ëŁ": 4167, "Ġintertw": 44400, "Ġcoal": 10209, "ĠEso": 27795, "Ġmistaken": 21333, "ĠJB": 43019, "Ġhots": 36121, "ĠperÃŃ": 38933, "ĠDise": 30161, "ĠTHAT": 15532, "thm": 10194, "ĠìĿ´ê±°ëĬĶ": 24535, "istry": 5980, "Ġyum": 26420, "ignant": 36818, "Ġlows": 34794, "Ġly": 17293, "ĠTus": 42026, "<|28.04|>": 51766, "ooked": 29262, "ĠSER": 36772, "LEX": 23472, "Ġnegotiating": 30396, "Ġtoes": 14681, "ãģ°ãģĦ": 42176, "Ġdisparities": 32514, "ÑĤÑĭ": 16759, "Ġë¶Ħëĵ¤ìĿĢ": 40821, "ĠKaiser": 42066, "iger": 4810, "Ġwilt": 45357, "Ġrapper": 26457, "Ġinventory": 14228, "ĠmÃ¡": 12228, "ĠNiger": 21489, "Ġdomu": 48465, "ĠÐ¿ÑĢÐµÐ²": 34393, "nis": 10661, "Ġelle": 8404, "Õ¡Õ": 23279, "UA": 35227, "Ġdit": 6176, "ĠLic": 40627, "Ġmanager": 6598, "Ġsink": 9500, "<|5.34|>": 50631, "Ġcreativity": 12915, "Ġgreasy": 36401, "à¸ŀ": 17297, "ĠÐ´Ð²Ð¸Ð³": 30618, "ĠBoeing": 30831, "Ġseams": 33547, "ĠSoup": 40648, "ãģ¨ãģĦãģĨãģĵãģ¨ãģ§": 39341, "Mon": 32498, "ĠÙĦ": 5296, "Ġtoxicity": 45866, "ĠHof": 37379, "ĠGeoff": 26119, "Ġprzypadku": 41955, "ĠRac": 42033, "ĠDream": 12105, "Ġincentiv": 35328, "col": 8768, "ĠOnePlus": 41352, "Ġcaregiver": 44305, "Ġê°Ļ": 4385, "Ġìŀ¬ë¯¸": 37723, "arrator": 7215, "Nothing": 42130, "ĠÃ©ner": 45045, "Ġdow": 9459, "ĠVerse": 31640, "ĠStephen": 13391, "ĠCoalition": 40586, "Americ": 11755, "ace": 617, "Ġfortunate": 14096, "Ġprev": 12642, "Î¹Îº": 10073, "Ġhelium": 40175, "ĠÐ´ÑĥÐ¼Ð°Ñİ": 23479, "ĠTE": 19744, "ĠLIN": 19763, "Ġãģĵ": 14384, "ìĻĶ": 19304, "Ġengage": 4683, "ucha": 26042, "opers": 33338, "Ġstretching": 19632, "Ġ[\"": 29799, "Ġersten": 17324, "Ġkrijgen": 43460, "Ġliner": 24468, "as": 296, "íķ´ìĦ¤": 34716, "kea": 39153, "gasps": 22901, "Ġscissors": 16066, "maz": 21283, "Ġdispl": 14996, "ĠFreedom": 22208, "ĠNobody": 9297, "ÙħÙĥÙĨ": 43020, "ĠÑįÐ¿": 43985, "Ġpresentation": 5860, "erved": 6913, "Ġsilicone": 28778, "ĠFi": 38245, "æŃ¥": 31429, "ĠmÃ£": 22410, "Ġcameras": 8622, "Ġå°įåķĬ": 49155, "ĠEmmy": 45580, "Ġspin": 6060, "iseen": 44234, "Ġrealizar": 36461, "Ġtutto": 23048, "Ġgram": 21353, "Ġindic": 4694, "Ġabsurd": 19774, "Ġwatches": 17062, "ĠãĤĤ": 32505, "ffiti": 36199, "ÑģÑıÑĤ": 41020, "ĠXP": 33984, "ĠÙħ": 3714, "Ġanother": 1071, "Rh": 31121, "Wait": 20376, "ids": 3742, "Ġencoun": 7669, "Ġdisplays": 20119, "Ġbiz": 7390, "Ġchemin": 46006, "Ġdistribution": 7316, "Ġhosted": 19204, "Ġhamb": 25172, "arre": 15531, "Ġmodal": 39745, "ĠìĤ´ì": 15482, "åĽłä¸º": 34627, "ĠRelig": 33436, "Ġfiling": 26854, "Ġpurposes": 9932, "Ġsports": 6573, "ä¸ĢåĢĭ": 8990, "Ð°ÑĨÐ¸Ñı": 21235, "ĠÐ»ÐµÐ³ÐºÐ¾": 39995, "criptions": 34173, "Ġsempre": 9553, "ĠChar": 4327, "ĠunterstÃ¼t": 30007, "Ġaest": 14413, "i": 72, "Ġfraud": 14560, "Ġ": 220, "Ġvá»ĭ": 45186, "Ġintimacy": 34450, "per": 610, "Ġentering": 11104, "then": 19096, "ãĥķ": 17320, "Ġwrites": 13657, "Ġwhile": 1339, "ĠCritical": 39482, "ĠBus": 8006, "Ġloro": 28810, "ĠDA": 9578, "uffled": 33974, "aps": 2382, "zw": 14406, "ĠShift": 28304, "ĠMike": 6602, "on": 266, "Ã¢u": 24325, "ĠGeschichte": 28896, "Ġ'": 922, "ĠNFL": 24817, "ç´Ģ": 42184, "Ġthroughput": 44629, "ĠGenau": 22340, "ĠÃ©norm": 27982, "rina": 21374, "ÐµÐµ": 7752, "Ġë§¤": 17591, "Ġmenstru": 38827, "robe": 24489, "Ã¡rio": 12657, "weet": 10354, "ZA": 39431, "ìĨį": 11194, "<|6.64|>": 50696, "Ġbacks": 19513, "igenous": 11214, "ĠSmells": 44355, "Ã©s": 2191, "Ġgeek": 36162, "ĠJing": 19534, "ĠGet": 3240, "ĠpÅĻ": 31631, "ĠCM": 20424, "Ġge": 1519, "master": 21640, "quisite": 34152, "³¼": 17194, "rosoft": 7856, "Ġíıī": 21967, "×ĳ×Ķ": 28553, "Ġof": 295, "ĠForest": 18124, "×ķ×ª×¨": 33443, "ĠVMware": 40146, "ĠÐ°Ð±ÑģÐ¾Ð»ÑİÑĤÐ½Ð¾": 35060, "åĵ¡": 20992, "Ġhomogeneous": 42632, "eurs": 20395, "Ġrefuge": 10991, "Ġimmediate": 11629, "ĠCJ": 42285, "allo": 37104, "Ġave": 3472, "à®¾": 5036, "ĥĢ": 22373, "Ġcorre": 29731, "Ġcalves": 43755, "Ġlinger": 45657, "ĠToyota": 22926, "ĠIRA": 37993, "ĠÐ¶Ð¸ÑĤÑĮ": 40124, "Ġillusions": 49836, "Ġsteady": 13211, "ardo": 12850, "Ġëĭµ": 41918, "ĠFuk": 33043, "ĠAction": 16261, "ĠDU": 28423, "Ġwithstand": 31311, "ĠCzech": 25227, "omat": 34295, "Ġsharks": 26312, "ĠPrayer": 45226, "Ġarbit": 14931, "Ġugh": 38560, "Ġviens": 36421, "Men": 30505, "ĠElementary": 33099, "Ġconditional": 27708, "à¹Ĩ": 31333, "Ð¾ÑĩÐºÐ¸": 32775, "Ġmeets": 13961, "Ð¸ÐºÐ¸": 15562, "ĠNur": 17612, "ignment": 41134, "arespace": 45337, "Ġprivilege": 12122, "ked": 34601, "Ġver": 1306, "Ġslaughter": 26609, "ĠSÃ¥": 12728, "resso": 29652, "Ġreciprocal": 46948, "Ġovernight": 13935, "ĠÑģÐ»ÑĥÐ¶": 35459, "Ġknew": 2586, "Ġãģ¨": 16746, "Ġdiferente": 20973, "ĠMonte": 38105, "Ġaccelerator": 39889, "Ġcontaminated": 34492, "ĠuÅ¼y": 34097, "mem": 17886, "Ġinj": 5580, "åį±": 38292, "Ġcapsule": 29247, "Ġrealism": 38484, "Ġseventeen": 39532, "Ġradically": 35508, "Let": 8373, "Abs": 46417, "Ġtarget": 3779, "Ġbeverage": 35519, "éĢĻç¨®": 33005, "ĠPotato": 34035, "urday": 8486, "Ġmyths": 28205, "ĠGren": 24913, "ĠCouncil": 7076, "ĠTyp": 17722, "Ġdeserted": 47983, "Ġswelling": 33127, "Ġiy": 29861, "Ġ%.": 49167, "Ġempire": 17506, "ĠSacred": 47074, "Ġovat": 31802, "Ġparticul": 21861, "Ġspacecraft": 22910, "ĠChong": 43040, "ÑĤÑĢ": 13981, "ĠBret": 42000, "LI": 48718, "Ġrespuesta": 40585, "<|26.98|>": 51713, "Ġthirsty": 28115, "ĠSabbath": 36618, "ĠHaf": 47933, "Ġfactorial": 36916, "Ġconvention": 10286, "ĠHarvard": 13378, "Ġnuma": 29080, "Ġcrypt": 9844, "ĠÈĺi": 41820, "Ġtrainings": 33856, "ber": 607, "utes": 1819, "ÑĢÐµÐ·": 27675, "elve": 12764, "Ġsino": 18108, "Ġtechnological": 18439, "Ġ×Ķ×Ļ": 29526, "Ġ1980": 13626, "ĠHistory": 12486, "itzerland": 22932, "ĠÐ¿ÑĢÐµÐ¿": 47510, "ãĤįãģĨ": 39679, "<|2.62|>": 50495, "ĠHugo": 32504, "Ġdelegates": 45756, "ache": 6000, "Ã©rica": 32716, "ĠPresiding": 47365, "!*": 32854, "ìį": 33064, "Ġupbringing": 47268, "Ã©is": 15064, "Ġensuring": 16882, "Ġaid": 9418, "ÑĨÐ¸Ð¿": 27663, "Ġ×ł": 11302, "iod": 2695, "å®¢": 32316, "ĠWhile": 3987, "Ġtrib": 15039, "æ®º": 45528, "ĠBenedict": 47837, "Ġcommitting": 26659, "Ġh": 276, "inda": 6837, "ite": 642, "itÃ¤t": 14053, "Ġchoir": 31244, "Ġcoated": 28489, "ÃŃre": 26591, "lig": 5073, "Ġimprove": 3470, "Ġbecause": 570, "Ġagrees": 26383, "Ġerrado": 48571, "Ġoficial": 37189, "ĠSAM": 9617, "Ġrelease": 4374, "egÃ³l": 38079, "ĠPhar": 45050, "Ġcontrovers": 11542, "å¯¦": 10376, "ĠTell": 5115, "Ġbricks": 25497, "æ²»": 30118, "Ġdifferentiation": 38902, "fare": 11079, "Ð¸Ð¼ÐµÑĢ": 12170, "Ġwriter": 9936, "enteen": 29542, "Ġestimate": 12539, "åľº": 50255, "ĠWeise": 41947, "Ġdownloaded": 21748, "UC": 23967, "Ġacoust": 22740, "ĠWOODR": 24265, "Ġmant": 10845, "ib": 897, "ä½łåı¯ä»¥": 42766, "Ġpaid": 4835, "Ð½Ð¸ÑĤÑĮ": 31087, "Ġadviser": 43547, "ĠÐ½Ð°ÑħÐ¾Ð´": 19363, "Ġtint": 28738, "ĠFrancisco": 12279, "à¤®": 48521, "ĠVenice": 32707, "Ġqueria": 27955, "ĠMARTIN": 36996, "ĠPam": 23532, "Ġexcessive": 22704, "¤íĶ": 35219, "inek": 48421, "ĠDie": 3229, "Ġgoogle": 20742, "ĠUNC": 44886, "urd": 10752, "Ġsighs": 44705, "tycznie": 45586, "Ġadapt": 6231, "Ġpresente": 28709, "arsi": 32742, "Ĳëį°": 43429, "ĠÐºÐ»": 14815, "ĠdÃ©pend": 45768, "<|26.52|>": 51690, "Ð½Ð¾": 1234, "ĠÐ¿ÑĢÐ¾Ð³": 20192, "Ġprovision": 17225, "rir": 10949, "ĠBangladesh": 35260, "Ġæľī": 21461, "Å¼a": 35075, "ĠKansas": 19422, "ĠCort": 28522, "Bir": 41786, "Ġsomewhere": 4079, "ĠkhÃ´ng": 11415, "Ġworkloads": 32452, "Ġ300": 6641, "akah": 40060, "zero": 32226, "Ġfotograf": 34341, "aland": 12789, "ĠìĿĳ": 21712, "Ġlegitim": 29754, "Ġtheore": 10299, "cing": 2175, "ĠÐ¿ÑĢÐ¾ÑĪ": 20567, "ĠÑģÐ²Ð¾Ð¸Ñħ": 30316, "ĠCSS": 24387, "Ġcommen": 29199, "<|11.62|>": 50945, "Ġvest": 15814, "ONG": 12661, "Ġreiter": 25211, "Ġwhether": 1968, "Ġeligible": 14728, "Ġpointer": 23918, "ĠÐºÐ¾Ð¼Ð°Ð½": 46180, "Ā": 188, "worth": 13136, "Ġinsulting": 44463, "ĠØ§ÙĦØª": 16712, "Ġsoldier": 15632, "Tube": 41173, "ĠÐ¼Ð°ÑĤÐµÑĢÐ¸": 32835, "Ġvalores": 38790, "ĠAustralia": 7060, "ĠÐ½Ð°ÑĩÐ°Ð»": 44800, "ĠÐºÐ¾Ð½ÑĨÐµ": 38769, "ĠGA": 22841, "<|4.90|>": 50609, "olic": 7940, "ìłģìľ¼ë¡ľ": 15078, "Ġtranslating": 35030, "redict": 24945, "ĠCandy": 31470, "kov": 33516, "ĠÑģÐ»Ð¸ÑĪÐºÐ¾Ð¼": 40576, "Ġresonance": 30944, "ĠNelson": 23857, "Ġhugs": 42149, "ë¶Ģ": 17317, "Ġmechanics": 12939, "ĠÑģÐ´ÐµÐ»Ð°Ð»Ð¸": 44780, "ascal": 27303, "Ġbatt": 9591, "ç¤¾": 27658, "ĠNeptune": 49527, "Ġnylon": 43503, "ĠRJ": 46810, "ĠiPhone": 7252, "Ġviolently": 46728, "Ä±ndan": 16293, "Ġgeneralized": 44498, "įĺ": 8092, "Ã¬nh": 10116, "Ã¼mÃ¼": 48326, "agua": 48692, "ĠÐ´Ð¾Ð¼Ð°": 29012, "ĠìķĮìķĦ": 32352, "Ġindicator": 16961, "Ġglobe": 15371, "Ġheartfelt": 49332, "Ġadmired": 39987, "Ġopenings": 35941, "Ġtoe": 13976, "Î±": 1529, "Ġunfortunately": 7015, "cker": 9178, "ìĬ¤íĬ¸": 29271, "adomo": 40633, "<|29.42|>": 51835, "Ġexercises": 11900, "<|14.16|>": 51072, "Ġdemonst": 5516, "ĠJas": 34023, "Ġbele": 29620, "ĠÏ": 2467, "egal": 38221, "ĠÎ": 1158, "Ġ19": 1294, "Ġpotentially": 7263, "Ġmilk": 5392, "Ø¬": 7435, "utz": 12950, "Rich": 44654, "©´": 2708, "ĠÐ¾Ðº": 11423, "ipe": 6527, "Ġside": 1252, "Ġstesso": 44413, "Ġew": 43364, "Ġbilateral": 38772, "Ġrepublic": 18535, "å¯": 4510, "åĵİ": 26755, "âĢĮ": 47807, "Ġj": 361, "Ġvitam": 23617, "ovan": 47936, "zÄħ": 8925, "ĠMat": 6789, "Ġvot": 3478, "Ġcin": 6539, "ÐµÐ½ÑĮ": 3888, "åĥ": 9502, "ĠAmy": 12651, "Ġarch": 3912, "Ġhare": 39921, "Ġcuando": 7767, "bad": 27580, "ĠATP": 39202, "kraft": 47288, "åĨħ": 34742, "ëĤľ": 25685, "ĠÐºÐ¾ÑĤÐ¾ÑĢ": 4388, "Ġconsumers": 11883, "arf": 30224, "Ġtragic": 20385, "Ġabsorb": 15631, "Ġprogresses": 41929, "ĠìŀĪìĹĪ": 15972, "Ġquarterly": 38633, "ĠØ¬": 10874, "eremony": 12263, "ãģ¡ãĤĥãĤĵ": 35771, "ê¸¸": 24479, "Ġintroduction": 9339, "ortion": 8136, "Ġmete": 21245, "ĠCath": 8764, "ĠHannah": 21754, "Ð°Ð»ÑĮÐ½Ð¾": 10986, "Ġsinus": 41503, "Ġbeasts": 37386, "Ġahh": 28612, "Dav": 17298, "apore": 13823, "Ã£": 1046, "Ġeliminate": 13819, "ŀĲ": 15876, "ĠZo": 10337, "ĠPlatform": 28707, "Ġdeterm": 3618, "ĠTribe": 44984, "å¿ħ": 28531, "ĠGest": 39909, "Ġajust": 41023, "Ġaleg": 44491, "Ġsabia": 36388, "ĠMajor": 15581, "Ġoverst": 48834, "§a": 11898, "Gold": 49585, "Ġê³łë¯¼": 41936, "DC": 25619, "fficial": 37661, "Ġarea": 1859, "<|20.98|>": 51413, "Ġlung": 16730, "Ġì¤ĳêµŃ": 39712, "Ġfoundations": 22467, "Ġunut": 37997, "ĠQian": 32461, "Ġrevive": 36292, "ruit": 18891, "alta": 37896, "Ġevolved": 14178, "ĠCAT": 41192, "heim": 18673, "ĠÑĥÑĩ": 13774, "Ġrespective": 23649, "Ġchili": 15575, "Ġcurtain": 26789, "ĠNaomi": 35369, "Ġstyling": 27944, "ĠCompare": 48523, "¦¬ë©´": 40093, "Ġcomplete": 3566, "Ġ650": 38566, "ĠHair": 27957, "ĠÐ²ÐµÑī": 27046, "idences": 41298, "Ġê±´ì": 46855, "Ġhorizont": 10908, "ĠCurt": 26587, "Ġkeyword": 20428, "Ġquar": 4723, "Ġespera": 37862, "Ġdefining": 17827, "ĠFey": 46530, "Ġride": 5077, "Ġfalando": 21236, "ĠspÃ©": 31198, "ares": 8643, "ĠSanto": 49639, "make": 38705, "ĠhÃ¶rt": 42243, "ĠNokia": 43980, "coat": 36788, "ĠHenry": 11085, "Ġastero": 24711, "Ð¾ÑĢÐ¾ÑĪ": 9247, "Ġsost": 41585, "ĠSco": 27682, "ĠdiffÃ©rents": 33948, "ĠkÃ¶nnte": 17646, "Ġsent": 2279, "Ġfixed": 6806, "ĠTow": 33814, "Ġfree": 1737, "indi": 10255, "zÄħd": 23876, "Ġdean": 31120, "<|4.70|>": 50599, "Å¼enia": 48830, "ä¹ĭåīį": 32442, "ĠÐºÐ¾Ð»": 10706, "Ã°": 23436, "ĠíĻĶ": 20661, "ĠInformationen": 46753, "Ġbleed": 28385, "ĠFamily": 11661, "<|28.96|>": 51812, "ĠØ¹ÙĨØ¯": 43242, "PP": 17755, "ãĤģãģ¦": 38975, "ĠSaints": 39022, "è¯ī": 43570, "Ġanytime": 13038, "ĠiÃ§inde": 34283, "Ġcombination": 6562, "ĠÑĤÐ¾Ð¼": 13294, "ctic": 15518, "Ġcattle": 19992, "ĠÐ¼ÑĥÐ·Ñĭ": 34249, "Ġvolts": 22322, "Ġenquanto": 31749, "Ġmanifested": 42775, "Õ¥Õ": 46349, "zek": 19878, "ĠRomans": 20252, "Ġfragen": 39129, "ĠRonald": 27397, "Ġbarrels": 33138, "ĠÐľÑĭ": 12726, "Ġhumanities": 36140, "ops": 3370, "rals": 34179, "Ġorganizing": 17608, "Ġnouve": 11456, "Ġ1985": 28962, "Ø§Ø¯": 18513, "ĠPalestin": 19750, "Ġresignation": 49494, "Ġporte": 26658, "ĠçļĦ": 27949, "Ġpetty": 39334, "rik": 14456, "ho": 1289, "Ġappe": 2363, "Â«": 36784, "âĢ¦)": 39134, "ĠLemon": 35404, "ĲĲ": 35606, "Ġvenue": 21645, "ĠDim": 20975, "bardziej": 40392, "Ġagency": 7934, "ĠPrinzip": 47572, "Ġample": 42857, "Ġarchitecture": 9482, "Ġdealt": 15991, "Ġhunger": 19229, "<|19.80|>": 51354, "ÐĲ": 5594, "Ø±Ø¨": 25513, "ĠÐ¼Ð¸Ð½ÑĥÑĤ": 24498, "jang": 26925, "Ġmonaster": 31412, "Ð¾Ð²Ð°Ð½Ð¸Ñı": 30821, "Æ¡": 9621, "Ġstreets": 8481, "Ġespect": 38244, "ĠJimmy": 15709, "elly": 7442, "urb": 16659, "ĠíĺĦ": 17505, "Ġpadre": 34781, "Ġconsequence": 18326, "Ġranges": 22526, "Ġpublicly": 14843, "Ġfu": 8536, "2018": 35023, "ĠreprÃ©s": 27961, "Ġchron": 19393, "Ġchoices": 7994, "Ġfiles": 7098, "Ġdak": 25329, "ĠÅŁek": 18850, "ĠD": 413, "Ġante": 23411, "Ġ1962": 39498, "Ġpewno": 33002, "Ġkeynote": 33896, "ĠÚ©Ûģ": 33491, "riends": 11047, "Ġidentities": 24239, "ĠMercedes": 22899, "Ġkabul": 46925, "ĠClaire": 22605, "rr": 16115, "Ġspecialists": 25476, "visible": 48990, "Ġestable": 37444, "board": 3787, "Ġfakt": 21310, "ĠÏĢÎ¿": 39099, "haupt": 19276, "burse": 37665, "Ġoffs": 39457, "à¹Ģà¸Ķ": 42351, "yd": 6655, "Ġagricultural": 19587, "ĠLak": 37327, "Ġoptimized": 26941, "Ġattaching": 39074, "oufl": 36503, "Ġhotel": 7622, "Ġboxer": 47252, "ĠThous": 29852, "Ġsteering": 14823, "ĠArizona": 14723, "Ġfrightened": 28839, "íĻ": 6048, "Ġaxial": 46851, "ĠolduÄŁ": 15049, "Ġ.": 2411, "Ġ1918": 36588, "ĠBuddhism": 24744, "Ġappropriate": 6854, "Ġlending": 29823, "Ġun": 517, "Ð°ÑĤÐµÐ»Ñı": 41330, "ĠÐ¶Ð¸Ð²Ð¾ÑĤ": 38029, "agt": 7665, "ivi": 33448, "ĠÏĥÏĦÎ±": 45391, "Ġjumper": 44061, "This": 5723, "Ġinadequ": 35441, "ĠOd": 12210, "Ġreconcile": 41059, "<|29.74|>": 51851, "ĠniÃ±os": 30712, "ĠHAS": 38461, "Ġuntil": 1826, "ĠÐŀÐ´": 20125, "ĠÑħÐ²Ð°ÑĤ": 32985, "sels": 26604, "Ġbiological": 13910, "Ġancest": 11749, "Ġkonkret": 36500, "atherine": 16351, "Ġscares": 35721, "ĠHalloween": 13860, "Ġresin": 26365, "Ġedits": 41752, "ĠChr": 1721, "father": 11541, "Ġdeeds": 24539, "ĠIndigenous": 22699, "Ġpis": 26584, "ĠConse": 39706, "Ġ1500": 22671, "ĠktÃ³ry": 9913, "Ġfiled": 18789, "Ġmulti": 4825, "ĠBon": 7368, "ãĤĵãģ§ãģĻ": 27113, "Ġsuivre": 43404, "ĠWhole": 30336, "imientos": 34841, "Ġstop": 1590, "ĠBeam": 40916, "Ġestablishment": 20971, "Ġimpro": 2530, "I": 40, "ĠBM": 15901, "Ġrequire": 3651, "ĠDesign": 12748, "zip": 27268, "Ġtherapists": 36509, "omena": 21041, "Ġdocumentation": 14333, "êµŃ": 7854, "ĠmÃ©g": 43510, "Ġharvesting": 35679, "ARRATOR": 9979, "Ġdont": 9400, "Ġgoats": 34219, "Ġinfilt": 29085, "ĠcommunautÃ©": 49056, "Ġfluor": 40540, "Ġfrightening": 31043, "ĠFROM": 36848, "Ġdownhill": 29929, "Ġclear": 1850, "°": 108, "ĠOnce": 3443, "ÑĥÑĤ": 3767, "çĶ¨": 9254, "ĠSect": 46244, "<|10.82|>": 50905, "Ġtraditionally": 19067, "ert": 911, "Ġamusement": 39970, "57": 19004, "Ġswab": 49840, "\".": 1883, "Īë": 2196, "app": 1746, "ÂŃ": 47781, "Ġstylist": 48544, "ĠRivers": 36646, "Ġgrieving": 48454, "å¾ħãģ£ãģ¦": 33393, "ĠSin": 11187, "Ġlapse": 49757, "xx": 30569, "onz": 21972, "Ġinterviewed": 19770, "ĠRed": 4477, "ĠKayla": 36797, "Ġë§ĲìĶĢëĵľë": 45345, "Ġcáº£m": 47593, "guy": 39344, "ĠyanlÄ±ÅŁ": 46763, "lauf": 36488, "umes": 10018, "Ġarbe": 40476, "Ġloosen": 26169, "Ġabsolutely": 3122, "á»Ļi": 38555, "Ġfren": 33596, "ensemble": 43004, "Ġ×¨×ķ×¦": 41927, "ĠNode": 38640, "yet": 37180, "Ġtailor": 33068, "s": 82, "GO": 11601, "Ġoportun": 24237, "Ġscrutiny": 38615, "ĠKem": 30097, "ĠProt": 10019, "obil": 21725, "Ġverification": 30206, "à®ª": 8012, "ĠÐ²ÐµÑĤ": 45010, "¡ł": 19332, "Ġblush": 25218, "Ġskirts": 48734, "á»ĵ": 11057, "Ġëĵ¤": 6275, "ĠCross": 11623, "Day": 38495, "thank": 40683, "æ··": 48640, "<|24.20|>": 51574, "<|14.34|>": 51081, "ĠíĶĮë": 28764, "Ø¯": 3215, "Ġlindo": 48436, "Ġtreat": 2387, "Ø©": 3660, "Ġconfidently": 41956, "ĠÐ¿ÑĥÑĤ": 37581, "Ġcustomized": 30581, "ĠZuk": 20991, "ĠEnsuite": 37366, "pers": 21819, "ĠType": 15576, "asma": 17494, "Ġawful": 11232, "onal": 21523, "Ġnegotiation": 27573, "Ġperceive": 20281, "Ġcamb": 18751, "ĠREP": 31511, "Ġbirth": 3965, "Ġmedicine": 7195, "Ġexported": 42055, "29": 11871, "Ġwreck": 21478, "ìĿ¸ê°Ģ": 41755, "lar": 2200, "Ġstructure": 3877, "ĠCombat": 41019, "Ġzm": 17020, "ĠMinuten": 27593, "æ§ĭ": 43362, "ĠAvo": 36175, "ĠCatholics": 36333, "unkt": 14797, "Ġtout": 3486, "ĠMAR": 6450, "PR": 15958, "á»«a": 47279, "Ġph": 903, "ĠDistrict": 14374, "åĴĮ": 12565, "Ġtasks": 9608, "Ġerf": 20228, "Ġnoticeable": 26041, "Ġìļ°ë¦¬ëĬĶ": 42425, "ĠTaliban": 26478, "ÐµÑħ": 8008, "olics": 33763, "ĠÑĢÐ¾ÑģÑģÐ¸Ð¹": 48971, "ĠDuygusal": 50090, "Ġunm": 19334, "Ġzost": 31873, "Ġrocket": 13012, "isp": 7631, "Ġiteration": 24784, "Ġketo": 44299, "ĠÐ³Ð¾Ð´Ñĥ": 22688, "à®´": 26853, "Ġbooth": 20912, "Ġcared": 19779, "Ġ02": 37202, "raid": 4531, "Ġhops": 47579, "Ġ1970": 14577, "Ġdinner": 6148, "Ġavent": 36399, "Ġseasoned": 30111, "ĠìĿ´ê±°": 7075, "Ð¸Ð»Ð¾": 22201, "Ġannotation": 48654, "Ġpid": 44540, "Ġmoist": 8641, "verage": 3623, "Ġfools": 38625, "Ġqualities": 16477, "ĠTs": 16518, "ĠjesteÅĽmy": 35928, "ìĿ´ì": 3946, "ĪëıĦ": 22616, "PEAK": 10393, "Ġprivately": 31919, "è¨±": 40914, "ĠHampshire": 35688, "andÄ±r": 49428, "Ġpodcasts": 24045, "è¯": 5233, "Ġnot": 406, "Ġnetworks": 9590, "Ġactivation": 24433, "Ġnearby": 11184, "Ġusing": 1228, "ree": 701, "Ġnurse": 14012, "Ġnodes": 13891, "Ġcaring": 15365, "~!!": 45361, "ĤĺëĿ¼": 47495, "ĠAB": 13838, "ĠSolar": 22385, "ãģ¾ãģł": 47185, "Ġsocietal": 33472, "ĠPhillip": 44051, "éĤ": 3023, "ories": 2083, "ĠRockef": 50178, "Ø¦": 19986, "lak": 41472, "Ġchronic": 14493, "ĠSicherheit": 38778, "radas": 48906, "<|8.32|>": 50780, "èĳī": 46290, "Ġnecessity": 24217, "Ġê°Ģì§Ģ": 26569, "<|9.28|>": 50828, "ª½": 9397, "ĠìĿ¼ìĿ´": 42848, "ĠÐ³Ð°Ð·": 36936, "Ġgiving": 2902, "<|29.84|>": 51856, "ĠfÃ¼h": 18813, "okes": 8606, "Ġspecified": 22206, "omas": 7092, "ĠBank": 8915, "Ġregistration": 16847, "Ġ$": 1848, "Ġleva": 43410, "Ġnutshell": 37711, "96": 22962, "ĠCong": 4280, "Brad": 44435, "ĠHat": 15867, "ial": 831, "EMA": 24891, "Ġaccuracy": 14170, "Ġpepper": 8532, "hero": 16218, "ĠÂ«": 4657, "60": 4550, "Ġfaces": 8475, "Ġours": 11896, "Ġbus": 1255, "Ne": 15496, "ĠÑģÐ¸Ð»ÑĮÐ½Ð¾": 31350, "<|12.24|>": 50976, "<|5.66|>": 50647, "ĠHorror": 42993, "orient": 19521, "andan": 39762, "ĠGiul": 38679, "Ġproducts": 3383, "Produ": 42370, "encial": 26567, "ĠNai": 50205, "Ġcorruption": 17959, "antu": 47846, "Ġbark": 16202, "Ġcycling": 22425, "Ġaccident": 6398, "Ġê²ĥìľ¼ë¡ľ": 34071, "Ġrusty": 45394, "ĠMov": 43756, "ĠSierra": 25182, "went": 34798, "beits": 21604, "Ġgreeting": 28174, "ĠBrush": 33142, "Ġabduct": 46465, "ĠFix": 25538, "Ġlastly": 16386, "ĠPush": 18229, "Ã©sz": 47411, "ĠÐ¾Ð¿ÑĭÑĤ": 48530, "çľ¼": 25281, "ĠAs": 1018, "Ġwors": 47567, "æĢ¥": 36379, "Eh": 42810, "æĪĳèªª": 34206, "ë§": 3468, "åĻ": 21250, "ãĥ¼ãĥł": 44265, "ĠBER": 42488, "itating": 16350, "<|19.26|>": 51327, "years": 34569, "ĠAbgeord": 40730, "à¤Ĥ": 31945, "Ġabdomen": 36494, "ĠSomeone": 8734, "ê¸°ë¥¼": 14000, "enge": 3032, "Ġantibodies": 28356, "Ġmonet": 15556, "Ġphysi": 21265, "Ð½Ð¾Ð³": 50237, "griff": 32783, "ular": 1040, "ÙĪÙħ": 20498, "Ġcheddar": 47435, "Ġdominated": 23755, "im": 332, "ela": 4053, "Min": 30031, "à®Ł": 6421, "Ġsunglasses": 28675, "Ġgep": 30979, "Ġrotating": 19627, "Here": 17685, "ĠKhan": 18136, "Ġtoo": 886, "Perfect": 48153, "Ġabuse": 9852, "ĠØ¨Ùĩ": 39627, "ĠtrÃ¤": 33367, "ìļ°ë": 22471, "ĠWah": 24598, "ĠìĿ¼ë°ĺ": 47057, "Ġregularly": 11672, "ÑĥÑĩ": 4187, "Ġstata": 49554, "ĠEco": 40263, "Ġoutra": 12301, "govern": 35329, "Ġwishes": 15065, "ĹĲ": 8926, "ĠKnowing": 25499, "Ġdies": 2714, "ĠShe": 1240, "Ġë¦¬ë": 31427, "Ã¥rt": 45287, "Ġkos": 19532, "Ð°Ð·ÑĭÐ²": 10442, "ĠDarkness": 38198, "Ġsauna": 46654, "blick": 38263, "Ġê°ĻìķĦ": 23396, "ÑģÐºÐ¾Ð»ÑĮÐºÐ¾": 18471, "nat": 12241, "imar": 49396, "Ã³rio": 35052, "ong": 556, "ĠAirlines": 38788, "ĠTier": 24224, "Ġdenken": 28780, "Ġbug": 7426, "Ġportrayed": 29845, "ĠFashion": 32782, "super": 48172, "ĠEmp": 8599, "Ġlizard": 39215, "Ġcousin": 16207, "ĠYeon": 30892, "Ġintegrity": 16000, "ĠEx": 2111, "Ġinward": 29876, "ĠNÃ³s": 27626, "ä¸ºä»Ģä¹Ī": 31006, "Ġdiz": 12098, "olar": 15276, "Ġoutfit": 11263, "ÐµÐ¹ÑĩÐ°Ñģ": 8427, "Ġplaster": 34467, "Ġpetite": 18319, "Ġdissemin": 34585, "egen": 8113, "ĠKatherine": 33478, "ĠOlive": 35741, "Ã¼hrt": 19647, "Ġforgotten": 11832, "ĠìĿ´ìĥģ": 20362, "Ġnow": 586, "Ġconsistent": 8398, "Ġpumps": 27648, "ĠpÃºblica": 38905, "ÃŃt": 6712, "ĠzurÃ¼ck": 15089, "<|12.96|>": 51012, "ĠKont": 20629, "ÐµÐ½ÑĤÐ¸": 50091, "Ġimprint": 44615, "Ġphilanthrop": 28941, "iye": 30306, "Ġwee": 32753, "Ġbelievers": 23125, "ĠKL": 47991, "Ġpredictable": 27737, "Ġcompound": 14154, "Ġstalls": 50248, "apo": 37615, "Ġì¢ĭìĿĦ": 39968, "osp": 2763, "Ġaucun": 35361, "Ġcomputed": 40610, "Ġarbitrary": 23211, "ĠØªØ¹": 37279, "pie": 9144, "iona": 21758, "ĠAside": 33726, "Ġcitoy": 47652, "Ġ->": 33798, "Ġbroccoli": 29044, "á»ī": 43325, "Ġtouchdown": 34459, "<|27.46|>": 51737, "Ġendorse": 29228, "Ġcompet": 2850, "ĠKR": 37522, "Ġret": 1533, "Ġinsignificant": 43685, "oping": 26125, "lay": 8376, "ãģĪãĤĭ": 44547, "istles": 29923, "ĠTI": 28819, "Ġprogressing": 36305, "Ġot": 4337, "Ġhappens": 2314, "Ġgrooming": 49700, "Ġretrou": 26311, "Ġtrigger": 7875, "Ġstrains": 39110, "Ġimpressions": 24245, "Ġtaxpayer": 43204, "Jason": 38267, "nost": 36414, "volt": 47610, "ĠVince": 34876, "ĠìĤ¬ëŀ": 7727, "Ġbla": 16379, "Ġabundance": 23391, "ìĿ´ì¦": 39614, "ĠÑĩÑĥÑĤÑĮ": 30422, "Ġdough": 7984, "ãģĤãģĤ": 18430, "estone": 19098, "ucht": 10084, "Ġsympt": 7266, "ĠM": 376, "ãģ¾ãģĽ": 28742, "ĠÑģÐ»ÑĥÑĩÐ°": 23775, "uj": 4579, "Ġkeywords": 21009, "íķľë": 25643, "<|6.86|>": 50707, "Ġincar": 23694, "Ġdetective": 25571, "<|15.08|>": 51118, "Ġtam": 7677, "ushima": 49754, "ì§ķ": 38974, "éĢŁ": 31217, "GG": 27561, "<|6.92|>": 50710, "Ġwire": 6234, "idet": 39741, "Ġespecialmente": 41546, "ĠÐ¼Ð¾Ð¼ÐµÐ½ÑĤ": 17825, "edo": 26351, "Ġrall": 31552, "Ð²Ð°ÑĢ": 21291, "Ġprostate": 36108, "Ġoppression": 27337, "Ġreversible": 44788, "lands": 10230, "Ġpray": 3690, "ai": 1301, "æ§": 24880, "<|17.44|>": 51236, "ĠElect": 12575, "ì¸": 18388, "ĠThunder": 21023, "Ġmeme": 21701, "ĠÑħÐ°ÑĢÐ°ÐºÑĤÐµÑĢ": 46144, "ĠAMP": 31616, "art": 446, "Ġstatue": 17385, "ĠNov": 31948, "lvania": 17588, "Ġnasze": 43394, "ĠNun": 23696, "Ġvil": 15349, "ÑĮÑı": 14195, "Ġ240": 26837, "Ġdreaming": 21475, "Ġagents": 12554, "ĠChicago": 9525, "RET": 36535, "Ġsitter": 47335, "buat": 45143, "Ġserv": 1658, "Ġhumid": 34649, "Ġ×ľ×Ĺ": 42485, "<|19.78|>": 51353, "ĠFinish": 31583, "ÐµÐ½Ð½Ð¾Ð³Ð¾": 44620, "Ġqueue": 18639, "W": 54, "ĠGand": 23962, "ĠÐºÑĢÑĥÐ¿": 39207, "Ġjudgement": 33473, "ĠFalls": 23245, "´ìĭ¬íŀĪ": 30879, "Ġbatch": 15245, "ĠCrus": 34484, "wurf": 31515, "Ð´Ñĭ": 33275, "Ġcoolest": 22013, "ĠGeor": 27909, "æĪĳè¦ģ": 32186, "ĠJam": 10372, "Ġwaiter": 45389, "Ġmasters": 19294, "<|2.40|>": 50484, "Ġanger": 10240, "ĠÐ¼ÐµÐ½ÑĮ": 31752, "Ġparty": 3595, "ĠProvince": 40649, "ĠDepois": 34231, "aney": 40584, "Ġrallies": 48169, "ĠServe": 45663, "Ġundertake": 37010, "ĠìĿ´ìłľ": 8424, "ÑıÐ¶": 18233, "uls": 9468, "ĠAnything": 11998, "Ġfulf": 8081, "Ġpuedes": 19010, "Ġcontinuar": 29980, "Ġquotes": 19963, "ĠÎĵ": 30350, "Ġfingert": 25948, "<|7.00|>": 50714, "ĠPs": 33903, "Ġrestore": 15227, "ĠHerbert": 41942, "ĠDurch": 28557, "Ġleve": 33076, "Ġju": 3649, "ĠUber": 21839, "Ã¼cken": 26037, "ruff": 50154, "Ġnaar": 12762, "Ġaider": 36669, "Ġì±": 14097, "iteit": 45967, "é¢ĺ": 30716, "ĠQUE": 46026, "ĠÐ½Ð¸ÐºÐ°Ðº": 23127, "Ä±nÄ±z": 13277, "Ã´m": 25670, "burst": 46239, "Ġapare": 15004, "<|7.72|>": 50750, "Ġbeliever": 23892, "Ġmissing": 5361, "ĠPA": 17718, "ĠEastern": 12901, "ĠBrown": 8030, "ĠOops": 21726, "ste": 2941, "MS": 10288, "Ġleveling": 40617, "ĠVladimir": 31669, "å°įä¸įå°į": 22550, "Ġmicrob": 49713, "Ġobwohl": 48428, "ĠWy": 14458, "Ġtorso": 34917, "ĠFIFA": 39497, "ĠStars": 20957, "rendo": 46501, "ĠmÅĤ": 40770, "Ġbargaining": 42108, "ŀ×ª": 40339, "oses": 4201, "ĠÑĥÐ´Ð¸Ð²": 36459, "ĠDÃ¥": 26339, "ĠDirectory": 49598, "oder": 19866, "these": 42678, "á»ı": 21920, "Ġparent": 2596, "Ð¸ÑĩÐµÑģ": 9347, "ĠÐµÐ´Ð¸Ð½": 33791, "umbers": 36353, "ĠLM": 46529, "avan": 21071, "ãģŁãģł": 44519, "ĠÐºÐ¾Ð»Ð¸ÑĩÐµ": 25816, "Ġguidance": 10056, "Ġmicrobi": 33234, "Ġforam": 23102, "ihen": 29842, "Ġboleh": 25835, "ĠìķĬëĬĶ": 34790, "Ġvomit": 42374, "Ġonder": 20756, "ĠmÃ¶j": 37606, "Ġaxis": 10298, "Ġdobrze": 28335, "Ġpositions": 8432, "ĠÐ¿ÑĢÐ¸Ñģ": 26686, "Ġcollect": 2500, "<|15.78|>": 51153, "ĠìķĦë¬´ë": 29907, "associ": 49146, "ĠSUBSCRIBE": 33817, "X": 55, "ĠÐ¡ÐµÑĢ": 46779, "atives": 4884, "abyrin": 46800, "ĠÐ¿ÐµÑĢÐµÐ¼": 35903, "Ġlav": 20923, "Ġmissions": 13744, "ĠBasically": 8537, "Ġjego": 26542, "DY": 34891, "á»Ļc": 34259, "Ġbaked": 19453, "asp": 9375, "Ġ70": 5285, "ĠsaÃ§": 48679, "Ġparticipar": 48703, "leader": 47716, "ĠIX": 49497, ",-": 44013, "Ĩ": 228, "ĠUse": 8278, "ĠëĤ´ëł¤": 33428, "owego": 26576, "ĠLess": 18649, "Ġpartnerships": 18245, "Ġintrodu": 2814, "Ġquests": 34247, "Ġrespe": 40792, "ãĤĤãģ®": 44726, "Ã¼rÃ¼": 26481, "Ġincentive": 22346, "ucks": 15493, "ĠThere": 821, "ĠKevin": 9954, "Ġthreatened": 18268, "cksÃ¥": 13238, "Ġperme": 30287, "Ġgrain": 12837, "ÃŃculo": 34365, "Ġinfluenza": 36408, "pants": 46462, "ĠVen": 11182, "aye": 33449, "è¬": 4802, "hetic": 17151, "aaa": 22714, "ÑıÐ´": 12825, "ĠShouldn": 34170, "ĠHeil": 45650, "lus": 3063, "Ġdeform": 36094, "GI": 26252, "Ġfeliz": 28544, "Ġdedicated": 8374, "Ġpurple": 9656, "ĠìŀĪì§Ģ": 37693, "Ġbodily": 39576, "screams": 29443, "ÑĸÑĪ": 39011, "Ġego": 14495, "ĠEnfin": 35861, "ĠSched": 44926, "Ġcateg": 4847, "ĠParty": 8552, "Ġinstalling": 20762, "founder": 33348, "<|25.34|>": 51631, "Ġëı¼ìļĶ": 21565, "Ġstones": 14083, "ĠÃĶ": 40732, "Ġactivate": 13615, "Ġliterary": 24194, "ìľł": 19062, "æīĢä»¥": 7239, "Ġviktig": 49706, "Ġdefeating": 38381, "ĠmÃ¤nnisk": 45220, "ĠSaud": 15717, "ĠRum": 31963, "bu": 6021, "Ġessa": 7208, "ermo": 46096, "Ġfootball": 7346, "Ġsaying": 1566, "Ġparallels": 44223, "Ġslip": 11140, "ä½łçļĦ": 18961, "anguard": 36259, "aukee": 33581, "ĠÐºÐ¾ÑĢÐ¿": 45284, "Ġcolorful": 18506, "Ġley": 27786, "irrel": 24704, "mud": 31916, "ĠÑħÐ°ÑĢ": 38795, "Ġcurios": 13625, "ios": 2717, "izz": 8072, "Ġslide": 4137, "Ġdurante": 14427, "èĥ": 19095, "stalk": 34805, "falls": 18542, "ĠíķĦìļĶ": 22731, "Ġimplant": 28309, "<|19.62|>": 51345, "Ġheures": 28509, "Ġaccum": 12989, "Ġwip": 15887, "cheering": 18700, "Ġhydrogen": 12697, "ÙĩØ§": 11296, "estro": 32389, "ĠtyÃ¶": 43448, "<|17.40|>": 51234, "urt": 6224, "ĠAssociate": 28520, "week": 23188, "Ġcompensate": 29458, "Ġrasp": 49399, "Ġdentist": 28666, "ì§Ģë¥¼": 29003, "Ġdepl": 37546, "ĠwÃ¼r": 9195, "çļĦæĹ¶åĢĻ": 49873, "ĠHoch": 29193, "kon": 18295, "ĠmoÅ¼e": 12034, "Ġappreciative": 43239, "ĠMais": 6313, "Ġprocessing": 9007, "Ġnogle": 48713, "Ġdementia": 31734, "Ġcompanion": 22363, "Ġcá»": 9613, "ĠJupiter": 24567, "ĠYug": 41949, "Ġpest": 31068, "ĠMall": 24883, "ĠAgr": 24454, "Ġcombo": 16859, "Ġcame": 1361, "zub": 40566, "Ġestat": 30883, "ĠcompaÃ±": 29953, "Ġgrandfather": 14754, "ĠÂ£": 14378, "ĠGener": 15409, "Ùĭ": 14111, "Ġpand": 4565, "ĠGold": 6731, "Ġplant": 3709, "ĠViking": 40375, "Ġturbine": 27536, "ĠKyoto": 48470, "ĠÐ±Ð¾Ð»": 11993, "ĠBlair": 42157, "Ġbenefit": 5121, "ĠHahaha": 25122, "Ġpromo": 26750, "ĠPastor": 34289, "ubernetes": 22457, "Ġbeginner": 22080, "ĠMarch": 6129, "íĨ": 18016, "Ġaudio": 6278, "Ġnap": 9296, "ĠÑħÐ¾ÑĤÑı": 30988, "Ġequilib": 14204, "å¯¹": 8713, "Ġsquared": 8889, "ĠgiÃł": 30469, "Ġcoron": 10451, "Ġo": 277, "Ġdr": 1224, "īìŀ¥": 14547, "ĠPart": 4100, "ship": 5278, "ĠLost": 23422, "Ġplac": 20831, "ĠlÃ¶": 25209, "ĠWoods": 31559, "endi": 13021, "seits": 44033, "ĠCit": 18435, "Ġdolphin": 46759, "Ġvoll": 15593, "Ġviscosity": 39744, "ĠtÃ¤hÃ¤n": 49580, "ahah": 11562, "ĠcaracterÃŃsticas": 47990, "Ġlooked": 2956, "Ġdads": 41798, "ĠSie": 3559, "pose": 43501, "Ġrelatively": 7226, "Ġexample": 1365, "éĢ²": 18214, "ĠëĤ": 2079, "ain": 491, "rane": 21802, "ĠSing": 7474, "Ġbroad": 4152, "Ġê°Ħëĭ¨": 50102, "par": 2181, "å¤ļå°ĳ": 41492, "atem": 26851, "Ġinterrog": 24871, "ðŁ¤£": 47475, "Ġbeads": 20369, "Ġexperience": 1752, "ĠCreation": 42874, "ologies": 6204, "ĠChen": 13682, "ĠQUESTION": 8557, "Ġjustification": 31591, "ĠÐ¡ÐµÐ¹ÑĩÐ°Ñģ": 23590, "åĸĶ": 10642, "<|tg|>": 50331, "Ïĩ": 7597, "alah": 16434, "Ġmilligram": 38298, "å½±": 16820, "Ġintuition": 24002, "Ġexcit": 13101, "ĠìķĦëĭĪë": 14279, "Ġatrav": 33325, "ĠQuel": 43521, "Ġstrengthening": 28224, "Ġviolence": 6270, "Ġglac": 29700, "identally": 36578, "Ġpeac": 43370, "Ġclairement": 47754, "ĠEscape": 42960, "ĠSang": 19037, "<|12.14|>": 50971, "Ġãħĭãħĭãħĭ": 49249, "Ġtechnically": 12120, "uo": 18655, "iment": 2328, "cessors": 45700, "<|21.60|>": 51444, "<|11.22|>": 50925, "Ġ1942": 37549, "Ġìĭłê¸°": 47958, "ĠTomorrow": 17499, "ritos": 42887, "work": 1902, "Ġdiscs": 37525, "who": 13506, "ĠWatson": 25640, "ĠNBC": 31504, "Ġhad": 632, "ĠÐ´Ð¾Ð¿Ð¾Ð»Ð½": 45120, "Ġform": 1254, "Ġbreathe": 10192, "çľĭçľĭ": 22884, "onic": 11630, "Ġheating": 15082, "Ġlyric": 42409, "Ġobsolete": 46333, "ëĬĲ": 31627, "Ġmargins": 30317, "dec": 42821, "Ġevident": 16371, "Ġë©Ķ": 34810, "Ġcrim": 7857, "issors": 13839, "ism": 1434, "Ġbumps": 27719, "Ġgesprochen": 42714, "à¸´": 9596, "isson": 30472, "<|25.48|>": 51638, "rition": 32938, "shirts": 25892, "ĠDelta": 18183, "Ġakan": 16281, "ĠAlexis": 39826, "Ġclos": 2611, "ĠFebruary": 8711, "ĠKylie": 39424, "Ġelectromagnetic": 32214, "Ġinstruct": 7232, "Ġopposition": 13504, "è¦": 2888, "Ġabb": 16903, "kÅĤad": 15317, "ĠÐ´ÐµÐ½ÐµÐ³": 40957, "Ġasleep": 11039, "Black": 29802, "otti": 37514, "ĠdÃ©s": 18963, "denly": 18185, "Ġconfinement": 41064, "Ġconve": 18053, "ĠÙĤ": 12174, "å·Ŀ": 27905, "Ġastronauts": 28273, "Ġobsess": 35803, "ĠatenÃ§Ã£o": 39044, "<|17.12|>": 51220, "Ġmart": 12396, "plate": 37008, "ĠAixÃ²": 31869, "Ġ×ŀ×Ĳ": 26295, "Ġcircumstance": 27640, "ĠíĶ¼": 17448, "Ġplot": 7542, "ĠcanciÃ³n": 41897, "ĠÃ¼bers": 45022, "ì¤Ģ": 18583, "Ġdoing": 884, "Ġfluct": 23448, "ologia": 24103, "ĠfÃ¼hren": 35498, "Ġdefined": 7642, "ĠJune": 6928, "ĠHarlem": 44196, "Ġcircumstances": 9121, "jar": 10150, "Ġroses": 28620, "Ġappreh": 38675, "Ġlil": 36532, "ĠCotton": 46195, "ettle": 28444, "Ġunderstanding": 3701, "ä»Ģéº¼": 7598, "esten": 38743, "Ġshores": 44247, "acs": 44937, "Ġpratique": 43740, "ĠngÃły": 34481, "<|26.72|>": 51700, "<|4.60|>": 50594, "ĠUFO": 28318, "Ġconsumo": 42505, "ĠIntegr": 23894, "<|12.42|>": 50985, "rij": 11105, "ĠëĨĵ": 28747, "ĠMarket": 15596, "Ġaccord": 18640, "ĠYea": 21145, "ìĹ½": 44944, "Ġbathroom": 8687, "arin": 19829, "åķ": 3284, "ĠNah": 13933, "ĠÐ½Ð°Ð·Ð°Ð´": 28724, "ĠOnun": 40379, "Ġdisadvantages": 37431, "Ð¢": 8556, "town": 30401, "ĠTheres": 33902, "Ġëĺ": 7102, "ĠÑĢÑĥÐº": 36765, "ĠÐ½": 757, "Ġviral": 16132, "ĠRecogn": 44682, "Ġgaan": 14118, "aka": 7849, "ged": 3004, "ĠChristina": 25466, "Ġfrog": 17259, "Ġline": 1622, "ĠJF": 40951, "Ġweekend": 6711, "keeper": 23083, "Ġleaned": 48874, "ĠNove": 7539, "ĠÐ¿ÑĢÐ¸Ð»Ð¾Ð¶": 47251, "idor": 29718, "Ġsplend": 34350, "Ġing": 3957, "ĠRD": 49488, "Ġtourist": 19806, "Ġdiscovered": 6941, "occ": 43280, "ÙĬØ±Ø©": 48923, "ĠDaily": 19685, "Ġgeneration": 5125, "ĠLou": 7272, "ĠStrong": 22792, "ĠëĮĢíķ´": 48374, "Ġë¬´ì": 12540, "Ġfunds": 8271, "Ġvag": 13501, "Ġzrobi": 24483, "Ġsap": 18985, "regist": 48933, "Ġhorizontally": 33796, "Ġweekly": 12460, "Ġspoon": 12453, "ĠThem": 37354, "ĠPraise": 34576, "ĠÑģÐ¾Ð²ÑģÐµÐ¼": 27711, "ĠaÃŃ": 7461, "ĠANNOUNCER": 35629, "Ð¾Ðº": 2637, "feeding": 42231, "Ġroad": 3060, "gens": 23212, "ĠTRA": 10841, "Ġcommer": 5906, "assium": 27609, "Ġgracias": 16611, "dies": 22018, "æĨ": 29713, "<|5.30|>": 50629, "æĭį": 31113, "DP": 11373, "Ġspear": 26993, "annya": 24225, "atl": 48630, "ĠPerson": 8443, "Ġas": 382, "<|7.14|>": 50721, "Ġaliment": 17043, "ĠÑģÑĤÑĥÐ´": 44322, "liyor": 49309, "ĠLeno": 45661, "ĠbyÅĤo": 14811, "ĠCentral": 9701, "Ġpersonality": 9033, "Ġlib": 22854, "Ġsinon": 46035, "ê³ł": 1313, "Ġsociales": 29623, "Clintus": 29549, "nous": 47008, "Ġlearnt": 18991, "ĠYak": 31484, "uffy": 14297, "Ġrolls": 15767, "Ġdzieci": 38612, "ĠFin": 3773, "Ġfidelity": 46404, "Ġalguma": 20259, "Ġtakim": 31732, "éĦ": 49500, "ĠWHAT": 18090, "Ġestoy": 15796, "Lab": 37880, "ĠRun": 8950, "Ġtransferred": 15809, "%": 4, "ileri": 45091, "ĠAlexa": 22595, "ot": 310, "ãĤĪãģŃ": 30346, "Ġvor": 4245, "rÃ³d": 43678, "Ġinfant": 16757, "ksam": 28665, "boards": 17228, "saw": 31287, "Kendra": 37530, "ĠDylan": 28160, "uming": 24919, "ave": 946, "Ġï·»": 47735, "Ġprochaine": 35306, "ĠÐ¾Ð±": 3348, "Ġzooming": 48226, "Ġfreight": 37181, "Ġbitte": 23231, "ĠmÃ©dia": 49503, "Ġì½Ķë¡ľ": 29716, "heure": 23084, "orage": 29226, "Ġplast": 35636, "á»©": 13905, "Sta": 43546, "Ġenergies": 25737, "Ol": 38056, "ĠBuy": 19146, "ãĥ¡": 21647, "Ġprincess": 14742, "Ġwhistle": 23470, "Ġmotivation": 12335, "ĠstÃ¶r": 42554, "ĠSpark": 23424, "Ġbarbecue": 21877, "Ġgenocide": 31867, "Ġconc": 1588, "Ġentered": 9065, "ĠObi": 48533, "atsÃ¤chlich": 19579, "<|5.36|>": 50632, "Ġspecifically": 4682, "ĠDow": 20947, "Ġamenities": 47260, "<|17.90|>": 51259, "Ġwollen": 11253, "Ġvintage": 23050, "Ġmeiner": 20529, "<|0.74|>": 50401, "ĠÐ¿Ð¾Ð»ÑĥÑĩÐ¸ÑĤÑģÑı": 49579, "uds": 32083, "Ġderen": 48300, "stra": 19639, "«": 104, "Ġmanifestation": 29550, "ĠKad": 32248, "ĠEk": 33089, "Ġimagined": 16590, "Ġtussen": 50119, "Ġmammals": 35408, "Ġcorrespondence": 38135, "Ġkend": 17016, "issions": 7922, "Ġtasked": 38621, "Ġdiameter": 14196, "Ġmira": 30286, "ĠWil": 9483, "Ġblink": 24667, "ween": 1259, "mpfen": 45316, "Ġpals": 43806, "ĠFall": 7465, "<|4.10|>": 50569, "<|17.94|>": 51261, "ĠìĨĮê°ľ": 42784, "<|27.14|>": 51721, "isen": 11106, "kien": 42134, "Ġobviamente": 36325, "ãģĶãģĸãģĦãģ¾ãģĻ": 43808, "Ġvinegar": 18030, "çļ®": 34582, "ped": 3452, "Ġposted": 9437, "ĠAdventures": 48818, "ÐµÑĢÐ¾Ð¼": 33370, "ĠWochen": 23126, "ÑĥÐ´Ð°": 12248, "Ġunclear": 25636, "ĠCPU": 13199, "Ġmistakes": 8038, "ĠVS": 25091, "Ġthinkers": 37895, "Ġrecommend": 2748, "uxe": 43344, "Ġreads": 15700, "ĠAttention": 31858, "Ġanges": 31138, "ĠÃľber": 18086, "ě": 215, "Ġempty": 6707, "before": 45301, "Ð¸ÑĩÐµÑģÐºÐ¸": 38187, "atted": 32509, "Ġquantify": 40421, "Sec": 29511, "Ġchocolate": 6215, "iper": 15402, "Ġhun": 7396, "Ġhomelessness": 28791, "ĠJapan": 3367, "à¸µà¹ī": 18074, "Ð½Ð¾Ð¿": 35026, "Japanese": 48354, "ĠDemocracy": 43062, "ì²´ê°Ģ": 39881, "Ġdeton": 39920, "ĠÐ¼Ð¾Ð¶ÐµÑĪÑĮ": 46442, "¡": 94, "ĠCred": 47560, "Ġsponsoring": 30311, "ãĤ¢": 12817, "Ġcrackers": 41407, "ĠYang": 11978, "Ġidentify": 5876, "Ġfactors": 6771, "ĠMadrid": 22091, "Ġíķ´ìĦľ": 17705, "Ġappointed": 17653, "ossen": 22573, "mu": 20140, "Ġfant": 4115, "Ġjus": 17217, "Ġteachers": 6023, "Ġcameraman": 46858, "ĠABS": 41707, "ctive": 20221, "CAR": 35270, "ĠÐ¼Ð¸Ð½Ð¸Ð¼": 45754, "ĠRapt": 38115, "ĠRu": 15702, "ramble": 48382, "Ġapron": 46742, "Ġcurious": 6369, "Ġcosplay": 39403, "ĠEuch": 46668, "Ġê²ĥìĿĢ": 33825, "eye": 25488, "æĶ¯æĮģ": 35488, "Ġepsilon": 17889, "Ġrigid": 22195, "Ġnecklace": 24563, "zew": 43551, "ĠMarina": 35310, "Ġprincipe": 47656, "ĠComms": 42664, "ĠNiet": 36583, "eb": 34727, "ĠCay": 38287, "Hola": 48529, "Ġpatients": 4209, "Ġiste": 49920, "Ġsheep": 14213, "<|oc|>": 50328, "<|28.06|>": 51767, "ĠB": 363, "ĠAdjust": 34049, "Ġfour": 1451, "Ġanlam": 28940, "Ġentertainment": 12393, "ook": 1212, "Sad": 47801, "ĠCOME": 49563, "Ġamplify": 41174, "Ġnasal": 41575, "ä¸Ń": 5975, "ĠSaturday": 8803, "Ġapplication": 3861, "Ġprophets": 27297, "use": 438, "ĠSalz": 46283, "Ġgebe": 29073, "Ú¾ÛĮ": 36078, "Ġincident": 9348, "ĠDANIEL": 38958, "pex": 29420, "Ġimpedance": 36264, "ĠÐ´ÑĥÑħÐ¾Ð²": 46373, "ĠFC": 27168, "Ġlines": 3876, "aid": 17810, "ĠÐ±Ð¾Ð»ÑĮÑĪÐ¾Ðµ": 46843, "aient": 21368, "Ġinsbesondere": 48694, "Ġbisexual": 42570, "ĠHag": 34758, "etheless": 21051, "Ġlaten": 36335, "Ġlongest": 15438, "ĠEli": 16943, "ĠÐ±Ð°Ð·": 39798, "ĠAds": 44325, "åħ±": 15408, "rawd": 15889, "Ġirritated": 43650, "KNOWN": 44505, "ĠÐ½ÑĢÐ°Ð²Ð¸ÑĤÑģÑı": 33652, "ç§": 8204, "Ġpouquinho": 31114, "Ġheritage": 16040, "æĪ°": 23209, "ĠelÃ©t": 36920, "room": 2861, "Ġfelic": 49986, "UNG": 14676, "Ġtrendy": 38596, "ĠíĻį": 36990, "Ġtox": 10357, "ĠCF": 21792, "L": 43, "Ġpainter": 26619, "ĠYe": 835, "Ġseamless": 28677, "Ġaltre": 34983, "Ġinitiation": 43569, "Ġbra": 1548, "Ġdiscourse": 23938, "ĠÐ¾ÑĤÐ»Ð¸Ñĩ": 26902, "ĠCharge": 40546, "Ġcomposers": 43872, "ased": 1937, "Ġdiez": 48165, "Ġseized": 33912, "Ġheraus": 25089, "Ġslee": 12931, "Ġbehavior": 5223, "Ġpu": 2362, "Ġidentical": 14800, "cont": 9000, "arnish": 40686, "Ġíĸ": 11988, "Ġillustrations": 34540, "Ġgranddaughter": 44411, "ĠControl": 12912, "ĠYear": 10289, "personal": 36649, "Ġsmooth": 5508, "Ġomdat": 34982, "çļĦè¯Ŀ": 44575, "çµ±": 33725, "ĠestÃ¡s": 24389, "ĠÐ¼Ð°Ð³Ð°Ð·": 39771, "rans": 25392, "Ġautomotive": 32866, "Ġreached": 6488, "ĠAges": 37362, "rÄħ": 32881, "ĠLater": 11965, "Ġimproves": 24771, "ÑĢÐµÐ¹": 42578, "Ġpigeon": 37886, "Ġgenerously": 48983, "Ġricht": 22136, "Ġnest": 15646, "Ġding": 21211, "ĠIndonesian": 39772, "Î¹ÎºÏĮ": 37789, "Ġmultif": 39824, "ĠDownload": 32282, "ÙĦØ©": 37977, "Ġradical": 12001, "ĠnaprawdÄĻ": 20970, "ĠTabii": 41770, "×Ľ×©×Ļ×ķ": 44074, "aph": 13957, "<|21.96|>": 51462, "Ġê¹Į": 49124, "Ġdistinguished": 21702, "Ġrev": 3698, "Ġtriangular": 38190, "Ĥĺ": 3404, "plings": 26921, "Ġmechanical": 12070, "ĠÐ¿ÑĢÐ¾Ð²ÐµÑĢ": 30901, "ĠRoyal": 12717, "ĠÑĤÐ°ÐºÑĥÑİ": 42456, "ĠÑĢÐµ": 15492, "ãģªãĤĵãģł": 33383, "rimination": 14663, "aste": 9079, "!": 0, "ĠAdditionally": 19927, "ĠConfig": 44151, "Ġhoneymoon": 48004, "<|1.02|>": 50415, "ĠHait": 25752, "Ġstaple": 32361, "Ġgrill": 16492, "ĠAzure": 11969, "yang": 23594, "Ġhole": 5458, "æ³ķ": 11148, "ucken": 49720, "Ġlegen": 48315, "ĠâĢ¦": 5799, "Ġgard": 5628, "Ġkali": 41690, "Ġlagi": 17742, "Ġboundaries": 13180, "Ġallegiance": 44706, "Ġurine": 27638, "entin": 47300, "Ġcous": 12304, "Ð¸ÑĩÐ½Ð¾": 40680, "Ġindicating": 25604, "ĠRow": 20309, "ł¨": 26627, "Ġspherical": 37300, "unu": 11072, "Î": 138, "Ġsteals": 46962, "bb": 6692, "Ġgenial": 48228, "ĠStadium": 32976, "glass": 28851, "Ġtok": 19164, "·": 115, "Ġalimentos": 38563, "ĠRecord": 27401, "Ġneck": 6189, "arnos": 24979, "ç¶": 9261, "rÃ©e": 37735, "Ġì¡°ê¸Ī": 13091, "Ġprecious": 12406, "Ġliar": 27323, "<|3.06|>": 50517, "Ġoke": 40043, "<|kn|>": 50306, "Ġreminded": 15920, "atoon": 37586, "ãģĵ": 3503, "Ġright": 558, "ĠYoung": 8160, "Ġë³´ê³ł": 18942, "Ġopacity": 41693, "Ġannoying": 11304, "atk": 33525, "ĠBrady": 31773, "Hay": 39075, "ĠErde": 43720, "Ġphotographed": 45067, "Ġtransparency": 17131, "Ġprojekt": 26261, "âĻª": 3961, "ĠÐ¼ÐµÐ¶Ð´Ñĥ": 24098, "43": 17201, "Ġ170": 27228, "Ġwhales": 32403, "Ġkant": 44055, "ution": 1448, "ĠLicht": 32917, "Ġneeds": 2203, "ĠAppreciate": 37601, "Ð¡": 8068, "ĠHallo": 21242, "¤íĬ¸": 41914, "Ġbalancing": 22495, "ord": 765, "ì´ī": 44221, "ĠÐºÑĢÑĥ": 26970, "Ġstra": 2148, "ĠSalesforce": 40398, "Ġupstream": 33915, "à¸³": 24865, "Ġ5000": 23777, "Ġdevotees": 46960, "ĠRepl": 47762, "ä½¿": 22982, "áºŃn": 27410, "Ġì½ĺ": 43875, "uses": 8355, "iya": 23622, "Ġfelt": 2762, "Ġrename": 36741, "Ġskirt": 20134, "Ã¡c": 21563, "Ġchois": 37827, "Ġjokes": 14439, "abul": 14057, "æŃ²": 26256, "Ġimperial": 21143, "Ġinn": 7714, "è§Ģ": 25179, "iren": 18833, "Ġupdated": 10588, "Ġdivis": 25974, "Ġphen": 7279, "Ġjournals": 29621, "ÑĥÑĶ": 36382, "ĠGrill": 43592, "Ġdomains": 25514, "ĠCatch": 23869, "Ġhabt": 23660, "inally": 19801, "Ġ!": 2298, "ĠBBC": 22669, "×ķ×ł×Ķ": 37978, "ĠRash": 46298, "ĠPlant": 28995, "Ġvolumes": 22219, "Ġê±´ë": 39626, "Ġ-...": 41975, "ekt": 8192, "Ġinevitable": 21451, "Ġbevor": 37591, "atures": 3377, "imento": 10030, "ĠvoilÃł": 14624, "ĠÏĢÎ¿Î»": 30403, "ordum": 41627, "Ġrer": 43819, "Ġoffend": 41836, "bol": 17460, "otherap": 20194, "Ġchampion": 10971, "Ġexpect": 2066, "ĠBah": 14782, "Ð½ÑĭÑħ": 5783, "ĠÑĤÐµÐ»ÐµÑĦÐ¾Ð½": 44485, "imen": 19676, "<|18.24|>": 51276, "ĠÃ§": 1844, "Õ¡": 19091, "Ġcredit": 5397, "Ġhiss": 33182, ">-": 33335, "ĠÑģÐ»Ð¾Ð²Ð¾": 43272, "Ġphi": 13107, "Ġperiod": 2896, "Ġ73": 28387, "ĠKathy": 30740, "Net": 31890, "Ġintervene": 30407, "<|24.02|>": 51565, "athi": 42715, "between": 32387, "<|24.72|>": 51600, "Ġyapt": 15799, "<|ko|>": 50264, "ĠDos": 33474, "ĠSaying": 34087, "Ġpleased": 10587, "Ġeens": 31246, "ĠÐŁÐµÑĢ": 20426, "Ġpsychological": 14346, "Ġfireworks": 28453, "Ġregister": 7280, "ĠÐ½Ð°Ðº": 20955, "cciones": 35560, "api": 35891, "Ġree": 43060, "Ġexcuse": 8960, "<|7.94|>": 50761, "ĠMonroe": 43900, "<|10.92|>": 50910, "parent": 38321, "Ð¸ÐºÐ¾Ð¼": 48740, "ĠðĿ": 42244, "ĠâĻª": 931, "Ġê·¸ë§Į": 39067, "ĠAquÃŃ": 24386, "orted": 14813, "ĠSver": 29490, "Ġbehaviour": 17229, "ĠAye": 13377, "ĠÐķÑģÐ»Ð¸": 12412, "tight": 41738, "bourg": 43638, "Ġinitiate": 31574, "Ġcav": 13971, "ĠHaz": 15852, "ĠHEL": 38856, "íĦ": 6826, "Ġsentenced": 30954, "ĠmuchÃŃs": 29353, "culosis": 49379, "Ġdiscussed": 7152, "teokbokki": 34357, "Å¡e": 42717, "Ġsilic": 26484, "Ġbooks": 3642, "utta": 27145, "Ġhospitals": 13014, "Ġcompon": 4026, "Ġhandler": 41967, "Ġzur": 7147, "ĠëĪĦë": 30225, "Ġthrilling": 39347, "idaÄĩ": 46898, "ĠEstamos": 34563, "ĠKobe": 46296, "Ġgrup": 12740, "ĠëĪĦêµ¬": 36385, "ĠOm": 9757, "ĠLaurie": 38189, "ÅŁallah": 34870, "Ġfocuses": 16109, "ãģĭãģ£ãģŁ": 25785, "ĠZhang": 17729, "ppe": 19833, "Ġjun": 8156, "ĠìĪ": 3471, "<|9.78|>": 50853, "Ġassets": 9769, "issible": 41073, "Ġìŀ¬ë": 16526, "ĠÐ½ÐµÐ³Ð¾": 15052, "Ġrefreshed": 46330, "ìłķìĿĦ": 32913, "thest": 36356, "Ġbots": 35410, "ÑĢÐ¾Ð´Ðµ": 35381, "Ġcompliment": 16250, "imore": 21917, "Ã©rieur": 24608, "ĠClerk": 45175, "Ġpenny": 24178, "Ġcerto": 22261, "Ġweak": 5336, "selling": 30427, "Ġconstrained": 38901, "leb": 28512, "Ġrapidly": 12910, "Ġchicos": 46070, "ĠYesterday": 19765, "ĠMik": 16380, "Ġheights": 25930, "Î¾": 16134, "ĠnÃ¥got": 36586, "Ġnuest": 7717, "ĠÐ¿ÐµÑĢÐµÐ²": 28106, "Ġbrunch": 49761, "ĠKate": 16251, "icus": 36496, "Ġtaller": 22406, "ĠTraffic": 46950, "<|23.88|>": 51558, "Ġhaver": 41912, "Ġãħĭãħĭãħĭãħĭ": 38032, "<|14.52|>": 51090, "theless": 16620, "apan": 3140, "ĠWater": 8772, "Ġdescribe": 6786, "Jen": 30555, "ĠFY": 42730, "Ġfifteen": 18126, "ash": 1299, "Ġde": 368, "<|21.36|>": 51432, "<|5.96|>": 50662, "ĵ": 241, "Ġcooperate": 26667, "Ġtyping": 18444, "ÄħÄĩ": 36374, "ĠMaar": 14294, "ĠSom": 12297, "ĠGao": 32235, "Ġtoolkit": 40167, "Ġernst": 43412, "kich": 48349, "ĠThr": 41645, "ke": 330, "Ġschreiben": 48546, "Ġdarling": 22405, "Ġalred": 41290, "ĠTigers": 37699, "graduate": 47187, "Ġoutline": 16387, "Ġfacts": 9130, "aying": 32600, "<|15.44|>": 51136, "ampf": 30157, "ĠEstados": 22362, "uch": 625, "ĠHearing": 37875, "ĠEnde": 15152, "ãģĦãģĦ": 13806, "Ġvisualize": 23273, "Ġversatile": 25057, "×ķ×§": 19047, "Ġconte": 34444, "Ġmenu": 6510, "shots": 35491, "ĠíĮĢ": 31448, "ĠComplex": 41184, "Ġorbiting": 48985, "Ġpony": 27342, "ĠTamb": 18176, "idade": 6014, "ematically": 40197, "ĠÃ¨": 4873, "ĠÐ·Ð½Ð°Ñĩ": 27605, "à¯ģ.": 35439, "ieth": 38449, "ĠvardÄ±": 36339, "Ġforgiven": 30391, "Ġuw": 23147, "ĠEric": 9336, "Ġsagen": 8360, "<|19.70|>": 51349, "BRUNO": 18468, "lied": 39459, "ÐµÑĨ": 10935, "ĠPartner": 32736, "çļĦ": 1546, "Ġcomplex": 3997, "ĠStre": 19597, "Ġnationalism": 39186, "Ġexha": 9059, "Ġexp": 1278, "Ġcatchy": 47168, "ĠClan": 45117, "Ġblir": 19504, "Ġpropagate": 48256, "Ġpredominantly": 29893, "ĠLars": 41563, "Ġsher": 29855, "Ġainda": 11804, "Ġhometown": 22112, "ĠAfric": 4390, "ãģłãģĳ": 36215, "bike": 30283, "Ù¹": 37130, "Ġzwy": 43436, "åİ»": 6734, "arded": 22803, "ĠÐ²ÑģÐ¿": 35944, "Ð°Ð¹ÑĤÐµÑģÑĮ": 30100, "Ġ×¨×§": 44918, "Ġbuyers": 23465, "âĸ": 39984, "Ġthoroughly": 17987, "Ġfiltered": 37111, "ĠÐ¼Ð¾Ð»Ð¾Ð´": 28801, "Ġintoler": 35278, "%,": 8923, "Ö": 146, "Ġlaboratory": 16523, "Ġdiscussion": 5017, "Ġeman": 28211, "Ġhearts": 8852, "Ġabajo": 30613, "Ã¡o": 45202, "Ġzebra": 47060, "asto": 33869, "Ġnaturally": 8195, "aneously": 13131, "ĠSerbia": 39461, "Ġê¹Ģ": 17376, "ĠOLED": 43944, "Ø¸": 19913, "çĽ¸ä¿¡": 35428, "Ġswift": 29184, "<|9.82|>": 50855, "Ð«": 16214, "ĠÐ¿Ð°Ð¿": 39322, "Ġhype": 24144, "Ġwhipped": 27918, "Ġstrawberries": 26873, "Ã¼mÃ¼z": 42909, "Ġceased": 49917, "ĠHog": 30553, "Ġgalax": 26285, "ĠDoll": 20059, "Ġministers": 26220, "reibt": 31174, "ìĸ´ê°Ģ": 45017, "Ġroyal": 13351, "ĠRick": 11224, "Ġcactus": 44287, "Ġnor": 6051, "phoria": 50107, "Ġphilosophy": 10675, "Ġwelt": 43119, "Ġdrama": 9412, "Ġfamiliar": 4963, "ocused": 33176, "ĠRapha": 49690, "ĠAmend": 20404, "Dad": 14599, "Ġfiltration": 43623, "Ġestad": 39160, "Ġbelonged": 28611, "ire": 621, "Ġvaccination": 16498, "ĠWeek": 12615, "Ġbottoms": 43413, "Ġonly": 787, "building": 28126, "emu": 37552, "Ġequity": 10769, "ĠÐ¿ÑģÐ¸Ñħ": 44159, "Ġ....": 13368, "Ġvantage": 46206, "Ooh": 44648, "ĠAlmighty": 16849, "Ġcarta": 41815, "Fonda": 35286, "Ġyeni": 34320, "ß": 155, "ĠãģĮ": 29697, "ĠÐ³Ð¾ÑĢÐ°Ð·": 45386, "Ġimagining": 27798, "Ġtends": 12258, "zeug": 19303, "Ġrelatable": 42355, "ÑģÐºÐ¸Ðµ": 25254, "Ġdamals": 26067, "iÃ©": 50078, "umpy": 36142, "<|16.46|>": 51187, "Ġnecesit": 38661, "ĠSouthern": 13724, "à¸Ĺà¸³": 43988, "Ġcondemn": 30733, "Ġdoll": 2722, "Ġ×Ĳ×ł×Ļ": 16707, "Ġintelig": 44300, "Ġsuspense": 47803, "Ġsentido": 19850, "Ø±": 2288, "ouncer": 14296, "orte": 12752, "charger": 48942, "ĠMe": 1923, "Ġbaptized": 34006, "Ġaussi": 6212, "Ġvisitor": 28222, "ĠÐ½ÐµÐ²": 21224, "arks": 20851, "Ġgoggles": 39808, "ĠHarr": 13321, "arium": 19612, "Ġplay": 862, "ĠEfendimiz": 50120, "Ã¡m": 19524, "ĠCoca": 32719, "ĠÐ½Ð°ÑĢÐ¾Ð´": 32583, "åħĭ": 24881, "ĠGabriel": 20985, "Ġrant": 45332, "antee": 10527, "Ġëģ¼": 46809, "<|8.94|>": 50811, "Ġvorher": 29195, "ĠMK": 30770, "ĠBattle": 11846, "ĳĲë": 45193, "ĠGIS": 47860, "ĠÑĩÑĤÐ¾": 2143, "Ġnun": 8905, "Ġlosers": 37713, "essment": 38471, "Ġcling": 35986, "Ġmoder": 10494, "Ġzobaczy": 37273, "Ð¨": 26541, "plat": 39975, "à¸§à¸¢": 39507, "GU": 32298, "ĠEis": 43174, "agers": 8776, "ĠFields": 48190, "Ġlinking": 25775, "Ġstaying": 7939, "Ġrelevance": 32684, "ĠÅŁeyler": 28863, "rod": 11452, "Ġmind": 1575, "inel": 40952, "×¨×Ĳ×ľ": 40783, "By": 27690, "uating": 32438, "<|4.02|>": 50565, "ãħ": 4143, "ĠLopez": 36077, "Ġgateway": 28532, "allahi": 24079, "Ġscam": 26917, "isse": 7746, "ĠINTER": 30219, "ĠÐ½Ð°ÑĪÐ°": 48513, "Ġslippers": 45670, "aign": 4897, "aware": 17074, "ĠSuit": 48854, "Ë": 135, "avored": 22120, "ìŀĸìķĦìļĶ": 13928, "ĠLinux": 18734, "Ġdivergence": 47387, "Ġfaction": 37249, "Ġitem": 3174, "ĠSno": 42902, "ophren": 38562, "ĠÐ½Ð°ÑĪÐ¸": 36314, "isesti": 35216, "Ġframing": 28971, "ĠÂ¡": 6514, "ĠHolmes": 27474, "<|25.10|>": 51619, "hit": 37068, "ĠHollywood": 11628, "Ġpast": 1791, "abulary": 19189, "Ġobjection": 35756, "ĠRider": 40150, "Ġlinks": 6123, "fert": 34784, "Ġharassment": 25836, "ĠMarc": 18460, "Ġthighs": 29207, "HAHA": 21803, "Ġpropri": 40465, "erin": 31602, "ĠEK": 46078, "ielt": 18940, "Ġinsult": 15285, "gre": 33248, "peace": 43099, "abei": 12449, "Ġconclud": 9312, "film": 37023, "Ġthick": 5060, "ĠZion": 32240, "ippy": 48363, "ĠademÃ¡s": 21251, "With": 20943, "Ġneedles": 24792, "draw": 48848, "Ġchemical": 7313, "pread": 22141, "anged": 10296, "Ġiets": 24791, "elect": 14664, "Ġsevere": 8922, "<|28.56|>": 51792, "es": 279, "Ġprevious": 3894, "Ġê·¸ëŁ¬ë©´": 16645, "ĠGimme": 48047, "Ð°Ð¶Ñĥ": 29294, "ĠOregon": 18664, "Ġsanding": 44338, "èĮ": 27395, "Ġgiá»Ŀ": 28689, "ĠVander": 46588, "ĠUpdate": 28923, "chieden": 40433, "Ġselv": 33277, "<|10.24|>": 50876, "ĠFirebase": 35173, "Ġmerak": 39668, "Ġtough": 4930, "Ġkolay": 44999, "<|4.74|>": 50601, "ĠÑĥÐ´": 11927, "Ġgitti": 37700, "Ġtracker": 37516, "right": 1938, "attering": 14849, "Ġroommates": 46886, "ĠWent": 31809, "oki": 17056, "ĠMoses": 17580, "ÐºÑĢÐ°": 17364, "Ġexamined": 30972, "Ġpools": 28688, "Ġdominance": 34987, "idad": 4580, "Ġwinds": 17765, "ĠVAN": 49090, "ÑıÑħ": 24725, "acie": 30805, "selves": 2036, "ĠNik": 13969, "ĠBrisbane": 32222, "ĠGalile": 46576, "æĢķ": 21164, "Ġreaders": 17147, "lord": 22839, "comes": 9055, "ICES": 40407, "ĠKita": 27329, "ĠnÃ¥": 11594, "Ġì¤ĳ": 7596, "Ġpriorities": 15503, "Ġschlecht": 32427, "Ġbesoin": 19207, "ional": 1966, "ĠëĤĺ": 3948, "uire": 43612, "yy": 15630, "ĠìĿ¼ë": 16623, "çŁ¥éģĵ": 7758, "Ġcorrespond": 6805, "uche": 17545, "ĠíĮĮ": 15390, "ĠBack": 5833, "ĠÐ·Ð°ÑĩÐµÐ¼": 41521, "Ġinsightful": 46401, "Ġcustomizable": 47922, "ì§¸": 18211, "ĠKai": 20753, "Ġpromotes": 36015, "Ġfloral": 38900, "ensitive": 34465, "ĠinvestigaciÃ³n": 48919, "Ġfout": 41907, "Script": 14237, "ĠAmb": 17196, "<|25.26|>": 51627, "Ġ00": 7143, "Ġexpose": 19219, "OULD": 50246, "Ġprolonged": 41237, "ĠStraight": 26908, "Ġharms": 48505, "abel": 18657, "Ġodd": 7401, "ĠConnie": 49558, "æĪĳè¦ºå¾Ĺ": 17689, "ĠocksÃ¥": 13312, "ĠAd": 1999, "çĻ¼": 14637, "Ġconquest": 43241, "ĠArmen": 22302, "ĠÐ¹Ð¾Ð³Ð¾": 44123, "Ġsynt": 23980, "Ġunst": 18799, "words": 13832, "Ġëĵ¤ìĸ´ìĺ": 37916, "Ġseniors": 21069, "Ġrealt": 41133, "Ð¾Ð¶Ð°Ð»": 18327, "ĠIndones": 13942, "isme": 16415, "ĠCheryl": 38331, "----": 10922, "Ġtimber": 34671, "Ġhart": 36644, "ch": 339, "ĠCliff": 33638, "ĠOke": 29094, "ĠìĹĦ": 16685, "Ġcircus": 32155, "Sean": 49658, "ĠXavier": 44653, "Ġshorts": 19848, "Ġcovet": 48497, "ote": 1370, "Ġsinners": 41004, "Ġadore": 32060, "ĠæĪĳ": 8624, "³Ģ": 43858, "Ġstating": 26688, "Ð°Ð¶Ð¸": 43862, "Ġcorrupted": 39480, "Ġspatial": 23598, "Ġkept": 4305, "Ġplanted": 17395, "Ġown": 1065, "ì¸ł": 34130, "<|17.18|>": 51223, "Ġbranding": 27279, "åĵª": 17028, "Ġmakers": 19323, "ĠRE": 10869, "Ġanders": 17999, "ffff": 25388, "ĠNossa": 36016, "ĠPAL": 46390, "ĠJia": 29242, "ĠGirls": 16245, "Ġtouched": 9828, "pedo": 41933, "Ġplanetary": 35788, "Ġlistings": 45615, "Ġobjectives": 15961, "Ġfuncion": 14186, "ĠbÃ¼yÃ¼k": 24059, "ĠJeff": 7506, "Ġcountries": 3517, "ym": 4199, "Ġharmed": 41478, "iciÃ³n": 15534, "cca": 22394, "ĠÐ¸Ð³ÑĢÐ°": 37120, "Ġshotgun": 24734, "Ġanthropology": 44518, "Ġsatisfies": 44271, "Ġacknowledging": 30904, "ĠÐĶÐ°": 9149, "ĠPrinc": 35841, "Ġslower": 14009, "ë¶ĢíĦ°": 39149, "ĠrÃ©s": 14415, "æĮī": 26613, "åħ¨éĥ¨": 38714, "Ġfearless": 44139, "Ġcrist": 35608, "you": 5616, "Ġmakan": 46616, "Ġoptics": 42599, "ettes": 16049, "Ġhide": 6479, "ANC": 31885, "and": 474, "ìĹ°": 11557, "ĠBonjour": 25431, "ĠDustin": 46782, "ĠÐ°Ð½": 17086, "Ġloan": 10529, "<|22.00|>": 51464, "Ġjusto": 40534, "íĮħ": 27086, "Ġdemasiado": 39820, "ĠìŀĪëĭ¤": 27468, "spr": 18193, "impression": 36107, "Ġprotein": 7944, "Ġtrademark": 31361, "Ġdunno": 22751, "rings": 25782, "ĠìĪĺë": 22297, "ãģĪãĥ¼": 36697, "ĠBeast": 24100, "ÐµÑĢÐ°": 13126, "ìłľê°Ģ": 49149, "ĠSomewhere": 34500, "ĠJournal": 16936, "ÑĪÐ¸Ð¹": 24958, "Ġherzlich": 45919, "Ð¾ÑĩÐ½Ð¾": 47083, "<|2.26|>": 50477, "ĠlÃ¦": 44584, "Ġlaser": 12530, "ĠIni": 28929, "oten": 21990, "Ġdau": 37359, "Ġfolded": 23940, "ĠÑĤÑĢÑĥÐ´": 36853, "Ġblast": 12035, "Ġsenior": 7965, "ĠÃªtre": 7418, "Ġantis": 44474, "Ġnood": 8422, "Ġindustries": 13284, "nica": 32687, "ĠÐºÐ¾Ð»Ð¸ÑĩÐµÑģÑĤÐ²Ð¾": 33442, "ĠActive": 26635, "Ġambiguous": 39465, "ĠÐ¾ÑģÑĤÐ°Ð½Ð¾Ð²": 44367, "Ġanterior": 22272, "alled": 8907, "Ġestrat": 42746, "Ĳë©´": 32324, "QU": 26078, "ĠSinn": 37962, "Ġsliding": 21169, "ĠShame": 46835, "ĠTorah": 29676, "Ġgenerous": 14537, "Ġhis": 702, "Ġgegen": 13953, "ĠStart": 6481, "Et": 48205, "ĵľë": 6300, "ĠÑħ": 3490, "Ġconstructive": 30223, "´ìłĦ": 47595, "è°¢": 11340, "Ġphenomenon": 14029, "Ġinnovative": 12999, "box": 4995, "Ġpuedan": 41241, "Ġbounced": 46482, "ĠAlberto": 45709, "<|18.98|>": 51313, "Ġsoi": 46098, "heiten": 38754, "ĠDiam": 21706, "ĠvÃ¦": 18836, "Ġcelery": 37643, "Ġlotus": 39105, "Ġunto": 16521, "Ġkm": 10698, "ĠCent": 3408, "ĠPoor": 23591, "rÃ¥n": 43178, "ĠMeyer": 47207, "ilty": 11544, "Ġgdy": 28405, "Ġarth": 31546, "illery": 25857, "ëł¹": 33055, "aders": 15221, "ĠSEÃĳ": 40677, "ĠCatalunya": 46039, "Ġstandby": 50170, "Ġtying": 32405, "atters": 37690, "iencies": 31294, "urally": 6512, "Ġslop": 21254, "Ġdistort": 37555, "KA": 16135, "ĠHarriet": 46437, "Ġgod": 3044, "ĠMill": 7190, "Ġmer": 3551, "Ġgogg": 36653, "Æ°á»Ł": 48443, "cellence": 17379, "Ġsneeze": 50076, "Ġsore": 22468, "ĠCities": 36672, "Ġë¬´": 27387, "ãģĿãģĨãģ§ãģĻãģŃ": 46210, "Ġpocz": 26423, "Ġquery": 14581, "Ġoral": 19338, "åħ¨": 11319, "aktu": 37535, "ĠMillenn": 42007, "ĠvÃ©hic": 49438, "Ġfrequently": 10374, "<|7.06|>": 50717, "ĠJoshua": 24005, "Ġcocoa": 30634, "Ġstartled": 48898, "<|7.86|>": 50757, "<|20.18|>": 51373, "Ġsoy": 8812, "ĠÑįÐ»ÐµÐºÑĤ": 31314, "ĠÐ»ÑİÐ±": 9875, "For": 12587, "Ġabges": 49848, "Ġblij": 26486, "Ġhot": 2368, "estly": 11154, "\",": 2566, "ĠBoden": 34971, "ieval": 21129, "Ġstretched": 23563, "ĠNFT": 50075, "ĠSuff": 40178, "Ġtitle": 4876, "jam": 24267, "ĠPois": 48274, "Ġpag": 11812, "Ġlegislative": 21331, "wert": 26521, "<|15.80|>": 51154, "è¨Ī": 30114, "Ġshading": 30556, "ĠMelissa": 22844, "Ġbrush": 5287, "Ġgou": 21301, "ĠHaupt": 30573, "Ġtactical": 26323, "Ð½Ð¸ÑĨ": 36787, "ÐµÐ½Ñģ": 35964, "ungkin": 26105, "minded": 23310, "Ġmelodies": 47085, "ĠÐ·Ð°Ñħ": 28701, "Ġvolcano": 21979, "ĠWO": 48388, "Ġaffair": 22987, "halt": 20731, "uesta": 25316, "Ġthoughtful": 21566, "pace": 17940, "ÙĤØ¯": 28543, "gan": 1275, "Ġfacebook": 23372, "Ġresemb": 20695, "Ġtea": 5817, "aren": 4484, "Ġdishon": 37127, "Ġbackpack": 17969, "Ġsolche": 29813, "Ġencaps": 38745, "pm": 14395, "Ġgifted": 27104, "univers": 41421, "mpre": 6516, "Ġadministrator": 25529, "ãģĻãĤĭ": 22570, "×Ĳ×Ł": 43913, "rÃ¥": 24972, "...?)": 46498, "avirus": 10868, "Ġpermits": 30990, "fox": 38416, "orang": 37909, "Ġsiamo": 33459, "taÅĤ": 46426, "ĠDun": 11959, "Äģn": 42223, "ĠÏĦÎ±": 16900, "Ġinfluences": 21222, "ĠÐ¿Ð¾Ð½ÑıÐ»": 37975, "Ġcoffin": 38361, "uman": 6829, "untu": 45605, "Ġpixel": 19261, "ĠSheng": 40544, "ĠÃīl": 34325, "weder": 49070, "Ġvolunteer": 13835, "ĠÑĸÐ½": 29858, "åįĢ": 44526, "ÑģÑĤÐ°ÑĤÐ¾ÑĩÐ½Ð¾": 25273, "Ġapar": 34115, "Ġ?\"": 37266, "Ġdiction": 22352, "tschaft": 22165, "Ã¼ll": 32385, "Ġcheek": 12839, "ĠEdit": 33241, "Ġkicking": 19137, "áº¿n": 16240, "phon": 29285, "Ġprecise": 13600, "Ġopt": 2427, "Ġaren": 3212, "ĠCem": 48852, "Ġheir": 30038, "Ġhistorical": 8584, "Ġfallait": 49170, "Ġchasing": 17876, "Ġbuddy": 10340, "Ġcybersecurity": 38765, "Ġbeta": 9861, "Ġgirl": 2013, "Ġtreffen": 37620, "Ġrecogn": 3068, "à®µà®°": 36001, "Ġrum": 8347, "quito": 14856, "Ġan": 364, "Ð¤": 35753, "ĠDefinitely": 12151, "erald": 24250, "ĠÃ¡r": 35349, "Ġunderwater": 20967, "unes": 15001, "ideo": 24589, "Ġaunque": 21962, "Ġlast": 1036, "ysz": 20589, "meye": 18631, "Ġtuition": 23925, "arak": 23346, "ħķ": 12831, "ÅĤada": 46217, "Ġlong": 938, "Ġsounding": 24931, "ligen": 35158, "Ġresources": 3593, "ĠÃºtil": 49191, "Ġinspector": 34564, "Ġaccess": 2105, "ĠPablo": 31554, "Ġnok": 33811, "è¡": 9890, "Ġprisoners": 20417, "<|19.64|>": 51346, "Ġancestry": 44729, "ÐµÐ»Ð¾": 24846, "Ġnerve": 16355, "Ġdiscard": 31597, "Cal": 31279, "Ġwur": 8818, "à®ķà®µ": 49018, "Ð¸ÑĤÐµÐ»ÐµÐ¹": 29952, "Ġeinige": 28338, "ĠNancy": 18154, "ĠShin": 17347, "Ġbrill": 8695, "Ġsitcom": 49530, "ĦĲ": 45382, "ç¹¼çºĮ": 38459, "Ġsings": 23250, "Ġpoint": 935, "ape": 41153, "ĠThrough": 8927, "Ġresolver": 34480, "çķ«": 43822, "rom": 4397, "program": 32726, "kill": 34213, "Ġanom": 24769, "Ã³s": 12994, "Ġprocessor": 15321, "Ġcultures": 12951, "Ġzweite": 37456, "Ġengagement": 8742, "illing": 7345, "ĠSadhguru": 40000, "Î®Ïĥ": 28299, "leo": 41041, "ĠRey": 17547, "ĠUns": 25017, "Ġparish": 45325, "Ġintensity": 13749, "accept": 24870, "Ġvacant": 38890, "åĬł": 9990, "Ġpainted": 11797, "Ron": 45532, "ĠRepeat": 28523, "ĠeconÃ³m": 33537, "Ġapologies": 34929, "fecture": 47612, "ators": 3391, "exp": 15952, "Ã©tica": 37272, "ĠMaurice": 49041, "Ġcarving": 31872, "Ġblossoms": 47789, "Ġfine": 2489, "ĠtroisiÃ¨me": 47582, "ĠSabrina": 45439, "Jess": 27604, "undy": 49996, "éģİä¾Ĩ": 49950, "Ġlieutenant": 45521, "Ġsnel": 42582, "Ġexplicar": 26682, "ðĿ": 10933, "åł": 10726, "ĠEaster": 9403, "ĠPU": 44098, "Ùī": 7578, "ĠproblÃ¨mes": 37317, "ĠALL": 14824, "Ġvibr": 11599, "<|17.24|>": 51226, "Ġlecture": 7991, "à¹ĩ": 12055, "Ġpizz": 36075, "×ķ×ĳ": 16097, "Ðĵ": 20784, "ĠTro": 19406, "Ġbelle": 28770, "ĠCanton": 44170, "ase": 651, "Ġtenim": 36012, "Ġpomp": 44275, "ĠÑģÑĤÐ¾Ð¸ÑĤ": 23675, "ĠUk": 9816, "ĠaÃ±ad": 44980, "Ð¸Ð´": 3586, "ĠÐ¿Ð»Ð¾ÑħÐ¾": 45210, "icional": 33010, "Ø¹Øª": 34268, "Ġpores": 30082, "Ġbenchmarks": 43751, "agus": 32813, "<|pt|>": 50267, "Ġspite": 22794, "æĪĳçŁ¥éģĵ": 33838, "ĠSouth": 4242, "Ġfingerna": 48880, "Ġpictures": 5242, "Ġquesto": 10263, "Ġancestral": 40049, "dt": 39488, "Ãªnio": 39266, "ãĥ¤": 34969, "ĠVision": 25170, "otypes": 19477, "eters": 6202, "ĠTempl": 39563, "apter": 5446, "enment": 26797, "Ġgusto": 38723, "Ġprem": 5624, "<|23.76|>": 51552, "Ġpel": 6178, "mor": 40220, "ìĿ¸ì§Ģ": 37194, "ĠTikTok": 20211, "Ġrobbed": 35772, "Ġcreamy": 23215, "ĠPunkt": 25487, "ĠSingle": 31248, "gil": 29965, "Ġevac": 20245, "åķĨ": 45581, "Ġprecisa": 18861, "ÑģÑĤÐ²Ðµ": 24966, "ĠSlow": 17703, "ĠGef": 17873, "ĠAmericas": 38415, "ÑĢÐ°Ð±Ð¾ÑĤ": 40410, "Ġaccountability": 19380, "ĠEat": 14429, "Ġdobr": 23067, "ãģ«ãģ¡ãģ¯": 35752, "Ġdirectors": 17307, "Ġsoothing": 40704, "ĠPosition": 29780, "icated": 3587, "é£Ł": 25155, "Ð¼Ñĥ": 11147, "ÙĪØ³": 41779, "ĠReid": 46912, "íģ¼": 27328, "ĠSev": 28960, "èı": 16616, "ĠPP": 37369, "ÄĻd": 6298, "ĠCarlo": 45112, "Ġcres": 20964, "ĠHoÅŁ": 45958, "ĠHyun": 18398, "Ġrevenue": 9324, "ĠCor": 3925, "Ġcompan": 3168, "Ġdied": 4539, "Ġslit": 43182, "ĠLinked": 19322, "<|9.56|>": 50842, "<|kk|>": 50316, "Ġple": 3362, "ĠBan": 13850, "ĠStew": 22735, "ĠHUD": 46867, "Ġinstalled": 8899, "Ġyay": 23986, "Ġglory": 11924, "erweise": 44071, "ĠpaÃŃses": 23070, "Ġabsolut": 18757, "ĠSeeing": 19703, "ĠHund": 43361, "Ġharmonic": 32270, "pflicht": 45430, "ĠrazÃ³n": 38310, "ĠStatus": 47409, "urance": 5683, "Ġparasites": 45289, "Ġfracture": 36877, "Ġproportions": 32482, "ç¬¬": 7536, "Ġdeceased": 33156, "Ġprata": 45895, "Ġfino": 42560, "<|2.78|>": 50503, "ĠAl": 967, "Ġsiz": 13723, "roll": 3970, "ĠFT": 46675, "Ġstakeholder": 43406, "Ġaim": 5939, "èĲ½": 30848, "ĠBra": 4991, "chien": 33972, "Ġpoderia": 33674, "Ġorigin": 4957, "Ã¨mes": 27164, "ĠÐ®": 27002, "Ġbour": 32373, "ĠÐ±ÑĥÐº": 36761, "Ġkomb": 42925, "Ġdram": 7538, "Ġirm": 33842, "ĠGroup": 10500, "Ġfavor": 2294, "Ġcoupling": 37447, "ĠLoren": 37162, "Ġevaluations": 43085, "Ġsensory": 27233, "Ġlyn": 46137, "Ġverbal": 24781, "è§ģ": 23813, "cÄħ": 32557, "ĠSection": 21804, "Ġsake": 9717, "RISADAS": 38952, "ereye": 41333, "Ġintentions": 19354, "<|7.56|>": 50742, "<|7.58|>": 50743, "ieved": 46515, "ÑĥÐ´ÑĮ": 17332, "ĠComo": 11913, "atie": 16921, "Ġescuch": 22483, "reno": 48207, "Ġmicrowave": 19025, "Ġpani": 43916, "Ġdiscarded": 45469, "ĠCornell": 43257, "Ġspec": 1608, "ilage": 48066, "Ġproves": 25019, "Ġcoordinator": 27394, "chet": 36433, "ĠMotorola": 45871, "ĠWohn": 22741, "ĠElijah": 36147, "ĠBom": 19812, "Ġaccumulate": 33384, "ends": 2581, "Ġhep": 26299, "Ġchiar": 47454, "ĠÐ´ÐµÐ½ÑĮÐ³Ð¸": 27087, "lining": 31079, "Ġborn": 4232, "Ġcola": 40495, "ĠÐ´ÐµÐ¹ÑģÑĤÐ²Ð¸ÑĤÐµÐ»ÑĮÐ½Ð¾": 27208, "ĠÐ¡ÑĤ": 17483, "school": 22779, "ãĥ©": 11353, "ĶĶìĺ¤": 49117, "Ġwindow": 4910, "åĪ°": 4511, "Ġreport": 2275, "Ġfilthy": 40384, "Ġformul": 49990, "Ġlas": 2439, "Ġng": 6415, "iggles": 19469, "ĠSymphony": 46891, "Ġunsuccess": 40501, "ĠannÃ©es": 21203, "ema": 5619, "ŀĮ": 22855, "Ġracket": 41130, "ĠDown": 9506, "ä¸įè¦ģ": 11962, "ĠÐ¼Ð¸ÑĢÐ°": 41454, "VIN": 27487, "ĠArms": 42561, "ĠÐ´Ð¾Ð¿": 23562, "Ġcompartment": 26505, "Ġrepeated": 10477, "çĶļ": 17556, "ĠÎ¿": 11383, "Ġinvit": 43714, "çµ": 6948, "Ġnunca": 13768, "Ø": 148, "Ġrare": 5892, "aczy": 14691, "Å±": 33150, "æĻ¯": 50218, "Tiffany": 37953, "ĠSub": 8511, "Ġinsist": 13466, "DER": 30500, "Ġwoods": 15296, "æī¾": 25085, "Ġresumes": 48068, "ĠkÃ¶": 15881, "ijke": 33611, "ĠdespuÃ©s": 15283, "miyorum": 29291, "Ġencompass": 28268, "rolled": 28850, "Ġevenings": 42835, "Ġpsychologists": 41562, "Ġvase": 44065, "Ġmolto": 16394, "het": 9092, "ĠEng": 2469, "Ġwater": 1281, "Super": 30152, "sÄ±nÄ±z": 44814, "autre": 19702, "ĠÐµÑģÐ»Ð¸": 8042, "Ġhommes": 34795, "ĠAtlantic": 20233, "Ġhumbled": 46199, "Ġinterfere": 23946, "ala": 5159, "GHT": 41976, "Ġclassification": 21538, "Ġtones": 19995, "ĠdafÃ¼r": 13747, "Ġhandful": 16458, "ĠCharlotte": 19059, "Ġlettuce": 25542, "Ġtransp": 7132, "æŃ¡è¿İ": 21315, "uz": 3334, "<|19.58|>": 51343, "K": 42, "Ġdent": 7059, "Ġnewsp": 10202, "Ġdrying": 22709, "ĠWarning": 45140, "Ġps": 18815, "ì£¼ëĬĶ": 35541, "Ġessay": 16238, "Ġworkflow": 20993, "Ġlead": 1477, "Ġmust": 1633, "ĠÐºÑĢÐ°": 38585, "ĠWort": 22748, "Ġgarment": 35084, "iano": 6254, "Ġbeginning": 2863, "ĠHit": 9217, "ĠJah": 12443, "oked": 9511, "ĠKEVIN": 50006, "Ġdefendant": 34053, "Ġgarlic": 9168, "ĠCommission": 10766, "ìĦ¯": 37526, "Ġnin": 9616, "Ġmonth": 1618, "ardi": 38126, "Ġverr": 45923, "ĠBrad": 11895, "ĠÐ¼Ð¾Ð¼": 17655, "Ġ]": 4183, "Ġcafeter": 38719, "Sam": 28743, "ERT": 31479, "ĠEnergy": 14939, "ĠÄ": 2127, "ħĢ": 32710, "ħĺ": 36630, "Ġdrowning": 37198, "ful": 906, "ĠEverywhere": 37322, "Ġfish": 3506, "ĠDAY": 27665, "ÃŃs": 5113, "Ġsunset": 20142, "ĠAward": 13894, "Ġcreatures": 12281, "ĠYahoo": 41757, "hÃ¶": 33195, "Ġsimplicity": 25632, "Ġrecreation": 31573, "ians": 2567, "ĠÐ²Ð½Ð¸Ð·": 46697, "Ġdestroying": 19926, "Ġcolleague": 13532, "<|20.80|>": 51404, "Ġsentence": 8174, "laughing": 4986, "SL": 47012, "ĠÐŁÐ¾ÑĤ": 17993, "Ġblood": 3390, "ëª¨": 49710, "èĩªçĶ±": 45233, "antis": 37952, "Ġparadise": 25919, "viron": 16234, "Ġdictate": 36071, "Ġlah": 26532, "Ġ-\"": 20841, "Ġdistant": 17275, "ĠëĥĦ": 43250, "onia": 16999, "Ġsway": 27555, "Ġpancake": 28916, "ĠPunk": 27852, "Ġutter": 17567, "Ġdownward": 24805, "Ġtrades": 21287, "Ã¼yorsun": 41353, "Ġmá»Ľi": 37328, "ĠModern": 19814, "Ġ×Ľ×Ļ": 44826, "Ġhold": 1797, "ĠchociaÅ¼": 48929, "ĠPK": 49475, "Ġplugin": 23407, "ĠAuft": 39119, "Ġniego": 49615, "Ġfemmes": 27997, "Ġnano": 30129, "Ġlandlord": 32654, "ĳ×": 4349, "ĠìŀĲìĹ°": 39635, "Ġfemales": 21529, "ĠìłķëıĦ": 13636, "Ġauthorized": 28312, "Ð´Ñĥ": 9031, "Ġì´ī": 47783, "ĠUndert": 48649, "inen": 5636, "believable": 13729, "Ġrespons": 2914, "Ġalrededor": 43663, "Ġelectrode": 38346, "ichte": 18972, "active": 12596, "ĠTeams": 24702, "å¤ī": 40931, "tech": 25970, "Ġciv": 13779, "ìĿĳ": 27994, "<|26.36|>": 51682, "Ġsalah": 41688, "Ġredesign": 39853, "Ġyout": 11325, "ocy": 31078, "Ġë¸": 13947, "<|5.62|>": 50645, "ĠÐ¿ÑĢÐ¾Ðº": 37225, "ĠSimmons": 42516, "Ġtide": 24662, "Ġrange": 3613, "ĠSus": 9545, "åĮħ": 23305, "ĠÐ¾Ð´Ð½Ð¾Ð¼": 48635, "ritt": 18579, "Ġtah": 23059, "Ġramen": 20948, "vid": 6833, "Ã²n": 23329, "Ġbees": 17511, "Ġclergy": 45995, "ĠFirst": 2386, "Ġcake": 5908, "Ġunlocked": 30180, "ĠNatur": 34571, "Ġjail": 10511, "Ġgiant": 7410, "ĠPlat": 17461, "opez": 34560, "Ġgebracht": 40744, "Hey": 7057, "Ġfull": 1577, "ĠPurd": 41632, "kap": 34334, "ĠMichaels": 45759, "ĠdÃ©jÃł": 12027, "Ġpalab": 21119, "Ð½ÐµÑģ": 28302, "æ²ĴéĮ¯": 23800, "ĠOVER": 46090, "Ġbiliyor": 35424, "ĠÐ½ÑĥÐ¶ÐµÐ½": 47867, "Ġrocky": 33301, "ĠAhmad": 35911, "Ġconsultation": 20932, "Ġversa": 25650, "Ġhint": 12075, "Ġsuprem": 23710, "ÐµÐ»Ðµ": 45230, "elle": 4434, "ahan": 21436, "ĠÐ·Ð°Ð³": 25770, "ĠÐ¡Ð¿Ð°ÑģÐ¸Ð±Ð¾": 29219, "<|1.36|>": 50432, "ĠAujourd": 32650, "ãĤīãģĦ": 38052, "Ġweaken": 48576, "ãģªãģ®ãģ§": 47275, "ĠOuch": 27217, "Ġ====": 21031, "asses": 26615, "Ġnerd": 23229, "fia": 22054, "Ġatoms": 16871, "Ġgewesen": 27653, "Ġbullish": 38692, "ĠBudget": 33751, "à®³": 10078, "Ġsalt": 5139, "unciation": 17477, "igent": 25002, "Ġpued": 10947, "ÃŃculos": 48229, "Ã©es": 6836, "otch": 32785, "<|3.76|>": 50552, "Ġmillimeter": 17942, "anh": 50214, "ĠWir": 4347, "Ġdigging": 17343, "ĠXin": 24368, "å³": 26555, "emetery": 25558, "åħ¶": 9572, "ĠJulius": 47666, "ĠFresh": 22843, "!\"": 2963, "omina": 49217, "Ġpollution": 16727, "å¸¶": 32379, "Ġends": 5314, "ĠGot": 5803, "ĠÐ¾ÑĢÐ³": 24443, "ult": 723, "ĠErfahrung": 49318, "ĠTF": 40964, "ĠSchÃ¼ler": 39776, "!!!": 4589, "Ġnets": 36170, "Ġresolving": 49940, "Ġparal": 26009, "ÖĢ": 25119, "Ġthesis": 22288, "Ġfeast": 23707, "ookie": 39611, "Ġcabinets": 37427, "Ġvaccine": 7007, "Ġsenza": 36208, "phonetic": 43226, "Ġreader": 15149, "Ġadmission": 24668, "ĠIndian": 6427, "ĠQueensborough": 40722, "ĠUCLA": 42862, "ĠNo": 883, "Ð°ÑĤÐµÐ»ÑĮÐ½Ð¾": 20279, "Ġbreak": 1821, "Ġswims": 42357, "Ġthrows": 19251, "Ġdag": 15460, "ĠSw": 3926, "Sha": 23429, "ĠIncredible": 35261, "Ġsá»±": 33602, "ĠÐ²Ð¾Ð·": 8918, "Ġopponents": 19001, "ĠHis": 2812, "oun": 1733, "Ġstance": 21033, "Ġnewer": 17628, "Ġsunt": 35171, "æ±Ĥ": 32718, "ĠÐ¾Ð¶": 35666, "oric": 16345, "<|0.94|>": 50411, "udent": 24064, "Ġetcetera": 22066, "rÃł": 39212, "Ġanalys": 23014, "Ġattendant": 39339, "ĠDynam": 22947, "íĸĪëįĺ": 30504, "fic": 1786, "ÄĻt": 46788, "Ġtom": 2916, "uld": 13432, "ĠCrossing": 41675, "æĦı": 9042, "Josh": 29006, "icket": 20551, "ĠSummit": 28726, "ĠGlen": 38125, "Ġreferring": 13761, "Ġaunt": 15654, "ĠâĻªâĻªâĻª": 31650, "Ġfal": 3704, "ĠDigital": 15522, "Ġrack": 14788, "ĠCham": 18054, "Ġcounts": 14893, "birth": 29367, "isches": 35889, "ĠXbox": 14544, "lasse": 40255, "Ġrec": 850, "ĠprÃ¡": 27300, "Ġjuices": 37027, "ĠíĬĢ": 49470, "ĠÐ¿Ð¾Ð¿": 10694, "ĠÎ±ÏħÏĦ": 18679, "Ġíķĳ": 45549, "antes": 9327, "Ġtank": 5466, "<|28.54|>": 51791, "Ġimpacts": 11606, "ìģ": 15404, "Ġprotective": 16314, "ĠVas": 23299, "gang": 19619, "Ġmeses": 23922, "ĠAware": 43949, "Ġjelly": 17186, "Ġbold": 11928, "Ġreturns": 11247, "ä¸Ģ": 2257, "Ġputs": 8137, "<|20.06|>": 51367, "osion": 19996, "joy": 1994, "Ġlap": 13214, "Ġtenga": 36031, "udi": 26000, "ê°Ķ": 31170, "Ġeyeball": 38868, "Ġdialect": 24652, "Ġsymbol": 5986, "ãĤ½": 42668, "Ġdwarf": 35527, "Ġwide": 4874, "ĠPHP": 47298, "Ġteen": 8921, "ĠlÃ¤sst": 29335, "Ġcursed": 29498, "ĠÐ²ÑĭÐ´": 47535, "track": 19466, "ĠíĽĦë": 23104, "Ġunfamiliar": 29415, "ĠPri": 8087, "ê³¼": 7097, "Ġmentor": 14478, "fu": 14127, "Ġëª°ë": 24833, "eln": 9878, "Ġhardcore": 28196, "ĠØ¨": 4724, "Ġrunter": 33295, "ifies": 11221, "Ġpsychedel": 47732, "IA": 6914, "Ġvacation": 12830, "Ġë¬¸": 13086, "Har": 49571, "ĠSA": 16482, "Ġsu": 459, "ĠViele": 36022, "Ġlegitimately": 44431, "Ġgele": 20234, "Ä±ÄŁ": 7366, "Ġluck": 3668, "Ġpretend": 11865, "Ġaesthetic": 20092, "Ġconqu": 15592, "ÃŃve": 38059, "Ġbipolar": 42469, "gage": 15637, "ª»": 33411, "ê¸°ìĹĲ": 36855, "Ġalbo": 22622, "Ġdip": 10460, "Ġbuying": 6382, "hof": 35128, "ĠSteven": 12754, "inct": 5460, "ĠBri": 32851, "Ġcinco": 21350, "Ð°ÑģÑĤÐ²": 47541, "ĠScrew": 42630, "Ġdoctors": 8778, "ä»ĸä»¬": 47911, "ĠÐ²Ð·ÑıÑĤÑĮ": 44101, "rations": 12154, "Ġlongtime": 44363, "enas": 11581, "ç¾İåĳ³": 45511, "ĠGib": 17256, "Ġdressed": 12386, "Ġaston": 25687, "èĭ¦": 30300, "ĠLima": 50217, "Ġteacher": 5027, "Ġsubstitute": 15802, "Ġliv": 11477, "ophy": 29087, "ĠðĿĺ": 42341, "finder": 38977, "Ġboards": 13293, "Ġcleaning": 8924, "Ġconv": 3754, "ĠespÃŃ": 48987, "ered": 4073, "Ġartist": 5748, "issement": 31931, "Ġencore": 10122, "AI": 48698, "Ð»ÑİÐ´": 31179, "ĠParadise": 35053, "<|29.86|>": 51857, "Ġconduct": 6018, "ĠÐ´Ð²Ð¸Ð¶": 30473, "Ġlevel": 1496, "Mother": 41689, "Ġheavens": 26011, "Ġdizendo": 47026, "amar": 45207, "kami": 48737, "Ġíĥ": 8675, "Ġcarriage": 31811, "ĠShen": 22636, "BS": 8176, "ĠMX": 47509, "ĠCreek": 24200, "ikes": 8916, "rose": 37841, "venge": 46112, "Ġmotives": 39812, "èĪ": 10256, "Ġspun": 37038, "Ġapplauding": 15865, "Ġoutcome": 9700, "Ġreacts": 33305, "ĠÐĿÐ°Ð²": 46929, "ĠÐºÐ»Ð¸": 33504, "?!?": 38825, "uft": 25005, "250": 23538, "drive": 45524, "EZ": 42329, "<|15.04|>": 51116, "ĠÑģÐ°Ð¼": 5602, "¥ĺ": 46014, "Ġshould": 820, "shield": 35975, "ĠÎ´ÎµÎ½": 23295, "Ġprotected": 10594, "Ð¾Ð³ÑĢÐ°ÑĦ": 29046, "Ġmatched": 21447, "Ġchoice": 3922, "ute": 1169, "Ġeyes": 2575, "IZ": 24374, "ì": 168, "ĠÑģÐ¾Ð¾ÑĤÐ²ÐµÑĤ": 36815, "ãĤĪãĤįãģĹãģı": 37457, "str": 9733, "ĠcafÃ©": 25118, "Ġtenth": 27269, "ì²ĺë": 18180, "Ġcraving": 27320, "Ġstabilize": 31870, "Ġtw": 683, "ĠTamam": 18224, "ĠFer": 10728, "ĠìĦł": 11835, "Ġdoors": 8077, "ierno": 19689, "lles": 19126, "ĠScr": 34944, "cloud": 44495, "Ġofficial": 4783, "<|14.48|>": 51088, "cakes": 18853, "Ġlol": 10065, "ĠKom": 14286, "Ġmush": 11559, "Ġteams": 5491, "Ġcomplicado": 49850, "po": 2259, "ĠMER": 47234, "ĠDang": 29580, "Ġgjorde": 47670, "ichtlich": 41971, "uge": 7181, "Ġdirection": 3513, "Ġfug": 31838, "Ġmeters": 8146, "Ġfordi": 47830, "ĠÑĢÑĥÑģ": 27198, "Ġdodge": 27238, "ĠMight": 23964, "emplo": 9066, "Ã¤nn": 24507, "<|12.54|>": 50991, "Make": 35650, "Ġdeixa": 26208, "Ġtwe": 6986, "lusive": 7233, "Ġjednak": 25897, "ĠSchool": 5070, "ĠHak": 21750, "ĠMinister": 6506, "åı²": 45399, "ĠSic": 39155, "Ġpublishers": 30421, "Ġurged": 44206, "ury": 2598, "ĠÑĩÐ¸ÑĤ": 38522, "nahmen": 24221, "Ġvirtuous": 48918, "ĠOF": 11944, "æ¥": 13387, "Ġpadres": 48295, "ĠBacon": 42460, "ĠWHY": 32720, "Ġmaintenant": 14817, "Ġletzt": 35262, "anja": 48675, "Ġfields": 7909, "Ġinquiry": 25736, "ulan": 40701, "chemical": 34114, "åĬĽ": 13486, "Ġregarde": 33357, "ĠUT": 35514, "llen": 19191, "bas": 16342, "Ġraspberry": 41468, "<|21.04|>": 51416, "regular": 26713, "Ġdiagrams": 36709, "ĠRob": 5424, "ĠMu": 15601, "ĠëĤ´ê°Ģ": 10474, "ijk": 6940, "<|2.98|>": 50513, "Ġrecoil": 42053, "ĠEff": 34192, "ĠNormal": 21277, "bahn": 39865, "agine": 10260, "Ġtemplates": 21165, "Ġtee": 33863, "Ġotras": 20244, "<|14.76|>": 51102, "Ġsued": 33864, "ĠVanc": 26417, "Ġfortun": 10506, "Ġrest": 1472, "ĠJonah": 42353, "Ġeyel": 13197, "ĠÑģÐ¼Ð¾ÑĤÑĢÐµÑĤÑĮ": 43922, "Ġvient": 22876, "Ġmillor": 48638, "Ġeconomically": 26811, "Ġassass": 16475, "opolit": 39176, "åħĦ": 24982, "Ġwunder": 47736, "Ġlubric": 31116, "uous": 12549, "ł¤ìļĶ": 45410, "Ġaccomplishments": 25943, "Ġspilled": 37833, "ĠStill": 8291, "Ġsituated": 30143, "lov": 28257, "ĠVors": 31438, "<|9.24|>": 50826, "ĠChem": 21357, "ĠÐŁÑĢÐ°Ð²": 39793, "pson": 16962, "ĠpolÃŃt": 14482, "ĠVall": 48177, "ĠHelp": 10773, "åĭķ": 12572, "<|8.22|>": 50775, "Ġdictionary": 25890, "Ġtobacco": 22994, "izing": 3319, "çĤ": 4804, "ĠIntel": 19762, "Ġfranchise": 16222, "ĠBevÃ¶lker": 48313, "Ġparadox": 26221, "rav": 13404, "<|17.32|>": 51230, "ĠScroll": 35395, "Ġenc": 2058, "Ġtrzy": 34573, "Ġlemons": 47098, "ĠMix": 12769, "ĠgehÃ¶rt": 21544, "ĠÐ·Ð°Ð½": 18596, "ences": 2667, "ĠDev": 9096, "ĠThomas": 8500, "Ġdefer": 25704, "Ġhemos": 15396, "Ġflick": 22774, "ãĤĬãģ¾ãģĻ": 19420, "eland": 15280, "nÃ©": 15055, "Ġhurry": 11025, "Ġadel": 30069, "éĤ£éº¼": 20504, "Ġì´Ŀ": 27370, "éĢģ": 29309, "ĠEvans": 30055, "Ã¶tzlich": 44638, "Ġflaps": 50065, "tag": 25030, "åıĥ": 47375, "ĠPepsi": 42311, "<|24.52|>": 51590, "Ġporridge": 38872, "Ġstret": 27678, "ĠmÃ¡r": 40331, "Ġvideo": 960, "ÑģÑĤÐ²": 2981, "ðŁĴ": 32220, "rique": 22343, "ĠScore": 47901, "Ġpersever": 29917, "ather": 1172, "MA": 9998, "Ð¸Ð²Ð°Ð»": 47586, "<|5.58|>": 50643, "<|6.60|>": 50694, "ĠTwe": 47763, "Ġstato": 29657, "erna": 22250, "Ġcircle": 6329, "ĠWars": 9818, "Ġcommentaires": 46663, "Ġbirds": 9009, "Ð°Ñħ": 7004, "Ġdebuted": 33392, "ĠAlz": 26804, "Ġnewly": 15109, "Ġshop": 3945, "ĠÑģÐ¾Ð·Ð´": 20247, "Ġconsciously": 32538, "Ġevent": 2280, "Ġenvol": 49995, "cip": 11371, "Ġhorn": 13482, "Ð¾Ð»Ð¶": 21403, "hesia": 42464, "Ġinvers": 21378, "zwischen": 47115, "Ð½ÑĮ": 18399, "owanie": 22028, "tles": 23995, "Ġindirectly": 37779, "ĠìĹ¬ê¸°ëĬĶ": 48864, "Ġresidue": 34799, "íķĺê¸°": 22700, "ĠLady": 11256, "Ġoption": 3614, "<|19.24|>": 51326, "ĠÃ§ocuÄŁ": 38914, "peÅĤnie": 48054, "Ġvidare": 49324, "Ġtendency": 18187, "Ġ95": 13420, "êµ": 3359, "éĤ£æĪĳåĢĳ": 46714, "Ġdisorders": 20261, "ura": 2991, "ĠPlus": 7721, "<|10.66|>": 50897, "Ġdonate": 17751, "Ġinterest": 1179, "ter": 391, "Ġrico": 41529, "astian": 28129, "ĠÐĺÐ»Ð¸": 34361, "Ġdeepen": 45806, "mumbling": 39528, "Ð°ÐµÑĤÑģÑı": 6970, "mee": 42952, "Ġherb": 22662, "hew": 17418, "Ġhopeless": 27317, "Ġfailed": 7612, "Ġfala": 21580, "ÐµÐ½Ñĭ": 16148, "Ġconfirms": 39982, "Ġcoher": 26528, "bene": 41605, "Ġultrasound": 40895, "ÐºÑĥ": 4401, "ĠURLs": 43267, "Ð¾Ð½Ð°": 14411, "ĠSta": 16959, "Ã¤ter": 20230, "Ġìł": 1647, "Ð¾ÑģÐ¾Ð±": 21393, "Ġdefinitely": 2138, "Ġcoding": 17720, "ł¤": 5743, "Ġconsult": 7189, "<|18.58|>": 51293, "Say": 42263, "ĠCOMM": 36041, "æĸ¹": 9249, "ĠFred": 10112, "Ġsock": 35302, "Ð¾Ð²ÑĭÑħ": 49204, "ummer": 30906, "table": 23811, "Ġkilling": 8011, "ĠEspaÃ±a": 31729, "Ġaffairs": 17478, "ìĸ´ì§Ģ": 41248, "Ġcontributors": 45627, "yi": 8461, "Ġuniversally": 43995, "ÏĮÏĥ": 41292, "ĠÐ¿Ð¾Ð·Ð²Ð¾Ð»": 28805, "IES": 37166, "ĠÐ¿ÐµÑĢÐµÐ´": 15621, "æ¸ħ": 21784, "Ġpresidency": 26702, "<|nocaptions|>": 50362, "First": 27454, "ĠDame": 34447, "Ġlegitimacy": 41339, "Ġtrainers": 35393, "Ġchoosing": 10875, "ĠPolit": 13812, "Ġdescon": 49801, "ĠLust": 45834, "Ġchromos": 26824, "ĠGrÃ¼": 38908, "ĠÄĳÃ£": 17283, "ĠÐ¼Ð¾Ñı": 33691, "ĠInstant": 38707, "arial": 44745, "Ġrenowned": 34065, "Ġwholly": 45157, "Ġwool": 24181, "Ġvaluation": 38546, "Ġnostro": 35779, "Ġcrash": 8252, "åŃĲ": 7626, "ĠNicole": 18532, "happy": 17888, "dong": 29368, "Ġpegar": 22418, "uclear": 30335, "æĪĳä¹Ł": 27761, "ĠSeÃ±or": 35054, "Ġons": 18818, "Ġcoupon": 33390, "Ġhappen": 1051, "Ġê´ľì°®ìķĦ": 45058, "osphere": 44877, "inizi": 46222, "íķ´ëıĦ": 49183, "3000": 43160, "ĠDynamic": 45440, "Ġcompute": 14722, "ĠNano": 43511, "è²": 11561, "<|22.82|>": 51505, "Ġrumah": 44988, "Ġgry": 41974, "ĠExact": 7199, "ĠìĽĲë": 20884, "Ġà¤": 8485, "ĠÑīÐµ": 35547, "ÑģÐ»Ð¸": 5734, "ĠTapi": 25386, "ĠWhenever": 14159, "à¸²à¸¢": 23398, "jem": 30833, "sych": 4202, "ĠCIA": 25143, "QuÃ©": 15137, "ĠBes": 8190, "Ã¼yorum": 33332, "ĠAccess": 17166, "with": 11820, "uar": 20766, "oding": 8616, "ĠJudaism": 37797, "ĠBig": 5429, "Ġconflicts": 19807, "ĠJiang": 23458, "ĠÑģÐ¼Ð¾Ð³": 32139, "etah": 47947, "<|6.56|>": 50692, "ĠÃ¼": 3304, "ĠBran": 45265, "Ø§": 995, "ĠBrasil": 14861, "ĠMor": 5146, "appro": 35821, "ivot": 13142, "Ġothers": 2357, "<|28.70|>": 51799, "Ġtwists": 35290, "Ġfella": 49820, "qual": 22345, "è¢«": 23238, "ĠJoseph": 11170, "ĠÑįÐ½ÐµÑĢÐ³": 40804, "ĠEconomics": 39024, "Ġëıħ": 39411, "ĠerzÃ¤h": 28337, "ĠHai": 24055, "Ġapparent": 18335, "ĠprÃ©sident": 29654, "icles": 5350, "Ġsmile": 7563, "Ġethnicity": 33774, "Ġsinger": 11564, "è¨Ń": 39035, "æĺ¯åķĬ": 39282, "Ġsplendid": 47575, "Ġbios": 36997, "Ġinfamous": 30769, "Ġmening": 46890, "Ġë°ķ": 21140, "ĠcÃ¡": 6476, "Ġexamine": 17496, "Ġì°": 5122, "ĠðŁ": 7385, "<|5.56|>": 50642, "Ġruling": 21437, "ĠWh": 506, "spe": 7053, "Ã¢r": 42648, "à¸µà¹Ī": 12774, "ĠNast": 42185, "Ġexpensive": 5124, "ĠÐ¼Ð¾Ð³Ñĥ": 22951, "Ġaqui": 3871, "ĠNiss": 36009, "ĠÑģÑĤÐ°Ð½Ð¾Ð²": 32003, "è©¦": 22099, "Ġsupported": 8104, "<|16.76|>": 51202, "ĠGeneva": 37285, "Ġspeeding": 35593, "Ġgiveaway": 23508, "ĠConstruction": 40017, "Ġinnocent": 13171, "ä¼ĳ": 39437, "ĠDoo": 46612, "Ġvoiture": 38859, "ĠvÃŃde": 6951, "Ġinception": 49834, "ĠØ£ÙĪ": 34051, "Ã¼": 774, "ÐĽ": 14854, "oul": 3298, "eur": 13629, "81": 32875, "ĠDeswegen": 24864, "×Ļ×¡": 27199, "ÑĢÐ¸Ð¿": 50125, "ouch": 2220, "olas": 14104, "ALD": 35502, "ãĤĭ": 4895, "AF": 40418, "cot": 48477, "åı¯èĥ½": 16657, "Ġmerge": 22183, "Ġinfluenced": 15269, "ĠestÃ¡n": 10368, "imate": 2905, "æĥ": 4799, "ĠTutaj": 41819, "Ġcrisp": 22952, "Ġreag": 26949, "Ã¡tica": 23432, "ror": 2874, "á»¹": 40085, "Ġpakai": 49062, "Ġvulner": 8184, "Ĥľ": 16662, "ĠÐ¾ÑĤÐ²ÐµÑĩ": 47859, "Ġì«": 37453, "<|28.98|>": 51813, "alition": 31897, "Ġwebpage": 37852, "ĠABOUT": 50249, "dullah": 42324, "ä»£": 19105, "ĠBang": 11538, "egree": 26359, "ÑģÑıÑĩ": 21719, "Ġempir": 25790, "fish": 11608, "Ġders": 39636, "Ġtroubled": 29402, "Ġeccentric": 42629, "Ġentitled": 17838, "Ã¼ng": 36216, "ĠFuture": 20805, "Ġê°ĸê³ł": 37912, "Ġsina": 43400, "ĠHos": 44004, "Ð¼Ð¸": 6293, "Ġcustoms": 27330, "Ġenrich": 18849, "Ġinternships": 35712, "ĠHare": 34836, "<|6.62|>": 50695, "Ġsolid": 5100, "ĠOg": 14883, "itz": 6862, "Ġcruising": 42180, "Ġmanner": 9060, "ĠIraq": 11818, "child": 15129, "Ġnuestra": 16825, "ĠÐ¿Ð¾Ð´Ð³Ð¾ÑĤÐ¾Ð²": 49914, "íĮĲ": 28306, "Ġuncover": 21694, "ĠDrake": 27465, "Ġdescend": 16333, "Ġcompany": 2237, "ĠVive": 44288, "Ġsegregated": 47370, "ĠRaj": 16745, "Ġantioxid": 33369, "centered": 36814, "Ġadventurous": 46163, "ĠFairy": 37631, "Ġlayouts": 46100, "Ġambush": 38143, "ĠWing": 28785, "íĪ¬": 40147, "ĠBanana": 39588, "Ġagent": 9461, "Ġholog": 38541, "Ġprotest": 11281, "Ð¼Ð¾Ñģ": 40807, "ĠPolitical": 34265, "<|12.72|>": 51000, "ĠÐ¾Ð¿Ð¸Ñģ": 32190, "ĠWebb": 49649, "ĠVale": 26415, "Ġvigil": 39093, "ä¹ĭ": 9574, "åŃĹ": 22381, "Ġdisgrace": 41702, "ĠKurz": 45307, "Ġinverted": 38969, "Ġclassify": 33872, "estre": 41135, "ĠÑģÐºÐ°Ð¶": 21938, "Ð¾ÑĢÐ´": 41412, "Europe": 32293, "Ġeducators": 22819, "dles": 21915, "Ġhomeowners": 39868, "Ä±yor": 7618, "Ġobjet": 14964, "Ġstandalone": 37454, "owment": 47966, "Ġtransluc": 45266, "Ġâĸ": 29405, "Ġdressing": 17211, "ÑĶ": 8403, "Ġprojets": 49830, "Ġpotrze": 28577, "ĠFrederick": 35617, "Ġìķŀìľ¼ë¡ľ": 30293, "<|7.68|>": 50748, "arya": 29313, "Ġpareil": 46020, "ĠÐļ": 3422, "ĠHuge": 37043, "ł": 254, "Ġwarrant": 16354, "Ġfleet": 19396, "ĠMalaysia": 25465, "Ġformulated": 48936, "Ġë¬´ìĹĩ": 47384, "ublic": 3865, "ifie": 42726, "<|25.82|>": 51655, "ĠSeni": 42752, "Ġgasket": 47671, "oss": 772, "Ġextracted": 34086, "Ġdepressed": 18713, "wait": 26040, "ropolis": 46470, "ĠIstanbul": 36340, "Ġnadie": 28060, "ì§ĢëĬĶ": 20508, "mat": 15677, "pieces": 47488, "ł×ķ": 32219, "×ķ×ĺ": 31969, "Form": 49855, "Ã³st": 45052, "Ġcivilian": 23386, "anal": 29702, "Ġvaccinations": 39333, "Ġaiming": 20253, "Ġíŀĺëĵ¤": 28576, "ikke": 38735, "ĠXing": 33040, "à¸ª": 13715, "ĠServ": 6213, "ĠDodge": 41883, "Ġbacklog": 47364, "ĠDeixa": 46589, "ĠArchives": 39258, "ĠWITH": 25371, "æĪĳçļĦ": 14200, "ĠFinnish": 38429, "Ġdetermines": 24799, "Ġtrials": 12450, "hower": 48780, "fre": 19325, "ĠÐľÐ¾Ñģ": 32327, "¡°": 6010, "æķħ": 43045, "abolic": 26956, "ĠHon": 6625, "Ġprototypes": 42197, "Ġgesam": 39746, "Ġcrosses": 28467, "ĠÃ¼zer": 25813, "Ð¼Ðµ": 30522, "Ð¾ÑĩÐºÑĥ": 39116, "Ġutilities": 30482, "Ġtaraf": 32536, "Ġlayout": 13333, "ĠQuinn": 36723, "Ġ2": 568, "Ġseventh": 17875, "Ã¡i": 28249, "Ġë°Ķ": 12704, "ĠAzer": 32580, "Ġairl": 18856, "Ġsla": 8039, "ctors": 5547, "<|1.00|>": 50414, "Ġbereit": 38758, "Ġkernel": 28256, "ĠAmelia": 42814, "éĻ³": 45769, "ments": 1117, "ĠCasa": 44843, "ĠChris": 6688, "à¹Ģà¸Ń": 45562, "Ġhating": 45082, "fy": 22522, "Ġsod": 15047, "Ġbargain": 34302, "Ġpolls": 24264, "ĠMcL": 38922, "Ġbasin": 34863, "ĠparlÃ©": 38570, "ists": 1751, "licht": 20238, "Ġander": 49466, "ĠLos": 7632, "Ġdiversion": 49422, "Ð½Ð¸ÑĤÐµ": 38066, "Ġfought": 11391, "Ġaspir": 20003, "itude": 4377, "Ġpublishing": 17832, "ĠmatiÃ¨re": 46600, "Ġinte": 2830, "Ġcrochets": 27115, "ĠComic": 40945, "Ġlocally": 16143, "ĠÐ¿Ð¾Ñģ": 5810, "Ġdel": 1103, "Ġnorth": 6830, "Ġ1963": 38698, "ĠCAN": 22931, "ĠBROWN": 37705, "Ġshift": 5513, "acular": 14700, "ĠSelena": 39146, "pha": 7211, "Ġmold": 11102, "Ġleaking": 32856, "Ġdein": 25641, "ãĤĢ": 33350, "ĠAllahu": 44351, "ĠÐŁÐ¾ÑĩÐµÐ¼Ñĥ": 32823, "Ġplaythrough": 48752, "Ġsides": 4881, "ĠNacional": 36623, "alÄ±m": 12714, "ĠfÃ©": 34271, "Ġcoefficient": 17619, "IM": 6324, "Ġfly": 3603, "Ġnerv": 5724, "Ġwanna": 1948, "Ġnieuwe": 37029, "Ġmonstr": 47137, "ìĹĨìĿ´": 50082, "Ġdeleting": 48946, "éĺ": 10034, "<|22.96|>": 51512, "Ġtissues": 27353, "everyone": 36060, "Ġsettled": 14819, "plement": 43704, "Ġsuperpower": 45765, "onton": 45529, "Announcer": 19007, "Applause": 14650, "Ġ62": 24536, "Ġsincer": 30220, "Ġupdate": 5623, "ĠUne": 16701, "Ġallerdings": 35489, "ĠmÃ¤": 25117, "Ġsandbox": 42115, "Ð¾Ð¿ÑĢÐ¾Ñģ": 16307, "íĨł": 33388, "Ġdecoration": 26538, "<|5.90|>": 50659, "Ġcostly": 28328, "73": 33396, "Ġterminal": 14709, "Ġmediocre": 45415, "Ġinterviews": 12318, "ĠÐĿÐ°": 11245, "ĠÐ±ÐµÐ³": 49942, "ĠGuardians": 45236, "aded": 12777, "ĠPho": 14936, "Ġtienen": 12536, "ĠZum": 23906, "Ġhelp": 854, "izon": 24057, "Ġcongratulate": 24353, "ON": 1928, "ĠBl": 2177, "Ġhistorically": 16180, "Ġentrepreneur": 14307, "ÑĥÐ´": 2955, "Ġeffet": 30960, "ĠÑģÐ¾Ð´ÐµÑĢÐ¶": 48206, "assador": 16827, "Ġopener": 43850, "Ġcruc": 28154, "Ãºng": 16926, "ĠJose": 8635, "ÑģÑĤÑĢÐ°Ð½": 28484, "ĠëĨ": 10091, "Ġlotion": 41044, "Ġfuera": 24818, "Ġplays": 5749, "Ġfestive": 42729, "ĠCourse": 27327, "Ġequal": 2681, "Ġaccounts": 9402, "<|28.10|>": 51769, "Ġapproval": 13317, "ĠNursing": 42655, "ĠCouple": 38266, "ĠInn": 34066, "Ġneither": 9662, "ont": 896, "ÎµÎ¹Î±": 41198, "Ġguesses": 42703, "Ġende": 19099, "ĠgÃ©": 38462, "Ġjos": 29217, "æĢ§": 21686, "Ġlighter": 11546, "ĠKatrina": 42550, "Nick": 44387, "Ġnumber": 1230, "Ġstakes": 28429, "Ġìĺ¤ëĬĺìĿĢ": 23720, "isation": 7623, "ĠMachine": 22155, "Ġvalu": 7332, "ĠCarmen": 35778, "ĠMicro": 25642, "mid": 25394, "ivel": 36504, "Ġshoulders": 10245, "ĠTheme": 42428, "åĽłçĤº": 11471, "Ġcrane": 36345, "Ġinhal": 43157, "Ġproducer": 12314, "Ġtighten": 17041, "ĠÑħÐ¾ÑĤÐ¸ÑĤÐµ": 39268, "ÑĢÑĮ": 28659, "ĠISIS": 25639, "idy": 38836, "Ġgroans": 44657, "ãĥ¼ãĤ¸": 44143, "Ġcarro": 23428, "igger": 6812, "stud": 28349, "ĠnÃº": 11908, "Ġaquesta": 24062, "ressed": 3805, "Î¿Î½": 21731, "ĠTechnical": 35512, "ĠÑĢÐ¾": 49493, "Ġcash": 6388, "ĠCraw": 37877, ">": 29, "Ġmarvelous": 34920, "Ġtror": 22109, "Ġsustain": 6769, "Father": 44773, "Ġseis": 28233, "Ġsocied": 26445, "nuts": 29251, "Ġszyb": 36456, "ĠnÆ°á»Ľc": 30728, "encias": 37246, "ivities": 43539, "ĠJoan": 25748, "<|13.90|>": 51059, "ĠìŀĪìĿĦ": 18082, "ÐµÑĢÐ³": 19480, "ĠtÃ¤t": 37039, "Ġgosh": 6502, "Mark": 15168, "Ġdusty": 41973, "Ġsignifica": 19957, "buch": 39742, "cycle": 14796, "Ġconstructing": 39969, "Ġsweet": 3844, "Ġwszyst": 10998, "Ġ×ĳ×Ĳ×": 33167, "Ġdan": 3277, "cycles": 41661, "Ġquin": 42215, "ĠdoÅĽwiad": 46661, "wife": 32779, "ĠNetwork": 12640, "ĠBundest": 43825, "Ġlevels": 4358, "iral": 35083, "ĠScene": 46297, "ãģ«": 4108, "Ġeverybody": 2201, "Ġblew": 19075, "inner": 19166, "Ġë¡ľ": 26142, "Ġapenas": 18561, "Ġshifting": 17573, "ĠPatch": 44359, "Ġproductivity": 15604, "Ġgoosebumps": 48305, "ÙģØ³": 36178, "Ġtournaments": 32004, "ÑĸÑĹ": 29536, "Ġllevar": 30374, "Ġencounters": 26310, "Ġexposed": 9495, "ÑĢÐµ": 17066, "ĠEle": 8024, "isi": 8021, "Ġpoder": 8152, "ĠRogue": 43770, "Ġblessing": 13869, "ĠVega": 48796, "re": 265, "Ġorada": 33570, "source": 41676, "Ġdele": 16376, "ÑıÐ»Ð°": 37394, "ĠÄĳÃ¢u": 35433, "ra": 424, "ig": 328, "arians": 24831, "Ġdrum": 10206, "ĠsitÃ¤": 26838, "Ġid": 4496, "..'": 47145, "dock": 48341, "ĠPremium": 34881, "<|29.20|>": 51824, "æľ¬å½ĵ": 37505, "Ġcorners": 12413, "ÙĤØ·": 47432, "Ġadvertising": 13097, "than": 24852, "Ġbedrooms": 39955, "borough": 24987, "Ġconnecting": 11015, "Ġsegment": 9469, "Ġcontribute": 10586, "Ġvolcan": 31117, "roscop": 38006, "Ġathe": 27033, "Wind": 45813, "Ġfacto": 42225, "ĠÐ±ÐµÐ»": 29430, "ĠÐ¾ÑĢ": 18448, "Ġjullie": 29633, "ĠMana": 33711, "ĠÐ»ÑİÐ±Ð¾Ð²": 45356, "empt": 4543, "Ġlicenses": 32821, "Ġê·¸ëłĩì£ł": 34410, "Ġimposing": 40288, "will": 17044, "Ġattain": 23766, "Ġvain": 22240, "ĠMacht": 40873, "Ġmeaning": 3620, "chain": 11509, "Ġfruit": 6773, "Ġshortest": 31875, "ĠLearning": 15205, "ĠÐ±Ñĭ": 2768, "Ã©v": 26375, "ĠZhu": 31680, "ĠwaÅ¼ne": 46110, "ĠfunÃ§Ã£o": 37588, "Ġquas": 49625, "loc": 5842, "Ġhostage": 38434, "Ġevacuate": 48570, "Ġstrictly": 20792, "Ġcontexto": 47685, "çĿĢ": 20708, "ĠPage": 21217, "¶Ħëĵ¤": 18912, "ĠMaterial": 29160, "Ġjour": 2827, "ìĿ´ëĵľ": 46766, "Ġpounding": 40034, "ĠÃºnica": 30104, "ĠSci": 16942, "Ġagility": 39794, "<|9.02|>": 50815, "Ġracks": 47063, "Ġdecimal": 26601, "ĠnÃ¥gonting": 43998, "<|26.88|>": 51708, "ĠComput": 37804, "ĠÑĢÐµÐ±": 18902, "umph": 24963, "Ġwyn": 31936, "ĠKok": 36915, "Ġdeck": 9341, "ĠÐ²Ð¾Ð´": 14545, "Ġshave": 25544, "ĠÐ¸ÑģÑĤÐ¾ÑĢÐ¸Ð¸": 40203, "Fe": 29341, "Ġreduce": 5407, "Ġmafia": 36412, "Ġnos": 3269, "Ġpinned": 33802, "Ġwithin": 1951, "þ": 186, "icky": 20539, "Ġratio": 8509, "ĠTwenty": 28789, "ë¹Ħ": 39066, "ĠHAVE": 30309, "ĠØ§ÙĦÙĦ": 13672, "Ġnauc": 49103, "ĠposiciÃ³n": 46595, "×ł×ķ": 14554, "-,": 24246, "Ġinsurance": 7214, "Ġlangue": 40318, "Ġacquainted": 50224, "ument": 2206, "ĠÙĤØ§ÙĦ": 50239, "ĠÐ¿ÑĢÐ¾ÑħÐ¾Ð´": 39782, "Ġreflections": 30679, "ĠTP": 44462, "Ġpeople": 561, "ĠMBA": 26674, "Ð¾ÑĩÐºÐ°": 29576, "įãĥ«": 38518, "<|1.06|>": 50417, "Ġpackaging": 16836, "Ġ64": 12145, "Ġbeing": 885, "Ġzam": 19876, "Ġpr": 582, "ĠLup": 44319, "Ġfury": 48887, "<|25.22|>": 51625, "çģ": 13290, "Ġwashed": 16300, "erves": 9054, "ĠPAT": 31485, "Ġsweeping": 33285, "Ġreinst": 35056, "hesive": 19379, "Ġarriv": 30697, "Ġkob": 43057, "Ġreports": 7122, "Ġhappiest": 37584, "Ġalright": 5845, "DAY": 38391, "åĮĹ": 26668, "Ġfac": 1915, "ÛĶ": 24621, "Link": 26822, "ĠGreen": 6969, "Ġship": 5374, "Ġresol": 7923, "Ĺ": 245, "Ġarsen": 28636, "okay": 26061, "ĠScale": 42999, "!,": 32652, "phere": 6605, "Ġrelieve": 30450, "Ġbast": 8414, "Ġplague": 28185, "ĠÐ¿Ð¾ÑģÐ»ÐµÐ´": 19253, "Ġmillennials": 45543, "åĩºä¾Ĩ": 29741, "ENA": 40998, "ÑĪÐ¸Ðµ": 35202, "ev": 13379, "Ġmenor": 26343, "Ġinvestigate": 15013, "çĭ": 18637, "ĠSaid": 26490, "íķľíħĮ": 15863, "Ġpatter": 3829, "Ġmovie": 3169, "Donald": 15111, "rit": 3210, "ĠVera": 46982, "ĠSI": 29083, "ĠROB": 38506, "ĠAh": 2438, "ĠTÃ¼rk": 36673, "MÃºsica": 38725, "Ġboring": 9989, "ĠBrenda": 39610, "Ġpowder": 6341, "ĠClinical": 47942, "Ġexistence": 9123, "Ġadhere": 33584, "ĠTY": 36187, "ĠÅŁeyi": 31735, "ĠItal": 8158, "narrator": 48634, "ĠMCU": 39415, "<|2.80|>": 50504, "Ġcell": 2815, "ĠLuck": 16627, "Ġoffenses": 49765, "ĠMarx": 21703, "Ġeyebrows": 19916, "Łī": 24502, "ç¬": 5437, "Ġvocals": 28441, "Ġvote": 4740, "87": 23853, "Ġantibody": 34507, "êµ¬ëĤĺ": 23816, "Ð»Ð¾Ð¼": 28209, "<|28.74|>": 51801, "äºĭæĥħ": 24675, "ĠÐ¶ÐµÑģÑĤ": 48111, "<|13.94|>": 51061, "ically": 984, "Ġclearance": 27218, "ÅĤÄĻ": 46564, "Ġposts": 12300, "ĠNR": 38399, "Ġzwei": 12002, "ĠERIC": 36137, "Ġcirca": 45972, "Ð°ÑıÐ²": 36933, "Ġtrout": 43978, "éĹ´": 31685, "Ġseres": 44721, "Ġpelvic": 40959, "Ġreasonable": 10585, "ĠIQ": 28921, "ĠWordPress": 23239, "Ġwins": 10641, "Ġclinicians": 32862, "Ġintention": 7789, "ĠEliz": 11991, "<|23.46|>": 51537, "ĠìĹĨëĭ¤": 50174, "ĠFres": 42618, "Ð·Ð°": 18598, "ioxid": 30565, "Ġdorm": 12521, "cÄ±": 31803, "ĠÑĤÑĢÐ°Ð²": 46647, "Ġêµ°": 45644, "Ġwhis": 13641, "ĠHAM": 45561, "ĠÎº": 4903, "esper": 34698, "Ġgemaakt": 49666, "Ġcompassion": 12601, "æĬĬ": 16075, "ĠÃ¶": 4044, "Ġsquares": 19368, "Ġsolution": 3827, "itch": 1549, "ĠSDK": 37135, "Ġkale": 34699, "¨ë": 3891, "Ġaddress": 2985, "Ġparalysis": 49507, "ĠbugÃ¼n": 37141, "Ġrepentance": 37593, "Ġpierwszy": 34016, "Ġrewarding": 20063, "ĠBelarus": 35855, "Ġaltura": 39398, "ÎºÎ¹": 39328, "actus": 34775, "ĠBecca": 33148, "ÅĽlÄĻ": 28749, "ĠÐ¼Ð¾Ð¶ÐµÑĤ": 8689, "ÑĥÐ·": 15687, "ëĭ¤ëĬĶ": 10520, "ĠTiffany": 28104, "ëĭ¬ë": 38209, "Ġcoerc": 49741, "Le": 11020, "ĠAndroid": 8853, "ĠADHD": 38680, "Ġpenet": 16183, "ĠGan": 19461, "ĠSubaru": 43044, "ĠOctober": 7617, "ĠHAR": 19819, ",.": 40698, "Ġtahu": 27294, "ÐºÐ¸": 2241, "Ġenvelope": 19989, "ĠÐ¾ÑĤÐ½Ð¾": 22079, "Ġdeeper": 7731, "Ġculmin": 28583, "<|22.64|>": 51496, "ker": 5767, "ation": 399, "ĠLex": 24086, "Ġpresents": 13533, "ĠAnti": 27757, "uet": 15382, "ĠÑĤÑĢÐµÑĤÑĮ": 45305, "ÑĪÐµÐ³Ð¾": 41047, "ê²©": 15231, "Ġadministrators": 27754, "Ġregres": 47108, "ĠTON": 25867, "ĠTong": 26946, "Ġcouldn": 2809, "ÄĻdzy": 33779, "<|18.12|>": 51270, "izen": 23161, "Ġsaturation": 27090, "ilo": 10720, "ĠTrading": 49929, "Ġê·¸ë¦¼": 43170, "ICK": 12141, "mÃ¤ÃŁig": 43132, "Ġsacrific": 14108, "Ġaccompan": 19307, "Ġtries": 9898, "iyorsun": 24556, "ĠÐ¿Ð¾Ð´ÑħÐ¾Ð´": 44617, "awa": 10449, "ÐµÐ´Ð¸Ð½": 30741, "ĠGibson": 42250, "important": 41654, "aniu": 25849, "Ġhumanitarian": 25096, "ĠHall": 5434, "ĠEuropa": 16642, "Ġenvironmental": 8303, "ìĿ¸ìĿ´": 30603, "quer": 8035, "ĠWalter": 21572, "ĠÐºÐ¾Ð½ÐµÑĩÐ½Ð¾": 15271, "Ġchoking": 48540, "Ġjudging": 23587, "Ġequipped": 15218, "ĠsÄ±k": 30046, "ungs": 5846, "Ġairplane": 17130, "Ġsimmer": 29835, "oman": 4277, "è£¡": 11066, "lleicht": 10631, "ende": 5445, "Ġdeprived": 42086, "ened": 5320, "ĠÐĿÐĲ": 44416, "NG": 30237, "Ġlocated": 6870, "ĠÐ¿ÑĢÐ¸Ð½Ð¸Ð¼": 44396, "ê²łìĸ´": 36711, "Ġveter": 8901, "cul": 2444, "ĠKH": 34854, "ixe": 42369, "Ġvost": 28944, "ĠTrend": 37417, "Ġnations": 11035, "ĠÐºÐ°ÐºÐ¸Ð¼": 49190, "udes": 10131, "ĠFitz": 37815, "<|25.02|>": 51615, "Ġthought": 1194, "defense": 49268, "ajÄħc": 38757, "ĠJaneiro": 44711, "hÃ©sitez": 45587, "ĠprzykÅĤad": 23144, "ĠGuten": 42833, "Ġì§ĢëĤľ": 26416, "ĠcientÃŃfic": 37053, "hal": 4947, "ores": 2706, "pet": 7275, "Ġscientific": 8134, "ĠGottes": 49569, "ĠBueno": 16046, "à¥ĩ": 21981, "Ġtire": 11756, "<|10.20|>": 50874, "<|16.12|>": 51170, "ĠâĨ": 35265, "?...": 32865, "Ġsucc": 21578, "***": 13684, "ATOR": 9041, "Ġhull": 32335, "ĠBh": 13550, "Ġ52": 18079, "à®Ļ": 17167, "Ð°Ð»ÑģÑı": 13340, "ĠÐ¿Ð¾Ð»ÐµÐ·": 40191, "Ġanthem": 42383, "ì§ĢëıĦ": 39871, "<|23.92|>": 51560, "ĠTitans": 45574, "ĠSÃ£o": 22401, "Ġz": 710, "Ġfabric": 7253, "Ġfuturo": 23953, "via": 11617, "¦¬ëĬĶ": 20896, "Ġalso": 611, "Ġluz": 20671, "port": 2707, "flow": 10565, "ired": 1824, "leased": 41087, "arkan": 45173, "ĠLas": 10663, "Ġë¬´ìĦľ": 45072, "ĠMarco": 26535, "ãģĤãĥ¼": 34932, "ANT": 12243, "ÑĥÑģÐº": 21303, "Ġapology": 28006, "Ġbenefici": 38534, "Ġdolph": 29188, "laÅŁ": 16803, "three": 27583, "Ġcomprend": 30765, "Ġresurrect": 34338, "Ġ23": 6673, "ĠÐķÑīÐµ": 44122, "ĠsÃº": 33075, "Ġpeers": 16739, "Ð¾Ð»ÑĮ": 2765, "ogg": 36754, "Ġplea": 42152, "Ġscore": 6175, "ĠÐ½Ð¸Ñħ": 14319, "Kn": 49276, "éĶĻ": 29900, "ler": 1918, "Ġcharacters": 4342, "Ġparti": 24408, "ĠÐ¾ÑĤÐºÑĢÑĭ": 27085, "itÃ¤ten": 49289, "Ġtudo": 9379, "Ġcandid": 6268, "Ġpry": 41902, "mon": 3317, "ickt": 40522, "ì°°": 22875, "Ġanticipation": 35979, "ĠYout": 10717, "ĠDespuÃ©s": 40995, "<|5.42|>": 50635, "FX": 36092, "lists": 36693, "<|27.08|>": 51718, "Ġempez": 18730, "Ġoutset": 44618, "æ·": 14176, "Ġwast": 49075, "ĠCopper": 47243, "Ġcareers": 16409, "gen": 1766, "ĠSocial": 9909, "ĠCrush": 44211, "ogo": 23515, "ĠBrook": 13945, "åº¦": 13127, "AMA": 38136, "Ð»ÑĥÑĩ": 41497, "Ġnuovo": 49348, "ĠTriple": 32159, "ê±°ëĵłìļĶ": 11390, "Ġhj": 23731, "Ġcountryside": 28252, "Ġairplanes": 32947, "Ġcamping": 19470, "ĠJim": 6637, "ĠLes": 6965, "rament": 44764, "ĠJava": 10745, "Ġinfinitely": 36227, "Ġcontre": 14927, "Ġcartridges": 47036, "ÏĦÎ¿": 10600, "ĠBryant": 46466, "ĠWear": 34514, "ĠKhÃ´ng": 49125, "grades": 22626, "storm": 17367, "Ġindul": 28626, "ĠVoice": 15229, "ĠmatÃ©ri": 45731, "glio": 47002, "Ġmr": 33660, "going": 8102, "Ġviol": 3448, "Ġplains": 47362, "ĠëŃĲìķ¼": 18410, "ĠLei": 32593, "ĠCoke": 32996, "Ġetap": 47634, "ĠÑģÐ¿ÐµÑĨÐ¸": 25665, "Ġë§ĪìĿĮ": 20477, "ONE": 14248, "Ġrevival": 33207, "ãħłãħł": 38278, "ĠÐ¿ÑĢÐµÐ·": 39838, "ide": 482, "Ġpiles": 34861, "ĠFle": 18612, "las": 7743, "ĠStanford": 20374, "Đ": 204, "Ġplaque": 36542, "ĠMotors": 40118, "Ġ__": 49264, "Ġdetermination": 18432, "Ġloca": 47965, "inese": 48629, "Ġkleine": 22278, "owie": 13998, "ÑĸÑĢ": 36154, "<|22.44|>": 51486, "Ġê·¸ë": 2003, "size": 27553, "ÑĢÑĥÐ¶": 15449, "ĠTada": 39303, "Ġmicros": 15547, "pus": 31624, "BA": 9295, "Ġmanifestations": 46931, "ĠNepal": 36283, "uration": 8167, "Ġprofess": 2668, "Ġë§Īì§Ģë§ī": 22722, "Ġendured": 39017, "ĠnhÆ°": 16228, "ĠFPS": 26429, "Ġerle": 26826, "ĠBeet": 28798, "Ġhammer": 13017, "<|9.20|>": 50824, "Ġaggregate": 26118, "Ġappeal": 13668, "Ġcivil": 5605, "ĠÑĢÐ°Ð·Ð½ÑĭÑħ": 40644, "ĠMajesty": 10665, "UST": 21536, "dÄ±r": 23091, "ĠAmÃ©rica": 48053, "iji": 26539, "Î¼ÎŃ": 27683, "TH": 9620, "ĠNaz": 11870, "acle": 7041, "Ġlama": 45423, "æīĭ": 11389, "Ġcowork": 31998, "ĠpowiedzieÄĩ": 27886, "ĠStÃ¼ck": 31146, "Ġcat": 3857, "ĠCanal": 38250, "Ġarchaeological": 42139, "Ġstream": 4309, "Ġayuda": 30737, "ä½łçľĭ": 16529, "Ġstrengthened": 38942, "Ġvrij": 45547, "ĠBaÅŁ": 28942, "×¦": 11968, "Ġperf": 13826, "Ġchamber": 13610, "Ġconservatives": 39607, "Ñģ": 461, "Ġali": 10198, "ĠHugh": 25893, "bies": 23177, "<|12.16|>": 50972, "ĠYoutube": 12132, "etch": 7858, "Ġconsent": 14546, "Ġfirms": 18055, "onnaise": 30925, "ĠÐ¾Ð±Ñģ": 47963, "Ġ×ĳ×¢": 24464, "<|8.64|>": 50796, "Ġsurpr": 3083, "Ð¾Ð±Ñĭ": 6379, "ĠFree": 11551, "Ġpanic": 14783, "Ġshocked": 12763, "Ġacc": 1317, "Ġverk": 22328, "ĠØ§ÙĦØ´": 25124, "Ġìŀ¡ìķĦ": 40845, "Ġsheer": 23061, "Ġswipe": 28170, "Ġviolet": 46480, "Ġslider": 26046, "Ġsharpen": 31570, "ĠEither": 13746, "<|14.04|>": 51066, "hart": 42535, "ĠAa": 21460, "Ġobservation": 14816, "yez": 45577, "brar": 30280, "ìķĪ": 11264, "Ġnuclear": 8179, "Ġking": 4867, "3": 18, "iÄĻcy": 47303, "×ķ×ļ": 39832, "ĠÐ¿ÑĢÐ¾Ð±Ð»ÐµÐ¼": 20920, "Ð°Ñĩ": 8314, "ĠChristians": 12254, "Ġirony": 35365, "Ġorganize": 13859, "Ġattrib": 9080, "bel": 5390, "ĠSpeak": 27868, "ĠKiss": 24297, "ĠHello": 2425, "~]": 27456, "Ġhav": 26139, "ockey": 46164, "ÐµÐ½Ð½Ñı": 25568, "Ġconviction": 24837, "Ð½Ð¾ÑģÑĤÑĮÑİ": 24517, "Ġprim": 2886, "ĠPennsy": 17704, "ĠHal": 13896, "tan": 20356, "Ġhumanos": 34555, "æĿ¯": 45458, "aws": 12282, "ĠfÃ¶": 25309, "Ġphys": 2529, "Ġrestroom": 41286, "Ġcushion": 21908, "ÑģÐµÐ¼": 24879, "enda": 7639, "æŃ¡": 13009, "growth": 49747, "Uh": 27727, "Ġhunting": 12599, "Ġzw": 11873, "upid": 6127, "Ã¡rias": 24952, "Ġpup": 19784, "Ġmultiplied": 17207, "Ġpros": 6267, "Ġeiner": 6850, "Ġstos": 43581, "ĠFrom": 3358, "Ġcinema": 17178, "Ġtrouve": 19359, "ipedia": 26633, "Ġarab": 38557, "Ġpork": 10208, "Tr": 14252, "Ġmau": 22074, "ĠSor": 21421, "Ġtu": 2604, "Ġconsiders": 33095, "Ġsym": 6697, "iel": 1187, "Ġsignificant": 4776, "Ġnagyon": 46259, "Ġniin": 16077, "Ã¡r": 20335, "Ġmemories": 8495, "stadt": 34511, "Ġsynergy": 50163, "Ġdignity": 19672, "Ġreviewed": 18429, "ĠIndividual": 37292, "Ġmailbox": 43602, "ussa": 45380, "Ġami": 33206, "code": 22332, "ÃŃch": 30839, "éĩį": 12624, "Ġmounting": 22986, "Ġzelf": 26172, "Ġê±¸": 14240, "ĠWendy": 21850, "Ġcolony": 23028, "Ġstitching": 30714, "Ø²": 11622, "ĠSozial": 36867, "ĠgÃ¥r": 19831, "Ġadulthood": 42328, "ĠButt": 40801, "DA": 7509, "izaciÃ³n": 27603, "ĠAnybody": 19082, "Ġmu": 2992, "ĠpÃ¥": 4170, "ĠÑģÐ¼Ð¾ÑĤÑĢÐ¸ÑĤÐµ": 46441, "Ġappreciate": 4449, "Yo": 27728, "ĠCrim": 30691, "ĠIntegration": 47713, "Ġcampaigns": 16840, "Ġpuntos": 34375, "Ġëª¨ìĸĳ": 45254, "Ġhousekeeping": 48033, "Ġpela": 14820, "æĿ±": 18413, "à¤¸": 45938, "oons": 16450, "Ġhas": 575, "ĠPl": 2149, "Ġling": 22949, "erel": 39796, "ĠSono": 48344, "Ð¾ÑģÑĮ": 8049, "ĠChan": 16064, "ìĪľ": 37132, "Ġdistinct": 10644, "Ã¢ce": 27988, "Ġdestiny": 17893, "ìħ¨ìĸ´ìļĶ": 40095, "Ġcough": 22777, "æĶ¿æ²»": 47456, "ĠIncred": 27792, "lifting": 34724, "åĲİ": 13547, "ĠEntwicklung": 39654, "Ġbott": 2274, "ĠDud": 42622, "Ġtrave": 13938, "here": 6703, "ĠÐĲÐ»ÐµÐºÑģÐ°Ð½Ð´": 44938, "åĤ³": 40852, "Ġlegg": 30991, "é¡": 10178, "Ġpriorit": 14846, "ĠPap": 15919, "ĠÑĥÐ·Ð½Ð°": 33562, "value": 29155, "Ġmeilleur": 41457, "Ġepisod": 39200, "ermaid": 32124, "Ġpone": 40192, "illions": 46279, "ĠëĤĺìĺ¤": 19857, "Ġsecurely": 38348, "Ġlunch": 6349, "Ġknit": 15594, "ulously": 25038, "ĠSpot": 19102, "ĠÃ¼z": 32145, "Ġwhiskey": 34648, "ĠBirth": 24299, "Ġbiting": 32912, "Ġign": 5335, "Ġbeyond": 4399, "Ġverdict": 33957, "eredith": 28714, "Ġmar": 1849, "Ġgrants": 16101, "Ġsadly": 22023, "ĠÑģÐ¸Ð³": 48805, "Now": 13267, "Ġcompeting": 15439, "Ġbron": 16586, "backs": 17758, "Ġartery": 38520, "Ġvou": 6008, "Ġdisabled": 15191, "ĠÃ©l": 11810, "ìĸĳ": 14973, "Ġinvasion": 21575, "ĠSÃ¼": 25697, "ĦĪ": 23318, "Ġë©¤ë": 32303, "vol": 9646, "é¢ĳ": 39752, "Ġtho": 27899, "<|7.64|>": 50746, "Ġprince": 16467, "Ġoverflow": 37772, "Ġhus": 4788, "Ġurgent": 19022, "Ð¼Ð¾ÑĤÑĢÐ¸": 44443, "Ġinternship": 16861, "endar": 10292, "itol": 21086, "ereum": 24585, "chluss": 41372, "iÃ§Ã£o": 16661, "Ġcompetency": 50097, "<|15.38|>": 51133, "Exc": 33553, "ĠDavidson": 44401, "Ġjust": 445, "Ġfreue": 43195, "oney": 1308, "Ġstarters": 35131, "Ġreplication": 39911, "Ġ1947": 40417, "ĠAuntie": 33878, "voice": 42268, "vi": 4917, "ĠSpin": 29185, "Ð»Ð¾": 4610, "Ġtablet": 14136, "Ġnod": 15224, "Ġtwo": 732, "Ġrecall": 9901, "ĠPon": 31756, "Ġcohort": 28902, "ĠAmendment": 21443, "ìķĻ": 48808, "ĠÃ¼st": 28816, "ĠPrior": 24032, "act": 578, "Ġnumbered": 40936, "Ġcreo": 14336, "Ġseminar": 29235, "ÑĪÐµÐµ": 46384, "ĠRuth": 23544, "Ġvirtual": 6374, "Ġì¤Ģ": 38879, "Ġwszystkim": 30481, "§Īëĭ¤": 45408, "ÅĽcie": 9815, "Â°": 11782, "Ġdemographics": 36884, "ĠÃ©ta": 21325, "ä¸įä¼ļ": 47928, "Ã©c": 9062, "ĠKanye": 37654, "íĶĦë": 42334, "ĠAlicia": 38153, "Ġexpire": 45447, "Ġadvancing": 27267, "Ð¾ÑĩÑĮ": 27497, "ĠMongo": 48380, "ĠOdys": 32010, "Ġcapability": 13759, "ĠKaw": 31795, "<|9.18|>": 50823, "Ġreceived": 4613, "ĠMedien": 44030, "ĠSAL": 40713, "Ġballistic": 44478, "dir": 35043, "rain": 7146, "Ġadjusting": 23559, "Ġreplace": 7406, "Ġfist": 21849, "Ġlikes": 5902, "Ġcod": 17656, "Ġpalavras": 46169, "ĠWR": 44175, "ulating": 12162, "Ġjudgment": 12216, "Ġsitio": 40621, "ĠYep": 7010, "Ġinter": 728, "icio": 18322, "ĠBoss": 15215, "ĠPhilos": 31182, "ĠAst": 12884, "Ġmicron": 45094, "Ġmelon": 41722, "Ġble": 5408, "ÑĤÐµ": 5863, "Ġgive": 976, "ĠtÃŃtulo": 43399, "Ġdisposition": 40293, "ĠÏī": 46653, "Ġsponsorship": 42922, "educ": 32604, "Ġfertil": 18512, "Ġlabor": 5938, "ento": 15467, "remo": 44172, "å¸ĮæľĽ": 29955, "Ġgrocery": 14410, "Ġghost": 8359, "Ġniveau": 19144, "Ġcareer": 3988, "Ġeating": 3936, "Ġpivotal": 39078, "Ġlogically": 38887, "ĠKenn": 12369, "ĠÐºÐ¾Ð¼Ð¿Ð°Ð½Ð¸Ð¸": 44231, "gia": 40550, "Ġdimension": 10139, "ä¹Łåı¯ä»¥": 47935, "ĠRNA": 22484, "Ġspont": 20795, "Ġimmedi": 3640, "Ġparliament": 19520, "zial": 17787, "Ġseid": 38041, "Ġinputs": 15743, "Ġdisent": 37313, "ĠAlumni": 35699, "Ġswamp": 31724, "Ġrefugee": 25622, "Ġ33": 11816, "<|12.80|>": 51004, "ĠLands": 30527, "Ġtrav": 11783, "Ġdiyor": 17587, "åĦĦ": 25459, "root": 44147, "èĳĹ": 19382, "ĠPPE": 38589, "Ġrework": 48376, "Ġcog": 46521, "ĠTown": 15954, "èĢ¶": 22143, "Ġdub": 18540, "omedical": 41086, "<|12.56|>": 50992, "Ð½Ð¾ÑģÑĤ": 34383, "Ġhora": 15098, "Ġisolating": 48912, "íķ´ì£¼": 25424, "ĠpamiÄĻ": 31088, "Ġcafeteria": 42230, "ĠTip": 18210, "Ġdefending": 21377, "Ð¾ÑĤÑĢÐ¸": 30936, "ĠÃ©gal": 19540, "Ġspecific": 2685, "believ": 12230, "Ġstrategies": 9029, "Ġnotably": 31357, "ĠBeispiel": 13772, "ĠMontreal": 34180, "ÙĪØ¨": 37746, "Ġgalaxies": 28755, "Ġilleg": 9976, "åĳĬ": 16846, "Ġcooker": 31476, "Ġaltern": 5400, "ĠÐļÑĢÐ°Ñģ": 49491, "Ġpreguntas": 39722, "Ġmultitude": 36358, "atte": 30466, "Ġstandard": 3832, "Ġwsz": 38322, "ĠÑĢÐ°Ð½ÑĮÑĪÐµ": 40442, "caster": 42640, "ĠChip": 29751, "Ġperiodically": 38916, "Ġneighbours": 35548, "ĠWolver": 49059, "Ġfantasy": 13861, "Ġcalories": 14904, "èģ": 8171, "ãģ¿ãģŁãģĦ": 41258, "ĠDetective": 35210, "èª": 3549, "ĠYuk": 27975, "ÑĢÐ¾Ð¼": 21503, "Ġ>>": 902, "ĠLis": 30812, "ado": 1573, "ĠLac": 40113, "Ġtenure": 32256, "ĠWhoo": 23381, "ĠSteam": 22517, "Ġfasten": 38716, "Ġourselves": 4175, "<|19.34|>": 51331, "ĠMcCain": 49725, "Tom": 23442, "Ġpues": 11059, "rados": 40491, "Ġì¶Ķì²ľ": 40264, "Ġtamp": 21424, "Ġeh": 7670, "éĢļ": 19550, "Ġcrashed": 24190, "ĠLower": 25523, "Ġaceite": 48913, "Ġpessoa": 16366, "ĠAmerica": 3374, "ffic": 3341, "Ġsteal": 11009, "<|24.66|>": 51597, "Ġgenuinely": 17839, "ĠPin": 22619, "<|13.82|>": 51055, "Ġpuppy": 18196, "haul": 39423, "yty": 41944, "Ġcommission": 9221, "vat": 23352, "Ġlimitation": 27432, "Ð¸Ð¾Ð½": 26875, "Ġrendre": 36256, "inals": 33961, "Ġleads": 6689, "zza": 26786, "gee": 31577, "ĠPo": 6165, "Ġexclud": 16269, "ĠPremiere": 39724, "zers": 41698, "Ġcentro": 24607, "<|23.04|>": 51516, "aczego": 39329, "Ġmeditate": 29989, "ĠExport": 50130, "ĠHz": 39747, "éĿŀ": 12107, "ĠÐ²ÑĸÐ´": 16947, "<|11.20|>": 50924, "ĠMexico": 8612, "Ð°ÑĤÑĮÑģÑı": 8525, "Ġinclus": 17204, "ini": 3812, "Øº": 17082, "Ġãģ¡": 44692, "Ġcree": 48895, "Ġìĸ´ì©": 43513, "Ġexclusively": 20638, "Ġconfronted": 31257, "ãĤ«ãĥ³ãĤ¿": 40972, "astes": 40246, "Ð¾ÑĢÐ°": 22889, "Ġscratches": 33695, "Ġpredictive": 35521, "iram": 40359, "minster": 45688, "ĠCrazy": 22509, "ÑĭÐ¹": 4851, "ĠÐ´Ð¾Ð»Ð¶Ð½Ð¾": 40475, "Ġattract": 5049, "ang": 656, "ĠSk": 7324, "Ġbegun": 16009, "ĠFruit": 39989, "æīĢ": 5966, "ĠLife": 7720, "ilantro": 41160, "Ġscripture": 24783, "Ġbabe": 24655, "çľ": 2862, "æŀĹ": 32063, "ĠVish": 36752, "ÉĻr": 33145, "Ġscientist": 12662, "Ġrecover": 8114, "Ġculpa": 44870, "ê°ĳ": 27358, "ĠLogic": 49898, "Ġinteraction": 9285, "Ġstrain": 14249, "Ġnew": 777, "ĠLambda": 45691, "Ġsummer": 4266, "Ġvaleur": 45255, "ĠSwift": 25539, "Ġshifted": 18892, "Ġpositivity": 35198, "Ġpiping": 35204, "ĠyapÄ±yorsun": 36964, "<|12.18|>": 50973, "Ġistem": 42785, "That": 6390, "Ġchatter": 26929, "ĠÐ½ÐµÑģ": 30825, "Ġë²Ħë": 34214, "ĠCrist": 23199, "Ġpraying": 15611, "åķĬ": 4905, "Ġcomfort": 3400, "Ġtasted": 25003, "Ġaway": 1314, "Ġschon": 4981, "Ġresponding": 16670, "ĠiPhones": 43793, "ĠMOR": 29533, "Ġlact": 34042, "Ġpronto": 26194, "Ġgrandparents": 21876, "iffe": 31387, "Ġì±ħ": 33623, "ĠRP": 14105, "<|18.50|>": 51289, "Ġimplants": 43032, "ĠÐ¡Ð¾Ð²": 45680, "ĠUW": 35691, "ĠUSD": 24375, "Ġmode": 4391, "Ġelectronically": 49677, "Ġcamel": 37755, "Ġinsan": 11513, "Ġsuburbs": 34185, "ĠCleveland": 27846, "keep": 16055, "ĠcanÄ±m": 30535, "picious": 47067, "\"?": 8930, "ĠBast": 31915, "ĠUnd": 2719, "Ġprelim": 26414, "Ġdapat": 35161, "ĠJelly": 38815, "ĠÐ´Ð¾ÑģÑĤÐ¸": 46630, "ĠGlad": 28301, "mark": 5638, "Ġquelques": 16597, "âĢİ": 27867, "Ð¾Ð¹ÑĤÐ¸": 44213, "Ġbinnen": 35958, "Ġì§Ħì§ľ": 7106, "Ya": 26795, "ĠACC": 42251, "×ķ×Ŀ": 17333, "while": 7723, "à¸ĩ": 7212, "Ġdemocratic": 15337, "ĠMs": 7741, "Ġpaste": 9163, "ÐµÐ¶Ð´": 41979, "åĳĬè¯ī": 44816, "ĠHard": 11817, "Ġstores": 9512, "Ġecosystem": 11311, "ĠAwards": 22187, "Ä±yorum": 15230, "ĠUr": 9533, "Ġinnovations": 24283, "ors": 830, "iscernible": 42758, "Ġpobre": 40819, "íĸĪëĭ¤": 42520, "éļĬ": 33929, "ĠPy": 9953, "fr": 5779, "ĠìķĦëĭĪìķ¼": 20425, "Ġimmensely": 38674, "Ġserved": 7584, "adores": 11856, "arena": 19500, "ĠOri": 23621, "Ġtotalmente": 30865, "Ġclimb": 10724, "dollar": 40485, "Ġanest": 31750, "Ġentry": 8729, "Ã¡tico": 28234, "<|14.84|>": 51106, "<|bg|>": 50292, "Ġoverlooked": 32269, "Ġcommitted": 7784, "mana": 14524, "Ġnewsletter": 26469, "Ã¤hr": 12021, "Ġanywhere": 4992, "Ġgraphics": 11837, "Ġdaran": 24520, "Ġimpair": 30256, "Host": 29644, "ĠLINKE": 32445, "ĠChancellor": 24778, "Ġresent": 28773, "Ġstart": 722, "enk": 32160, "Ġdrink": 2822, "Ġcustom": 2375, "Ġë¯¸ë": 29004, "Ġbehave": 15158, "Ġindie": 33184, "Ġbanking": 18261, "ĠKore": 3893, "Ġgradual": 32890, "ĠMcMahon": 48187, "ĠSeung": 20384, "ko": 4093, "ĠregiÃ³n": 45163, "Ġparallel": 8952, "ë§Ī": 15017, "ĠPrecis": 48746, "cemos": 38173, "Ġzeigt": 29250, "Ġetc": 5183, "Ġíĳľ": 20966, "ĠWildlife": 35811, "ĠPharise": 47742, "chmal": 25751, "Ġintellectual": 12576, "Ġwrong": 2085, "Ġhmm": 16478, "Ġtrabalhar": 35531, "ĠtÃ¤tÃ¤": 50187, "inaudible": 6436, "Ġboost": 9194, "Ġarchitects": 30491, "Ġreward": 7782, "Ġsondern": 11465, "×Ļ×ł×Ķ": 48239, "Ð¸ÑĢÐ¾Ð²Ð°Ð½": 48317, "aurais": 44608, "ãģĦãģ¤": 40162, "Ġachievements": 21420, "esto": 18465, "wang": 19031, "Ġext": 1279, "Î±Î¹": 5074, "Ãĳ": 35763, "Ð¿ÐµÑĢÐ²ÑĭÑħ": 48395, "Ġquantum": 13018, "Ġrelative": 4972, "ĠLabour": 23361, "ports": 17845, "ĠpasÃ³": 41382, "ìĭľëĭ¤": 33582, "insp": 31637, "à¸«à¸Ļ": 33329, "ãģ¡": 6574, "Ġcoils": 43639, "Ġfaithful": 17808, "ĠMIC": 20565, "Ġtriggered": 21710, "Ġchapter": 7187, "Ġcorpses": 46416, "av": 706, "inÃ¤": 32097, "cry": 46555, "usalem": 14992, "Ġpardon": 22440, "Ð¼ÐµÐ½": 17859, "ĠGel": 16142, "ãģķãĤĵ": 15567, "Ð°ÑİÑī": 18718, "ĠRegel": 33139, "Ġfolding": 25335, "iu": 5951, "hyuk": 42661, "Ġfeminine": 24648, "Ġwasn": 2067, "Ġarter": 30455, "wright": 37752, "Ġenhancing": 36579, "ĠdÃ©c": 9198, "spring": 30757, "Ġfueron": 28739, "ĠMilan": 32874, "<|3.38|>": 50533, "Ġbandits": 49043, "Ġcaptions": 44832, "Ġpoles": 24760, "ĠGoing": 10963, "?\"": 1811, "waÅĤ": 44603, "ĠMAS": 42129, "ani": 3782, "Ġolsun": 17632, "life": 9073, "ĠÐ½ÐµÐ±": 22783, "Ġcomb": 2512, "itations": 31265, "Ġprice": 3218, "ulif": 38365, "iada": 39018, "Ġsuggestions": 13396, "Ġbenefiting": 47515, "<|lb|>": 50345, "å¿ĺ": 26677, "ĠCh": 761, "Ġnecessarily": 4725, "ÑģÑĤÐ°Ð½Ð¾Ð²": 39834, "Ġmerch": 12618, "Ġquizz": 43425, "å°±æľĥ": 47778, "Ġsunny": 20412, "Ġspannend": 49027, "ĠKENN": 34773, "umer": 15583, "Ġfusion": 23100, "Ġcust": 14884, "erie": 17487, "ĠTOM": 29473, "ĠVerfÃ¼gung": 43026, "bage": 9742, "keys": 18847, "ĠGetting": 13674, "ĠPlay": 5506, "ĠInfinity": 34762, "Ġrejected": 15749, "Ġmovimiento": 43180, "Ryan": 32106, "ĠL": 441, "Ġgrated": 43319, "ĠcÃ¢mera": 43640, "Pro": 12681, "Ġobsc": 22082, "Ġtransistor": 34750, "ãĤĪ": 5591, "eti": 24566, "Ġparall": 8069, "ĠPaul": 4552, "Ġneed": 643, "ĠArabic": 19938, "Ġoverweight": 40523, "Ã©sus": 49776, "èĩ³": 20844, "Ġgrilled": 25183, "Ġpeppers": 21345, "ĠGreg": 11490, "ÐµÐ½ÑĤ": 5243, "metro": 45400, "Ġrud": 32109, "çľĭä¸Ģä¸ĭ": 28324, "strong": 28063, "Ġdetained": 41452, "Ġtus": 20647, "ĠNative": 15093, "Ġ2018": 6096, "Ð°Ð½Ð¸Ðµ": 9633, "Ġremoved": 7261, "×Ķ×ķ": 43830, "ierungs": 40908, "Ġpasa": 20260, "¦½ëĭĪëĭ¤": 34328, "ĠInsert": 36487, "Ġgrape": 23978, "ĠÙĪØ¨": 46599, "ĠÐ½Ð°ÑģÑĤÐ¾ÑıÑī": 35048, "ĠChall": 14398, "ĠNom": 31272, "Ġrelations": 2299, "Ð¸Ð¼Ð¾ÑģÑĤÐ¸": 48417, "à¸µ": 6033, "Ġstatewide": 34487, "ĠÐ²ÑĭÐ±": 18061, "Î¸Îµ": 32815, "ĠClimate": 27025, "Ã¤t": 3628, "Ġdegradation": 40519, "Ġrestoration": 23722, "Ġtease": 30444, "ĠìĭĿ": 19675, "Ġchannels": 9235, "Ġdebate": 7958, "<|13.96|>": 51062, "ĠkÃ¤yt": 49313, "Ġlob": 14366, "Ġtreball": 37999, "ĠWesley": 43908, "Ġinvol": 2499, "Ġinteresting": 1880, "Ġrevel": 15262, "Ġsnare": 45018, "ĠÐ¿Ð¾Ñħ": 23052, "ĠHasta": 45027, "Ġbesch": 17498, "ĠV": 691, "jung": 29773, "Ġtwisted": 23057, "Ġhá»įc": 46786, "Ġdia": 6801, "ĠhistÃ³ria": 20670, "Ġexporting": 44686, "Ġpermettre": 37350, "Ġdrawer": 24039, "ĠMOM": 46840, "ĠPromised": 38478, "Ġnegotiate": 21713, "Stud": 42665, "Ġmex": 28759, "ĠerklÃ¤ren": 46528, "Ġcontradictory": 49555, "ìĽĲ": 7573, "Ġweet": 28991, "alk": 667, "ĠPrem": 13011, "Ġdiagonal": 21539, "Î±Î½": 17928, "fera": 45635, "Ġimpulse": 26857, "Ġjap": 48330, "ded": 9207, "Æ°á»£": 12725, "ĠDrama": 45406, "Ġë§": 1747, "ĠHARR": 38892, "Box": 34980, "ags": 12109, "ĠRacing": 38832, "alth": 1302, "Ġweighted": 32807, "iken": 19640, "<|13.52|>": 51040, "<|16.02|>": 51165, "ĠVater": 36173, "ilon": 15754, "ĠGore": 45450, "Ġnerede": 44906, "SINGING": 29859, "<|16.60|>": 51194, "Ġcalcul": 4322, "¬¸": 8357, "ĠAssoci": 8619, "ĠMT": 37333, "importe": 38320, "ĠFuÃŁ": 31419, "lls": 43909, "Ġinflammatory": 38199, "ëĭĪëĭ¤": 1972, "ĠìŀĲì£¼": 47295, "Ġpact": 38104, "×Ĳ×ª": 18044, "ÑĨÐ¸Ð¾Ð½": 21964, "Ġtit": 3459, "ides": 1875, "æĥľ": 48199, "uana": 20070, "Ġãģ®": 21171, "Ġfand": 38138, "Ġpenn": 34911, "Ġtenants": 31216, "ondu": 31295, "Ġredirect": 29066, "ibles": 14428, "ĠDoing": 18496, "Ġdell": 19781, "Ġresilience": 19980, "ĠVerd": 41257, "Ġtakie": 15963, "ìĥī": 15554, "Ġobliv": 47039, "mia": 29958, "Ġproprio": 28203, "ĳ×ľ": 23602, "ĠRudolph": 47292, "Ġeconomists": 32431, "sna": 28045, "ĠShawn": 28634, "rew": 2236, "ĠEstoy": 49651, "Ġrien": 13355, "ĠBeat": 16031, "Ġ-": 359, "Ġfabrication": 44820, "ĠUX": 40176, "ĠMinh": 45093, "Ġequiv": 48726, "ĠApache": 46597, "Ġdiscrimin": 20828, "Ġenact": 25909, "ĠAlabama": 20898, "madÄ±": 46107, "Ġcumpl": 37483, "ĶĶìĸ´": 40803, "Ġê·¸ëĥ¥": 11208, "ĠCharles": 10523, "rus": 13783, "æĿ¡": 48837, "Ġamen": 18497, "ĠMATT": 6291, "Ġdisguise": 32751, "enario": 49120, "Ġcoarse": 39312, "arÃ©": 36832, "Ġhaving": 1419, "lot": 43571, "Ġchip": 11409, "Ð³Ðµ": 47849, "Ġdouble": 3834, "ĠRal": 23038, "hn": 12071, "Ġmetric": 20678, "opol": 19946, "ĠNorthern": 14335, "Ġanonymous": 24932, "ĠCute": 29121, "éģĶ": 33086, "Ð°Ð´Ð¸": 18389, "Ġhat": 2385, "ĠkarÅŁ": 21742, "Ġreef": 25345, "wegs": 32793, "Ġtherapeut": 26126, "Ġlivestock": 31768, "ĠgÅĤos": 43767, "eterm": 35344, "ailed": 24731, "TOR": 36400, "Ġknees": 10546, "Ġrapport": 18018, "ç½®": 34719, "ĠLet": 961, "Ġlived": 5152, "ĠKaty": 42959, "ĠAcc": 5725, "Ġhypothesis": 17291, "ÑĥÐ¶Ðµ": 28285, "¸Ķ": 48411, "How": 6462, "ĠAff": 12840, "Ġvergessen": 42418, "Ġ4000": 31104, "iden": 4380, "vious": 1502, "til": 20007, "ãĤĵãģ¨": 49329, "Ġdud": 38512, "allen": 31181, "Ġmuscles": 9530, "indeer": 44749, "nap": 37252, "Ġ×ŀ×©": 23950, "ĠShelley": 42337, "Ġtractor": 31857, "Ġdischarge": 21718, "prof": 29175, "ÐµÐ": 615, "ĠëįĶë": 46389, "ĠKra": 26988, "ĠIowa": 14514, "ĠBrave": 38545, "ĠÐĲÐ½": 20802, "Ð½Ð´": 43485, "ĠÐ¸Ð½ÑģÑĤÑĢÑĥÐ¼ÐµÐ½ÑĤ": 44572, "Ġtablets": 27622, "Ġpack": 2844, "įĶ": 19666, "Ġseulement": 27772, "ĠnÃªn": 40606, "Ġtrack": 2837, "Ġaboard": 27488, "Ġfighting": 5237, "pek": 32659, "wor": 28321, "Ġguidelines": 12470, "Ġvez": 5715, "ĠNixon": 31130, "irable": 21493, "kim": 25112, "æĬ½": 46022, "ĠME": 12003, "ÑĪÐ¸Ñħ": 29024, "ĠMORE": 35509, "ĠNCAA": 49650, "spl": 46535, "Ġsank": 43746, "stairs": 10899, "Ġbrut": 12603, "Ġpounds": 8319, "Ġolur": 16538, "Ġbacterial": 35632, "Ġmiedo": 40383, "Ġraise": 5300, "ĠMash": 42039, "Ġ17": 3282, "Ġinfinity": 13202, "Ġadverse": 27590, "Ġwere": 645, "ĠRegarding": 35523, "Ġcollects": 39897, "ĠNebr": 26733, "ĠAk": 9629, "NET": 35554, "Ġnuevas": 42817, "last": 15459, "Ġlake": 11001, "ĠWake": 21062, "éĥ¨åĪĨ": 32174, "ĠEarn": 24820, "Ã¤mÃ¤n": 41409, "get": 847, "ĠPutin": 19818, "ĠCriminal": 43698, "Ġstruggling": 9314, "eleri": 44501, "Ġyet": 1939, "Ġwack": 42138, "Ã¡ri": 11758, "Ġflashy": 47873, "Ġtooth": 11680, "phem": 41245, "nah": 12411, "ĠfrÃ¼h": 45029, "ĠDid": 2589, "Ð»Ð°ÑģÑĤÐ¸": 33513, "/.": 48550, "ĠJobs": 29169, "Ã¨tement": 27236, "lat": 14087, "ĠBarr": 28694, "¦¬ë": 7134, "bows": 21118, "ĠJoe": 6807, "Ġlust": 24672, "Ġasset": 11999, "Ġintel": 24777, "×©×ķ×ĳ": 49641, "ĠManagement": 14781, "Ġsuperv": 37971, "Ã©rience": 35627, "Ġcelebr": 3886, "Ġsupervision": 32675, "ĠWAS": 28984, "Ġsubt": 7257, "Ġimpact": 2712, "ĠBeyonce": 48416, "agÄĻ": 40748, "Ġapparatus": 38573, "young": 29696, "ĠHolz": 45455, "Ġmusic": 1318, "ĠEthan": 23984, "ĠTamara": 40424, "Ġpsyche": 50223, "iros": 21633, "Ġwounds": 21969, "ĠFool": 41583, "<|7.10|>": 50719, "Ġregimes": 45738, "åĲĳ": 24282, "irect": 11890, "Ġbasement": 16893, "Ã¢l": 40106, "ĠPione": 48844, "ĠÐºÐ»Ð°ÑģÑģ": 26197, "é£İ": 47209, "ìķ": 1457, "visor": 16457, "Ġdemanded": 28276, "Ġfan": 3429, "Ġgiggles": 50032, "<|2.14|>": 50471, "ĠStockholm": 38730, "Ġlions": 32564, "<|2.00|>": 50464, "Ġlige": 35450, "ÑĢÐ°Ð»": 45463, "isch": 5494, "Ġblacks": 30720, "Ġphysiology": 43585, "ĠFridays": 46306, "Ġalliances": 45855, "Ġelementos": 35797, "ĠPL": 6999, "Ġuneven": 34022, "Ġdollar": 7241, "ĠÑģÐµÐ¼": 20933, "Ġexisting": 6741, "Ġneglig": 32570, "Ġmitig": 15699, "Ġsah": 19292, "Ġfewer": 13366, "ĠJaw": 48547, "Ġ1200": 29139, "'!": 30159, "Ġpairs": 15494, "ìķ¼": 4248, "Ġperformance": 3389, "kids": 35015, "enÃ§a": 48866, "Ġworkers": 5600, "Ġtrend": 6028, "ĠJeez": 48516, "ĠsÃ»r": 18143, "ĠDry": 31562, "Ġë°ľë": 20414, "Ġmiddle": 2808, "ESS": 12268, "Ġclaws": 34258, "ĠCash": 27016, "Ġdissoci": 44446, "Ġ×Ĳ×ª": 9625, "rine": 15140, "æ©ĭ": 36473, "Ġmaternal": 37944, "Ġzach": 29303, "ĠStand": 9133, "Ġmarginalized": 32522, "Ġremoving": 12720, "ĠYas": 30557, "ìķĺ": 9106, "Ġwallet": 16599, "ption": 1695, "Ġ×Ķ×ķ×Ĳ": 23666, "inate": 13923, "Ġunstoppable": 48261, "ubscribe": 9493, "fendimiz": 46658, "jcie": 43474, "Ġvite": 24462, "Ġpsychologically": 41387, "Ġculturally": 28879, "Ġbreathing": 9570, "Ġvid": 7217, "ãĤ§": 28571, "ĠìķĦê¹Į": 25289, "Ġscenario": 9005, "ĠGloria": 34288, "usc": 32601, "Ġinvest": 1963, "Ġshakes": 37891, "Got": 37373, "Ġoggi": 34768, "ĠSch": 2065, "à¸ĸ": 28955, "Ġris": 2253, "Ġrulers": 35009, "Ġdeveloper": 10754, "hoon": 30429, "ĠHamburg": 34118, "ĠAutom": 24619, "Ġlandfill": 47031, "Ġdestac": 46393, "<|2.36|>": 50482, "ĠìĪł": 41986, "Ġproceso": 29314, "ĠEv": 5689, "Ġacontecendo": 47623, "©°": 18095, "ĠTruck": 44600, "ĠCristo": 36524, "ĠHÃ©": 42318, "Ġstudying": 7601, "áº¯": 12195, "Ġsensational": 47507, "ĠFinancial": 25560, "Ġreportedly": 23989, "ĠìĹĨìĿ´": 33353, "erek": 11746, "ĠTar": 10537, "Ġreactor": 20628, "ĠHapp": 7412, "Ġsolutions": 6547, "Ġhair": 2578, "ĠWall": 9551, "ĠMih": 48168, "ì¡±": 21799, "oter": 21585, "Ġ1958": 45868, "noon": 6376, "ĠMario": 9343, "Ġtych": 15180, "ĠspÃ©cial": 34141, "Ġexisted": 13135, "Ġresponsibility": 6357, "Ġprovinces": 32873, "sex": 28774, "Ġinteractions": 13280, "Ġaesthet": 27837, "rup": 11976, "ĠBlockchain": 48916, "Ġswollen": 37559, "ĠÅĽrod": 28580, "<|15.16|>": 51122, "ĠBoule": 50121, "Ġpossessed": 29608, "eras": 6985, "aped": 18653, "eu": 23685, "ĠGardens": 45268, "Ġ260": 44624, "Ġbir": 1904, "ĠStar": 5705, "<|18.40|>": 51284, "<|12.76|>": 51002, "Ġtraffic": 6419, "Ġstroll": 42812, "Ġcoffee": 4982, "acaÄŁÄ±m": 16763, "Ġà®İ": 12814, "æĪĳæľī": 39732, "Ġinterpreted": 26749, "ÃŃgen": 36492, "º": 118, "Ġaffiliate": 23975, "à¤¤": 36158, "ĠSeo": 30877, "eting": 9880, "ĠSet": 8928, "Ġrob": 3870, "Ġchecking": 8568, "Ġeux": 22648, "Read": 40702, "ĠrÄĻ": 41197, "ĠCette": 25556, "Î¬Î½": 16636, "Ġlongitudinal": 48250, "Ġsoutheast": 39014, "Ġfellas": 47242, "ĠPRES": 30247, "Î½Î·": 32927, "ãĤĥ": 9051, "ÑģÑĤÐµ": 27492, "iquement": 27703, "such": 39974, "erv": 1978, "ĠSongs": 48541, "Ġ201": 1525, "ĠKingston": 33419, "rÃ³": 11721, "akk": 44310, "ĠCinderella": 47980, "æĻļ": 27080, "Ġ1961": 41720, "Ġstressed": 14471, "Ġthink": 519, "Ġtrouver": 23546, "Ġsorcer": 41349, "ĠTisch": 48192, "uce": 4176, "Ġtransmitted": 25355, "ãĤĴ": 5998, "Ġestilo": 37470, "íķĺë": 8037, "åģĩ": 31706, "<|20.22|>": 51375, "itzer": 16845, "Ġstagn": 32853, "ĠÐºÐ¾ÑĤÐ¾ÑĢÐ°Ñı": 19032, "Ġjoint": 7225, "ĠButton": 38435, "arent": 1898, "ĠUnited": 2824, "ĠRW": 42513, "ĠMorris": 23619, "clock": 9023, "Ð¸Ðº": 3605, "Ġcriteria": 11101, "ĠWarrior": 33834, "éĻĲ": 43446, "ĠTower": 17877, "Ġcaste": 39262, "rift": 35742, "ĠYue": 30166, "Ġmines": 25398, "Ġetmek": 46005, "Ġdang": 21892, "Ġsecondo": 41601, "Ġchall": 2076, "Ġswoje": 29489, "Ġnett": 42084, "uka": 13599, "Ġabsorbing": 38720, "ĠJourney": 37724, "Ġcoast": 8684, "ĠLanka": 42765, "Ġimpacting": 29963, "ĠTwice": 46964, "èħ³": 49595, "ĠNy": 29214, "ĠktÃ³ra": 19456, "Ġdre": 22540, "Ġwie": 3355, "ologically": 17157, "ĠìĨĮë¦¬": 21652, "ĲĺëĬĶ": 43653, "ĠSummer": 16161, "è·¯": 24658, "Ġsurroundings": 25314, "Ġyelling": 18381, "ating": 990, "ĠNg": 21198, "Ġtemp": 18274, "Ġì°¨": 15391, "Ġarteries": 44801, "lax": 25923, "<|11.58|>": 50943, "uur": 18470, "Ġquitting": 42789, "ĠÃ®nt": 43990, "def": 20595, "ĠBarb": 14876, "igon": 47578, "ê°Ŀ": 47155, "ãĤį": 12488, "Mike": 25519, "ĠWare": 49978, "Ġìŀ¥ëĤľ": 46314, "cially": 1909, "ÐµÑĩ": 4310, "88": 16919, "Ġfavorable": 29557, "Ġconditioning": 21901, "Ġtomb": 18712, "Ġreve": 5174, "Ġapples": 16814, "Ġcollision": 24644, "Ġstarred": 39438, "Ġsuggests": 13409, "ĠMalays": 21543, "Ġíķĺë©´": 17422, "ariat": 41115, "Ġverte": 16167, "ä»¬": 9497, "Ġtorment": 36662, "Ð°Ð½Ð¸Ð¸": 16426, "ĠÑĤÑıÐ¶": 34641, "ÑĨ": 1814, "Ġtranslator": 35223, "ĠJungkook": 48928, "Ġperks": 36991, "Ġaffecting": 17476, "atha": 29441, "ented": 6003, "ĠMediter": 25828, "din": 17557, "éļª": 49753, "ĠPhilosophy": 43655, "Ġtramp": 38605, "otzdem": 23934, "ĠJEN": 50245, "Ġearthquakes": 34048, "Ġmoss": 36193, "Ġestrogen": 44754, "ĠÃ¤ven": 32669, "Ġwyb": 45780, "Ġslept": 17400, "Ġfright": 15545, "ĠëĺĲ": 7992, "ĠJe": 2588, "ĠBuilt": 49822, "Ġestre": 36665, "ordre": 48981, "Ġbreakup": 38492, "ourd": 21764, "asures": 20044, "Ġaids": 28447, "Ġidi": 18014, "ĠHause": 26217, "viously": 2110, "cjÄĻ": 41960, "<|12.74|>": 51001, "food": 35549, "Ġwing": 11162, "Ġbeaches": 27560, "á»Ĺ": 35857, "Ġconsideration": 12381, "ĠSurface": 36052, "Ø´": 8592, "ä»ĸæĺ¯": 47046, "ìĸ´ì¤": 33992, "Ġspare": 13798, "Ġgranular": 39962, "ĠwyglÄħda": 32015, "ĠThan": 18289, "Bro": 43295, "laws": 33476, "actor": 15104, "ihat": 41650, "ĠHE": 11827, "ĠÑīÐ¾Ð±": 42899, "æİ§": 48707, "Ch": 6546, "Ġartifact": 34806, "×¢": 7924, "Ġignoring": 26258, "æĺ¯éĢĻæ¨£": 49603, "Ġhast": 6581, "ĠErst": 31183, "Ġ×Ķ×Ĵ": 36386, "ĠWayne": 22101, "ĠØ£": 5551, "Ġthrust": 24030, "Ġmois": 19230, "ĠÏĨ": 17579, "ĠHad": 12298, "ÐµÑģ": 2292, "ahh": 44251, "²Ķ": 38700, "best": 25331, "Ġcircuits": 26354, "Ġdun": 10234, "Ġgeneric": 19577, "Ġprayed": 22532, "ĠCait": 28250, "Ġthy": 15196, "æĽ¾": 43801, "Ġplugins": 33759, "Ġmult": 2120, "Ġbend": 11229, "ê°ľ": 11597, "Ġchief": 9588, "Ġintensive": 18957, "Ġhitting": 8850, "cjon": 45677, "Ġfitting": 15669, "ä»Ķ": 49385, "ĠMap": 22053, "imat": 33862, "ĠÐ²Ð¾Ñģ": 18867, "ĠBien": 16956, "ĠMina": 35981, "Ġmuss": 6425, "etter": 27296, "ĠState": 4533, "Ġgods": 14049, "Ġì¶ľ": 25420, "Ġsolu": 24807, "uyorsun": 40419, "Ġpersec": 23783, "instr": 50024, "Ķ©": 34521, "ãĤŃ": 15535, "Ø§Ø·": 41193, "Ġcapitalist": 31354, "<|14.74|>": 51101, "ĠBB": 19168, "Ġdecl": 7488, "Ġimproved": 9689, "yun": 21505, "Ġmicrophone": 10952, "Ġparalyzed": 41919, "ĠChristmas": 5272, "Ġabstraction": 37765, "Ã¡nd": 18606, "Ġclic": 33661, "Ġadvoc": 7915, "wiÄħz": 22620, "ĠInvestment": 43427, "owana": 40458, "Ġpumped": 27774, "ĠGB": 26809, "Ġrational": 15090, "ocolate": 5719, "Ġmentioning": 18315, "Ġtomatoes": 15135, "Ġendings": 42474, "Ġfishing": 10180, "æĪĳæĺ¯": 15914, "ĠMcC": 12061, "Ġcarefully": 7500, "boy": 12795, "Ġflash": 7319, "ãģ¡ãĤĥ": 18930, "ĠGORD": 34746, "ĠLoki": 37940, "ãħĭãħĭãħĭ": 30021, "ift": 2008, "Ġmercado": 24775, "assa": 18948, "ĠSleeping": 49618, "¦¬ê²łìĬµëĭĪëĭ¤": 46560, "uru": 8739, "ĠDefence": 43291, "Ġlabeling": 40244, "Ġcultiv": 15298, "Ġcheeks": 24135, "ĠvÃ¬": 37902, "Ġbattles": 14648, "cond": 18882, "Ġstrony": 32406, "ĠÑĤÐµ": 18445, "40": 5254, "gio": 17862, "Ġarrogant": 30467, "ridges": 43292, "ĠcÃ¡ch": 45762, "Ġtrains": 16329, "Ġworthwhile": 28159, "esso": 5557, "Ġdeduction": 46385, "Ġdestined": 33169, "Ġcorresponds": 23249, "Ġweaving": 40028, "Mel": 41510, "<|de|>": 50261, "Ġreadily": 26336, "Ġconsisted": 38227, "ĠwÅĤaÅĽnie": 14234, "éĬ": 42041, "hol": 5449, "ĠRings": 38543, "gua": 20845, "Ġgua": 30081, "ĠÐ¾ÑģÑĤÑĢ": 42710, "Ġproper": 2296, "emat": 8615, "ĠCle": 8834, "Ġë¬¼ìĸ´ë": 44558, "ĠÑĢÐµÑĪ": 14025, "acceptable": 29888, "fahr": 20868, "Ġyolks": 47191, "ĠFisher": 26676, "Ġpriests": 27192, "Ġgambling": 27077, "ckets": 11984, "Ġmetall": 20866, "ALLY": 23327, ".......": 43807, "à¸¹": 13687, "Ġprovocative": 47663, "Ġpasta": 13296, "Ġstitched": 48992, "ĠProdu": 11793, "Ġharsh": 14897, "Ġ\"": 503, "Cs": 33290, "Ġinto": 666, "Ġovers": 15488, "stal": 9196, "Ġshutter": 25517, "Ġstable": 8351, "Ġhighs": 29687, "Ġfictional": 28911, "Us": 29211, "Ġbroth": 18872, "Ġadvocacy": 22011, "Ġpourquoi": 19934, "ituation": 19306, "ĠÂ¿": 3841, "Ġë³´ìĿ´": 48189, "Ġlifes": 33321, "ĠÅ¼ycie": 43202, "amet": 49083, "Ġpanel": 4831, "Ð»Ð¾ÑģÑĮ": 37233, "Ãªts": 44309, "Ta": 35676, "ĠLittle": 8022, "ĠbÄĻdzie": 10562, "including": 50010, "reach": 16226, "ĠCN": 14589, "Ġloot": 26206, "Ġcrest": 43799, "ĠTack": 38405, "ĠíĸĪëįĺ": 45564, "Ġpersona": 12184, "Ġqueens": 42017, "Ġliberated": 43304, "Ġpur": 1864, "à¸Ħ": 8163, "ollo": 22388, "ĠsiÃ¨": 31302, "³´ëĭ¤": 27655, "ĠVikings": 48761, "ĠdÃ¼ÅŁ": 12856, "ĠChron": 34038, "ĠÑģÐ¿Ð¸Ñģ": 49918, "ĠÑĥÑģÐ¿": 23944, "Ð°ÑĨÐ¸": 8392, "Ġplaying": 2433, "ference": 5158, "bey": 13502, "otte": 13079, "Ġspanning": 47626, "Ġrequires": 7029, "Ġfolders": 31082, "ĠCul": 49037, "No": 4540, "Ġspoil": 18630, "Ġmilliards": 47382, "ĠBUT": 23073, "Ġtenha": 28834, "zÃ¤h": 23242, "Ġoval": 37175, "Ġpickle": 31433, "Ġmechanism": 7513, "ĠShore": 47977, "Ġná»¯a": 35047, "ç¶ĵ": 15145, "ERS": 14451, "ĠShiv": 47839, "Ġmutant": 47198, "ÑĭÐ²Ð°ÐµÑĤ": 29277, "kiem": 26116, "ĠAnk": 42483, "ĠMehr": 30782, "ĠSky": 9879, "ĠWie": 9233, "Ġmasa": 29216, "ĠÐ³Ð¾Ð²Ð¾ÑĢÑİ": 34931, "ĠVeterans": 30066, "Ġpirate": 27424, "Ġug": 10743, "Ġapplaud": 9644, "Ġmovement": 3963, "ĠDP": 42796, "Ġwiem": 26522, "etty": 38204, "lÄ±": 9811, "å±±": 24113, "Ġflag": 7166, "<|2.88|>": 50508, "äºİ": 37732, "51": 18682, "wig": 33313, "Ġmaximum": 6674, "ÑĤÐ¾ÑĢÐ¸Ð¸": 47772, "<|3.30|>": 50529, "bright": 21553, "Ġexplosive": 24630, "ĠMMA": 48700, "Ġvard": 23065, "nh": 5728, "Ġdebates": 24203, "hooting": 47011, "Ġhazards": 34516, "Ġauthentication": 26643, "Ġgear": 7394, "Ġtallest": 42075, "sche": 12287, "Ġadult": 5075, "Ġrighteous": 16153, "??": 4246, "Ġecology": 39683, "wasser": 48309, "ĠWij": 46721, "Ġthis": 341, "attle": 3327, "Ġiba": 33423, "Ð°Ð»ÑĮ": 3842, "ĠÑĤÐ¾Ð±Ð¾Ð¹": 38068, "bare": 30682, "Ġglamorous": 48760, "Ġpartly": 17031, "Ġangry": 6884, "Ġalligator": 48095, "bers": 1616, "Ġspong": 50013, "<|5.16|>": 50622, "GS": 24446, "Ġspecialist": 17008, "metics": 31236, "<|0.30|>": 50379, "chten": 21043, "Ġfirearm": 43253, "éģķ": 31846, "Ġinterface": 9226, "<|6.68|>": 50698, "Ġtoxic": 12786, "Ġplataforma": 46243, "Ġoverthrow": 46924, "éĤ£åĢĭ": 20754, "ĠlÃ©g": 27122, "azar": 22795, "<|27.32|>": 51730, "Ġsair": 29157, "Ġvisas": 45922, "ĠÑĤÐ¾ÑĤ": 23900, "<|26.44|>": 51686, "Ġpersecution": 36878, "Ġinserted": 27992, "recht": 31495, "ahlen": 21128, "Ġballet": 30512, "ĠCorinth": 29455, "Ġganze": 18898, "ê±": 4261, "Ġ140": 21548, "ÑģÑĤÐ²Ð¸Ðµ": 38185, "ĠNÃ¤": 32731, "ÏĦÏĮ": 49778, "Ġnuts": 10483, "isierung": 32531, "mund": 35578, "Ġexpression": 6114, "ĠMEL": 38005, "ĠVil": 35653, "ĠÑĢÐµÐ³": 31235, "Ġsinister": 45727, "Ġenm": 48786, "Ġappeals": 32603, "Ġstartups": 28041, "Ġê±±ìłķ": 45315, "Ġgob": 20489, "ĠGesund": 33057, "Ġharness": 19700, "Ġsteamed": 32375, "Ġmeet": 1677, "LY": 10940, "Sa": 45393, "Ð¸ÑĢÐ°": 22204, "ĠSchule": 32953, "Ġbask": 34055, "ĠEspero": 41831, "ĠCold": 16918, "hl": 22950, "ounce": 7826, "97": 23247, "Ġraises": 19658, "æĥħ": 10570, "Ġà®Ĵ": 37240, "Ġvoltar": 36291, "Ġgehe": 34252, "Ġpensa": 46909, "<|1.96|>": 50462, "Ġgid": 19805, "ĠAlbert": 20812, "Ġaudit": 17748, "ĠStraÃŁen": 48925, "ĠMid": 7033, "Ø±Ø§": 23557, "Ġ102": 45937, "ormuÅŁ": 46336, "ĠKollegen": 23713, "Ġredu": 2783, "æķ´": 27662, "Ġstrongly": 10613, "ł×Ļ": 10361, "Ġhopes": 13681, "Ġillegal": 11905, "abet": 9058, "<|24.04|>": 51566, "rils": 48789, "ĠÑįÑĦÑĦ": 33607, "ĠSmooth": 42404, "Ä±ÄŁÄ±m": 24006, "aro": 9708, "á»±": 14522, "<|3.62|>": 50545, "ĠDre": 31635, "ÐµÑģÑı": 17615, "Ġslowing": 26958, "Ġarts": 8609, "ity": 507, "bau": 26820, "Ġnumbers": 3547, "Ġapt": 29427, "Ġnotices": 32978, "Ġpromote": 9773, "istors": 46976, "ulous": 6893, "Ġdolor": 42416, "Ġantim": 46141, "ĪëĤĺ": 19505, "Ġtraces": 26076, "cono": 45846, "ĠÐ²ÐµÑĢ": 10544, "Ġnightmares": 36911, "Ġmaximal": 49336, "ĠChairman": 17866, "ĠMarvel": 13837, "Ġuns": 2693, "Ġexploited": 40918, "naden": 45578, "Ġmathematic": 32811, "ĠIsaiah": 27263, "ĠRoose": 27349, "Ġstray": 36219, "Ġë¬¸ìłľ": 24290, "Ġfancy": 10247, "ĠLEDs": 33366, "Ġpharm": 13105, "Ġscheduling": 29055, "<|26.20|>": 51674, "iker": 17314, "ÑİÑģÑĮ": 24551, "Ġdesper": 10679, "ĠÐ³Ð»Ð°Ð²Ð½Ð¾Ðµ": 39940, "elijk": 19592, "Ä±yorlar": 35974, "<|uk|>": 50280, "°ë": 2004, "Ðķ": 10156, "igg": 6249, "Ġrenewable": 20938, "ĠInt": 5681, "Ġdying": 8639, "<|13.14|>": 51021, "lane": 46121, "Ġmethods": 7150, "Ġkoska": 49139, "Ġzal": 29599, "ĠØ§ÙĦÙĦÙĩ": 21984, "uu": 9750, ".Â»": 49335, "Ġtwenties": 49398, "éļ¨": 48890, "tain": 15209, "ĠDot": 38753, "ĠFranco": 34695, "íĥģ": 30182, "ä¾ĭãģĪãģ°": 46629, "ĠÐ¸Ð·ÑĥÑĩ": 43264, "Ġafect": 30626, "39": 12493, "Ġconsolid": 19045, "Ġturbo": 20902, "ĠPrepare": 29689, "Ġcolleagues": 7734, "ĠTraining": 20620, "Ġtours": 22911, "Ġ×Ķ": 2922, "<|12.00|>": 50964, "Ġemployer": 16205, "ĠNice": 5490, "Ġfindings": 16483, "ĠSke": 32344, "Ġcomplained": 33951, "<|13.24|>": 51026, "Nice": 37717, "Ġconcent": 5512, "ĠÐ¡Ð»ÐµÐ´": 48301, "Ġwaterproof": 27974, "æķ": 7017, "ĠPI": 27176, "Ġì£¼ìĦ¸ìļĶ": 34067, "expl": 23040, "Ġinstantly": 13518, "ĠPET": 21968, "Ġunderstandable": 25648, "Ġê·¸ëŀĺìļĶ": 47453, "Ġcemetery": 31176, "Ġcanned": 36462, "Ð²Ð¾Ð¹": 37325, "Ġpele": 41615, "ĠTerror": 36174, "Ġwaktu": 44782, "Ġrelativ": 21960, "ĠSantos": 36962, "ıĦë¡Ŀ": 19305, "ì§Ģê³ł": 11213, "role": 29114, "Ġadvertisement": 31370, "ĠÐºÑģÑĤÐ°ÑĤÐ¸": 35304, "Ä±ÅŁ": 4951, "Ġtur": 3243, "ĠUmwelt": 48900, "Ġtact": 9959, "ĠSally": 26385, "ĠVert": 21044, "Ġprevents": 22367, "Ġbout": 15738, "Ġplupart": 45403, "iÃ£o": 24660, "Ġdecent": 8681, "Ġê°Ģìļ´ëį°": 44627, "ĠÐºÐ¾Ð½ÑĤ": 43064, "é¦Ļ": 16017, "ĠPassover": 48016, "Ġnac": 42071, "Ġsuccession": 36624, "Ġmedicines": 24251, "etes": 37996, "Ġversch": 20563, "<|20.44|>": 51386, "ĠcomÃºn": 45448, "Ġpickles": 38910, "Ġquelle": 29237, "Ġpe": 520, "Even": 25931, "Ġforeigners": 28201, "ishing": 3807, "Ġpolished": 29079, "oue": 41785, "cÃ³w": 29268, "Ġcathedral": 45346, "ĠAngel": 14902, "omm": 1204, "æĪĳä¸į": 25395, "Ġmustard": 23659, "Ġ2007": 12656, "aks": 5461, "Ġremake": 28582, "¶Ħë": 31480, "Ġska": 9958, "Ġhits": 8664, "Ġkara": 29555, "Ġabort": 38117, "ĠëĿ¼ëĬĶ": 49121, "ĠMiller": 16932, "emi": 13372, "ÙĪÙĬ": 45865, "Ġsucceeding": 47912, "Ġtheory": 5261, "å¥½åĥı": 33242, "ĠMes": 17485, "ĠOFF": 24115, "uitive": 48314, "Ġdrawings": 18618, "Ġsite": 3621, "Ġblocks": 8474, "Ãį": 33662, "Ġfunding": 6137, "ways": 942, "<|28.02|>": 51765, "ĠClearly": 24120, "alies": 48872, "ĠkÃ¤ytt": 49811, "Ġelemento": 47961, "Ġape": 44315, "Ġhesit": 28336, "Ġmeetings": 8410, "Ġfriends": 1855, "ÑĢÐ¾Ð±": 17129, "ĠController": 44969, "Ġce": 1769, "ĠNoch": 38116, "ĠKirby": 37423, "Ġjury": 19516, "ĠAdding": 31204, "ĠÃºn": 17524, "Ġcase": 1389, "ilton": 15200, "ÃŃem": 45278, "[": 58, "niÄĻ": 35938, "ĠéĢĻåĢĭ": 36888, "ĠEthi": 29380, "Ġexist": 2514, "Ġpacing": 43285, "Ġsa": 601, "Ġnom": 5369, "ĠnÃ¥gon": 25418, "Ġswitches": 19458, "Ġbarre": 43834, "ĠWalt": 28260, "æ¬Ĭ": 40212, "ĠTig": 44550, "Ġona": 20325, "rieb": 31775, "resh": 3644, "Old": 49032, "Ġexactamente": 48686, "À": 124, "Ġcambi": 19569, "ÑĤÐ°Ðº": 13721, "ĠKurt": 26168, "Ġoops": 34166, "Ġmates": 31488, "Ð³Ð¾": 4567, "Ġhopeful": 20531, "zeit": 13712, "ĠGranny": 40746, ".\"": 889, "ãģ¡ãĤī": 28567, "Ġì§": 2334, "Ġidea": 1558, "ĠIsab": 35686, "Ġautomat": 28034, "ĠWine": 39253, "<|5.44|>": 50636, "lichkeit": 41096, "ĠÎºÎ±": 14832, "ħ": 227, "Ġ6": 1386, "ĠkÄ±r": 33414, "<|4.50|>": 50589, "Ø·": 9566, "Ġroute": 7955, "Ġsih": 25821, "ìĻ": 5485, "ĠKÃ¤": 40502, "vÃ¤": 17165, "walk": 12490, "pton": 21987, "Ġ×ĺ×ķ×ĳ": 48606, "Ü": 152, "iego": 12200, "Ġsave": 3155, "Ġdrafting": 46378, "Ġprocedural": 43951, "Ġhalluc": 35212, "Ġcosm": 22207, "ij": 1718, "Ġdive": 9192, "Ġspoke": 7179, "Ġperceptions": 35258, "Ġencara": 47287, "ommy": 10165, "Ġexem": 9659, "Ġholy": 10622, "resp": 5667, "member": 38249, "ĠÐ²Ð¾Ð½Ð¸": 40727, "¤ë": 2990, "Ġattempt": 5217, "Ġannoy": 8759, "Ġkindness": 18171, "ĠBright": 24271, "national": 43387, "ĠChang": 17179, "Ġiniti": 6265, "êµĲ": 18084, "gn": 4568, "Ġimportance": 7379, "Ġdibuj": 46621, "ordan": 8968, "Ġprojeto": 40679, "iley": 12062, "à³į": 44833, "ches": 3781, "Ġexcited": 2919, "<|28.88|>": 51808, "ĠFeuer": 39972, "giggling": 45856, "elier": 46273, "Ġspoilers": 32237, "ĠÐ´Ð¾ÑģÑĤ": 34543, "Ð¸ÑĤÑĮ": 3258, "paragus": 49537, "ê²ĮìļĶ": 10142, "antha": 31303, "Ġmelody": 17997, "ĠOllie": 35089, "ĠfÃ¼r": 2959, "Ġlambda": 13607, "rd": 7800, "Ġbirlikte": 44642, "Ġgra": 1295, "ĠYT": 49002, "how": 4286, "Ġapartment": 9587, "etus": 40506, "Ġwastewater": 46418, "é¢": 12501, "Ġphases": 18764, "Ġoppon": 8292, "cled": 24804, "Ġchoke": 34427, "ĠBeginning": 45705, "ĠTre": 8648, "ceÄŁiz": 24746, "Ġretrie": 19817, "ä½łæĥ³": 38386, "ĠSul": 35897, "Ġappearing": 19870, "Ġputa": 46681, "stÃ¤nd": 16913, "Ġspread": 3974, "ĠPix": 18652, "jÃ¤hr": 49418, "Ġpartnering": 31290, "<|mk|>": 50308, "uro": 7052, "Ġremot": 19896, "Ġlittle": 707, "viewer": 13457, "Ġauss": 5730, "ĠLeaders": 24256, "Ġgel": 4087, "phant": 15071, "Ġklim": 36816, "ill": 373, "ĠÐ½ÐµÐ¾Ð±ÑħÐ¾Ð´Ð¸Ð¼Ð¾": 41432, "Ġcompiled": 36548, "Ġdepri": 27095, "Ġbord": 25872, "Ġfoster": 17114, "Ġliberation": 27736, "Ã¤ft": 19210, "ĠPride": 30319, "Ġstam": 29682, "ĠLad": 12106, "Ġtreasure": 12985, "Ġtextures": 24501, "ĠAssist": 49633, "Ġcreeping": 47753, "ede": 4858, "Ġreporter": 19152, "Ġchick": 14371, "Ġvotes": 12068, "¶Ģë¶Ħ": 49288, "Ġdis": 717, "Ġyoutube": 12487, "itional": 2628, "nicos": 48674, "ĠÐ±ÑĢÐ¾Ñģ": 47718, "Ġfulfil": 41054, "note": 22178, "changing": 27123, "Ġticking": 33999, "Ġgri": 17865, "ĠGran": 23554, "ĠYuan": 22730, "Ġbullets": 20132, "Ġsavoir": 19345, "Ġwomb": 34310, "Rock": 39061, "ĠÐ¢Ð°Ðº": 8770, "Ð": 140, "Ġfitt": 48876, "Was": 30974, "ister": 1964, "ld": 348, "Ġstaring": 18043, "ĠZust": 46322, "'s": 311, "Ġthree": 1045, "Ġfew": 1326, "Ġsenate": 33609, "otic": 9411, "Ġoffered": 8059, "Ġdissolve": 30150, "×ķ×ĸ": 44260, "110": 43435, "áºŃ": 9973, "Ġtearing": 29401, "ĠÐĹÐ°Ð¿": 49612, "ĠëĬĲëĤĮìĿ´": 29459, "Ġgesagt": 12260, "Ġruins": 24747, "fÃ¶": 49323, "ì°¬": 29434, "ĠHoll": 17712, "ÄĻp": 18085, "ĠKens": 33265, "Ġdifferences": 7300, "Ġsame": 912, "Ġunde": 40981, "Ð¸Ð¸": 7347, "Ġstiffness": 37759, "×ľ×Ļ×Ŀ": 44668, "Ġgarments": 44881, "ĠKorean": 6933, "ORA": 36860, "<|10.98|>": 50913, "½": 121, "ĠÎµÎº": 44009, "Ġdetected": 21896, "ITT": 35582, "æĪĳåľ¨": 40528, "holes": 37894, "`": 63, "ĠKos": 36909, "Ġeconomy": 5010, "Ġescal": 17871, "ĠRog": 11860, "ìĿ¼ë": 22809, "Ġprocure": 26846, "ĠMatrix": 36274, "ĠBeef": 36465, "ocar": 47993, "ĠpH": 21677, "Ġfigured": 8932, "Ġerhalten": 38051, "ĠÐ¿ÑĢÐ¸Ð²": 13398, "ĠTrustee": 34373, "ĠÐ±Ð»Ð¾Ðº": 42222, "Ġinac": 33230, "Ġobjetivo": 29809, "ĠBots": 47224, "ĠZombie": 48952, "rops": 49715, "LAUGHS": 24352, "ĠMandarin": 42292, "imme": 20380, "Ġappointments": 25084, "ĠFerguson": 40823, "ĠíĮĮë": 44475, "Ġsea": 4158, "ilen": 17471, "Ð½ÑĥÐ»": 26198, "Ġresidency": 34014, "åįĹ": 31021, "istance": 20829, "Ġscient": 3989, "Ġdopp": 44862, "iedo": 36035, "Ġskill": 5389, "ĠHallelujah": 32359, "umental": 43311, "Ġcardboard": 22248, "Ġì¹´": 41703, "ĠReal": 8467, "ĠJeÅĽli": 37086, "Ġdrowned": 38233, "Ġlawsuit": 22504, "Ġvisionary": 49442, "Ġìĺ·": 30880, "Ð½Ð¸ÑĤ": 47264, "aphor": 18560, "Ġignorance": 25390, "ĠPHIL": 49933, "ìĿĮë": 36831, "ìĹ": 1170, "Ġexfol": 46935, "Ġshooters": 45526, "ĠsÃ¬": 49267, "tÄ±m": 41186, "imas": 17957, "Ġcommencer": 32817, "xo": 49050, "ĠAnyway": 5684, "iev": 9037, "Ġnever": 1128, "å¦Ĥ": 8238, "ĠMexican": 16164, "Ġanimals": 4882, "ANK": 18215, "ĠrÃ©ponse": 40967, "å¥½ä¸įå¥½": 34291, "ĠSpeaker": 8454, "ĠÐ¿Ð¾Ð´Ð°ÑĢ": 43564, "kook": 38318, "rate": 4404, "ÐµÑĢÑĤ": 21768, "ĠCensus": 34273, "ĠÐ´ÑĢÑĥÐ³Ð°": 47392, "Ġweiterhin": 42480, "Ġdesperately": 23726, "ĠWohnung": 50087, "Ġcooling": 14785, "æ¸¯": 22307, "Ġhusbands": 37835, "cyj": 42949, "ĠFot": 46771, "Ġcharity": 16863, "<|5.06|>": 50617, "displaystyle": 38993, "Ġolmak": 45535, "Ġawaits": 45955, "rÃ¡s": 17168, "anut": 35352, "ĠDinge": 25102, "bin": 13496, "Ġconfort": 43392, "Ġopponent": 10620, "Ġoscill": 18225, "oughs": 34445, "ĠRobot": 29601, "Ġfronts": 40426, "Ġposterior": 33529, "Ġnotch": 26109, "Ġë³´ë©´": 19443, "ĠMeanwhile": 13879, "Ð¾Ð¶Ð½Ð¾": 12311, "ĠdifÃŃ": 16774, "Ġconveyed": 49340, "åĤĻ": 20854, "Ġcontag": 28525, "rove": 32467, "Ġfriendship": 13216, "ĠÐ¿ÑĢÐ¸": 5082, "Ġrule": 4978, "Ġë§Ľ": 9508, "Ġvars": 46130, "Ġcradle": 48081, "ĠLeonard": 35172, "Ġjournalism": 23191, "ĠWo": 6622, "Ġsources": 7139, "ĠÑĤÑĢÐµÐ±": 31525, "ĠhÃ¶": 13531, "ĠVenus": 23994, "etin": 38645, "ĠCasey": 27369, "Ġtrusting": 28235, "Ġinhab": 16934, "ĠXL": 37210, "ÙĪÙĤ": 30543, "Ġnights": 13249, "éĻ": 8842, "ĠLuiza": 45208, "hold": 4104, "onden": 37982, "Ġleg": 1676, "Ġanalyses": 37560, "Daniel": 32628, "ĠFRE": 26276, "Ġparecer": 44885, "Ġoptions": 3956, "70": 5867, "eza": 28604, "âĻ": 3268, "lung": 17850, "Ġani": 40477, "Ġdroit": 25971, "ank": 657, "ç§į": 39810, "gue": 11929, "Ġeffect": 1802, "´ìĭ": 17058, "Ġcriminals": 23474, "<|11.92|>": 50960, "Ġbid": 12957, "ĠÑģÐ¼ÑĭÑģ": 44045, "Ġbanging": 36982, "ĠMembers": 21495, "ĠAC": 8157, "ÐĹÐ«": 24582, "Ġvanish": 43584, "è¿½": 39947, "Ġgeez": 46108, "Ġdesigning": 14685, "PE": 5208, "ãģªãĤĵãģ§ãģĻ": 42255, "<|9.66|>": 50847, "Ġfrequent": 18004, "Ð¾Ð´Ñĥ": 35749, "ĠMaced": 45603, "Ġwholes": 34228, "bud": 18281, "ushi": 16880, "hy": 3495, "Ġdites": 48291, "ķ": 243, "åľĭ": 8053, "84": 25494, "Ġtrat": 21507, "ĠSoo": 28784, "ĠÐº": 981, "pad": 13647, "Ġdeveloping": 6416, "åİ»äºĨ": 45190, "Ð³Ð»Ð¸Ð¹": 43249, "ĠÐĹÐ½Ð°": 30869, "ĠÐ·Ð´ÐµÑģÑĮ": 9087, "ãģĦãģı": 49394, "Ġdangerous": 5795, "ĠPhew": 46679, "Ġobstruct": 45579, "Ġshitty": 30748, "WAY": 44372, "ĠAnda": 40480, "Ġìŀł": 15825, "Äħt": 23430, "<|1.48|>": 50438, "Ġbande": 46836, "Ġconfirmed": 11341, "ÄŁl": 14142, "Ġarche": 37897, "ographer": 13624, "Ġextinction": 33163, "ëıĻ": 23056, "ĠBunun": 45160, "ĠÄĥn": 28657, "imerk": 45063, "ĠÐ¾Ñħ": 28871, "Ġtilde": 45046, "ĠSlo": 22497, "Ġweave": 29145, "Ĥ¨": 30856, "à¸±": 5981, "Ġbrokers": 47549, "åĭĿ": 43434, "ĠEarl": 38936, "Ġcontinuing": 9289, "åīĽ": 16940, "Ġproductions": 32612, "ĠTheir": 6710, "Ġcooler": 15566, "Ġchop": 7931, "ĠRhod": 36951, "ĠÑģÐ¾Ð²ÐµÑĤ": 35282, "å·²": 15701, "Ġwww": 12520, "Ġrelevant": 7340, "Ġaccuse": 43610, "ĠPH": 16530, "ĠÐ¿ÑĢÐ¸Ð±": 31436, "Ġbeetle": 49735, "ĠAbove": 32691, "Ġ1976": 33978, "Ġmuá»ĳn": 42453, "ĠìĿ´ìļ©": 37839, "ĠìĿ´": 2620, "à¸§": 7643, "ĠGary": 13788, "ĠEL": 14426, "Ġamount": 2372, "<|12.82|>": 51005, "ĠexperiÃªncia": 41238, "arle": 36153, "ĠSachen": 26074, "ughs": 2585, "ĠÐ²ÑĤÐ¾ÑĢÐ¾Ð¹": 36128, "Ġmock": 17362, "conds": 28750, "viet": 10878, "ĠVie": 24130, "Ġsele": 23264, "<|29.14|>": 51821, "ÐµÐ½Ð½ÑĭÐ¹": 28488, "ĠSource": 29629, "Ð¾Ð·Ð¸": 50226, "Ġparagraph": 18865, "DIO": 49021, "ĠmÃ¡s": 3573, "en": 268, "ĠAttorney": 23283, "esar": 18876, "Ġliegen": 35100, "ĠMage": 49293, "dramatic": 15125, "ĠNinja": 25566, "Ġì²Ń": 24902, "Ġterus": 35977, "ĠItu": 39109, "è®²": 39255, "ĠKNOW": 39429, "Ġhumming": 34965, "ĠëłĪë": 43927, "ĠØ«": 38637, "essions": 9069, "lasting": 29346, "ĠTold": 48220, "nai": 44661, "arte": 11026, "ĠÅŁur": 49420, "Ġpercentages": 42270, "ync": 34015, "Ġfertig": 31362, "Ġengineering": 7043, "Ġancora": 30656, "Ġê²ĮìŀĦ": 23927, "Ġgrues": 48238, "Ġplain": 11121, "è«": 11067, "ĠTampa": 40583, "Ġdischarged": 37081, "Ġfrente": 19873, "Ġê±°": 3675, "è¡Ĺ": 42529, "Ġpatch": 9972, "ĠÐ½Ð°ÑĪ": 8253, "Ġobligations": 26234, "Ġmyster": 11010, "Ġprep": 2666, "ĠØ¹ÙĦÙĬÙĩ": 47356, "ĠDent": 41622, "Ġdeixar": 19701, "Ġselecting": 18182, "ĠÃ§Ä±ktÄ±": 48378, "Ġhive": 42523, "ĠMolt": 39254, "ĠforÃ§a": 32878, "Ġmashed": 38964, "urities": 21973, "iell": 32562, "Ġletters": 7825, "Ġtanta": 40864, "Ð¾Ð·": 3434, "Ġfahren": 25593, "lardan": 41188, "ÑıÑĤÑĮ": 8773, "Ġgemeins": 22971, "ĠSteve": 7466, "Ġranked": 20197, "Ð¸Ð»Ñı": 50211, "ĠFleisch": 44911, "ãģĹãģı": 26568, "Par": 46087, "Ġcollective": 12590, "ĠÐ´Ð¾Ð±ÑĢ": 35620, "<|notimestamps|>": 50363, "Ġsauces": 41447, "999": 49017, "Ä±lar": 24121, "ĠÐ¾Ð´Ð¸Ð½": 13319, "Ġcorrect": 3006, "Ġenorme": 33648, "Ġblocking": 17776, "Ġabandoned": 13732, "Ġriches": 35777, "Ġdeven": 43115, "Ã¸": 6715, "ê³³": 39364, "Ġtick": 5204, "omer": 14301, "Ġsao": 33108, "Ġpigment": 31325, "Ġapprox": 28080, "ÎŃÏĤ": 24949, "ĠÑĩÐ¸Ñģ": 23201, "yscy": 38966, "<|ja|>": 50266, "Ġworlds": 13401, "Ġloc": 1628, "Ġbesar": 48327, "icios": 26817, "ÑıÐ½": 15737, "ĠrÃ¡p": 18213, "Ġenam": 44549, "Ġreligion": 7561, "Ġdigestive": 32696, "Ġsuicidal": 43243, "state": 15406, "ĠDublin": 42323, "Ġbroch": 48147, "ĠValve": 41369, "Ġrained": 47533, "Ġfactories": 24813, "ĠíĻľ": 42194, "Ġtemperatures": 12633, "Ġfunctionality": 14980, "ĠfÃŃs": 27538, "Ġfunz": 49345, "ĠÎĶ": 27556, "ì§Ħì§ľ": 47700, "á»Ŀi": 21024, "ĠDX": 48817, "Ġslipping": 36779, "ĠyaÅŁ": 16098, "Ġdisagre": 23926, "Ġbutterfly": 22140, "ĠRic": 21215, "à¯į,": 26368, "Ð°Ð´Ð½Ð¾": 27225, "ÙĬ": 1829, "rawdÄĻ": 20098, "Ġcass": 21943, "World": 37881, "susp": 31065, "Ġìĥģíĥľ": 34210, "when": 18822, "cert": 48999, "atal": 40478, "Ġdrift": 19699, "Ġdepicts": 48949, "ader": 8312, "ĠPret": 9739, "Ġirre": 16014, "ĠSustain": 34407, "KE": 8522, "Ġintervals": 26651, "Ġinterrupt": 12729, "Ġspacious": 36801, "Ġmonsieur": 36507, "Ġelimination": 29224, "ĠBroadway": 19414, "ĠtvÃ¥": 34600, "Ġhonoring": 38254, "åºĹ": 22469, "ĠSil": 6943, "Ġnou": 23641, "ìħĶìĦľ": 31832, "Ġutility": 14877, "Ġteammates": 20461, "Ġguides": 17007, "ĠChe": 3351, "Ġhobbies": 35750, "Ġfantastic": 5456, "riad": 45192, "ĠCommon": 18235, "ĠPlaza": 41890, "Ġhurricanes": 48026, "Ġconspiracy": 20439, "Ġtangled": 47192, "ĠMillion": 33959, "ĠKor": 21690, "Ġë³´ìĹ¬ëĵľë": 47414, "Ġweighs": 24911, "Ġqua": 24159, "Ġpoi": 19260, "Ġarcade": 25664, "Ġnach": 5168, "ĠTodd": 21488, "Ġgranting": 50204, "omiast": 25086, "ĠÎµÏĢ": 26752, "ile": 794, "<|18.86|>": 51307, "ëĲĺëĬĶ": 46713, "<|1.52|>": 50440, "Ġvisuals": 26035, "ĠGuy": 14690, "Ġtune": 10864, "Ġë§ŀìķĦ": 29417, "ëħĦ": 12092, "Ġodc": 36471, "Ġmotherf": 29537, "ĠRover": 43278, "Ġround": 3098, "Ġpolish": 20452, "Ġcalle": 45092, "Ġholders": 29274, "Ġlire": 43254, "Ġ:": 1982, "Ġobjects": 6565, "Ġtranscription": 35288, "Ġwhispering": 42445, "Ġaccomplish": 9021, "Ġrugged": 42662, "Ġhinge": 28822, "Ġseventy": 25662, "Ġmniej": 39513, "èģ²": 29454, "osten": 18946, "lerin": 22417, "bringing": 44992, "Ġdobre": 41959, "ĠOooh": 27413, "à¹Ħà¸Ķ": 25977, "Ġpam": 30738, "<|0.04|>": 50366, "Ġmunicipality": 44186, "Ġqualc": 32101, "Ġminimize": 17522, "ĠHip": 29596, "Ġmicrobes": 35996, "ĠHinter": 35006, "ĠëĳĲ": 11915, "ifs": 18290, "ĠØ³ÛĴ": 34190, "Ġque": 631, "ĠSugar": 24576, "vacc": 48976, "Ġoccasionally": 16895, "ĠRate": 49583, "Ġoccur": 5160, "Ġoptimizing": 40425, "Rob": 26332, "Ġsoft": 2787, "<|1.92|>": 50460, "dings": 29432, "soever": 16663, "Ġfacing": 7170, "iete": 40462, "Ġsque": 8447, "ĠëıĮìķĦ": 26761, "Ġveel": 16550, "ĠTrop": 43917, "Ġimaginar": 49048, "vl": 42977, "ytic": 43658, "Ġseminars": 43112, "iÃŁ": 6230, "Ð½Ñĭ": 1834, "jm": 35195, "ĥ": 225, "Ġpedestrians": 48339, "ĠØ¹": 6225, "Ġarticulated": 43322, "Ġtaste": 3939, "lying": 7310, "ìĹĶ": 29840, "Ġply": 35318, "Ġcontamination": 33012, "Ġgentleman": 15761, "ĠGoth": 27305, "ÑĢÐ°Ð²": 5608, "Ġkanske": 24487, "Ġalgumas": 23207, "Ġvac": 2842, "ãģ®ãģ¯": 35662, "ĠÏĢÏģÎ¿": 26017, "íĥķ": 47780, "Ġwore": 13857, "ĠFil": 7905, "Ġfim": 31603, "akin": 12709, "<|21.88|>": 51458, "Ġapplicant": 30915, "Ġrichness": 44506, "Ġcirculation": 23168, "<|20.86|>": 51407, "×ķ×Ł": 14838, "Ġfulfilled": 21380, "Ġretrouve": 30909, "Ġwrist": 15043, "Ġä¸įæĺ¯": 43906, "Ġorganizers": 35071, "ĠÐ»ÑİÐ´": 8836, "Ġrenewal": 35516, "ĠWell": 1042, "ĠFR": 15288, "Ġproteins": 15577, "lated": 38539, "æŃ»": 16989, "éħį": 38846, "Ġracial": 12131, "len": 6698, "ems": 9097, "ĠUma": 21939, "obyl": 49913, "Ġ14": 3499, "ĠBeweg": 46757, "<|29.32|>": 51830, "Ġroommate": 31692, "atever": 7969, "ĠArsen": 41218, "ĠHung": 15063, "Ð¸Ð»Ð°": 10578, "Ġì": 451, "ously": 5098, "Ġoutlets": 27416, "ŀĪëł¤": 50073, "ĠKontakt": 43396, "1": 16, "oice": 10849, "iggly": 46737, "ĠìŀĪìľ¼ë©´": 35783, "ĠSB": 26944, "Ġwanting": 7935, "ographic": 12295, "ĠgÃ¼Ã§": 48015, "Ġtutorials": 17616, "<|18.18|>": 51273, "Ġele": 1118, "Ġkost": 27183, "ĠProte": 43371, "ĠÐ¸Ð¼Ðµ": 19539, "Ġcobra": 48790, "Ġneeding": 18006, "ÑĮÑİ": 15616, "iba": 17036, "Ġsouha": 45214, "Ġê³ł": 9161, "<|25.74|>": 51651, "Ġdisplay": 4674, "ĠJustin": 11320, "Ġpassage": 11497, "sold": 45537, "ĠPict": 23899, "deal": 46394, "Ġlicensing": 29759, "adian": 42985, "ron": 2044, "Ġcryptocurrency": 28809, "Ġmeva": 40530, "Ġnope": 23444, "ouble": 33147, "Ġlengths": 26329, "Ġalcohol": 7658, "ĠÐ¾ÑģÐ½Ð¾Ð²": 19217, "åĺ¿": 42144, "Ġvalidity": 40943, "ĠOu": 11710, "Ġpenetrate": 36307, "ashion": 5894, "Ġfolks": 4024, "ĠOB": 35538, "Ġdolls": 29134, "Ġlandsca": 23865, "Ġmeditation": 12537, "Ġcertaines": 36993, "Ġ..": 4386, "ĠYani": 14262, "ĠÑıÐº": 14760, "Ġcompass": 10707, "ĠëĮĢ": 5971, "<|27.90|>": 51759, "<|2.06|>": 50467, "ĠmRNA": 50103, "Ġcurator": 38519, "Ġrefr": 13334, "road": 8417, "ĠÐºÑĢÐ°Ð¹": 39584, "Ġmonster": 10090, "<|26.28|>": 51678, "Ġtenir": 30593, "ÏģÎ¿Ïį": 43103, "ĠCohen": 32968, "Ġlequel": 39439, "Ġtoddler": 44348, "ĠÅ¼ad": 39628, "Ġalma": 32634, "Ġpassive": 14975, "Ġvillagers": 32080, "Ð¾Ð²Ð¾ÑĢ": 6362, "ĠÐ¿ÑĢÐ¾Ð¿": 23497, "Ġpreserve": 15665, "ĠHann": 33461, "Ġsweets": 28680, "ĠBlessed": 37501, "ĠEqu": 15624, "ĠMAC": 27716, "ĠFahr": 19843, "amel": 16103, "Ġwhose": 6104, "Ġbiscuits": 36301, "para": 48978, "Ġref": 1895, "Ġsupposedly": 20581, "Ġaka": 28042, "elas": 32098, "ĠìĻľë": 33750, "âĶ": 48337, "Ġownership": 15279, "ĠChung": 38314, "Ġfrontier": 35853, "Ġlover": 18009, "ĠÑģÐµÐ±Ñı": 15403, "iscilla": 49413, "gins": 23320, "iÃŁt": 11539, "ĠBet": 6279, "Ġisland": 6077, "Ġrequested": 16436, "ĠGE": 18003, "wick": 16038, "hÃµes": 31819, "ĠMal": 5746, "oring": 3662, "Ġprobably": 1391, "Ġtrou": 3455, "ĠÃ¤ndern": 47775, "Ġnumero": 46839, "ĠpassÃ©": 24093, "ĠPac": 10702, "<|28.58|>": 51793, "ifully": 15386, "ĠÐ¿ÑĢÐ°Ð²Ð´Ð°": 37136, "Ð¸ÑĪ": 9919, "ĠCame": 36042, "Ġcontrols": 9003, "Ġconvergence": 32181, "Ġenergetic": 24935, "Ġmais": 2420, "<|27.28|>": 51728, "Ã±a": 12150, "<|29.56|>": 51842, "adelphia": 20850, "ĠAuf": 9462, "tw": 20270, "Ġmel": 4795, "ĠWas": 3027, "Ġmis": 3346, "nier": 19165, "Ġcubic": 28733, "ikit": 48183, "ìľ¼ë©´ìĦľ": 47884, "ìłľ": 9767, "ì¶": 9597, "Ġrepairs": 28823, "Ġletzte": 35236, "ĠEine": 17664, "Ġshowc": 29794, "Ġìķ½": 11503, "Ġpalabra": 31702, "å¦¹": 37562, "2020": 23095, "ĠanvÃ¤nd": 41559, "íĺ": 5262, "Ġpurity": 34382, "urs": 2156, "Ġiv": 32412, "ĠcrÃ©d": 37368, "Ġthá»±c": 50183, "âĢ¦.": 14921, "Ġ))": 32302, "Ġdemon": 14283, "acÄĥ": 44929, "Ġcryst": 17035, "<|16.20|>": 51174, "ĠÑĢÐ°Ð²Ð½Ð¾": 27354, "Ġobed": 24330, "<|11.88|>": 50958, "plane": 36390, "Ġdove": 23287, "ĠhÃ¡": 16448, "Ġconcret": 39481, "ĠTao": 26580, "åİ": 5014, "ĠBrothers": 19886, "ens": 694, "<|18.00|>": 51264, "Ġobsol": 43053, "Ġtel": 15284, "ĠÐ¾Ð±ÑĭÑĩÐ½Ð¾": 41878, "<|8.30|>": 50779, "Ġbirl": 37476, "ĠRaspberry": 41154, "Ġonwards": 34230, "¦¼": 15773, "Ġcre": 1197, "Ġperforming": 10205, "resses": 40352, "Ġaime": 46527, "ĠÑģÐ»Ð¾Ð¶": 30858, "Ġlick": 30940, "olan": 23754, "Ġsiendo": 31423, "Ġcoefficients": 31994, "Ġincreased": 6505, "Ġnaw": 18969, "Ø¯ÙĬ": 16254, "xico": 24829, "vey": 5603, "ĠBree": 49188, "ĠAha": 27448, "Ġcringe": 47081, "'D": 41063, "Ġestavam": 43711, "Ġgutes": 45859, "ĠDone": 18658, "Ġfigura": 44691, "Ġwhichever": 24123, "ĠArduino": 39539, "ĠHop": 13438, "Ġmolds": 48257, "ĠWeil": 18665, "Ġtailored": 34858, "fern": 28958, "09": 13811, "ä¸Īå¤«": 39642, "ĠÑģÐ»": 4766, "Ġciert": 49252, "Ġvast": 8369, "wie": 8699, "Ã¢t": 29190, "ĠÐ·Ð°Ñĩ": 34004, "Ġscoot": 21375, "Sho": 39751, "Ġwritten": 3720, "Ġpouv": 29663, "version": 29153, "Ġobten": 28326, "Ġì¤Ħ": 15320, "æķĻ": 21936, "bres": 46823, "Ġpositives": 35127, "çģ«": 26171, "Ġprue": 32820, "kil": 33534, "<|1.98|>": 50463, "iver": 1837, "ĠproducciÃ³n": 48586, "Ġsog": 38440, "Inst": 28411, "Ġcrate": 42426, "ĠcomeÃ§ou": 37393, "Ġkto": 23780, "ãĥĥãĥĪ": 31978, "ĠChaos": 32644, "Ġnavigating": 32054, "Ġconversations": 7315, "iology": 46457, "ĠXue": 43999, "ĠÑĦÐ¾ÑĤÐ¾Ð³ÑĢÐ°ÑĦ": 40855, "ĠmontÃ³n": 45259, "à¹Ģà¸": 5914, "antic": 7128, "<|25.66|>": 51647, "Ġneurons": 22027, "åĥ¹": 45441, "Ġmeus": 28033, "Ġdevelops": 25453, "Ġporque": 4021, "Ġpartial": 14641, "yt": 4328, "ĠWH": 8183, "irts": 9899, "ĠÃ§alÄ±ÅŁ": 18107, "ĠEasy": 16002, "Ġrails": 27649, "Ġtaper": 36277, "ĠHail": 32495, "Ġrecipe": 6782, "odu": 34873, "å£ĵ": 45964, "Ġverf": 40660, "ĠSubs": 37471, "eps": 10653, "ĠGTA": 35575, "ennis": 11307, "Ġamongst": 12918, "Ø§Øª": 9307, "Ġcoun": 3465, "ove": 1682, "Ġarguably": 26771, "<|20.12|>": 51370, "ĠNered": 46352, "ĠDragon": 11517, "ĠAbd": 27548, "Ġavait": 11853, "ĠìŀĪëĬĶ": 7153, "Ġrail": 8765, "does": 48409, "Ð¸ÑĤÑģÑı": 8254, "owaÄĩ": 11445, "Ġunfolding": 44586, "enzie": 32203, "ĠEgypt": 9582, "Ġdra": 1617, "Ġtab": 4421, "ĠWed": 9589, "Ġsono": 9259, "Miss": 47205, "Ġadmiration": 44597, "Ġbuffet": 42904, "Ġvicious": 30093, "all": 336, "ĠApollo": 25187, "Ġlawmakers": 40988, "Ġpurchase": 8110, "Ġeconomical": 42473, "nek": 23255, "ĠMens": 7364, "ìĭ¸": 48362, "Pat": 29331, "Ġdemasi": 35259, "ĠIDE": 40930, "Ġstimul": 14572, "ĠEach": 6947, "ĠLehr": 29943, "Ġcloves": 39139, "ĠRX": 46197, "ĠCCP": 27876, "Ġdeutsche": 47502, "ĠDziÄĻkujÄĻ": 43721, "Ġmainten": 7780, "Ġhoped": 19737, "Ġese": 10167, "Ġcritically": 22797, "ark": 809, "pts": 39280, "Ġbegan": 4283, "Ġlou": 15185, "ĠÃ¶ÄŁren": 40283, "cat": 18035, "Ġìŀĳ": 14585, "Ġeigene": 38549, "Ġfreak": 21853, "inski": 38984, "Ġdil": 11504, "ĠGuru": 22389, "Ġbrilliant": 10248, "Ġpositive": 3353, "Ġstatut": 35907, "writer": 23681, "ĠÐ¾Ð¿ÑıÑĤÑĮ": 31545, "ĠJust": 1449, "ĠReport": 16057, "OOD": 20969, "Ġsun": 3295, "ĠTurkish": 18565, "Ġfart": 24575, "chutz": 34816, "ĠëĲĲ": 16718, "Ġdiff": 7593, "ĠBi": 13007, "ĠInsurance": 39971, "chuckling": 32312, "åĵĩ": 19471, "ĠgÃ¼zel": 14746, "æĦŁ": 9709, "Ġsugar": 5076, "Ġbase": 3096, "ĠNatÃ¼rlich": 33172, "ÑģÑĤÐ²ÐµÐ½Ð½ÑĭÐ¹": 39343, "~)": 25010, "Ġlacked": 41481, "Ġyani": 11654, "place": 6742, "Ð½Ð¸Ð·": 29951, "ĠNatalie": 29574, "ĠMarilyn": 48340, "oline": 18773, "ÑĢÑĥÐ´": 20736, "open": 15752, "Ġlately": 12881, "ì´Ī": 27005, "Ð³Ñĥ": 28264, "ĠOprah": 43804, "ìĿ´ëĬĶ": 20813, "Ġorganizational": 24730, "ĠbyÄĩ": 15069, "Ġearnings": 20548, "Ġdrought": 22900, "ĠíĮĲ": 35008, "ĠNorwegian": 34875, "Ġavant": 13439, "Ġscreening": 17732, "Ġdioxide": 19590, "ĠBigQuery": 43422, "ìĹĨ": 29282, "Ġparrot": 42462, "Adam": 32937, "×ł×Ķ": 34849, "parents": 19901, "Ġ1984": 27127, "<|25.14|>": 51621, "attack": 44514, "WW": 44048, "ĠRegina": 48407, "ä»Ĭ": 6480, "iÃ¨me": 24541, "Ġsophomore": 35798, "Ġ)))": 26435, "ESCO": 47024, "Ġmagnet": 15211, "Ġtrails": 23024, "<|25.20|>": 51624, "ĠJesse": 21895, "Ġrecursos": 30409, "Ġillust": 8490, "äºĽ": 13824, "Ġfavour": 8182, "antage": 4370, "Ġreco": 7759, "ìĥĪ": 28319, "<|28.82|>": 51805, "Ġresidential": 17389, "ĠMade": 18330, "Ġpeaks": 26897, "Ġcheck": 1520, "Ġtots": 31661, "ĠSenior": 18370, "ĠOfficer": 15434, "áº¿u": 30568, "cely": 42879, "Ġsuffered": 12770, "ĠOriginally": 28696, "Î¯Î±ÏĤ": 45281, "Ġdomin": 8859, "ĠÐ´ÑĢÑĥÐ³Ð¸Ðµ": 32108, "Ġclinics": 27252, "Ġë°¤": 38093, "ĠPred": 32969, "Ġmandates": 48662, "Ġlisted": 10052, "ĠEth": 10540, "Ġglued": 28008, "Via": 46477, "Ġ×©×Ĳ×": 39360, "Ð°Ñİ": 3776, "ä»Ģä¹Ī": 10440, "Ġnaszym": 48094, "ĠAround": 17633, "Ġest": 871, "Ė": 210, "Ġzd": 16221, "<|5.46|>": 50637, "Ġhighways": 43747, "Ġsleeping": 8296, "Ġ×ŀ": 9148, "Ġmerciful": 48756, "à¹ī": 4750, "ront": 10001, "Ġjer": 20160, "ĠZak": 46546, "view": 1759, "Ġthrew": 11918, "nor": 19048, "ĠTIM": 20187, "Ġtul": 30210, "Ġsweep": 22169, "Ġconfirm": 9064, "<|25.28|>": 51628, "ĠfÃ¸": 50177, "roy": 4460, "ĠcosÃ¬": 23278, "ĠÐ¾Ð½Ð°": 8826, "ÑĢÐ°ÑĪ": 21635, "Ġadher": 30106, "Ġdeity": 37939, "Ġsupport": 1406, "Ġnails": 15394, "Ã¨ne": 18832, "Ġ1971": 34578, "End": 36952, "ĠÑĢÐ¾Ð´": 17925, "ĠAhora": 18840, "ĠìŀĳìĹħ": 40316, "ĠãĤĦ": 43938, "Ġongoing": 10452, "Ġencry": 17972, "kk": 12809, "Ġassisted": 30291, "Ġarriver": 34142, "Ġcoup": 8682, "ĠCarm": 44530, "ĠUsually": 11419, "ĠÐ¿Ð°Ð´": 44149, "ĠArmenian": 41581, "Ġchez": 17855, "ê³µ": 14913, "amba": 23337, "ãĥ¢": 29183, "unft": 19333, "<|21.86|>": 51457, "Ġpointers": 44548, "ude": 2303, "ielen": 12844, "Ġsavvy": 47506, "ĠÑīÐ¾": 14309, "Ġvaig": 26571, "alone": 24806, "Ġfica": 16868, "ĠDarrin": 47368, "Ġsymptom": 29370, "Īë¬´ë": 27532, "ĠMatthew": 12434, "ä¸ī": 10960, "ĠlÃŃ": 16118, "Ġheartbeat": 34851, "only": 25202, "Ġautonomy": 27278, "Ġcall": 818, "ÐµÐ»Ð¾Ð²": 9294, "Ġmove": 1286, "åħ¶å®ŀ": 41646, "Ġmouth": 4525, "ĠDisc": 19839, "uell": 13789, "ictional": 23611, "ë²": 15810, "Ġits": 1080, "Ġmotto": 32680, "lords": 37370, "Ġaudience": 4034, "ĠDrive": 15622, "ĠOp": 12011, "ĠWahl": 27437, "Ġniye": 30493, "esting": 8714, "ĠØ¢": 19753, "rh": 48759, "Ġvirgin": 26404, "ç¤º": 25696, "illon": 30961, "appa": 25637, "Ġjustice": 6118, "ĠbehÃ¶ver": 32138, "Ġquoting": 41552, "Ġtags": 18632, "ĠWin": 10427, "Ġtapping": 21444, "ĠParam": 34882, "Ġpans": 32905, "<|0.54|>": 50391, "Ġhearings": 34052, "Ġrejecting": 45401, "ÃľNDNIS": 23222, "Ġvar": 1374, "ĠÐ´Ð²ÑĥÑħ": 32360, "Ġwebsites": 12891, "Ãºn": 9453, "rome": 11505, "ĠBullet": 44975, "Ġrehearsal": 24884, "Ġrepl": 3248, "Ġbypass": 24996, "Ġcommittees": 25998, "Ġspinning": 15640, "ĠKA": 31233, "ÏĦÎ¬": 19389, "igue": 16831, "Ã§Ãµes": 8001, "Assistant": 27763, "Ġeducational": 10189, "Ġprediction": 17630, "Ġstatus": 6558, "ó": 175, "ĠRent": 42743, "SS": 21929, "ĠlumiÃ¨re": 43193, "ĠHY": 34189, "Ġruined": 17013, "ĠDrum": 40320, "ĠKang": 20360, "Ġflexible": 11358, "Ġoverwhelmed": 19042, "Ġfille": 39216, "Ġchamp": 5921, "èħ": 21184, "à¯Ī.": 48993, "aints": 19594, "Ġguilt": 20421, "Ġrebirth": 49445, "ĠPlan": 8112, "ĠíĻ": 5930, "utches": 49307, "<|3.28|>": 50528, "Ġgegangen": 44415, "Ġdetention": 31291, "Ġinfectious": 26780, "¨¸ëĭĪ": 46355, "ĠAnim": 21691, "Ġcredentials": 27404, "ĠSweden": 17727, "<|3.56|>": 50542, "ĠPhilippines": 20153, "<|25.08|>": 51618, "ious": 851, "<|13.56|>": 51042, "ĠØº": 32771, "onte": 10219, "è¶³": 37236, "Ġhatred": 21890, "rice": 21299, "ĠPronunciation": 45496, "ÑĢÐ¾Ð²": 6680, "åīĽåīĽ": 32795, "ĠSecretary": 9126, "Ġgasps": 43035, "Ø³Øª": 14851, "Ġremedies": 47133, "ĠmogÄĻ": 41737, "ĠBaron": 30978, "Ġimmigration": 13554, "ĠKann": 29074, "icking": 10401, "AME": 31296, "ĠBMW": 21355, "ç¿": 18573, "ĠwÃ¤ren": 43933, "Ġhoof": 44974, "KapÄ±": 37520, "Ġê½ĥ": 45703, "Ġbecoming": 5617, "Ġperto": 42855, "Ġcomunque": 45736, "Ġstamping": 41792, "<|9.74|>": 50851, "BB": 30366, "ĠGesetzent": 37792, "Ġskating": 29103, "ession": 4311, "Ġtwist": 8203, "Ġcaused": 7008, "ĠÎ¾": 33179, "epherd": 26449, "Ġscaling": 21589, "à¸«": 10982, "Ġdedication": 21813, "ĠResearch": 10303, "Ġgonna": 799, "Ġ[âĻª": 44529, "alia": 15579, "Ġhavia": 28855, "Ġshelters": 36643, "³´": 7062, "Ġlacks": 31132, "ĠEntertain": 24684, "arah": 34420, "itionally": 15899, "Ġë¶Ģíĥģ": 37056, "LS": 19198, "Ġning": 17210, "Ġestaba": 17544, "Ġshells": 22523, "Ġcrimin": 19044, "ĠYours": 37922, "ĠIb": 40790, "ceans": 22928, "Ġstressful": 19108, "ĠPrincipal": 38575, "raum": 31502, "Ġshrim": 13958, "Ġcomments": 3053, "Ġcherry": 20164, "Ġdelegation": 36602, "Ġadministr": 9737, "ocal": 36483, "ĠAmber": 29407, "ĠÙĪØ¬": 49610, "Ġmetabol": 19110, "ÑĢÐµÐ²": 25510, "Ġ×ľ×Ļ": 29948, "Ġë¹¼": 38112, "ĠNebraska": 27171, "ìĹĪ": 5642, "Ġwollte": 24509, "Ð°Ð½Ð°": 15253, "ĠëķĮë¬¸": 11406, "Ġenergy": 2281, "Ð¸Ð¼Ð¸": 11426, "Ġdikk": 48926, "ĠÐ½Ð°ÑģÑĤÐ¾Ð»ÑĮÐºÐ¾": 47779, "æģŃ": 38954, "ĠmÃ³w": 13489, "Ġpension": 21927, "Ġsovereign": 28756, "ĠLandesregierung": 37695, "ĠUI": 15682, "ppt": 42562, "Ġsigns": 7880, "ì²ĺëŁ¼": 19881, "Ġï¿½": 16867, "ĠMarsh": 14443, "Ġmat": 3803, "doo": 48302, "Ġcans": 21835, "ĠLG": 25449, "åª": 44332, "ĠDAC": 39038, "Ġmagically": 39763, "ĠOut": 5925, "ĠWheels": 49372, "Ġcounseling": 23889, "Ġregain": 35336, "Ġbusinesses": 6011, "Ġcourage": 9892, "Ġblogs": 31038, "Ġfractions": 36058, "club": 40607, "Ġchauff": 49211, "ĺëıĦ": 8226, "ĠsÄĥ": 15446, "ĠNatural": 20137, "Ġcause": 3082, "Ġsext": 42826, "Ġfreshly": 34412, "ĠÑįÐ»ÐµÐ¼": 44509, "ettu": 42747, "Ġtilted": 43229, "Ġziem": 25986, "Ġdrones": 23823, "icon": 11911, "Ġwatching": 1976, "ĠCraft": 29991, "While": 46075, "Ġspiders": 32171, "ĠMissouri": 21334, "Ġcloset": 16669, "flan": 39037, "éł»éģĵ": 37569, "Ġlux": 11363, "Ġìĭľì²Ń": 41123, "Ġnuanced": 45115, "SAY": 40853, "ardon": 14848, "ĠSlim": 47428, "zne": 43077, "Det": 41444, "Ġripe": 31421, "ĠVoc": 8993, "Ġrecord": 2136, "ĠcioÃ¨": 41827, "Ġsnakes": 21817, "Ġlikelihood": 22119, "ĠKnowledge": 32906, "Ġcafes": 48851, "Ġpoorer": 49740, "Ġstrategically": 38061, "ĠPhot": 13919, "Ġscans": 35116, "Ġgam": 8019, "Ġkommun": 26275, "angi": 43481, "ĠÐķ": 6538, "Ġpior": 45974, "LE": 2634, "Ġcontact": 3385, "Ð±Ñĭ": 25477, "è±": 19517, "<|6.12|>": 50670, "ĠNY": 26032, "<|20.70|>": 51399, "ĠÐ´ÐµÑĤÐ¸": 48941, "clear": 43679, "Ġswallowed": 41769, "Ġparse": 48377, "Ġwidow": 37207, "Ġappearances": 29174, "Ġcreating": 4084, "Ġapprove": 18827, "six": 35066, "ìĻ¸": 46994, "ĠMoo": 43224, "ĠAllan": 45902, "ĠBÃ¼rger": 28514, "ĠÑģÐ¾Ð³": 33255, "AND": 8070, "ĠSac": 19356, "Ã§o": 8560, "ĠGuitar": 48758, "Ã¡ch": 39569, "ĠSilent": 40862, "ĠBook": 9476, "ĠUh": 4019, "<|3.32|>": 50530, "Ġvibes": 27636, "rats": 25869, "Ùĳ": 11703, "develop": 35464, "ĠPeters": 26028, "Ġpne": 26710, "ĠPBS": 33517, "ĠEi": 29786, "Ġlaufen": 41647, "Ġznaj": 27318, "è®ļ": 46274, "ĠHandy": 47006, "Ġ×ľ×ł×ķ": 44946, "ĠBrooklyn": 21872, "à®ļ": 16793, "olve": 37361, "Ġtolerance": 23368, "ĠManchester": 27180, "Ġautom": 3553, "ĠVI": 27619, "Ġkinderg": 24514, "ria": 4668, "Ġninete": 26286, "ĠÐĿÐµ": 11512, "ĠAt": 1711, "ĠÐ½Ð°Ð¿ÑĢ": 18296, "cro": 23401, "ĠSchuld": 50153, "ĠsÃ©rie": 18416, "ĠPiece": 42868, "Ġlisting": 22161, "ĠWhereas": 13813, "Ġserum": 32755, "ĠStone": 15012, "Ġcuz": 11910, "Ġlip": 8280, "<|28.32|>": 51780, "ĠZahl": 42592, "Ġchats": 38057, "Ġsegue": 33850, "ĠÑģÑĤÐ¾Ð»": 24053, "ĠUgh": 16506, "Ġcuidado": 31891, "Ģë¡ľ": 36680, "Ġfals": 16720, "ĠSOL": 36011, "ĠPunkte": 47352, "ĠNavy": 15659, "ĠÎĪ": 38161, "Ġwanted": 1415, "ĠÐ²ÐµÐ´ÑĮ": 28026, "Ġlira": 47723, "ĠVere": 33110, "Ġpassa": 23880, "Ġaccessed": 34211, "ĠÐºÐ¾ÑĤ": 39535, "heads": 29481, "ĠCinc": 44142, "ãģŁ": 3368, "Ġprovincial": 33293, "uste": 41389, "×ĳ": 5838, "committee": 47235, "ãģĿ": 5040, "Ġindication": 18877, "Ġresponse": 4134, "ĠKirsty": 31166, "ilated": 45678, "ĠPeanut": 48069, "ëĺ": 48964, "plex": 18945, "mesan": 43826, "Ġbeating": 13497, "Ġjeste": 25255, "ÐµÐºÑģ": 38269, "ĠAnyways": 15585, "lan": 8658, "Ġuntuk": 12711, "ĠRV": 28314, "Ġengaging": 11268, "ĠPut": 4935, "iliz": 47043, "Ġgeschafft": 45215, "fur": 48057, "Ġacted": 20359, "iatric": 17252, "Ġadvantage": 5002, "ĠpaÅĦstwo": 42233, "Ġnorthwest": 36930, "Ġcrease": 30098, "Ġalgun": 9813, "éļ": 10673, "Ġhardware": 8837, "male": 45760, "ĠForgive": 34060, "UU": 23687, "ĠProbleme": 32891, "Ġreverb": 41829, "¦´": 15389, "ď": 203, "iennent": 28977, "iances": 21518, "ĠOk": 3477, "Ġ51": 18485, "Ġinterpret": 7302, "^": 61, "Ġbeaten": 17909, "Ġbio": 12198, "ĠÐ¿Ð¾Ð¼Ð¾Ñī": 22301, "Ġrights": 4601, "ĠProtection": 25981, "Ġrevenir": 44899, "Ġscraps": 45204, "ĠLiqu": 32331, "ĠF": 479, "ĠÐ¿ÑĢ": 1285, "ĠFau": 48820, "Ġpacks": 19403, "ĠÐŃÑĤÐ¾ÑĤ": 42054, "andi": 49460, "Ġpequ": 26758, "ĠTrying": 20180, "Ġbee": 17479, "ĠÐ¿ÑĢÐ¸Ð½ÑĨÐ¸Ð¿Ðµ": 39086, "Ġmodules": 16679, "Ġdash": 8240, "hadow": 31933, "ĠÐ±Ð»Ð¸": 21747, "VES": 46467, "ktÃ³": 43073, "Ġadvisors": 29136, "ĠÏĦÎ¿Ïħ": 13380, "ussia": 39942, "ÅĨ": 43657, "Ġinformed": 11740, "ĠÐµÐ³Ð¾": 6448, "Ġacross": 2108, "Ġconcern": 3136, "ĠBeau": 43702, "Ġ×Ĳ×ķ×ª": 23601, "Ġnuc": 6304, "ĠDil": 36475, "Ġnimmt": 38891, "Ġhypocr": 39419, "Ġesemp": 32340, "Ġclusters": 23313, "ĠPAUL": 26379, "ldigt": 19341, "ixÃŃ": 33226, "pent": 22786, "åĮ": 9937, "Ġassociations": 26597, "Ġpermanent": 10996, "Ġgadgets": 37635, "ĠÑĤÐ¾Ð»": 36038, "Ġìĺ¤ëĬ": 36791, "ĠÐ¿Ð¾ÑģÑĤ": 27877, "ĠBaz": 42220, "weight": 12329, "Ġgeri": 41018, "Ã¼h": 7254, "Ġsotto": 43754, "ð": 172, "Ġrecruit": 15119, "Ġrefine": 33906, "Ġconjun": 18244, "ĠÐĽ": 7853, "dr": 16753, "æ¹": 33744, "Ġprobiot": 45710, "<|nn|>": 50342, "<|9.60|>": 50844, "çŁ¥": 6498, "Ð´": 856, "ãģ§": 2474, "ĠVon": 20700, "æģĲ": 47848, "ĠPETER": 36040, "adic": 43341, "ĠDes": 3885, "Ġusername": 30351, "Ġubiqu": 43868, "ĠÐ»Ð¾Ð¶": 48048, "ĠGoo": 47609, "Ä±nda": 8431, "åĵ¥": 14078, "ĠDisability": 47636, "ĠÐĴÑģÐµÐ¼": 37367, "Ġê´Ģ": 21061, "ĠÑĤÐ°ÐºÐ¸Ð¼": 31584, "Ġë³´ìĭľ": 44771, "Ġatom": 12018, "ĠÐ±ÑĥÐ´ÐµÑĤÐµ": 46872, "éĸĭ": 8949, "Ġpend": 12179, "ĠAcad": 9740, "ĠÐ¼Ð½Ð¾Ð³Ð¸Ðµ": 37343, "Ġunderlying": 14217, "ĠAls": 12948, "ãģ¡ãģ¯": 30492, "Ġsympathetic": 36032, "ŀ×": 3376, "Ġunreasonable": 41730, "åĺĽ": 20722, "Ġleggings": 42733, "ĠNexus": 46559, "ĠStarting": 16217, "ĠÐŀÐ¹": 42724, "Ġinternet": 4705, "SD": 23969, "umbing": 34236, "Ġless": 1570, "ìĿ¸ìĿĦ": 42199, "ä»İ": 35630, "ĠFavorite": 43697, "ĠWhen": 1133, "HS": 12527, "ĠÑĦÐ°Ðº": 31953, "Ġcorrecting": 47032, "Ġnatur": 26389, "ĠìĿ´ìķ¼ê¸°ë¥¼": 48974, "mom": 42544, "ĠÃ§Ä±kar": 41097, "<|24.78|>": 51603, "Ġphilosophers": 36839, "icans": 34332, "ÑĥÑģÑĤÐ¸ÑĤÑĮ": 46937, "ĠWill": 3099, "ĠMission": 20170, "CK": 9419, "Ġduo": 28127, "ĠChristian": 5778, "<|4.28|>": 50578, "Ġwillkommen": 46439, "ĠRou": 28392, "æĻ®": 29993, "ĠAo": 35208, "à¹Ģà¸ŀ": 50189, "Ġupgrades": 24868, "ĠÐ²ÑĭÐ¿": 21188, "íĬ¸": 8857, "Ġhopping": 47199, "æĪĳè§īå¾Ĺ": 45681, "Ġih": 5096, "ĠQuite": 20464, "Ġnarc": 21328, "ĠSite": 34027, "Ġsemaines": 40715, "Î¼Î·": 48775, "Ġmustn": 42818, "acyj": 31285, "iÅĤ": 40622, "ladÄ±m": 37282, "Ġunited": 18883, "ìĹĲëıĦ": 21016, "Hz": 21409, "Ġmorgen": 36593, "ĠÐ½Ð¾Ñĩ": 38237, "'": 6, "Ġpressed": 17355, "Ġefect": 22565, "Ġrefusal": 48948, "roid": 6490, "rut": 24316, "è¦ĸ": 27333, "ĠÐ¿Ð»Ð°ÑĤ": 34160, "Ġspeak": 1710, "ĠÅŀu": 33583, "ĠKara": 34838, "ĠGolden": 13410, "ìĬµëĭĪê¹Į": 32443, "ensa": 23364, "formation": 8663, "æħĭ": 45248, "Ġguarded": 44157, "Ġcope": 22598, "ãĤº": 29061, "<|11.44|>": 50936, "Ġsuo": 34197, "Ġscra": 13943, "ĠRandom": 37603, "Ġbusca": 37492, "ĠINF": 35971, "è§Ģçľ¾": 39368, "Ġsnapped": 41396, "ĠGlas": 29078, "Ġë¶Ī": 16285, "Es": 20442, "ĠMidwest": 33483, "Ġvors": 48432, "avil": 22891, "buz": 21941, "ĠÐ¿ÑĢÐ¸Ð·": 26724, "Ġmadre": 32966, "Ġweit": 15306, "Ġdiapers": 48496, "Ġneat": 10654, "Ġflavor": 6813, "ĠRavi": 44486, "Ġtama": 45342, "ÑıÐ²": 12998, "ĠFord": 11961, "Ġmano": 18384, "aat": 40841, "ĠGordon": 19369, "ëĲľ": 27930, "ĠCultural": 31450, "machine": 46061, "chest": 11762, "Ġelectromagn": 27528, "ĠhÃ©": 32537, "åŀĭ": 39823, "Ġkids": 2301, "Ġshopping": 8688, "yani": 49812, "the": 3322, "ĠÐ²Ð·": 11892, "<|16.74|>": 51201, "Ġdaunting": 37657, "åŀ": 33701, "ĠTanner": 47253, "Ġmatches": 10676, "Ġinfect": 5888, "ĠMonster": 21059, "Ġdares": 50213, "<|11.26|>": 50927, "Pl": 33710, "Ġintelligence": 7599, "Ġacron": 31713, "Ġonze": 29460, "ĠOUT": 22451, "ocalypse": 30183, "Ġwipe": 14082, "ĠTumb": 50088, "ĠÐĲÐ²": 50175, "Ġw": 261, "å·´": 38325, "<|sw|>": 50318, "Ġteilweise": 46748, "ĠÑĢÐµÐ¶Ð¸Ð¼": 37710, "Ġwszystk": 14615, "Ġfell": 5696, "Ġlogged": 27231, "Ġì¢ĭìķĦíķĺ": 40344, "un": 409, "<|18.10|>": 51269, "å®Ī": 48480, "Ġï": 25072, "Ã¿": 18798, "<|2.28|>": 50478, "ãģĳãĤĮ": 39256, "Ġspends": 25620, "Ġstoring": 26085, "ĠFleet": 47821, "Ġmontre": 44132, "Ġtroubling": 38080, "Ġcopying": 27976, "anki": 27203, "Ġhips": 15233, "Ġbuses": 20519, "Ġzab": 24838, "ĠPeople": 3432, "´ìĹĲ": 19086, "Ġsprint": 25075, "iÄŁ": 24392, "Ġlegends": 27695, "ĠTucson": 47417, "Ġswimming": 11989, "Ġeighteen": 31755, "jenigen": 48176, "ĠgÃ©n": 14575, "ancy": 6717, "Ġfrequencies": 20250, "orters": 12168, "Ġteach": 2924, "Ġpush": 2944, "Ġcrises": 31403, "Ħ±": 42235, "yard": 13862, "Since": 44294, "ĠSubscribe": 10611, "ĠìĹ´ìĭ¬íŀĪ": 31939, "ennes": 42886, "ìķ½": 19970, "<|17.28|>": 51228, "ĠPrivate": 30386, "Ġinjustice": 24750, "lectric": 38421, "arÄ±": 18318, "TAKE": 45304, "Ġnhiá»ģu": 28272, "Ġexhibited": 49446, "Ġ1969": 32090, "Ġcopy": 5055, "ĠEvolution": 40800, "ĠChoice": 37080, "ĠFinland": 24869, "çĹ": 15553, "ĠCott": 35485, "Ġboundary": 12866, "ĠKeys": 43733, "Ä±sÄ±": 28495, "ĠìĦ±ê³µ": 38403, "ull": 858, "ëĮĢ": 14173, "Ġspind": 44169, "Ġenrolled": 25896, "<|26.62|>": 51695, "Ġlocal": 2654, "Part": 37012, "ĠND": 40709, "ĠChamp": 9863, "ĠÐ´ÑĢÑĥÐ³": 8435, "Ġsaid": 848, "Ã§a": 5297, "...]": 13161, "RY": 16359, "Ġsuperfic": 23881, "Ġaggressive": 10762, "ĠíĪ¬": 27256, "Ġdeport": 33485, "ĠØ·": 23032, "Ġshelter": 13341, "atto": 37491, "Ġlatter": 18481, "Ð¾Ð¶Ð´": 20037, "ãĢĬ": 9806, "Ġhacks": 33617, "Ġresident": 10832, "Ġeng": 1741, "Ġmagnesium": 32950, "arettes": 26282, "unte": 7070, "ĠJi": 9702, "Ġsuitcase": 34545, "ĠMary": 6059, "Ġghetto": 47371, "ograph": 3108, "ĠRein": 42116, "Ġargent": 33977, "Ġtaxes": 10041, "©Ķë": 29698, "ĠcommencÃ©": 37561, "ĠìĺĪë": 22551, "moon": 33895, "ĠSilver": 15861, "Ġmach": 2246, "Ġpuppies": 33734, "ĠìķĬê³ł": 31157, "Ġvezes": 12925, "Ġestimates": 20561, "iph": 24595, "ìĨ": 5148, "ê¸´": 17381, "Ġequitable": 33730, "Ġê²ģëĭĪëĭ¤": 27146, "ĠÐ²ÑĢ": 35705, "Ġletting": 8295, "fahren": 34394, "uties": 17899, "Ġadditive": 45558, "ĠìłĢíĿ¬ê°Ģ": 27463, "Ġqueremos": 26813, "ĠAE": 32207, "ĠÑĤÐ°ÐºÐ¶Ðµ": 16584, "ĠIsraelis": 45086, "ĠvidÃ©": 9543, "ayo": 48947, "łĩ": 3921, "ĠtodavÃŃa": 28388, "epher": 21676, "Ġcounters": 39338, "Ġdose": 14041, "Ġdisappe": 6657, "ĠHorse": 33208, "ummy": 8620, "Ġconsequently": 47259, "<|18.64|>": 51296, "Ġsubstances": 25455, "ãĥİ": 34501, "ĠMÃ©": 23580, "ÑĢÐ¸ÑģÑĤ": 39085, "ak": 514, "µì»¤": 19728, "Ġyah": 38642, "Ġdiscovery": 12114, "Ġderecho": 39055, "ĠÐļÑģÑĤÐ°ÑĤÐ¸": 39883, "ãĥľ": 37626, "rial": 7111, "Ġpress": 1886, "Ġready": 1919, "<|7.08|>": 50718, "Sir": 43318, "ÑĥÐµÐ¼": 33096, "ierra": 17452, "Ġì¤Ģë¹Ħ": 21911, "oy": 939, "ĠWerk": 42911, "ĠÐĺÐ·": 24588, "ĠìĨį": 18663, "Ġeastern": 19346, "è¥": 15663, "auen": 11715, "ĠmÃ¡quina": 49360, "netes": 22334, "utter": 9947, "Ġbuilds": 15182, "Ġgranny": 44797, "cal": 9895, "Ġcounties": 20583, "ĠSew": 42697, "ĠÑĤÐ°Ð¼": 8223, "emitism": 49208, "Ġgarant": 22251, "Ġspeculative": 49415, "Ġhills": 21379, "Ġgenre": 11022, "ĠsaÄŁ": 30318, "ĠSuzuki": 49457, "ĠAwesome": 10391, "Ġcual": 10911, "hu": 12086, "Ġstink": 35843, "Ġtraumatic": 26456, "esi": 21181, "Ġgrounding": 46727, "ksi": 20697, "ÙĥÙĨ": 19452, "ĠëĨĢë": 29873, "Ġverl": 19441, "ĠÃ©t": 4823, "press": 11637, "ì¢ħ": 17273, "Which": 33785, "blind": 47494, "ĠUltimate": 26570, "dro": 45869, "<|14.26|>": 51077, "ĠAIDS": 27929, "ĠE": 462, "ĠEven": 2754, "Ð»": 693, "<|22.88|>": 51508, "uto": 8262, "ĠEvan": 22613, "original": 29042, "ÐµÐ³": 4953, "ĠHudson": 32959, "writing": 19868, "ÅĽÄĩ": 7753, "Ġelekt": 26991, "åĹİ": 7434, "Ġbelli": 48006, "Ġdescobrir": 45900, "eger": 30744, "ĠHub": 18986, "ĠHÃ¤r": 35539, "Ġburned": 13490, "Ġsubur": 23519, "US": 3447, "pret": 6629, "ĠRiley": 31373, "olor": 36182, "Ġhover": 20076, "Ġexact": 1900, "Ġsupernatural": 25678, "pop": 13872, "ĠÐ²ÑģÐµÐ¹": 43419, "ĠPhi": 41435, "Ġboun": 15521, "Ġsembla": 49277, "Ġpaths": 14518, "adora": 23020, "ëĤ": 8580, "Ġprivate": 4551, "Ġleider": 29115, "Ġrecipients": 32440, "Ġrealiz": 22828, "ëĬ": 1052, "Ġchess": 24122, "ĠSeveral": 22246, "ĠDarling": 38697, "Ġwn": 45368, "ĠBuild": 11875, "ãģ¡ãĤĩãģ£ãģ¨": 21888, "Ġvegg": 22644, "ĠRome": 12043, "Ġaccommodation": 27363, "Ġkidnapping": 47868, "ĠAsian": 10645, "ember": 1304, "Ġfera": 50169, "Ã¤ren": 21465, "assen": 8356, "°ķ": 21697, "Ġrere": 46453, "ÑĸÑĤÑĮ": 49852, "Ġconfirming": 42861, "Ġcoward": 30776, "Ġheads": 8050, "Ġpregunta": 24252, "Ð¨ÐĲ": 34943, "Ġbiography": 37062, "Ġbarbar": 35822, "Ġplanet": 5054, "<|17.02|>": 51215, "<|29.04|>": 51816, "ĠÐ¿ÑĢÐ¾ÑĨ": 20640, "Ġstunned": 35394, "Ġmanaged": 6453, "Ġambassador": 25445, "ĠâĻ¬": 22520, "Ġsouvent": 20847, "£": 96, "Ġstruct": 6594, "Ã±ana": 31823, "ĠAnyone": 14643, "OY": 16973, "ĠÑĢÐ°Ñģ": 7459, "ĠÑģÐ½": 42864, "ãģıãģłãģķãģĦ": 25079, "Ġencontrar": 17525, "iles": 4680, "<|10.14|>": 50871, "Ġcampa": 37597, "Ġìĸĺ": 11098, "eniz": 40372, "enf": 26939, "Ġsurely": 11468, "Ġ((": 15265, "á»ĵng": 35070, "ĠMass": 10482, "<|25.32|>": 51630, "Ġanimate": 36439, "<|29.94|>": 51861, "reon": 12751, "Ġfazem": 41748, "ynn": 48959, "ĠKAR": 42976, "Ġslap": 21075, "Ġcatches": 25496, "ĠVietnamese": 25934, "alan": 14163, "Ġjoue": 46209, "ih": 4247, "Ġë§ĲìĶ": 20797, "Ġdar": 4072, "Ġcharming": 23387, "'ll": 603, "politik": 46424, "Ġowned": 11684, "oris": 46198, "ĠLegisl": 33074, "éĪ": 41597, "Ġfigures": 9624, "ĠCause": 10865, "ĠAdd": 5349, "Ġthrilled": 18744, "Ġadvent": 7045, "ĠOtherwise": 10328, "Ġclever": 13494, "ĠAman": 35466, "Ġhvad": 48160, "Ġ2003": 16416, "Ġparticipated": 17978, "ĠMess": 9847, "Ġpoorly": 22271, "Ġconquered": 32695, "ĠKiller": 39846, "Ġcanceled": 24839, "ĠKelly": 12345, "ĠProgramm": 48244, "Ġsnug": 37069, "m": 76, "icable": 43023, "Ġpreschool": 39809, "enz": 11368, "à¸ĵ": 38206, "Ã¤ttre": 44225, "ĠìķĦìĿ´": 25130, "ĠStud": 4541, "imsical": 49945, "enty": 4179, "Ġ88": 24587, "Ġclerk": 31402, "éŁ": 13665, "Ġsubstitution": 35827, "Ã¼zik": 10920, "ĠLance": 40493, "Ġplanes": 14952, "Ġconfisc": 49868, "ag": 559, "Ð¾ÑĹ": 49065, "Ġ98": 20860, "Ġsurprises": 22655, "pty": 39420, "Ġsignificance": 17687, "ĠDemocrats": 12217, "ĠLux": 25767, "ĠATM": 46455, "anni": 35832, "ìľ": 2472, "æ": 162, "íķł": 7999, "Ã³b": 14216, "Ð°ÑİÑĤ": 6406, "uran": 12125, "vio": 28226, "ĠDark": 9563, "åĽ": 3919, "Ġtras": 22507, "cil": 3208, "ĠÐ»Ð°Ð´Ð½Ð¾": 44107, "lage": 22519, "Ġavaient": 38703, "×¦×Ŀ": 47239, "¥´ê³ł": 39949, "named": 33465, "fried": 22773, "Ġë¶Ħ": 15361, "ateur": 15540, "Ġbathing": 38948, "Ġshirts": 20832, "ìĿ´ìĹ": 21064, "Ġexplode": 21411, "Ġcorner": 4538, "Ġrozm": 35234, "ĠTravis": 24430, "è¨Ĥéĸ±": 30215, "<|15.54|>": 51141, "wiad": 32997, "Ġquadrant": 46856, "61": 31537, "Ġknob": 26759, "<|3.42|>": 50535, "ĠZeus": 35003, "ĠPrevention": 38699, "Ġsilly": 11774, "Ġassumptions": 17695, "izin": 36367, "Äħd": 18962, "Ġsizz": 43828, "Ġpasando": 45412, "Ã¼st": 44244, "ĠSony": 13575, "Ġplag": 33756, "ĠAUDI": 8029, "ĠKop": 49656, "Ġdissolved": 30651, "ĠØ¨Ø¹": 45030, "ĠhÃ¤tten": 33278, "Ġoyn": 42753, "ĠBuzz": 29209, "Ġgouvernement": 27504, "ools": 29298, "SN": 32481, "ocre": 42454, "<|21.82|>": 51455, "ĠMedicare": 19583, "ĠFavor": 34240, "ĠCooking": 36647, "ĠThompson": 23460, "ĠDw": 41448, "ÏĥÎµÎ¹": 39320, "¯¸": 6587, "Ġìķ": 1298, "Ġevidence": 4467, "<|gu|>": 50333, "<|14.28|>": 51078, "Ġmaritime": 43892, "Ġsubtit": 30706, "<|4.04|>": 50566, "itions": 2451, "<|2.54|>": 50491, "Ask": 47802, "ifications": 7833, "Ġparole": 26783, "Ġtare": 49423, "f": 69, "ĠMuse": 47293, "Ġsalute": 33673, "Ġbit": 857, "hum": 14645, "fits": 13979, "ĠProse": 50058, "Ð¾Ð¶Ð´ÐµÐ½Ð¸Ñı": 46945, "Ġchallenged": 17737, "NI": 42496, "ĠCustom": 16649, "ª©": 27523, "orden": 19058, "Ġcertification": 21775, "ĠdÃ©part": 37745, "ĠPC": 6465, "Ġaltar": 31435, "ĠiÃ§in": 8457, "Ġdaha": 10545, "ĠSam": 4832, "Ġhook": 6328, "BL": 17624, "orro": 47385, "ĠPepper": 30231, "Ġinfin": 7193, "ĠiÃ§": 6058, "ĠDuo": 46123, "disciplinary": 30520, "Ġbald": 21096, "ĠDOU": 45723, "ĠIhnen": 17280, "Ġesto": 7433, "osters": 40427, "<|29.90|>": 51859, "Ġexpedition": 30359, "istical": 42686, "Ġpiace": 50062, "ERO": 37494, "ĠImp": 8270,
[...]
