{"ench": 40765, "Ã¹": 5035, "ĠDel": 5831, "Ġcr": 941, "Ġcheese": 5399, "ouring": 40510, "ĠJu": 13582, "ĠPÃ¥": 45133, "ĠGenau": 22340, "ĠRouge": 47607, "ouble": 33147, "ĠÎ±ÏĢÏĮ": 19821, "ĠÐ±Ð¾Ð»": 11993, "Ġagency": 7934, "Ġdense": 18011, "ĠKumar": 46500, "Ġperspect": 4096, "Ġexploding": 35175, "Ġdise": 3814, "Ġaffection": 20080, "Ġinitiatives": 16194, "Ġtrauma": 11407, "ĠCredit": 36006, "Ġeens": 31246, "product": 33244, "ĠWha": 45040, "Ġidea": 1558, "Ġzelf": 26172, "Ġviruses": 21785, "Ġë³´ìĹ¬ë": 33820, "shot": 18402, "ĠìĿ¼ë³¸": 38496, "<|28.96|>": 51812, "Ġunderlying": 14217, "Ġgroom": 22198, "Ġship": 5374, "ĠAunt": 17535, "isine": 20668, "ĠÑģÐ»Ð¾Ð²Ð¾": 43272, "ĠÐ´Ð¾ÑĢÐ¾Ð³": 24365, "Ġfors": 32299, "ĠìķĦë§Ī": 37298, "Ġmano": 18384, "Ġdecisions": 5327, "Ġb": 272, "ĠWashington": 6149, "ĠDetective": 35210, "Ġage": 3205, "ĠJuda": 35300, "Ġanthropology": 44518, "ĠÐ»Ð¸Ð±Ð¾": 31100, "ãģĤãģģ": 36444, "Ġartifact": 34806, "åı·": 26987, "inky": 22998, "ips": 2600, "Ġarmour": 36554, "è¾Ľ": 36432, "à¸Ńà¸°": 36419, "ç©º": 23322, "ãģ²": 26950, "Ġstars": 6105, "Ġmatching": 14324, "Ġcrafts": 27831, "ĠçĦ¶å¾Į": 49078, "ĠBrother": 8904, "<|18.58|>": 51293, "Ġbeiden": 23446, "Ġfruitful": 49795, "Ġcycles": 17796, "Ġprzede": 44786, "After": 24288, "ĠJewish": 9246, "generation": 30372, "ãģłãģĭãĤī": 33183, "Ġdifficult": 2252, "ĠAhora": 18840, "jay": 46451, "ĠKur": 16481, "Ġtilted": 43229, "ĠÐ±ÑĭÐ»": 10059, "ĠColomb": 18514, "iÄŁ": 24392, "ĠHari": 47221, "×Ļ×§": 20530, "els": 1625, "Ġovert": 17038, "ĠEsto": 20880, "Ġvisually": 19622, "Ġgestures": 28475, "Ġnearly": 6217, "Ġseems": 2544, "ì²": 4758, "ĠZar": 41580, "Ġjusto": 40534, "ìŀħ": 6283, "ãĥĴ": 46995, "ĠAff": 12840, "åĩºåİ»": 48973, "Ġprizes": 27350, "Ġfrench": 27598, "ĠOh": 876, "ilon": 15754, "Ġautour": 30249, "jin": 13970, "Ġdestac": 46393, "ĠdÃ©mocr": 47146, "ĠÃĪ": 34495, "Ġqualitative": 31312, "Ġaide": 40890, "à¸Ĭ": 17080, "Ġfinished": 4335, "mond": 12171, "reiben": 25946, "Ġdonut": 33782, "ĠÐ½Ð°ÑģÑĤÐ¾ÑıÑī": 35048, "CT": 10259, "ĠJUN": 45801, "Ġalumni": 16347, "é»ŀ": 8216, "ĠLebens": 21530, "Ġbeliever": 23892, "Ġrate": 3314, "ĠÐ±ÑĭÐ»Ð¾": 8060, "ãĤĪãģĨãģ«": 34483, "Ġmighty": 21556, "ĠCP": 22431, "£¼": 11372, "<|23.10|>": 51519, "Ġplugs": 33899, "ĠSherman": 45130, "Ġpartnership": 9982, "Ġestran": 49461, "ĠÐ¿Ð¾Ð´ÑĤ": 46103, "Ġinver": 28653, "othermal": 47280, "Ġpics": 46690, "Ġverge": 37164, "Ġ--": 1350, "ä¸ĢäºĽ": 38515, "Ġexpenses": 15506, "Ġcuarto": 48368, "ienie": 27385, "Ġwest": 7009, "¥´ê³ł": 39949, "éģĶ": 33086, "ĠEnerg": 48195, "ÙĨÙĬ": 22653, "ĠSadhguru": 40000, "ĠrÃ³Å¼ne": 47760, "ĠÑĦÐ°Ðº": 31953, "veland": 27028, "Ġvinegar": 18030, "bia": 26975, "÷": 179, "Ġë§¡": 49132, "Ġrocks": 10989, "Ġbursts": 41663, "Ġfab": 5355, "irty": 9340, "ĠAmerican": 2665, "Įëĵł": 47353, "ĠwÅĤaÅĽci": 40112, "çĽ¸": 15106, "Ġcaptain": 14871, "Ġwillen": 35830, "ĠÃºtil": 49191, "Ġterminar": 36246, "Ĳë": 2998, "æĺ¯åķĬ": 39282, "Ġchoke": 34427, "ðŁİ": 28864, "ĠLots": 15908, "shift": 47445, "Ġnovelty": 44805, "©´ì": 41735, "ìļ±": 44631, "Ġself": 2698, "oubtedly": 32135, "Ġcustomizable": 47922, "Ġhelemaal": 33595, "Ġhospital": 4530, "ĠPin": 22619, "pg": 49861, "ĠAww": 22007, "Ġpostponed": 49023, "Ġdestiny": 17893, "seat": 43152, "amentos": 28775, "ĠYale": 26711, "ĠCrime": 26140, "ĠEarn": 24820, "Ġstupid": 6631, "Ġscience": 3497, "ĠPerÃ²": 20533, "Ġdirectly": 3838, "ĠMotion": 27771, "<|26.06|>": 51667, "ĠoczywiÅĽcie": 23862, "ĠRussians": 20605, "Ġpatter": 3829, "ĠBO": 22785, "Ð¸ÑĤÑĥ": 21239, "Ġargue": 9695, "Ġperfect": 2176, "Ġconductivity": 42982, "×¨×Ļ": 38339, "<|22.60|>": 51494, "Ġcadre": 39546, "ĠÐ¼Ð°ÑĪ": 19820, "Ġfacing": 7170, "Ġcrust": 18156, "Ġchanger": 22822, "<|21.48|>": 51438, "ĠEnvironment": 35354, "Ġaddicted": 24629, "Ġdoubling": 33651, "Ġinlet": 36961, "ĠÑģÑĢÐ°Ð²": 42987, "Ġpsy": 31673, "ä¾Ĩèªª": 36979, "ĠKo": 10509, "sw": 25884, "ĠJY": 43587, "ĠMore": 5048, "Ġphilosop": 9237, "ĠrÃ³": 11416, "ĠÐ¿Ð¾Ð¿ÑĭÑĤ": 46047, "ARE": 28186, "ÐºÐ°Ñħ": 18366, "ĠrÃ©uss": 28099, "Ġinitially": 9105, "iaÅĤ": 8908, "Ġoften": 2049, "rishna": 45643, "mented": 14684, "ĠdoÄŁ": 18557, "ĠPOL": 45682, "ĠSmack": 35399, "Ġbecoming": 5617, "ĠrÃ©du": 46369, "ancial": 22716, "å¤": 1787, "Ġeasily": 3612, "Ġsincerely": 30694, "Ġfinals": 25526, "othe": 24863, "STA": 28075, "osi": 21521, "eness": 15264, "Ġoutra": 12301, "Ġrobot": 7881, "ĠÐĲÐ»ÐµÐºÑģ": 32228, "Ħ¸": 20600, "ĠGad": 37171, "ĠÐ·Ð°Ð»": 32897, "ĠÐ¾ÐºÐ°Ð·": 28833, "ĠÐ¾ÑĢÑĥÐ¶": 46802, "ĠErst": 31183, "ĠStanford": 20374, "ĠScottish": 13777, "Ġorada": 33570, "Ġletz": 14027, "anÃ§ais": 17032, "ĠInit": 22937, "<|9.56|>": 50842, "door": 10441, "Ġëģ¼": 46809, "Ġte": 535, "click": 18548, "ĠÐł": 6325, "Ġenclosure": 34093, "Ġclothes": 5534, "Ġjourneys": 36736, "ì¡°": 18934, "Ġarchaeological": 42139, "Ġru": 5420, "ĠÐŁÐ¾ÑĤÐ¾Ð¼": 45941, "ĠMighty": 45874, "eze": 10670, "Ġcurve": 7605, "åĥı": 12760, "ĠMaster": 6140, "ÑĤÑĮÑģÑı": 14706, "Ġbiliyor": 35424, "afft": 29445, "Ġtest": 1500, "Ġpositives": 35127, "Ġstressing": 48233, "ones": 2213, "Ġì´": 10359, "Ġarbeiten": 23162, "because": 17566, "acji": 13152, "ĠMaple": 47604, "hythm": 34494, "esi": 21181, "Ġici": 11575, "ardon": 14848, "Ġruh": 36614, "AKI": 23225, "Ġextending": 24360, "ĠÐ¿ÑĢÐ¾ÑĪ": 20567, "Ġstatistical": 22820, "actus": 34775, "ĠGum": 48862, "Note": 49250, "8": 23, "Ġadjustment": 17132, "<|19.64|>": 51346, "wl": 39192, "ĠìŀĪê³ł": 18683, "Á": 125, ";": 26, "ictions": 15607, "éĹľ": 14899, "rat": 4481, "Ġtrad": 2479, "ĠCette": 25556, "ĠÐ¿ÑĢÐ¾Ð²": 13422, "<|28.16|>": 51772, "éĻ¢": 38358, "Ġfly": 3603, "<|0.80|>": 50404, "Ġë§ĽìŀĪìĸ´ìļĶ": 46778, "laughter": 5330, "ă": 191, "Das": 40781, "ĠTiere": 38810, "cze": 9680, "Ġcelebrity": 18597, "åĩº": 7781, "ĠâĢĳâĢĳ": 45217, "ĠAmsterdam": 28291, "beeld": 34040, "akin": 12709, "Ġdialogues": 45551, "ĠToy": 15708, "Ġjobbar": 42965, "Ġprimer": 12595, "ĠwÃ¤re": 14558, "Ġsotto": 43754, "à¸«": 10982, "ÐķÐĿ": 41682, "vale": 46583, "Ġtakiej": 38941, "Ġversucht": 36064, "Ġretailer": 45467, "Ġeyesight": 49887, "Ġaan": 9904, "veda": 45716, "Ġë¶Ģíĥģ": 37056, "ĠAfghan": 11393, "Ġpri": 1790, "ĠLiverpool": 32473, "ĠAustralia": 7060, "Ġsoup": 7884, "ĠShe": 1240, "Ġeclipse": 35722, "Ġhet": 3639, "Ġabs": 1950, "izations": 14455, "culosis": 49379, "ĠBP": 40533, "Ġcharacteristic": 16282, "Ġattacks": 8122, "Ġcrashing": 26900, "æĻ®": 29993, "ĠDLC": 30272, "masÄ±": 23477, "Ġmutually": 39144, "ĠtÃ´i": 22336, "ĠPres": 2718, "iliz": 47043, "ìŀĲ": 4264, "Ġcaffeine": 31261, "ĠPaÅĦst": 25189, "Ġdepri": 27095, "ĠestÃ¡": 3192, "Ma": 30290, "ror": 2874, "Ġbrowsing": 38602, "Ġpinpoint": 40837, "ĠElena": 39603, "ĠTalk": 8780, "iasm": 21940, "Ġtheir": 641, "Ġfilm": 2007, "Ġlandlord": 32654, "Ġextinct": 35094, "ju": 8954, "76": 25026, "Ġamazed": 20507, "ĠMen": 6685, "¬ìĺģ": 26157, "ĠKranken": 39950, "ĠDayton": 44718, "Ġwzgl": 48538, "Ġdrone": 13852, "esti": 21597, "ï": 171, "ishing": 3807, "Ġmieli": 41214, "Ð¾Ð·Ð¸": 50226, "ĠLei": 32593, "Ġìĵ°ëĬĶ": 44878, "ĠGL": 16225, "Ġwildly": 34731, "Ġengra": 25842, "Ġmir": 3149, "Ġacceptable": 15513, "ĠÅŁ": 3382, "ering": 1794, "Ġhighlighter": 40455, "Ġgrupp": 47477, "Ġvaak": 49644, "ĠCru": 13586, "Ġpeeled": 39033, "Ġlegislature": 21631, "<|14.84|>": 51106, "CER": 28313, "mie": 25210, "Ġmetabolism": 31190, "Ġwrap": 7019, "ÐµÐºÐ¾": 18848, "Ġcompens": 11598, "ĠÐ²Ð½ÑĥÑĤÑĢÐ¸": 39145, "ĠPhiladelphia": 21205, "Ġsit": 1394, "Ġgirl": 2013, "Ð°Ð»Ð¾": 12441, "Ġcinematic": 32250, "Ġcamar": 43764, "ĠÐ´Ð¾Ñģ": 41126, "road": 8417, "ĠìŀĪìĿĦ": 18082, "ĠAustralians": 38108, "Ġbaked": 19453, "Ġdental": 24473, "ä½İ": 41377, "Ġstir": 8946, "Ã¶z": 26698, "ĠPB": 24056, "ĠÑģÐ¾Ð¶Ð°Ð»": 45999, "ĠÐºÐ¾Ð¼Ð½Ð°": 43418, "GL": 19440, "ãģªãģĦ": 9311, "rieb": 31775, "Ġenhancing": 36579, "Æ°á»Ł": 48443, "èĩª": 9722, "Ġrec": 850, "Ġvender": 44281, "ĠHamp": 30303, "ajo": 13440, "ĠÐ½Ð¸": 13686, "ĠÐ°Ð²ÑĤÐ¾Ð¼": 27669, "Ð¸ÑĤÑĭ": 43608, "Ġ101": 21055, "annt": 39878, "Ġstatut": 35907, "Ġsubsid": 20051, "Ġpersonalized": 28415, "Ġhalls": 26177, "Ġschwierig": 37845, "Ġmove": 1286, "ĠBE": 13513, "Ġmakan": 46616, "osis": 8211, "izing": 3319, "Ġsoft": 2787, "Ġheure": 30027, "Ġsoprattutto": 50002, "ĠUSC": 44066, "ĠFam": 7342, "Ġpropos": 7532, "Ġmailing": 41612, "hea": 27799, "Ġuniformly": 48806, "Ġbel": 989, "Ġintell": 4359, "uff": 1245, "ĠMarvin": 48722, "ĠBrasil": 14861, "ĠIKE": 46492, "Ġintentionally": 22062, "folg": 23910, "ĠAuth": 40231, "ĠLife": 7720, "Ġinvites": 35719, "Ðĳ": 18172, "ĠFeels": 31578, "Ġphotons": 40209, "ĠIn": 682, "Ġparalyzed": 41919, "Ġcurv": 33900, "å·²": 15701, "Ġaugment": 29919, "Ġtransgender": 27470, "ëĲĺëĬĶ": 46713, "ĠConservative": 46054, "Ġglasses": 10812, "éĹ": 8259, "graduate": 47187, "ĠArin": 24209, "yorsun": 21338, "Ġthinkers": 37895, "mom": 42544, "ĠquestÃ£o": 28477, "ĠBuff": 20254, "ĠRing": 19844, "itted": 3944, "Ġdrift": 19699, "âĻ¬": 42863, "Ð½Ð¾Ñģ": 32472, "é¢¨": 22713, "Ġcoe": 12155, "Ġcreatively": 43750, "Ġowe": 16655, "ĠPrincip": 32832, "Ġintersect": 27815, "itudes": 16451, "Ġdetected": 21896, "ĠfÃ¥": 14251, "ÑģÑĤÑĢÐ°Ð½": 28484, "ĠÑĤÐ°ÐºÑĥÑİ": 42456, "ĠJess": 10484, "ĠHaven": 23770, "stoppable": 43006, "Ġconcentration": 9856, "ĠImam": 39875, "ĠLore": 36994, "eredith": 28714, "ĠBah": 14782, "ades": 2977, "Ġstom": 9036, "ĠSou": 31458, "ĠLeute": 13495, "ĠPul": 35568, "<|hy|>": 50312, "íķĺë©´": 16283, "Ġsinner": 41293, "Ġtáº¡i": 37773, "Ġdataset": 28872, "ĠìĿ´ë¯¸": 30099, "bal": 2645, "ĠBritney": 46161, "isme": 16415, "ĠBuilt": 49822, "ydd": 34871, "Ġ1997": 22383, "Ġcurb": 33731, "ĠÐ¿ÑĢÐ¸Ð½ÑĨÐ¸Ð¿": 30147, "Ġlive": 1621, "ĠÐ²Ð¾Ð·Ð¼Ð¾Ð¶": 31544, "Ġfakt": 21310, "Ġmereka": 23171, "Ġpublish": 11374, "Ġdatabase": 8149, "ĠRita": 32672, "Ġeins": 21889, "ĠTerra": 25366, "ÑĢÐ°Ñħ": 25689, "Ġsearches": 26701, "á»Ľ": 27260, "×¨×Ĳ×ľ": 40783, "utz": 12950, "ĠMyth": 26371, "Ġwounds": 21969, "Ġidentifying": 16696, "ĠRover": 43278, "ĠVacc": 48579, "Î·": 3835, "ĠKash": 32356, "fia": 22054, "ĠKL": 47991, "Ġ20": 945, "Ġtimeframe": 34830, "Ġsuccessful": 4406, "Ġp": 280, "Ġbers": 32147, "ĠÐ°Ð²ÑĤÐ¾Ð¼Ð¾Ð±": 37122, "<|13.98|>": 51063, "PEAK": 10393, "<|29.36|>": 51832, "ÑģÑĮ": 6131, "sterreich": 34111, "<|12.28|>": 50978, "<|5.90|>": 50659, "ĠÐ±ÑĭÑĤÑĮ": 11510, "bing": 4324, "ola": 4711, "Ġtakie": 15963, "ĠGrab": 20357, "Ġsentiments": 41146, "Ġounce": 29860, "ĠEh": 9663, "ĠHence": 22229, "Ġreferring": 13761, "ĠTar": 10537, "Ġcarpet": 18119, "Ġ1919": 46484, "Ġeli": 34486, "oston": 11966, "ĠJam": 10372, "Ġheard": 2198, "ì½Ķ": 29872, "avor": 1924, "<|8.70|>": 50799, "Ġdiferencia": 38844, "<|23.50|>": 51539, "again": 39372, "ãģ¾ãģŁ": 24712, "ijke": 33611, "ielt": 18940, "Ġdoin": 23503, "ÐµÐ½Ð¾": 23512, "åĢĻ": 11238, "<|28.50|>": 51789, "<|16.68|>": 51198, "ĠAmbassador": 28506, "orient": 19521, "Ġcorporate": 10896, "Ġhacerlo": 32039, "Ġpoliticians": 14756, "Ġmythology": 30871, "ĠSimmons": 42516, "acc": 8476, "Ġcob": 39527, "ãģĤãĥ¼": 34932, "ĠJeff": 7506, "éĢŁ": 31217, "Well": 6271, "acion": 18803, "Ġportable": 21800, "Ġentste": 35955, "ĠÐĿÐĲ": 44416, "ĠCaitlin": 50131, "Ġcompatibility": 34237, "ĠWolver": 49059, "Ġsk": 1110, "ÑıÐ»Ð°": 37394, "fal": 36474, "Ġê·¸ê²ĥ": 32565, "Ġrang": 32434, "Ġmummy": 45295, "ounter": 47489, "Ġassist": 4255, "Ġselfish": 19074, "ĠMillion": 33959, "bout": 30722, "Lou": 46316, "Ġwake": 6634, "ĠDeath": 13703, "Ġusa": 29909, "Ġdisrupt": 14124, "Ġdreaming": 21475, "Ġjetzt": 4354, "Ð°Ð¹ÑĤÐµÑģÑĮ": 30100, "#": 2, "???": 16259, "learning": 47204, "Ġterrit": 8673, "Ġhighways": 43747, "Ġdriver": 6787, "ĠHÃ¶": 30824, "Ġclo": 20123, "osto": 22756, "staw": 22580, "ĠBrew": 42906, "RE": 3850, "ĠFunk": 45285, "uccess": 16461, "Ġveulent": 41826, "Ġpagar": 28024, "Ġfunction": 2445, "Ġbenef": 3070, "<|2.56|>": 50492, "Ġcustody": 26976, "ĠDOT": 50142, "ĠMustafa": 37229, "lak": 41472, "Å¡e": 42717, "Ġreceivers": 49196, "ĠPfizer": 34694, "ĠSund": 6942, "ĠIngred": 46670, "ĠPav": 39062, "ê³¼ë": 39106, "ĠCertain": 13407, "QUE": 41724, "Ġastronauts": 28273, "Ġarbets": 47539, "Ġinvol": 2499, "Ġglory": 11924, "ÑıÐ´": 12825, "Ġsupervision": 32675, "ĠSurvey": 33365, "uciones": 46649, "vari": 34033, "Ġfloral": 38900, "Ġvain": 22240, "Ġlasers": 37948, "ert": 911, "Ġbeni": 19723, "usion": 5704, "Ġscarcity": 44181, "Ùģ": 5172, "ĠRuth": 23544, "rict": 3740, "ĠAugust": 6897, "ĠCos": 15855, "æĻļä¸Ĭ": 50157, "Ġprogramme": 14001, "ĠShelby": 37517, "thing": 825, "Ġintric": 30242, "<|17.26|>": 51227, "erne": 48135, "antine": 13566, "ĠBush": 15782, "ĠCatholic": 11981, "ikit": 48183, "Ġì¡°ë": 42707, "ĠMor": 5146, "ĠDas": 2846, "ĠrÃ©al": 18911, "ë¬¼": 28386, "Ġprzew": 39758, "ĠAlf": 21996, "Ã¨ne": 18832, "raine": 11798, "Ġmorb": 46510, "Ġì§Ģ": 4704, "Ġacknow": 7791, "ĠBaum": 40165, "ĠmÃ©th": 45404, "Ġempath": 27155, "Ġsacred": 15757, "ĠMona": 43731, "ĠBritain": 12960, "viously": 2110, "ĠÐ¿ÑĢÐ¸Ð½ÑĨÐ¸Ð¿Ðµ": 39086, "uded": 23285, "Ġwomen": 2266, "Ġhouses": 8078, "Ġfacile": 23670, "Ġweer": 19662, "ãģªãĤĭãģ»ãģ©": 39506, "Ġdolor": 42416, "ays": 3772, "Ġreass": 19486, "Ġlayered": 34666, "ĠÎł": 20894, "Ġtrilogy": 34030, "Ã©l": 8025, "Ġsuited": 24736, "ĠOB": 35538, "Ġab": 410, "Ġtemporada": 41983, "Ġpreferences": 21910, "Ġtanto": 10331, "UA": 35227, "Ġconsume": 14732, "Ġlavor": 29241, "Ġsalv": 26858, "Ġfik": 35562, "ãĢĤ": 1543, "=\"#": 34106, "Ġcache": 19459, "ĠìĦ¤": 30630, "ĠëĲĺëĬĶëį°": 36436, "Ġgrip": 12007, "Ġ×Ķ×ĵ": 32740, "Ġë§İ": 5671, "uted": 4866, "Ġadalah": 23555, "Ġrobotics": 34145, "leg": 6363, "Ġwheel": 5589, "ä¸ľ": 38409, "Ġradar": 16544, "Ġadher": 30106, "ĠME": 12003, "Ġassociates": 36914, "Ã¡i": 28249, "ĠOdyssey": 38385, "Ġwisely": 37632, "arbeit": 24024, "Ġweiterhin": 42480, "bus": 21441, "Ġgetan": 45599, "Ġthinks": 7309, "Ġbronze": 25454, "à¸Ĺ": 11099, "Ġorders": 9470, "Ġmein": 10777, "Ġreminis": 33765, "UR": 7932, "ĠAlors": 9946, "ĠGÃ¼": 38139, "ĠJud": 7661, "ĠLOOK": 45648, "oret": 26262, "urger": 26880, "count": 26050, "Ġlim": 2364, "Ġgehe": 34252, "Ġaudible": 41317, "Ġdisappoint": 8505, "<|9.36|>": 50832, "Ġlin": 22896, "Ð¸ÑĩÐµÑģÐºÐ¸Ñħ": 38911, "Ġruling": 21437, "ĠCinema": 42502, "æ²ĴéĹľä¿Ĥ": 37816, "owing": 9637, "ĠGo": 1037, "ĠShen": 22636, "ĠÐ·Ð°ÑĩÐµÐ¼": 41521, "ĠMund": 33317, "umph": 24963, "ì¤ĳ": 13907, "ĠXiang": 37935, "Ġtunes": 38498, "Ġclown": 22209, "ĠìłľíĴĪ": 21496, "rid": 8558, "åħ¨": 11319, "ile": 794, "ĠHispan": 25912, "Ġincreasingly": 12980, "Ġimply": 33616, "ÑĢÐ°ÑĤÑĮ": 30260, "Ġnose": 6690, "Ġadmits": 46682, "Ġlar": 1613, "Ġrest": 1472, "Ġviktigt": 46150, "Ġinherit": 21389, "lang": 25241, "ĠDR": 12118, "Ġdisgrace": 41702, "ĠÎĳ": 18793, "ĠÐ¼Ð¾Ð³ÑĥÑĤ": 23461, "ãģĬé¡ĺãģĦãģĹãģ¾ãģĻ": 32420, "~!": 11394, "Ġspecialized": 19813, "ĠPS": 8168, "uent": 19226, "ĠThai": 19254, "Ġkonk": 21428, "à¸£à¸°": 47376, "shit": 19186, "Ġviolet": 46480, "Ġnotifications": 13426, "Ġëĳĺ": 21433, "ĠBeatles": 38376, "geht": 46227, "Ġtypically": 5850, "Ġrespect": 3104, "Ġlistener": 31569, "ĠÐ±ÑĭÑģÑĤÑĢÐ¾": 31874, "Ġdeber": 29671, "Ġ160": 21243, "Ġgrooming": 49700, "Via": 46477, "elines": 9173, "maan": 39625, "iene": 10174, "ĠModern": 19814, "æĶ¿åºľ": 41116, "Ġbroom": 41544, "ĠTwice": 46964, "å¿ĥ": 7945, "violent": 48473, "ĠVenus": 23994, "Ġfalsch": 43340, "Ġnarration": 43299, "yet": 37180, "Ġthroughput": 44629, "åĨĨ": 38812, "ìį¹": 39077, "ĠJonas": 34630, "moi": 29292, "Ġdefeating": 38381, "Ġclassics": 36110, "mt": 42744, "ĠBrid": 30552, "Ãªtes": 38262, "Ġmaar": 10314, "pielt": 43929, "Ġbree": 20082, "ernt": 46165, "Ġservice": 2643, "ĠLeban": 23530, "Ġcracking": 25229, "ĠWade": 28001, "Ġtail": 6838, "ĠCirc": 28938, "bene": 41605, "ĠRaf": 29611, "inent": 11058, "ĠÑĢÐµÐ°Ð»ÑĮÐ½Ð¾": 38001, "pton": 21987, "Ġhealthier": 19580, "ĠSco": 27682, "mern": 44243, "lave": 27995, "Ġforgiveness": 18396, "Ġ46": 17835, "Ġlasted": 21116, "Ġgro": 4634, "ĠÐ¿Ð¾ÑĤÑĢ": 26146, "itious": 16401, "pared": 45573, "å´": 49378, "ĠMm": 8266, "O": 46, "long": 13025, "Ã¢u": 24325, "Ġtr": 504, "Ð°ÑģÑģ": 12886, "Ġlent": 23556, "Ġthreatening": 20768, "Ġoccup": 8073, "Jake": 49501, "ĠCzy": 19832, "Ġnouns": 48184, "Ġaccomplished": 15419, "ĠniÃ±o": 42307, "áºŃy": 24706, "çľ": 2862, "Ġmicrobes": 35996, "ĠíķĦ": 19620, "comes": 9055, "Ġfol": 3339, "osium": 42161, "Let": 8373, "<|8.46|>": 50787, "<|10.16|>": 50872, "Ġteam": 1469, "ì±": 23805, "à¸Ħ": 8163, "obic": 22234, "Ġprospects": 32933, "ĠAdv": 13634, "Ġdiyorum": 37190, "åı³": 22060, "Ġvalleys": 45614, "Ġmilj": 41128, "Ġadministrators": 27754, "Ġì": 451, "Ġjugar": 37692, "ĠÑĨÐµÐ½": 39821, "Ġconquered": 32695, "Ġchat": 5081, "esar": 18876, "Ġencanta": 47597, "<|7.50|>": 50739, "cis": 26720, "atal": 40478, "Ã©tais": 22824, "mumbles": 14914, "ë¶Ģ": 17317, "Ġproduits": 38866, "Ġflipping": 26886, "Ġpractitioners": 25742, "Ġalleen": 32259, "ayÄ±": 18376, "Ġorganizations": 6150, "Ġtub": 10809, "Ġcovert": 45985, "rike": 40669, "Ġslap": 21075, "resident": 44625, "łĪ": 10417, "Ġlorsqu": 46581, "osos": 33894, "ãģ¡ãĤĩãģ£ãģ¨": 21888, "uc": 1311, "Ġauthority": 8281, "Ġnháº¥t": 41081, "ãģª": 3203, "<|27.14|>": 51721, "<|8.32|>": 50780, "<|0.56|>": 50392, "ĠZack": 36034, "ĠJacqu": 49770, "Ġund": 674, "ĠAntes": 39325, "<|6.82|>": 50705, "Ġvard": 23065, "Ġhydro": 15435, "Ġcalendar": 12183, "ĠReid": 46912, "ĠmÃ³wiÄħ": 46591, "ĠBiz": 16619, "Ġì²ľ": 31076, "ĠLabs": 40047, "Ġtort": 10806, "abul": 14057, "ĠUpper": 36926, "ĠëĥĦìĥĪ": 49985, "³ĳ": 44504, "Ġê°Ģ": 4147, "Ġclaimed": 12941, "Ġdodge": 27238, "Ġwack": 42138, "Ġsymbols": 16944, "Ġfigures": 9624, "Ġantioxid": 33369, "fox": 38416, "Ġslices": 19793, "uely": 48863, "ĠSide": 19026, "æĿİ": 31206, "Ø§Ùħ": 10943, "ĠÐ¿ÐµÑĩ": 44875, "ha": 1641, "ĠGu": 2694, "ĠGrÃ¼": 38908, "ìĿĳ": 27994, "ĠDevil": 25221, "Ġpatch": 9972, "to": 1353, "Î»Î¹": 48253, "ĠOLED": 43944, "ĠEntonces": 15097, "Ð¾Ð´Ð½Ð¾": 44356, "ĠRegular": 45659, "ĠHaben": 47007, "ĠSee": 3008, "Ġtradicional": 47956, "Ġdevices": 5759, "ÑĥÐ»ÑĮÑĤ": 19615, "ynen": 48318, "undred": 3159, "kum": 49576, "ince": 1236, "ĠRunner": 50105, "<|16.74|>": 51201, "Ġtaken": 2726, "Ġcrow": 6401, "riÃ³": 44802, "Ġì¡°ìĭ¬": 48164, "Ġadel": 30069, "Ġfantast": 30665, "Ġburaya": 33548, "Ġdaqui": 30485, "ĠDanielle": 21182, "Ġinqu": 13570, "ĠGriffin": 39188, "Ġpenet": 16183, "Ġleadership": 5848, "Ġdemands": 15107, "kte": 18844, "Ġws": 37647, "<|8.20|>": 50774, "Ġfunciona": 26210, "Ġclubs": 15428, "ĠUnless": 16581, "æµ": 11038, "ĠEvery": 2048, "ĠReact": 30644, "ĠÐ¿Ð¾Ð½Ð°Ð´": 49581, "Ġnephew": 30799, "Ġdevastating": 21280, "Ġwolves": 30404, "cÄ±k": 47587, "æĢİéº¼è¾¦": 42511, "ĠCorporation": 26464, "ìĿ´ì¦": 39614, "Ġreplay": 23836, "ĠëĤ´ìĿ¼": 42831, "Ġentscheiden": 44560, "Ġculturally": 28879, "éĺ¿": 13594, "Ġstarted": 1409, "istical": 42686, "rÃ³d": 43678, "there": 15456, "emand": 18941, "Ġserial": 17436, "Ġoptimism": 31074, "Ġdrove": 13226, "Ġdraft": 11206, "ĠSA": 16482, "ĠJeÅ¼eli": 35090, "Ġsal": 1845, "ignty": 26919, "Ġbothers": 33980, "Ġexecution": 15058, "ĠAR": 8943, "íĬľë": 36710, "çħ§": 32150, "Ġmarginalized": 32522, "ĠMega": 22834, "Ġvale": 15474, "ratulations": 9280, "<|24.68|>": 51598, "Ġwhe": 3966, "cup": 16794, "ĠÐ´ÑĢÑĥÐ·": 23577, "ĠfÃ¶rsÃ¶": 45020, "Ġdebugging": 45592, "Ġjedoch": 46311, "Ġbrightest": 36271, "strong": 28063, "KNOWN": 44505, "quar": 16177, "Ġëĭ¤ìĸĳíķľ": 49679, "Ġbastante": 14651, "Ġsorted": 25462, "bringen": 39455, "çĪ¾": 41997, "ĠBug": 23821, "Ġfacilitating": 47558, "Ġspecs": 27911, "ĠìĹ´": 41280, "ĠGlass": 23752, "Ġsomewhere": 4079, "Ġroutes": 18242, "Ġpiace": 50062, "Ġaber": 4340, "Ġovat": 31802, "Rel": 49029, "ĠGOOD": 28771, "Ġpaused": 46860, "ì¸ł": 34130, "illa": 5291, "ÙĪ": 2407, "Ġface": 1851, "ðŁİµ": 38830, "ĠPHP": 47298, "ĠìĻĶ": 17766, "ĠÐ¿ÑĢÑıÐ¼": 18449, "Ġsehen": 11333, "Ġfille": 39216, "as": 296, "Ġ230": 35311, "å·¦åı³": 29457, "©": 102, "Ġcharity": 16863, "ĠHidden": 41156, "mot": 29778, "<|3.12|>": 50520, "ĠLilly": 41386, "Ġnin": 9616, "ä¸Ńåħ±": 25093, "Ġrestless": 45451, "ĠØ§Ø¨": 48127, "Ġchakra": 46068, "Ġdolphin": 46759, "Ġsitio": 40621, "AUL": 22624, "Ġdenote": 45708, "crire": 39572, "Ġsober": 26212, "amiliar": 27393, "Ġclause": 25925, "Ġdoubles": 31634, "Ġcombat": 8361, "ĠInsurance": 39971, "ĠNicholas": 22924, "ĠYour": 2260, "Female": 37402, "Ġentr": 8041, "Ġtailored": 34858, "Ġfark": 27047, "Ġpact": 38104, "jung": 29773, "Ġslog": 49760, "ĠOrion": 41028, "sung": 32052, "Ġfolder": 10820, "æĤ¨": 23414, "Ġvivir": 39656, "Ġnewspaper": 13669, "Ġi": 741, "asser": 12129, "emment": 20329, "ĠëŃĲ": 7034, "ĠÅĤad": 47910, "ĠÑģÐ°Ð¼Ð¾": 43745, "ĠkÃ¶t": 32629, "Ø¯Ø§": 28259, "alities": 16110, "Ð¼Ð¾ÑĤÑĢÑı": 45753, "Ġguy": 2146, "<|21.06|>": 51417, "Ġrefriger": 14162, "Ġelabor": 16298, "Ġblij": 26486, "Ġexpert": 5844, "<|19.72|>": 51350, "Ġcomigo": 35696, "ĠÐ±Ð»Ð¸": 21747, "Ġestan": 42058, "Ġtote": 49019, "uir": 34498, "ÑĪÐ¸Ð¹": 24958, "<|7.14|>": 50721, "Ġdealt": 15991, "<|1.00|>": 50414, "ĠViol": 24383, "Ġvigilant": 45737, "Ġcoarse": 39312, "ondern": 10881, "Ġpuzzles": 24138, "cled": 24804, "Ġhusband": 5213, "ĠKent": 15843, "aler": 17148, "Ø°": 8848, "Ġresidential": 17389, "Ġë¨¸ë¦¬": 27089, "istant": 10329, "ollo": 22388, "ĠÑĦÐ¸Ð»ÑĮ": 16172, "Ġweak": 5336, "affen": 19182, "Ġorphan": 28711, "Ġremake": 28582, "ĠHamburg": 34118, "Ġjos": 29217, "Ã©nd": 34577, "thy": 28433, "Ġworkforce": 14201, "Ġpak": 20843, "Ġexempt": 30425, "ĠForward": 35524, "ĠhÃ¶ren": 38681, "å±Ģ": 34703, "Ġêµ¬": 15197, "Ġday": 786, "Ġexceed": 14048, "ĠPolize": 30735, "Ġrigorous": 29882, "Ġarmp": 44541, "Ġantenna": 24573, "åĭķçĶ»": 37963, "Ġtablets": 27622, "ĠSabrina": 45439, "Ġlizard": 39215, "ĠTonight": 18702, "ĠMand": 15458, "Ġzeigen": 24687, "ping": 3381, "Ġmnie": 17661, "<|24.16|>": 51572, "Ġdenke": 27245, "attend": 49548, "Ġprincipalmente": 32258, "ĠAnda": 40480, "omo": 13395, "Ġcooler": 15566, "Ħë¡ľ": 14046, "becca": 17073, "ĠsÄ±k": 30046, "lectric": 38421, "vers": 840, "Ġricht": 22136, "Ġ)))": 26435, "Ġdevelops": 25453, "damn": 25324, "ĠGather": 39841, "Ġinsecurity": 35058, "Ġìĭ«": 33649, "Ġsurrounds": 44576, "ĠBas": 5859, "Ġbiography": 37062, "Ġenvironmentally": 42236, "Ġneutr": 39913, "ÃŃcia": 30050, "ĠPred": 32969, "Ġcrim": 7857, "Ġcook": 2543, "Na": 33824, "Ġdeeply": 8760, "Ġsignature": 13397, "ĠBorder": 36985, "Ġdangerous": 5795, "ãģªãĤĵãģĭ": 27646, "Ġmark": 1491, "Ġgenerators": 38662, "Ġdisconnect": 14299, "Ġderivative": 13760, "Ġchemotherapy": 39238, "Ġkes": 16050, "rup": 11976, "phis": 26153, "Ġeagle": 30745, "Ġdeal": 2028, "Ġconvince": 13447, "ischer": 19674, "kook": 38318, "ĠjournÃ©e": 34277, "Ġhaunting": 44512, "Ġconfigured": 30538, "<|25.76|>": 51652, "<|ta|>": 50287, "81": 32875, "Ġfury": 48887, "Ġneh": 40857, "ÒĽ": 49964, "ĠBecky": 30059, "Ġtaped": 45673, "Ġstrictly": 20792, "Ġstair": 22273, "Ġguardian": 30355, "Ġpositioning": 26381, "ÑĨÐ¸Ñı": 17651, "Ġlabel": 7645, "Ã¤ngen": 43921, "Ġalgum": 15468, "...?": 8964, "ĠSprinkle": 47331, "×Ļ×": 1842, "Ġsnapshot": 30163, "°ľ": 17248, "ĠDynam": 22947, "Ġê±´": 13507, "ãģī": 30590, "Ġpersever": 29917, "ĠKAT": 39274, "<|7.16|>": 50722, "effective": 45122, "ĠGB": 26809, "Ġretard": 42073, "ĠSuite": 36637, "Ġdeaf": 15559, "Ġdisclose": 36146, "Ġcinnamon": 22969, "Ġinstalled": 8899, "Ġversion": 3037, "enne": 13295, "Ġprata": 45895, "Ġstor": 5967, "ĠìķĦëĭĪë©´": 33059, "achment": 23908, "ĠÑĥÐ³": 20392, "Ġsmoke": 8439, "Ġpreocup": 23080, "Ġsewing": 19311, "What": 3748, "ĠComes": 47290, "á¹£": 24242, "Ġludzie": 37025, "ëĭ¤ê³ł": 7726, "Ġpetits": 26487, "<|0.58|>": 50393, "ĠSource": 29629, "OY": 16973, "otechn": 31843, "xx": 30569, "ĠÐµÑīÐµ": 9910, "¬ë": 1698, "Ġactivating": 42481, "¾": 122, "ĠAudio": 25706, "ĠÐ±ÐµÐ³": 49942, "Ġgasket": 47671, "ĠBana": 33942, "ĠÑĩ": 1358, "ÏħÏĦ": 15009, "ĠÃ³": 11857, "ĠIst": 12810, "Ġincredibly": 6252, "Ġchapter": 7187, "Ġgusta": 20576, "ĠElla": 29261, "Ġpref": 18417, "ĠZh": 7790, "Ġzaten": 22089, "Ġforbid": 34117, "Ġsingers": 24275, "Ġcrashed": 24190, "Ġaltogether": 19051, "Ġlambda": 13607, "Ġgeliyor": 29776, "eted": 10993, "Ġruns": 6676, "Ġfase": 33931, "iz": 590, "egree": 26359, "ĠYas": 30557, "Ð°Ð¹ÑĤ": 23055, "Ð¸ÑĢÐ°": 22204, "åķı": 11361, "Kay": 30711, "Ġassim": 8249, "×Ļ×¦": 37528, "Ġë²": 7307, "Ġve": 1241, "ÑĥÐ»": 23412, "Ð¸ÐºÑĥ": 35353, "Ġsca": 4216, "ziÄĻk": 25446, "Ġinterfering": 48721, "Ġclues": 20936, "ĠÐ²ÑĭÐ´": 47535, "ãĥıãĥı": 29790, "Ġmagnitude": 15668, "icians": 8455, "Ġseize": 33413, "Ġlonely": 14236, "ĠAuss": 21286, "ĠArgent": 15183, "Ġequals": 6915, "Ġkindly": 29736, "âĤ¬": 28197, "Ġhani": 45108, "Ġcelebrates": 47182, "Ġëľ»": 44774, "axy": 9191, "Ġ×Ļ×Ķ": 49854, "emat": 8615, "pruch": 45788, "ĠYuan": 22730, "Ġcircul": 12515, "ĠenergÃŃa": 34315, "avy": 15498, "Ġsoftware": 4722, "Ġcapacitor": 29372, "Ġmagical": 12066, "bb": 6692, "Ġfrank": 10455, "ĠFu": 12807, "æŀ": 7360, "Ġê°Ģê¹Į": 44913, "Ġcad": 12209, "idency": 23343, "Ġand": 293, "buzzer": 24845, "Ġfrequencies": 20250, "Ġyellow": 5566, "ÏĥÎµÎ¹": 39320, "Ġchain": 5021, "Ġimmune": 11992, "imore": 21917, "Ġdungeons": 48347, "ĠDiscovery": 34129, "ĠPhoto": 39175, "Ġthink": 519, "Ġelaborate": 20945, "ĠÃºltima": 28118, "Ã©nt": 37239, "Ġãģĵãģ®": 35421, "Ġadvisory": 26289, "ativas": 35725, "Ġbinding": 17359, "Ġdescend": 16333, "ĠÐ´Ð²": 7196, "ĠPatri": 31071, "<|6.52|>": 50690, "ĠSean": 14839, "<|6.42|>": 50685, "ĠÑģÐºÐ°Ð¶": 21938, "Ġamiga": 45322, "Ġdub": 18540, "adt": 14680, "Ġjeg": 10610, "Ġsz": 7870, "Ġtheo": 40594, "Ġ×ŀ×¡": 32904, "ĠStuart": 36236, "çĹĽ": 28737, "Ġë§Įìķ½": 42195, "Ġretir": 34906, "ãĢħ": 45032, "Ġsucks": 15846, "ÅĽlÄĻ": 28749, "ĠnÃ³": 6604, "ĠIndia": 5282, "Ġfungus": 39788, "Ġsettled": 14819, "Ġmobilize": 48637, "ĠSpring": 14013, "Ġinvested": 13104, "ĠStaats": 33928, "ĠÐ½Ð°ÑĤ": 48290, "<|19.80|>": 51354, "ĠEntertainment": 25758, "Ġcompte": 19424, "unction": 32627, "æĻĤåĢĻ": 14010, "à¹Ģà¸£": 24185, "<|22.50|>": 51489, "jis": 40371, "×ĳ×Ķ": 28553, "Ġwt": 23105, "ĠÑĤÐµÑĢÑĢÐ¸": 49634, "Ġiod": 44422, "ĠEigen": 30586, "ĠíĽĦ": 21638, "Ġarticle": 7222, "è½ī": 32739, "White": 47589, "ĠResident": 29563, "ĠíĻĺ": 29288, "othy": 18907, "Ġtrainers": 35393, "ĠRib": 38554, "Ġarrogance": 46444, "ä»¥ä¸Ĭ": 29497, "Ġresemb": 20695, "ĠCurt": 26587, "aa": 4332, "Ġlemons": 47098, "ĠÑĤÐ°": 18752, "arr": 2284, "Dad": 14599, "Chr": 11644, "ĠÐºÐ°ÐºÑĥÑİ": 45244, "Ġshield": 10257, "ĠStraÃŁen": 48925, "hÃµes": 31819, "Ġbelli": 48006, "Î±Î¹": 5074, "ĠCher": 14825, "ĠÐļÐ°Ðº": 11011, "Ġconjun": 18244, "Ġgalera": 31912, "Ġmindfulness": 25655, "Ġvak": 31647, "Ġmort": 6599, "ãģĳãģ¦": 39736, "Ġreciprocal": 46948, "Ġflare": 32446, "Ġoko": 45730, "Ġdrugiej": 47373, "Ġsorry": 2597, "ĠCanon": 27666, "ãĥĪ": 7588, "Ġamber": 48304, "Ġen": 465, "ĠSignal": 43414, "ä½łèªª": 42920, "..!": 14757, "ĠIdeally": 40817, "ĠÑĤÐµÐ¼Ð¿ÐµÑĢ": 45609, "Ġside": 1252, "ĠÑĢÐ¾": 49493, "nal": 4660, "Ġolm": 13583, "Ġgold": 3821, "ĠPrix": 48736, "Ġêµīìŀ¥": 15286, "ĠpequeÃ±o": 38181, "Ġsiebie": 39137, "ifi": 17638, "Ġmarry": 9747, "Ġcompet": 2850, "ĠDan": 3394, "Ġabsolutely": 3122, "Ġinfinitely": 36227, "Ġhedge": 25304, "ĠSchol": 27866, "Ġembarrassment": 43536, "Ð½Ð¾Ðµ": 6126, "Ð¸ÑĩÐµÑģÐºÐ¾Ð³Ð¾": 47988, "ucha": 26042, "Ġflagship": 30400, "Ġdyed": 43199, "çŃĶ": 28223, "<|3.10|>": 50519, "irteen": 27114, "ĠOllie": 35089, "ĠCzech": 25227, "istance": 20829, "nu": 16241, "ĠMeaning": 19948, "éĩ": 5873, "Ġpolarization": 37736, "Ġpr": 582, "Ġrockets": 28361, "gn": 4568, "Ġconjugate": 45064, "<|21.58|>": 51443, "ĠRICH": 33618, "ĠMatter": 20285, "ĠGlas": 29078, "Ġwired": 27415, "Ġinsulting": 44463, "Ð¸Ð»Ð°": 10578, "Ġbid": 12957, "ĠVIC": 41519, "ĠJahre": 15557, "Ġchaud": 46548, "Ġung": 29038, "Ġunique": 3845, "asters": 18817, "Ġnortheast": 40984, "<|17.14|>": 51221, "Ġradical": 12001, "Ġpercept": 43276, "eso": 41189, "Ġslowing": 26958, "ãģ¨æĢĿ": 22372, "Ġracks": 47063, "Ġprz": 6541, "ĠÃ": 690, "Ġà®İ": 12814, "Ġet": 1030, "tering": 34200, "Ð»ÐµÐ½Ð°": 44402, "Ġfug": 31838, "Ġhoe": 19709, "ĠHR": 19460, "ication": 8758, "Ġprofit": 7475, "Ġkonnten": 38216, "Ġheraus": 25089, "Ġresidency": 34014, "Ġpains": 29774, "millimeter": 38274, "ĠAmber": 29407, "Ġcyst": 48915, "ĠÐ½ÐµÑĳ": 44527, "Ġfueron": 28739, "Ġanimales": 45102, "ĠAnat": 42628, "oter": 21585, "ĠUnderstanding": 36858, "Ġdubbed": 43686, "<|11.90|>": 50959, "iffs": 17643, "Ġfalls": 8804, "ĠHarper": 37216, "Ġduo": 28127, "quÃ¨": 14460, "Ġbias": 12577, "cticamente": 50250, "idge": 3815, "ronic": 10011, "Ġnawet": 22696, "Too": 40980, "fig": 20646, "Ġamen": 18497, "alom": 40780, "Ich": 29081, "ĠMeanwhile": 13879, "Ġpracy": 35591, "Ġtrain": 3847, "atre": 10837, "Ġlobby": 21067, "Ġilleg": 9976, "Ġlivro": 33545, "ĠÐļÐ¾ÑĢ": 29635, "gress": 3091, "umble": 16473, "ìķµì»¤": 19900, "Ġbombing": 31292, "ĠÃ¤ven": 32669, "×ķ×Ĳ": 12315, "ĠWWE": 15110, "Ġrenewal": 35516, "çĶ": 3526, "Ġzero": 4018, "Ġ×ĳ×": 6044, "Ġnotebook": 21060, "ĠÐ±Ð°ÑĢ": 36766, "Ġdip": 10460, "Ġking": 4867, "pas": 20990, "Ġcorrelation": 20009, "Ġvec": 42021, "uggle": 31726, "ĠScotland": 11180, "Ġ×ľ×": 5001, "ĠBism": 34594, "ĠÐ¿Ð¾ÑģÐ¼Ð¾ÑĤÑĢÐµÑĤÑĮ": 38482, "ÑĢÐµÑĤ": 31242, "Ġformatting": 39366, "ĠDom": 16674, "FS": 29318, "ĠÐĿÐ°Ð²": 46929, "Ġimportantly": 8906, "ĠHow": 1012, "ĠHunting": 44793, "ĠTitans": 45574, "ĠÑħÐ¾ÑĩÑĥ": 22168, "ĠquÃª": 28605, "ĠPenny": 32009, "ĠHern": 35651, "Ġaust": 34916, "Ġimpacts": 11606, "Ġpeg": 17199, "Ð¾Ð¶Ð°Ð»": 18327, "ĠPand": 16995, "ĠVik": 29465, "ursday": 10125, "ĠëĪ": 7508, "Ġvolumes": 22219, ",...": 16007, "gets": 16284, "Ġcontribute": 10586, "Ġrubber": 11593, "Ġì²ĺ": 16650, "ĠDort": 32308, "mente": 4082, "Ġdramatic": 12023, "Ġmisinformation": 34238, "porter": 37356, "owned": 14683, "Ġë³µ": 30696, "ĠHye": 31103, "ĠÑģÑĤÑĢÐ°ÑĪ": 35611, "athy": 9527, "ëĭ¬": 24673, "Ġusu": 32247, "ĠSecondly": 19483, "ĠbyÄĩ": 15069, "Ġsnake": 12650, "Ġconfidential": 27054, "peace": 43099, "Ð²Ð¾Ð´": 17533, "Ġbladder": 37032, "ĠÄ°ÅŁte": 34757, "Unis": 39489, "Ġagriculture": 14837, "Ġarg": 3882, "Ġinsider": 40990, "ĠÐºÐ¾Ð¶": 40107, "ê²¨": 19591, "Ġstuff": 1507, "itel": 38906, "Ġhind": 20138, "ĠSpotify": 29036, "ĠBalance": 41899, "ĠÑįÑĤÐ¸": 11012, "Ġg": 290, "Ġunintended": 49902, "<|24.00|>": 51564, "ĠOrt": 22921, "Ġcooked": 9267, "ĠPolice": 11882, "Ġê¶ģ": 29342, "íĥľ": 20141, "Ġspecimen": 34204, "Ġmanga": 23316, "ĠMoses": 17580, "Ġholistic": 30334, "Ġbounds": 29905, "<|24.72|>": 51600, "Ġcompose": 35925, "Ġmedic": 4355, "ĠPalestinian": 28202, "Ġolds": 41972, "Ġwann": 38064, "Ġ1938": 46398, "å®¹": 25750, "Ġturkey": 21551, "anson": 34195, "Å±": 33150, "Ġgene": 12186, "ĠLos": 7632, "Ġevolutionary": 27567, "olia": 29760, "iscilla": 49413, "Ġfemme": 27427, "ĠSquad": 26596, "Ġbauen": 43787, "ĠSC": 9028, "Ġquestionable": 37158, "Ġtemporal": 30881, "ëĵ±": 36912, "ragon": 25997, "URE": 35916, "ĠÐ·Ð²": 13591, "Ã±o": 7716, "Ġplayback": 37223, "æĹ¶åĢĻ": 29111, "ĠÐ°ÑĢ": 16643, "ined": 2001, "Ġot": 4337, "vous": 16514, "bab": 24301, "arÄ±": 18318, "Ġpresence": 6814, "ĠmiÄĻdzy": 33964, "Ġediyor": 30761, "Ġpools": 28688, "ĠìĻ": 4186, "Ġought": 13416, "assador": 16827, "Ġcai": 46523, "Ġunnatural": 43470, "Ġfeaturing": 19742, "ĠColombia": 22677, "Ġoversight": 29146, "ĠEsp": 24978, "ĠParliament": 15538, "Ġdeclar": 16694, "ìļ´ëį°": 28981, "<|9.06|>": 50817, "Ġknobs": 46999, "ãģĿãģĹãģ¦": 25092, "Ġplots": 28609, "Ð¾Ð»Ð¾": 33087, "idaÄĩ": 46898, "iele": 15949, "Ġunacceptable": 31812, "Ġunp": 20994, "ĠTinder": 49341, "Ġrealmente": 14446, "Ġbust": 19432, "Ġohh": 50101, "ÑĥÑĢÑĭ": 36106, "ìį": 33064, "Ġescuela": 47817, "Ġneighboring": 31521, "95": 15718, "ĠjÃ¤tte": 46752, "Ġcuma": 44630, "Ġelong": 40786, "Ġgenius": 14017, "èªį": 22041, "Ġ×§": 14831, "ante": 2879, "ĠÑįÑĤÐ¾": 2691, "Ġtechnologies": 7943, "Americ": 11755, "ĠBlizzard": 40976, "Ġrulers": 35009, "ist": 468, "ĠÐ¢": 3200, "Ġincorporate": 16091, "Ġfocal": 26592, "à¸¹": 13687, "Ġprosth": 39976, "ìĺĢ": 21149, "Ġboils": 35049, "nym": 12996, "aker": 4003, "Ġbuys": 28153, "ĠAF": 20389, "ĠJeder": 47274, "Ġdeles": 30789, "ĠInside": 15123, "Ġlastly": 16386, "Ġbeginnings": 37281, "Ġ-[": 14635, "Ġeat": 1862, "ëªħìĿ´": 47787, "amento": 8824, "Ġaider": 36669, "Ġprize": 12818, "ilant": 25824, "Ġ**": 22723, "allahi": 24079, "trans": 24999, "<|17.54|>": 51241, "Ġexplorer": 39680, "Ġì°¸": 18255, "<|22.88|>": 51508, "immung": 38412, "estial": 33741, "Ġcatches": 25496, "Ġtunnels": 30804, "<|17.90|>": 51259, "ÑİÑģÑĮ": 24551, "ĠÐ¾ÑģÐ²": 46403, "Ġdenim": 43535, "Ġcarbohydrate": 47048, "Ġpatents": 38142, "Ġ×©×ŀ×": 36327, "ĠBert": 29594, "ì¹ĺëĬĶ": 47255, "Ġ2017": 6591, "Ġkiller": 13364, "Ġseal": 12185, "ĠÐĺÑĤÐ°Ðº": 28793, "ailable": 32699, "Ġpupil": 44533, "ĠOlha": 19450, "ĠÑģÐ¿Ð¾ÐºÐ¾Ð¹": 47471, "Ġlab": 2715, "Ġemergence": 36211, "gy": 1480, "Ġvoix": 37188, "Ġdapat": 35161, "Ġpossible": 1944, "Ġbelieves": 12307, "Ġìĸ´": 9076, "Ġsofort": 33168, "Ġdevoir": 48920, "ĠìĽĲë": 20884, "Ġneighborhoods": 20052, "<|26.74|>": 51701, "Ġëĸ¨ìĸ´ì": 30667, "Ġamerican": 31229, "Î¿Î¹ÏĢÏĮÎ½": 48322, "Ġdest": 2677, "<|28.78|>": 51803, "Ġtransformer": 31782, "Ġtwitch": 34167, "Ð¸ÑĢÐ¾Ð²Ð°Ð½": 48317, "Ġworkflow": 20993, "gu": 2794, "Ġarriv": 30697, "Ġsw": 1693, "ĠÐĴÐµÐ´ÑĮ": 42612, "ĠschÃ¶": 25032, "ĠSCP": 18489, "ĠStudent": 12464, "ĠAndre": 20667, "Ġsubstance": 12961, "Ġeve": 34225, "Ġnell": 44666, "Ġtouchdown": 34459, "Ð¢Ð°Ðº": 39005, "ĠCath": 8764, "rij": 11105, "Ø§Ùĩ": 40294, "<|0.12|>": 50370, "<|7.92|>": 50760, "ĠTeresa": 35039, "ÑİÐ´Ð°": 42875, "Ġexhausted": 17992, "łĮ": 37422, "Ġrelatable": 42355, "Ġwichtiger": 48840, "<|26.12|>": 51670, "Ġissued": 14379, "ĠLock": 16736, "Ġìĸ´ëĶĶ": 20879, "ĠReach": 35904, "imi": 10121, "ĠÑĥÐº": 32546, "ĠKop": 49656, "achelor": 15173, "irst": 653, "Ġresonate": 34285, "Ġfinancial": 4669, "ĠprÃ³ximo": 21177, "Ġgathering": 13519, "Ġstatistic": 29588, "Ġunav": 36541, "worm": 30917, "Ġprospective": 39377, "Ġrunway": 26642, "ĠMode": 20500, "Ġgrandpa": 24129, "âĢ¦\"": 25572, "ĠÐ½ÐµÑģÐºÐ¾Ð»ÑĮÐºÐ¾": 21902, "Ġbins": 41275, "ixes": 36005, "Ġtyres": 42564, "ĠÑĢÐµ": 15492, "Ġska": 9958, "ĠGrid": 42905, "Ġil": 1930, "æĪ°": 23209, "ĠCompl": 33736, "ĠLiebe": 28790, "ĠÐ¸Ð´ÐµÑĤ": 40029, "Ġbarely": 10268, "these": 42678, "Ġpronto": 26194, "Ġdeform": 36094, "nas": 18979, "ĠBen": 3964, "Ġlay": 2360, "Ġcommence": 18137, "board": 3787, "Ġaccept": 3241, "ilib": 12722, "Ġmez": 28966, "Ġangled": 48843, "ĠPur": 14682, "oft": 6750, "åįĥ": 20787, "Ġgide": 34255, "ìĤ": 3972, "Ġtaxation": 47072, "Ġvisualize": 23273, "Ġterug": 35020, "Ġrifles": 34058, "ĠlÃłm": 22319, "Ġsick": 4998, "ĠAlm": 14344, "ĠkaÅ¼": 21912, "Ġmanipulated": 37161, "Ã¹ng": 27065, "uy": 7493, "Ġbeads": 20369, "ĠPrize": 22604, "ĠUz": 38564, "ì¡Į": 25001, "ĠClar": 28410, "ĠDod": 26904, "Ġsalmon": 18518, "Ġtransc": 43800, "ĠNederland": 31888, "Ġporn": 19444, "ĠBorn": 29808, "ĠÐºÐ¾Ð¼Ð¿Ð°Ð½Ð¸Ð¸": 44231, "ĠÐºÐ°Ð½": 18276, "Ġdeficiency": 37500, "ÑĤÐ¾ÑĢÐ°": 26250, "Ġcryptocur": 22070, "Ġrequirements": 7728, "ĠThrones": 31659, "ÑĤÐ¾Ð±Ñĭ": 7331, "ĠÐķÑģÐ»Ð¸": 12412, "ĠJinping": 45898, "Ġminute": 3456, "Ġspelling": 22254, "ĠShould": 6454, "Ġsegue": 33850, "BR": 11609, "ĠdÃ©s": 18963, "Ġscrews": 13050, "Ġimpos": 38396, "ĠHyundai": 44133, "cho": 5738, "ĠAid": 39916, "Ġrange": 3613, "gone": 39743, "Ġdepicts": 48949, "ĠAlab": 20302, "ĠhistÃ³ria": 20670, "ĠëĴ¤": 19798, "rÃ¥n": 43178, "Ġãģł": 37656, "ëĭµ": 23884, "Ġsizing": 45435, "Ġlotus": 39105, "acje": 29293, "ĠElse": 45472, "Ð¾Ð·Ð¼": 29977, "Ð½Ð¸ÑĤÑĮ": 31087, "Ġhashtag": 20379, "Ġfr": 431, "ãĤĴ": 5998, "isoft": 47929, "Ġpolitique": 26115, "ĠTrend": 37417, "akh": 14532, "istani": 46301, "vey": 5603, "Ġmindset": 12543, "à¥į": 27099, "Ġoptimum": 39326, "Ġwearing": 4769, "ãĤ´": 39780, "Ġextr": 16455, "ä¹¾": 39698, "<|17.42|>": 51235, "Ġkomen": 27190, "ounded": 37706, "ĠAx": 20118, "Ġdia": 6801, "ĠëĨ": 10091, "ĠØ§ÙĦÙĦÙĩ": 21984, "Ġconstantly": 6460, "ĠNazis": 29812, "ĠÐ£ÐºÑĢÐ°ÑĹ": 34817, "Ġmejorar": 48858, "ĠÙħØ³": 47524, "Ġsugar": 5076, "Ġusando": 29798, "Back": 28404, "veis": 22479, "ìĦ¸": 5762, "ĠSAR": 18748, "Ġsprayed": 40330, "HAHA": 21803, "Ġlean": 11659, "ĠÐ³ÑĢÐ¾Ð¼": 41765, "Ġsolid": 5100, "Ġë§ŀìķĦìļĶ": 35273, "ĠÐ¿ÑĢÐ¸Ð»": 34770, "ĠWÃ¼r": 43846, "amiÄĻ": 23806, "ĠSullivan": 37226, "Ġdisplay": 4674, "Ð¾Ð´Ñĥ": 35749, "ĠÐ¿Ð¾Ð¹Ð´": 41207, "È": 132, "Ġactionable": 45098, "Ġclosure": 24653, "Ġexplode": 21411, "atiques": 48731, "ĠSpain": 12838, "ÄĻd": 6298, "ĠLauren": 18915, "ĠDepot": 45445, "Ġordering": 21739, "Rich": 44654, "bins": 49198, "ĠÐ²ÑĢÐµÐ¼ÐµÐ½Ð¸": 26436, "ĠÐºÐ¾ÑĤÐ¾ÑĢÑĭÐ¹": 11897, "æľ¨": 41437, "ĠgÃ¶rÃ¼ÅŁ": 38488, "ĠDemocr": 7141, "Ã¼nst": 36656, "ĠÐ¿ÑĢÐµÐ´Ð»Ð¾Ð¶": 40373, "ĠAlexis": 39826, "onsieur": 22293, "Ġambiguity": 46519, "ì¦": 9760, "Ġhierarch": 35250, "ĠDav": 3724, "hips": 7640, "×ĳ×¨": 13168, "Ġsummertime": 43785, "ĠStudien": 49496, "reat": 620, "pad": 13647, "Ġdissertation": 39555, "Ġapplic": 2580, "ĠChung": 38314, "ĠBerlin": 13848, "ìĭľì£ł": 37822, "ALD": 35502, "Ġshap": 6706, "ĠTerror": 36174, "ĠAfric": 4390, "ĠÐ½ÑĥÐ¶": 9353, "Ġinvestigate": 15013, "Ġrats": 25691, "iÄĻdzy": 49485, "Ð°ÑĤÐ°": 19808, "Ġyou": 291, "Ġswapped": 50011, "Ġcompliant": 36248, "ĠTwelve": 48063, "ma": 1696, "Ġaudiences": 15479, "Ġdistributions": 37870, "Ġabsorbed": 20799, "Ġitaliano": 48486, "ĠÐ¼ÐµÑģÑĤ": 16470, "Ġsimilarity": 32194, "ĠThat": 663, "Ġê·¸ëķĮ": 26788, "Ġdoivent": 44341, "ĠMercedes": 22899, "case": 9765, "Ġnicely": 9594, "<|22.62|>": 51495, "Ġarbit": 14931, "vidia": 43021, "ĠKathleen": 41648, "ĠSatan": 16583, "85": 19287, "Ð°Ñİ": 3776, "Ġniego": 49615, "Ġteu": 35280, "nine": 46140, "à¸Ļà¸°à¸Ħà¸°": 45084, "<|0.00|>": 50364, "Ġcouples": 20368, "Ġkw": 23846, "ĠÑĢÐµÐ±ÑıÑĤÐ°": 37678, "Ġnih": 27438, "<|6.70|>": 50699, "Ġfrightened": 28839, "ĠGRA": 26121, "ĠAvi": 40712, "Ġencara": 47287, "ĠÏĢÎµÏģÎ¹": 46618, "Ġcortisol": 45618, "ĠFey": 46530, "etah": 47947, "Ġfacade": 46261, "ence": 655, "Ġdisks": 41617, "Ġcheesecake": 41348, "nies": 40549, "Ġreporters": 26249, "Ġagile": 30072, "è®ļ": 46274, "Ġfunky": 33499, "ä»¥": 3588, "ĠKomb": 34678, "dit": 17975, "ĠcommencÃ©": 37561, "emic": 3438, "Ġëľ¨": 38766, "Su": 46413, "ĠSituation": 22247, "chutz": 34816, "ĠFS": 41138, "phere": 6605, "irement": 28575, "Ġcutting": 6492, "ĠmoÅ¼li": 30854, "æķ¢": 40205, "Ġslavery": 15641, "Ġãģ§": 21376, "Ġam": 669, "°": 108, "ĠYA": 40771, "INK": 24856, "Ð¾ÑĤÑĮ": 32040, "Ġdeeper": 7731, "ĮëıĦ": 33723, "Ġà¤¹": 37139, "Ġsine": 18609, "Ġac": 696, "Ġreunited": 50036, "Ġallowed": 4350, "ĠÑģÑĤÐ¾Ð¸ÑĤ": 23675, "Ġconver": 9652, "ë³´ëĭ¤": 28804, "Ġhumming": 34965, "Ġheld": 5167, "ni": 3722, "anki": 27203, "Ġopinion": 4800, "ĠHAS": 38461, "Ã©ration": 27901, "Ġwatts": 31247, "ĠFIR": 41538, "Ġdistinguished": 21702, "Ġincentive": 22346, "Ġanderen": 11122, "Ġreflective": 28931, "ĠtrÆ°á»Ľc": 44860, "igi": 19789, "Ġdistinction": 16844, "ayan": 20506, "nim": 39223, "ĠÄĳÆ°á»£c": 15832, "Ġnegative": 3671, "<|cy|>": 50297, "ĠClaud": 24858, "Ġactive": 4967, "ĠBoo": 23351, "ĠEL": 14426, "Ġdismissed": 29970, "Ġìŀĺ": 6644, "ĠDuke": 17380, "ĠBayern": 29163, "Ġfastest": 14573, "Ġsid": 20822, "Ġare": 366, "ellow": 21348, "zk": 30154, "ento": 15467, "Ġmodeled": 37140, "Ġabla": 43899, "Ġjournalists": 19535, "66": 15237, "Ġmot": 2184, "ĠYuri": 33901, "Ġgym": 9222, "Ġwides": 21516, "Ġshuffle": 39426, "Ġmonk": 27698, "ÑĢÑĭ": 10461, "<|7.70|>": 50749, "Ġmon": 1108, "ĠswojÄħ": 49194, "known": 6861, "Ġrecuper": 25692, "Ġautop": 31090, "Ġferment": 38300, "<|16.08|>": 51168, "Ġarrest": 7823, "æį": 26075, "sama": 37275, "ÙĦØ§Ùħ": 37440, "Ġbuzzing": 29659, "Ġrain": 4830, "Ġpens": 6099, "ĠAph": 41775, "Ġmateria": 34083, "Ġunlikely": 17518, "Ġruim": 33871, "Ġraw": 8936, "ĠBeginning": 45705, "Ġpredator": 35377, "ĠSpace": 8705, "ummy": 8620, "Ġayudar": 38759, "odies": 6087, "Ġcryptocurrencies": 44369, "iente": 8413, "ĠllegÃ³": 46182, "Ġdruk": 47995, "This": 5723, "ĠBreaking": 36715, "nh": 5728, "ĠìķĦìĿ´ë": 24790, "ĠTyr": 43126, "ĠAnt": 5130, "Ġë£¨ë": 48512, "ĠMa": 4042, "ĠOakland": 34868, "ĠZie": 46340, "ä¸į": 1960, "Ġê·¸ëŁ": 4167, "Ġknead": 28602, "wind": 12199, "Ġbrass": 26257, "Ġiedereen": 47529, "Ġlead": 1477, "iot": 6471, "Ã¤llet": 44535, "Ġfountain": 29451, "aware": 17074, "Ġmisma": 24946, "Ġgrade": 7204, "ĠAd": 1999, "Ġgrated": 43319, "ĠÐºÐ¾Ð½ÐµÑĩÐ½Ð¾": 15271, "ĠÐ¡Ð²": 48536, "Ġeraser": 46018, "ĠVerb": 27034, "Ð½ÑĭÐµ": 4970, "Ġcongressional": 32962, "Ġsera": 15021, "Ġupgraded": 24133, "card": 22259, "ĠÎºÎ±": 14832, "Ġíķĺê³ł": 10301, "ocracy": 38186, "ÐĹÐ«ÐļÐĲ": 24974, "ĠHamilton": 18484, "able": 712, "mist": 48709, "iera": 10609, "ĠÐĿÐµ": 11512, "ãĥĬ": 26719, "ecd": 26565, "lit": 23062, "ĠCommand": 17901, "oshima": 47989, "Ġcannabis": 26066, "Ġimaginary": 26164, "ools": 29298, "Ġcoat": 10690, "Rec": 48883, "Ġhijo": 38390, "arina": 37512, "ĠReserve": 26049, "ì¹ł": 45398, "zeni": 42124, "Ġsales": 5763, "IX": 21124, "amos": 2151, "Ġsme": 41818, "Ġci": 6983, "Ġempieza": 44577, "Ġaccusations": 38556, "Ġroam": 40474, "Ġtorto": 50159, "slow": 32008, "<|27.54|>": 51741, "help": 37451, "Ġlover": 18009, "Ġcoded": 34874, "ĠMus": 3569, "Ġmotivating": 41066, "big": 37660, "Ġ×ľ×¤": 33954, "Ã±ana": 31823, "Ġeuh": 32678, "Ġdeparted": 47018, "ĳľ": 12139, "ĠEl": 2699, "ĠQuÃ©bec": 34510, "acun": 34935, "ĠEdward": 18456, "Ġconfisc": 49868, "ĠHARR": 38892, "Ġcine": 45144, "Ġexc": 1624, "field": 7610, "etes": 37996, "bec": 8123, "à¸Ń": 5104, "åı°çģ£": 29152, "ĠÑģÐ°Ð¼Ð¾Ð³Ð¾": 42264, "Ġverschiedene": 35411, "ĠWithin": 15996, "Don": 7450, "Ġìŀłê¹Ĳë§Į": 33805, "ÎµÏĦÎ±Î¹": 39686, "Ġwprowad": 46733, "LOL": 32038, "Ġbackups": 50160, "Ġjestem": 29627, "Cont": 29821, "Ġwithd": 12483, "Ġconstruction": 6435, "ĠâĢĵ": 1662, "aÄĩ": 43379, "Ġlivest": 19531, "ĠderniÃ¨re": 29028, "hall": 43864, "Ġmesures": 42265, "ĠOklah": 20872, "ĠrÃ´le": 41681, "Î¼ÎŃ": 27683, "opy": 19680, "ĠÑģÐº": 5239, "Ġsust": 5402, "last": 15459, "ppy": 7966, "Ġworms": 28271, "ç»ĻæĪĳ": 49076, "âĢİ": 27867, "Ġmilestone": 28048, "Ł": 253, "à¸ĩ": 7212, "Ġmarkings": 39087, "grupp": 37768, "Ġzm": 17020, "using": 7981, "Ġcoastal": 25050, "hd": 20272, "Ġperson": 954, "ĠUniversal": 22617, "Ġharmon": 14750, "Ġhistoire": 31202, "Ġproceed": 8991, "Ġsqu": 2339, "owÄħ": 30297, "Ġdato": 46971, "lot": 43571, "Ãª": 1307, "Ġrebellion": 29793, "chten": 21043, "pal": 31862, "ĠRIGHT": 41631, "Ġpasswords": 33149, "Ġcome": 808, "ĠKollegin": 46632, "Ġappropri": 5745, "Ġkit": 8260, "ĠNana": 37087, "Ġincorrect": 18424, "Ġë©ĭìŀĪ": 46344, "Ġbuoy": 42841, "Ġunus": 10054, "Ġcanal": 9911, "Ġì³": 43517, "Ġregarder": 31468, "ĠPeru": 31571, "Ġolho": 50147, "Ġarising": 44900, "Ġimpulse": 26857, "ãĤıãģĭ": 44054, "Ġtriangular": 38190, "Ġgamble": 44128, "ĠInstagram": 5281, "arf": 30224, "ĠÐ¿Ð¾Ð»Ð¾Ð¶": 29408, "Ġcontributing": 19270, "Ġpursuit": 23365, "ĠShane": 25865, "Ġneighborhood": 7630, "Inst": 28411, "ÄŁÄ±": 17404, "ĠWr": 10159, "idence": 2778, "<|12.64|>": 50996, "ogen": 8799, "Ġinternation": 19257, "Ġchairman": 22770, "INGING": 24763, "gging": 10877, "neh": 30540, "ĳ¥": 42815, "<|5.28|>": 50628, "uldade": 48504, "Ġseres": 44721, "rence": 10760, "Ġfists": 49384, "Ġconson": 30843, "èŃĺ": 43143, "íĬ¸ê°Ģ": 48827, "Ġcamera": 2799, "ĠDeixa": 46589, "Ġtransport": 5495, "Ġbanned": 19564, "Ġincred": 3267, "ĠÐ¾Ð¿Ð°Ñģ": 39393, "Ġtwenties": 49398, "ĠHis": 2812, "Ġapproach": 3109, "Ġvig": 15366, "exist": 18217, "ccoli": 26334, "onder": 8548, "Ġfault": 7441, "Ġdying": 8639, "íĻķ": 36378, "<|7.90|>": 50759, "38": 12625, "ìĽĮìĦľ": 43601, "Ġhorrific": 29248, "Ġwrapping": 21993, "Ġjealous": 13805, "Ġ52": 18079, "\".": 1883, "íĤ": 13289, "arms": 19537, "Ġinn": 7714, "Ġmystery": 11422, "Ġbenut": 38424, "Ġroyal": 13351, "ĠArab": 8625, "mates": 10977, "importe": 38320, "Ġplease": 1767, "ĠZe": 4853, "Ġà®İà®©": 17337, "ĠÐºÑĢÑĥÐ¿": 39207, "ĠCookie": 42011, "Ġê²ĥì²ĺëŁ¼": 44052, "Ġinhib": 20406, "ĠTIM": 20187, "Ġteas": 11488, "Ġtougher": 30298, "<|12.08|>": 50968, "<|28.82|>": 51805, "ler": 1918, "Ġudah": 25231, "<|4.60|>": 50594, "Ġbreadth": 35862, "³µ": 32635, "Ġtherapist": 19830, "Ġpasses": 11335, "<|26.20|>": 51674, "ãģĿãĤĮãģ§": 48466, "SQL": 39934, "Ð¾ÑģÑĤÑĮ": 25437, "Ġbege": 41832, "ĠmÃ¼sste": 42962, "ĠGott": 19133, "ĠLaurent": 49357, "Ġneedles": 24792, "ĠJen": 9228, "<|14.12|>": 51070, "ATION": 22528, "<|22.22|>": 51475, "Ġsmartphone": 13307, "mans": 44734, "afood": 21007, "Ġpsychedel": 47732, "Ġerg": 26585, "Ġadul": 26885, "áº¥": 6785, "talk": 29302, "ĠRound": 18525, "Ġdevo": 49717, "Ġdesires": 18005, "Ġdoit": 19193, "ê²ĮìļĶ": 10142, "ÐĴÐ¾ÑĤ": 42262, "ÑĭÐ²Ð°ÑİÑĤ": 41495, "alon": 34979, "Ġwheelchair": 22945, "ĠGeoff": 26119, "Ħ±": 42235, "Ġdome": 27191, "Ġprobabil": 31959, "Ġcivilian": 23386, "ĠSiber": 42608, "éģİä¾Ĩ": 49950, "Ġje": 1506, "Ġë¶Ģëĵľë": 47358, "Ġelderly": 19682, "<|so|>": 50326, "Ġ401": 37510, "Ġì¼": 25777, "Mon": 32498, "Ġglide": 41848, "Ġapartment": 9587, "Ġhelmets": 42022, "ounge": 27066, "Ġnosotros": 13863, "Ġbon": 4428, "á»©c": 27138, "thur": 15915, "Ġhonorable": 36322, "esus": 26739, "auer": 18120, "ÑĭÐ¼Ð¸": 24670, "rets": 9675, "Ġheights": 25930, "Ġord": 4792, "Ġfacto": 42225, "prisingly": 34408, "ĠHas": 8646, "Ġglove": 26928, "Ġconditioned": 35833, "rang": 32926, "á»ĵi": 15695, "Ð¹": 1644, "ÑĥÑĤ": 3767, "family": 44433, "Ġzoo": 25347, "orig": 20632, "agens": 27936, "Ø«Ø±": 49115, "tant": 35717, "ĠNorthwest": 26068, "Ġsha": 3230, "ÐµÐ»Ð¾": 24846, "ŀľë§Į": 46034, "Ġdivision": 10044, "lleicht": 10631, "owania": 21308, "Ġfold": 4860, "irk": 18610, "His": 26864, "Ġhabitual": 46883, "Fl": 25680, "ĠÐ¼Ð°Ð¹": 41860, "Ġfinancially": 20469, "Ġloh": 46957, "ĠReese": 49474, "<|2.86|>": 50507, "éĨ«": 48351, "<|18.52|>": 51290, "åĹ¯": 21206, "Ġorigins": 22721, "ĠÂ°": 31462, "Ġchang": 1534, "Ġknives": 26279, "ĠÑĤÐ¾Ð³Ð´Ð°": 21696, "Ġhero": 5316, "Ġê±¸ë": 37248, "Ġpatriarch": 46012, "Ġå¥½": 12202, "heard": 42915, "ĠSAND": 44097, "Ð¾ÐºÐ¸": 48110, "Ġcough": 22777, "ĠThomas": 8500, "cera": 41034, "Ġdah": 16800, "Ġdesap": 36546, "ĠWorks": 27914, "Ġìľłë": 22262, "Ġvoor": 7358, "ĠFreedom": 22208, "Ġvortex": 49113, "Ġbald": 21096, "Ã¡r": 20335, "Ð½Ð¾Ð¼": 9950, "Ġcommanded": 34359, "Ġpony": 27342, "ĠHerausforder": 37888, "Ġucz": 35403, "atge": 45993, "Ġ×Ĳ×ķ": 33038, "atility": 20758, "YA": 34349, "ĠÑģÐ¸ÑģÑĤ": 21351, "ãĥ¼ãĤ¸": 44143, "bang": 20106, "Ġtrend": 6028, "ancia": 22862, "Ġtemat": 32954, "habt": 35641, "âĿ¤": 48853, "ĠJahres": 44360, "Ġstray": 36219, "Ġstaffing": 38918, "Ġcoinc": 13001, "Ġpneumonia": 43097, "Ġinclusive": 13429, "Ġpolicymakers": 47325, "ben": 1799, "Ġpulls": 16982, "Ġvallahi": 45338, "Ġê·¸ëŀ": 18158, "Ġdic": 14285, "Åį": 27243, "Ġreputation": 13061, "<|15.98|>": 51163, "Ġdeny": 15744, "Ġnights": 13249, "uries": 8318, "èĸ": 27746, "xo": 49050, "geois": 49670, "acle": 7041, "<|7.44|>": 50736, "Ġalternatives": 20478, "Ġzost": 31873, "Ã§i": 45860, "ĠÑĥÐºÑĢÐ°ÑĹ": 48350, "Ġdiss": 7802, "ĠCalm": 23086, "ĠAssessment": 47643, "ĠBao": 42099, "ĠÐ¿ÑĢÐ¾Ð²Ð¾Ð´": 33924, "Ġcoaster": 28442, "ied": 1091, "Ġlei": 32791, "ĠYam": 18992, "ĠJohann": 34094, "Ġchickens": 22329, "quin": 29360, "Ġlog": 3565, "ÑĩÐ¸Ð²": 28373, "ule": 2271, "Ġdad": 3546, "Ġspecification": 31256, "Ġsonic": 48725, "ANS": 25711, "Will": 18996, "Ġcess": 47052, "Ġfellowship": 24989, "Ġhurts": 11051, "ĠSÃŃ": 12375, "Ġ==": 4141, "Ġfilms": 7796, "Ġactivates": 43869, "Ġdem": 1371, "Ġtools": 3873, "Ġmetabolismo": 47889, "Ġworthless": 34857, "Ġnorm": 2026, "heus": 42209, "ĠOperation": 27946, "Ġdetailed": 9942, "Ġdungeon": 27919, "Ġlira": 47723, "fore": 845, "Ġmicros": 15547, "Ġvulnerability": 24210, "Ġfiltration": 43623, "Br": 22170, "Ġsubmarine": 33995, "ĠSchwar": 46487, "ĠRede": 39056, "Ġhealthcare": 8884, "nen": 2866, "Ġblaming": 32364, "ĠëĬ": 7707, "ĠÑĩÐµÑĤÑĭ": 39644, "\"!": 18808, "ãħĭãħĭãħĭ": 30021, "Ġturns": 4523, "Ġammon": 36431, "idÃ¤n": 33823, "ĠÐ²ÑĭÑĪ": 33994, "Ġcircumstance": 27640, "è·": 6563, "ĠStra": 12875, "ĠÐŀÑģ": 38590, "Ġgovernors": 36571, "Ġederim": 37749, "ometown": 21462, "Ġluxurious": 30840, "ÐµÐ»Ð¸": 8334, "ĠRim": 44034, "Ġtoi": 15648, "Ġprogramming": 9410, "ÐµÐ½Ð¸": 2495, "ĠLetter": 43426, "Ġzeigt": 29250, "åĨį": 8623, "Ġginger": 14966, "ĠÑģÐ»Ð¸ÑĪÐºÐ¾Ð¼": 40576, "Ġê°Ļ": 4385, "owane": 23066, "Ð¾ÐºÐ¾": 32622, "down": 5093, "ĠÐ¼Ð½": 16338, "Ġstaring": 18043, "Ġhitch": 33259, "-\"": 36217, "ĠBody": 21329, "Ġliters": 32323, "ĠLouisiana": 25413, "ĠÐ²ÑĭÑģÐ¾Ðº": 35998, "ĠHoney": 16187, "liest": 16850, "ĠBlade": 32230, "Ġcontacts": 15836, "Ġpopula": 32166, "Ġrigt": 46159, "rogen": 7747, "Ð°ÐµÑĤÑģÑı": 6970, "aste": 9079, "ĠæĪĳåĢĳ": 27338, "icket": 20551, "×Ĳ×Ł": 43913, "ĠLeague": 11199, "Ġirrelevant": 28682, "Pat": 29331, "Ġspor": 43729, "Ġ>": 12331, "ĠEsther": 37731, "Ä±ÄŁ": 7366, "Ġproviding": 6530, "cyj": 42949, "ĠParks": 30431, "Ġcookies": 13670, "ĠFriend": 22812, "Ġdot": 5893, "metal": 39857, "Ġnaw": 18969, "ĠKinder": 14193, "Ġactivation": 24433, "æ¨¡": 41908, "ota": 5377, "Ġarise": 20288, "Ġê¸": 4291, "ĠSie": 3559, "ĠCastle": 21076, "cksÃ¥": 13238, "Ġlucky": 6356, "ĠtaÅŁ": 37276, "Ġspeechless": 48450, "Ġlacks": 31132, "Ġzac": 34430, "yl": 5088, "Ġpineapple": 25740, "peut": 22282, "Ġfij": 42001, "Ġsagte": 36771, "ĠÐ¾ÑĤÑģ": 29870, "ĠdokÅĤad": 45864, "Ġlon": 9155, "Ġtentar": 33572, "ĠIowa": 14514, "Ġspeakers": 9518, "Ġacts": 10672, "ĠMozart": 42653, "ìĽĲ": 7573, "Îº": 4915, "nej": 11794, "Ġtabs": 20743, "Ġabbrevi": 35839, "Ġfoundational": 32195, "åħ³": 28053, "Ġdont": 9400, "ä»Ĭå¤©": 12074, "Ġkitten": 39696, "Ġmedal": 21364, "ĠRealm": 44723, "ĠGeorgetown": 34848, "<|8.06|>": 50767, "ĠNan": 18852, "<|19.56|>": 51342, "Ã¡stico": 44855, "Ġhm": 35481, "udes": 10131, "Ġfunded": 14385, "Ġbiomedical": 49775, "Ġtransm": 7715, "Ġleisure": 31339, "ĠpersÃ¶n": 31228, "rategy": 37464, "<|6.84|>": 50706, "IDE": 29283, "ĠOp": 12011, "Ġequival": 9052, "ĠCU": 29777, "ĵľë¦´ê²ĮìļĶ": 41413, "Ġett": 5431, "two": 20534, "ĠÑĤÐ°Ð½": 33344, "Ġarrog": 22149, "itzerland": 22932, "ĠahÃŃ": 12571, "Ġcuer": 18363, "Ġget": 483, "edar": 34385, "ĠLav": 30966, "ÐºÐ¾ÑĹ": 48939, "Ġdevote": 23184, "ĠtambiÃ©n": 6407, "<|5.84|>": 50656, "<|20.68|>": 51398, "ŀľë": 27273, "Ġbreeze": 24532, "ļ©": 22621, "ĠDenmark": 28065, "ĠÐ°Ð±ÑģÐ¾Ð»ÑİÑĤ": 32078, "ĠTexas": 7885, "Ġpromote": 9773, "Ġden": 1441, "elly": 7442, "Ġresolve": 14151, "Ġgraphics": 11837, "Ġcentigrade": 44731, "Ġsimulate": 27817, "Ġom": 3406, "Ġglands": 49533, "ĠAllÄģh": 41778, "ĠÐ½Ð¾ÑĢÐ¼Ð°Ð»ÑĮÐ½Ð¾": 39601, "Ġshadow": 8576, "ue": 622, "Ġtruly": 4908, "ĠlÃ¤sst": 29335, "Ġbreed": 18971, "ĠFang": 25409, "kÅĤad": 15317, "Ġupd": 3460, "ÃŃll": 40641, "Ġperhaps": 4317, "Ġbos": 30641, "Ġwisdom": 10712, "ÑĨÑĸÑĹ": 34780, "Ġstimmt": 37799, "ä¸ĢçĤ¹": 49042, "eny": 43100, "Ġsarc": 36836, "×ł×Ļ": 22348, "Thanks": 27917, "ECH": 36880, "lasting": 29346, "Ġpreserving": 33173, "Ð¸Ñı": 7409, "Ġplate": 5924, "Ġstated": 11323, "ppe": 19833, "Ġstr": 1056, "ross": 1887, "ĠDrug": 35806, "Ġpixel": 19261, "ĠThus": 13827, "´ì": 1041, "á»ģn": 26871, "Ġ125": 25276, "ric": 1341, "2021": 35016, "Ġhighs": 29687, "ĠPastor": 34289, "ĠLess": 18649, "ĠÐ»Ð°Ð´Ð½Ð¾": 44107, "rays": 36212, "uren": 9873, "Ġcomida": 30779, "Est": 29545, "Ġkne": 32704, "uine": 15516, "ĠEPA": 27447, "eld": 5957, "ĠMayor": 13925, "inf": 19920, "Ġnoticeable": 26041, "Ġcarrier": 17574, "ĠÐ¾Ñģ": 8940, "ĠìĤ¬ëŀĳ": 22581, "ĠReporting": 44229, "ĠÐľÐ¾Ð¶Ð½Ð¾": 34423, "adÄ±": 35287, "Ġrecognizes": 26564, "Ġpollution": 16727, "ĠtÃ¤n": 19790, "ĠÐ¿Ð¾Ð·Ð²Ð¾Ð»": 28805, "ĠpodrÃŃa": 27246, "Ġduty": 9776, "ĠÐ°Ð¼ÐµÑĢÐ¸Ðº": 34958, "Ġnotice": 3449, "Ġtransparen": 16165, "ĠÐ°": 2559, "à¸ķ": 11526, "Ġì§Ģê¸": 46253, "Ġdisguise": 32751, "Ġreiterate": 33528, "du": 769, "Ġresposta": 42126, "ĠVill": 14244, "Ġprosecutor": 32836, "Ġselon": 37391, "ĠAuthority": 29824, "iedo": 36035, "ê°": 1126, "ĠNous": 15343, "Ġdrown": 20337, "union": 42137, "Ġsaying": 1566, "Ġejerc": 39151, "Ġdobry": 35884, "ĠWhole": 30336, "ĠìķĮëł¤": 38654, "Ġprzeci": 39622, "ĠìĻĦë": 36683, "Ã¼r": 1655, "Ġmerchandise": 34485, "×ĳ×¢": 36684, "Ġrule": 4978, "<|6.26|>": 50677, "ĠBeijing": 20240, "rÃ©": 10521, "Ġhombre": 26102, "imo": 6934, "Ġcenters": 10898, "ĠLanding": 49458, "ĠÐ¿ÐµÑĢÐµÐ¿": 48702, "ieved": 46515, "ĠpoblaciÃ³n": 42769, "æĿ¿": 43664, "ÑĸÑĶ": 46592, "VIN": 27487, "Fil": 39933, "Ġpers": 868, "mez": 19917, "Ġtumb": 42994, "ĠChapel": 48203, "odle": 30013, "å¦ĤæŃ¤": 48487, "Ġcush": 18422, "Ġmassacre": 41076, "erer": 29566, "ĠKat": 8365, "elu": 34813, "<|15.04|>": 51116, "ĠforcÃ©": 30137, "Ġoutrage": 25933, "ĠBundest": 43825, "ĠKung": 44317, "Ġtai": 20499, "AD": 6112, "ÏĦÎ±Î½": 26263, "ĠÐ²Ð¾Ð·Ð¼": 18077, "Ġdiscour": 21497, "Ġranks": 21406, "fed": 33712, "ìī¬": 34136, "ãģĬé¡ĺãģĦ": 28074, "ĠÂ»:": 40795, "ĠBuffalo": 33855, "Ġmastered": 38686, "rate": 4404, "Ġexpected": 5176, "ĠÐŀÐ¹": 42724, "ĠOlga": 48288, "Ġaccommod": 11713, "Ġseria": 20809, "Ð°Ð½ÑĤÐ¸": 47483, "istics": 6006, "Ġ×ľ×Ĳ×": 45087, "Ġpatriot": 44210, "73": 33396, "Ġliked": 4501, "Ġvrij": 45547, "ĠInvestment": 43427, "Ð¼ÐµÑĢ": 12676, "unun": 38411, "ĠÈĺ": 38127, "Ġlipstick": 22543, "ìĿ´ìĹĲìļĶ": 15099, "ĠMex": 6496, "Ġdua": 40173, "Ġãģĵ": 14384, "Ġhonor": 5968, "Ð³Ð°": 18706, "ao": 25548, "Ġbet": 778, "Ġmate": 11709, "ç§Ĵ": 20956, "Ġgew": 6906, "ÑĳÐ·": 50124, "Like": 19657, "Ø¯Ùħ": 40448, "Ġdevi": 31219, "ĠKunst": 40099, "Ġoutward": 26914, "Ġsos": 27226, "oration": 9357, "ĠComedy": 47217, "Ġconect": 30458, "ĠÎ": 1158, "ĠCinderella": 47980, "ĠÃºnico": 26113, "prints": 25788, "Ġeinem": 6827, "akap": 49904, "âĢĵ": 5815, "rand": 3699, "ĠHeather": 21728, "iÄħ": 11404, "ĠÃ©poca": 25024, "Ġloses": 18293, "Ġplenty": 7140, "icks": 7663, "Ð°Ð½ÑĮÑĪÐµ": 35159, "Ġjournal": 6708, "<|24.74|>": 51601, "<|11.02|>": 50915, "Ī¬ë": 48458, "Ġbeginnen": 40326, "us": 301, "<|1.60|>": 50444, "ĠItem": 31066, "ajÄħc": 38757, "Ġbilling": 35618, "ĠTell": 5115, "Ġadmissions": 29856, "ĠKoh": 30861, "åł±": 17803, "Ġscrap": 23138, "Ġtribute": 24722, "ĠMcCain": 49725, "Ġbene": 2537, "wing": 7904, "Ġparade": 26128, "Ġni": 3867, "Ġsuo": 34197, "iern": 49584, "ĠClock": 46986, "ĠJaz": 45640, "ĠBerkeley": 23684, "Ġcierto": 28558, "orro": 47385, "Ġbadly": 13425, "Ġtengan": 46874, "cÃ¼": 49694, "Ġdisad": 15828, "ĠAprÃ¨s": 29265, "ĠÐĳÑĥÐ´": 40208, "<|23.48|>": 51538, "Ġvolley": 30951, "Ġtolerate": 25773, "Ġselber": 23888, "<|23.12|>": 51520, "Are": 13332, "Ġtrouble": 5253, "Ġhead": 1378, "Ġquo": 28425, "Ġinventor": 41593, "ervice": 25006, "Ġseas": 22535, "ħĦ": 35530, "Ġchann": 2078, "ĠCensus": 34273, "Ġcomments": 3053, "ĠRYAN": 32354, "Ġreps": 27007, "Ġgap": 7417, "ĠZeus": 35003, "Ġhom": 3655, "Ġprede": 24874, "éĿ¢": 8833, "ĠTechnology": 15037, "Ġafterward": 40411, "ĠRice": 19386, "´": 112, "åŃ©åŃĲ": 48989, "akk": 44310, "ĠÐ·Ð¾Ð²ÑĥÑĤ": 46376, "<|9.68|>": 50848, "ĠExact": 7199, "Ġmurderer": 28703, "Ġbringt": 36008, "åıªæľī": 35244, "Ġchopping": 35205, "Ġexplos": 9215, "Ġleaves": 5510, "Ġbullied": 33603, "Ġomn": 36874, "Ġcargo": 19449, "Ġâĸ": 29405, "Ġbudgeting": 47855, "Ġjakim": 49410, "ĠÃ¸": 43008, "Ġportfolio": 12583, "ians": 2567, "Ġìµľê·¼": 37349, "ãģĤãĤĭ": 24719, "Ã¶rt": 11454, "Ġentrepreneur": 14307, "ĠÄ": 2127, "ĠAlert": 44939, "else": 44408, "ĠÐ²Ð¾Ð´": 14545, "hon": 34914, "Ġdull": 23471, "Ġkill": 1961, "Ġned": 25614, "<|20.26|>": 51377, "<|4.06|>": 50567, "ĠÑĢÐ¾Ð±": 30971, "Ġthesis": 22288, "¸ë¦¬": 14981, "Ġmigration": 17011, "ĠBrad": 11895, "ĠÐŁÐ¾ÑĤÐ¾Ð¼Ñĥ": 23671, "ĠÐ¸Ð·Ð¼ÐµÐ½": 30345, "burg": 8342, "ëıĻ": 23056, "éĥ": 11178, "illas": 20243, "Ġcal": 2104, "ĠChallenge": 17517, "ĠScalia": 47899, "Ð½Ñİ": 18672, "Ġadjusting": 23559, "dock": 48341, "Ġgrilling": 49961, "Ð»Ñĥ": 39852, "Ġdell": 19781, "Ġshift": 5513, "cent": 2207, "Ġtra": 944, "Ġspont": 20795, "Ġtightened": 49673, "Ġbreakthrough": 22397, "ĠDat": 9315, "izada": 39600, "ĠPub": 21808, "izable": 22395, "Ġfaction": 37249, "ĠÐ·Ð°Ð¼ÐµÑĩ": 41618, "Ġanni": 31164, "ĠëĲľ": 16975, "ĠÃ©crit": 41700, "ĠÐºÐ¾Ð¼Ñĥ": 40158, "Ġvin": 27037, "aza": 12257, "Ġpendant": 17338, "Ġmonitored": 36255, "Ġhoriz": 7937, "Ġcold": 3554, "Ġlogo": 9699, "Ġbuckets": 32191, "ĠVER": 27686, "Sil": 34384, "Ú¾": 14268, "<|2.64|>": 50496, "ĠFocus": 21862, "Ġbasement": 16893, "<|24.20|>": 51574, "Ä±k": 4157, "è©ķ": 39115, "ØªÙī": 49975, "Ġsill": 37160, "éīĦå¡Ķ": 26325, "ĠJay": 11146, "ĠKalau": 36366, "Ġsevent": 12100, "ĠKoch": 40401, "Ġmac": 7912, "Ġwyst": 48255, "Ġhapp": 782, "ĠFL": 24720, "oper": 7192, "ounds": 4432, "Ġclos": 2611, "duction": 40335, "Ġautomatic": 12509, "aya": 4427, "Ġinfinite": 13785, "Ġmainten": 7780, "ĠPeople": 3432, "ltry": 49010, "Ġmes": 3813, "REW": 26543, "ĠMuhammad": 19360, "ĠPor": 5269, "eli": 10148, "Ġassembly": 12103, "Ġkelu": 40559, "ê²ĥ": 12735, "Ġquantidade": 39639, "Ġdefence": 25913, "Ġdigestive": 32696, "<|19.68|>": 51348, "REE": 44542, "Ġdislike": 26006, "ĠTrans": 6531, "Ġdeg": 2821, "Ġconsort": 38343, "ĠyÃ¼z": 16162, "love": 28459, "uft": 25005, "ienna": 26143, "ĠÐ³Ð¾Ð»Ð¾Ð²": 24721, "ĠOrganisation": 49425, "ĠìķĬê³ł": 31157, "Ġcuidado": 31891, "Ol": 38056, "ogue": 7213, "ĠSpicy": 35999, "Ġini": 7408, "Ġsous": 16686, "Ġwalked": 7628, "Ġsubscribers": 11092, "Ġcler": 25902, "fend": 18676, "Ġek": 13359, "pack": 9539, "<|20.08|>": 51368, "Ġseized": 33912, "ĠConsort": 31719, "ĠBEC": 45090, "Ġprint": 4482, "ĠkonuÅŁ": 17311, "Ġstret": 27678, "Ġwiggle": 33377, "Ġfale": 26772, "ĠÃ©taient": 25999, "Ġurging": 48489, "Ġpirates": 33859, "arc": 40088, "Ġtomorrow": 4153, "ĠTaste": 33770, "ĠnÃ¥gon": 25418, "ril": 24216, "Ġrecordings": 25162, "ä»Ĭå¹´": 38937, "ĠSyria": 13314, "ãģĭãģª": 24939, "renched": 42388, "Ġyn": 17861, "Ġbudgets": 26708, "Ġencuentra": 43274, "uf": 2947, "ĠÐ¾ÑĤÐ²ÐµÑĤ": 25284, "ĲëıĦ": 22983, "Ġwriters": 13491, "ä¸Ģèµ·": 29567, "Ġcommunion": 42808, "Ġreply": 16972, "ì¤ĳìĹĲ": 33315, "Ġadolescent": 40193, "Ġinto": 666, "¨ë¦¬": 19407, "èº«": 19847, "ĠÑģÑĥ": 18272, "Ġglob": 16125, "noÅĽÄĩ": 23293, "ĠiPh": 42048, "ĠDNA": 8272, "ĠAre": 2014, "å¤´": 39862, "Ġë¶Ħëĵ¤ìĿĢ": 40821, "Mad": 33432, "Ġapoyo": 46151, "Ġpollen": 42482, "ĠHolland": 27201, "Ð´Ð¾": 36091, "icy": 2632, "Å¼e": 2875, "Ġvivre": 34248, "à¹Ħà¸Ľ": 30739, "Ġstatement": 5629, "Ġinflam": 15987, "Ġdisclosure": 30392, "Ġtragen": 44737, "Ġeld": 8912, "gesch": 23378, "Ġplanet": 5054, "èī": 12531, "Ġairflow": 45291, "ĠMOM": 46840, "ĠÐºÐ°Ð½Ð°Ð»Ðµ": 47677, "maybe": 39380, "ĠFerr": 25443, "Ġsesi": 13315, "Ġruntime": 34474, "ĠAriana": 43296, "ĠGreetings": 20032, "Ġkons": 27896, "ĠEstamos": 34563, "<|9.32|>": 50830, "ĠÐ²Ð¸Ð¶Ñĥ": 47813, "Ġconstituency": 46146, "æŁ": 17238, "Ġpaint": 4225, "ĠMcN": 48996, "Ġago": 2057, "ä¿Ŀ": 24302, "Ġharmful": 19727, "buster": 41148, "ì°": 5786, "ĠTie": 36804, "Ġpatron": 21843, "ĠGulf": 23033, "ĠHolo": 24298, "ruce": 41158, "Ġconsulted": 47941, "Ġforesee": 38736, "¢": 95, "nio": 41084, "Ġcustomer": 5474, "³¼ê²ĮìļĶ": 30060, "Ġnuclear": 8179, "Ġnast": 26088, "rue": 41729, "Ã¡t": 7656, "arrass": 8596, "Ġpunkt": 39561, "Ġquasi": 20954, "inct": 5460, "Ġê¹Ģ": 17376, "Ġwished": 25811, "Ġpredators": 29194, "ĠPRE": 44164, "Ġamer": 16116, "uw": 36824, "Ġwarranty": 26852, "<|28.22|>": 51775, "party": 23409, "Ġrejo": 22087, "Ġexchange": 7742, "æľĢè¿ĳ": 46777, "chin": 32167, "Ġtok": 19164, "Ġtrimmed": 44563, "Ġsup": 9331, "Ġaseg": 38174, "Ġpayoff": 46547, "Ġì¡°": 7430, "ĠÑĥÐ±": 13853, "Ġpair": 6119, "Ġcomplaining": 20740, "Ġequitable": 33730, "ç¶²": 26352, "Ġpract": 1927, "ĠNaomi": 35369, "´ìĭ¬íŀĪ": 30879, "orter": 6122, "Ġtwe": 6986, "Ġphosphate": 46542, "oded": 12340, "ĠMitgl": 44167, "ĠÐ·Ð°Ð¼ÐµÑĤ": 36124, "Ġoutgoing": 41565, "Ġmonde": 10431, "ĠÂ»,": 34319, "Ġvocabulary": 19864, "Ġsprink": 30885, "Ġï·º": 41122, "Ġspun": 37038, "Ġesp": 7089, "yor": 2454, "Ġconte": 34444, "Ġsoul": 5133, "ä»Ķ": 49385, "ann": 969, "Ð°ÑĤÐµÐ»Ð¸": 43512, "Ġpursuing": 20222, "Ġaucun": 35361, "Ġstretching": 19632, "ê·Ģ": 46862, "Ä±y": 8472, "ĠLed": 39367, "rr": 16115, "Ġdangers": 27701, "<|16.84|>": 51206, "ĠGlasgow": 40457, "ĠÐºÑĥÑĢ": 28975, "Ġstreaming": 11791, "Ġcheat": 17470, "oding": 8616, "åįķ": 47446, "ĠNet": 6188, "Ġefficiently": 19621, "Ù¾": 27779, "43": 17201, "Ð¸ÑĤÑģÑı": 8254, "ĠÑģÑĩÐ¸ÑĤ": 22413, "ĠÐ´Ð°Ð½": 19582, "Ġpropor": 41516, "Ġhay": 4842, "Ð¾Ð·": 3434, "Nick": 44387, "Ġlots": 3195, "flowing": 43955, "ĠNonetheless": 45437, "Ġquadratic": 37262, "Ġiets": 24791, "King": 39239, "Ġprimo": 38671, "ĠBUT": 23073, "ppers": 15226, "east": 22835, "çĶ·": 25243, "<|21.12|>": 51420, "Ġmodelling": 42253, "Ġcognitive": 15605, "BSCRI": 31622, "ang": 656, "Ġwillkommen": 46439, "Ġnein": 40041, "Ġunhealthy": 29147, "ĠHab": 14225, "ĠChild": 9004, "Ġromantic": 13590, "ĠRefer": 36889, "Ġpipelines": 40168, "Ġemer": 4345, "Ġpartly": 17031, "Ġë³´ê³ł": 18942, "Ġtor": 3930, "ĠÐŀÐ±": 22853, "<|17.70|>": 51249, "Ġcant": 11223, "Ġpaws": 46768, "<|14.86|>": 51107, "Ġworkloads": 32452, "ieth": 38449, "ĠpoczÄħtku": 43959, "Ġ×Ĳ×ĳ×ľ": 30186, "Ġcurtains": 36539, "Ġsprawd": 46192, "Ġbelongs": 12953, "Ġrij": 47237, "Ġprincess": 14742, "Ġcasts": 41921, "grunts": 37727, "ĠÐ¿ÐµÑĢÐµÐ´": 15621, "Ġrude": 18895, "Ġathe": 27033, "rylic": 24007, "Ġinvisible": 14603, "Ġmarine": 20246, "Ġclassmates": 24964, "ä¾ĭ": 17797, "ĠÄ°yi": 30786, "Kendra": 37530, "Ġdissolved": 30651, "Ġemit": 32084, "ĠRin": 33170, "Ġbump": 9961, "ĠMedien": 44030, "Ġprobable": 21759, "Ġnurses": 17446, "Ġcontrary": 19506, "æĩīè©²": 26087, "ĠÐ¿Ð¾ÑĤÐµÑĢ": 39363, "ĠMicrosoft": 8116, "Ġì¢ĭëĭ¤": 44891, "boat": 31883, "affles": 40349, "ĠÑĦÐ¸Ð½": 42020, "ĠRings": 38543, "ĠToo": 11395, "Ġmovements": 9981, "ĠGuid": 49036, "ĠMik": 16380, "Ġolmaz": 31593, "Ġpants": 10082, "ĠShopify": 43991, "ĠÃ¥t": 39502, "ĠK": 591, "Ġë´¤": 20727, "Ġbaker": 48148, "ĠThanksgiving": 21230, "Ġmode": 4391, "<|mr|>": 50320, "ĠOFFIC": 40579, "Ġassassin": 36294, "Ġmug": 23610, "Ġpathetic": 35506, "ĠÐ±ÐµÐ·Ð¾Ð¿Ð°Ñģ": 45015, "Ġglobal": 4338, "Ġrequired": 4739, "kach": 41326, "âĻªâĻª": 26130, "Ð½Ð¸ÑĨ": 36787, "ÙĦÙī": 23942, "Ġnigga": 41626, "emb": 33748, "Ġzam": 19876, "ĠCanyon": 29170, "Ġclic": 33661, "Ġrighteousness": 26407, "ĠÐ´Ð¾Ð»Ð³Ð¾": 37515, "ĠFamily": 11661, "Ġtents": 39283, "ĠÐŁ": 2608, "Ġcircuits": 26354, "ĠOj": 47100, "ĠÐ¾Ð¶Ð¸Ð´": 47136, "Ġaltro": 40924, "ãĤī": 5154, "Ġapproximation": 28023, "omic": 21401, "ĠPromise": 34878, "Ġpatrol": 26305, "Ġdiscern": 30868, "ìĿ´ìĸ´": 49395, "ÐµÑĢÑĮ": 9352, "Ġë§ĽìŀĪ": 13441, "§Ģ": 11061, "Ġcorporation": 22197, "ĠChannel": 13553, "ìķĺ": 9106, "Ðł": 11179, "enteen": 29542, "ĠëĤĺê°Ģ": 37011, "48": 13318, "ĠIdaho": 36628, "Ġantioxidants": 48767, "Ġpagan": 38238, "<|20.00|>": 51364, "ĠCAS": 43268, "Ġmaniac": 47193, "Ã©sus": 49776, "Ġcontains": 8306, "ISSA": 29001, "<|25.56|>": 51642, "del": 18105, "Ġbiggest": 3880, "Ġsealing": 48678, "Ġspoons": 36316, "Ġchaos": 14158, "Ġlam": 24688, "Ġdiscovery": 12114, "ĠRadi": 37806, "izar": 9736, "Ġclaim": 3932, "Ġ14": 3499, "Ġanalogy": 21663, "Ġnineteen": 31555, "Ġdesserts": 37913, "Ġoppressed": 39640, "Ġqualc": 32101, "ĠÐ²Ð¸Ð´ÐµÐ»": 40718, "ĠTibet": 28884, "ared": 1642, "Ġearrings": 31902, "Ġprzysz": 44018, "Ġrepertoire": 49604, "Ġstripped": 33221, "Ġojos": 39519, "Ø§ÙĬ": 47302, "Ġastron": 11117, "ĠStri": 20390, "Ġcarne": 30089, "Ġbras": 19993, "Ġcontract": 4364, "ëĤ´": 25141, "ĠTerry": 21983, "/.": 48550, "Ãĩ": 27707, "Ġorgas": 44834, "<|17.72|>": 51250, "Tell": 36152, "gomery": 34036, "ĠWahl": 27437, "Ġkilling": 8011, "Ġpermite": 31105, "Ġleur": 9580, "<|25.94|>": 51661, "SA": 8886, "ĠPanther": 33046, "Ġeth": 6468, "aghetti": 24402, "lab": 44990, "Ġencompass": 28268, "cn": 16279, "ĠSmall": 15287, "ĠposiÃ§Ã£o": 49842, "ode": 1429, "ĠÐ¿ÑĢÐ¾Ð¸Ð·Ð²Ð¾Ð´": 28685, "ÐµÑĩÐ½Ð¾": 11693, "Ð°Ð»Ð¸ÑģÑĤ": 36948, "Ġbore": 26002, "Ġwa": 5406, "Ġsoldier": 15632, "icia": 15341, "180": 37078, "Ġrasp": 49399, "borah": 37288, "Ġtob": 20676, "Everyone": 29033, "pected": 10729, "Ġinvestigations": 25582, "Ġgeared": 35924, "Ġcaliber": 41946, "ĠìŀĪìľ¼ëĭĪê¹Į": 44489, "Ġengagement": 8742, "altra": 38865, "ĠDoesn": 12955, "Ġmentality": 21976, "Ġhoras": 19548, "Ġill": 3171, "orden": 19058, "ĠAustrian": 41507, "ĠÑĢÐµÐ´": 42845, "Ġrhythmic": 46967, "Ġ×©×ł": 30222, "ĠNY": 26032, "ĠìĿ´ê²ĥëıĦ": 42118, "ussen": 29202, "sehen": 27750, "ittle": 703, "Ġsacrific": 14108, "Ġvolver": 33998, "Ġintroduction": 9339, "<|13.08|>": 51018, "Ġcharacterization": 49246, "sequ": 11834, "Ġconverting": 29942, "<|27.68|>": 51748, "blind": 47494, "Ġpairing": 32735, "Ġbenefiting": 47515, "ĠannÃ©es": 21203, "Ġion": 17437, "<|22.46|>": 51487, "Ġpayer": 38230, "ĠÐŁÐµÑĢÐ²": 34182, "ĠGam": 24723, "Ġlance": 39234, "åĭķ": 12572, "Ġlac": 28027, "Ġreproduction": 33934, "Ġdefeat": 11785, "<|2.08|>": 50468, "ĠSny": 49464, "ĠëĲĺìĸ´": 41210, "Ġsaw": 1866, "Ġëĭ¨": 16818, "Ł¼": 15375, "Ġplay": 862, "Ġduct": 25954, "arrator": 7215, "Ġappelle": 34216, "ins": 1292, "Ġusually": 2673, "Ġcontrole": 46215, "ĠWi": 14035, "Ġlending": 29823, "Ġcaus": 3302, "Ġdels": 23724, "ĠResponse": 43937, "Free": 45479, "ĠsÅĤu": 48459, "Ġparcel": 34082, "ĠOS": 12731, "Ġìĺ": 2355, "olved": 29110, "Ġcond": 2224, "oooo": 12506, "Ġrare": 5892, "Ġbreakup": 38492, "Ġheadache": 23520, "ĠExtra": 29429, "ĠIci": 39049, "ĠT": 314, "ĠDead": 12550, "ĠDisability": 47636, "stones": 38702, "Ġtad": 29622, "ĠStatus": 47409, "ĠAli": 12020, "Ġmoto": 42192, "ĠCe": 8257, "ĠÐ¸Ð½Ð¾Ð³Ð´Ð°": 43749, "Ġanalyt": 10783, "Ġrester": 37197, "ĠAriel": 37201, "ĠBÃ¤": 47571, "Ġapron": 46742, "Ġeating": 3936, "Ġassure": 20968, "ÑĥÑģÐºÐ°": 33101, "Ġavoided": 24890, "Ġcomic": 13900, "Ġphi": 13107, "Ġkr": 15913, "Ġthread": 7207, "ifice": 10505, "Ġtrying": 1382, "Ġgels": 39196, "iar": 9448, "Ġhatten": 20441, "åĳ³": 17268, "Ġtowel": 15755, "Ġplacebo": 42779, "ĠÐ¾ÑĤÐ´": 22243, "<|21.40|>": 51434, "ÐºÐ°Ð¼": 38708, "Ġå°±": 32609, "Ġmit": 2194, "Ġ×ŀ×Ľ": 44698, "Ð°ÑĢÐ¸Ñī": 43028, "Ġtransluc": 45266, "Ġintrodu": 2814, "ĠÐ¿ÑĢÐ°Ð²": 10615, "Ġoriginated": 31129, "Ġrepeated": 10477, "mal": 5579, "NY": 27647, "ĠEco": 40263, "Ġshopping": 8688, "power": 9513, "Ġwordt": 20365, "Ġtandem": 48120, "Ġend": 917, "ĠPractice": 27904, "ĠGH": 40690, "×©×ľ": 43911, "Ġplast": 35636, "Ġlocker": 25707, "driven": 25456, "Ġrepresentatives": 18628, "Ġwieder": 6216, "Ġbeneficiaries": 49937, "Ġopini": 46784, "xe": 36949, "Ð°Ð½Ð¸Ñĩ": 44819, "Got": 37373, "Ġmasses": 23935, "++": 25472, "ĠMurphy": 28549, "Ġniew": 43622, "ĠKazuto": 38031, "Ĥ´": 22485, "ĠhoÅŁ": 37063, "ension": 3378, "ĠAntarctica": 39866, "Ġleather": 12821, "ĠBacon": 42460, "ogr": 47810, "Ġwyn": 31936, "Ġexclude": 33536, "Ġluckily": 22880, "ĠÑģÐ¾ÑĤ": 32206, "Ġtimer": 19247, "aron": 6372, "moil": 43683, "éĢĻ": 2664, "ĠÐ½Ð°ÑĩÐ¸Ð½Ð°": 21995, "Ġunused": 44383, "ìŀĲëĬĶ": 36958, "!*": 32854, "Ġpode": 7468, "Ñĸ": 1827, "Ġmetabol": 19110, "Ġfibers": 25252, "ìŀĲë¥¼": 38134, "ĠØ¨Ø¹Ø¯": 39182, "Ġausge": 31899, "ĠGuin": 44117, "Ġbulbs": 32871, "ĠCoc": 30430, "Ġcomun": 11040, "neg": 28561, "Ġtraces": 26076, "sque": 44516, "Ġtenants": 31216, "ĠÑĤÑĭÑģÑıÑĩ": 25025, "Ġmadam": 28882, "Ġexperienced": 6751, "ìĥĪ": 28319, "Ġëª©": 20433, "Ġrepresent": 2906, "Ġcompris": 31711, "Ġoverview": 12492, "Ġworthy": 14829, "Ġlongtemps": 32437, "nings": 24451, "Ġtar": 3112, "Ġimpact": 2712, "Ġcharacter": 2517, "Õ¡Õ": 23279, "illed": 6261, "Ġmodel": 2316, "Ġhardships": 41351, "×ķ×Ľ": 24925, "ĠBeach": 14866, "Ġveget": 5764, "ĠPersonality": 44523, "ĠOft": 37112, "Q": 48, "ìĬ¤ë": 12969, "çľŁçļĦ": 8034, "ician": 9027, "Ġnectar": 49943, "Ġrein": 6561, "rec": 13867, "ĠButt": 40801, "ìĹĲëıĦ": 21016, "Ġdlatego": 32205, "Ġopioid": 32837, "ĠApp": 3132, "with": 11820, "ĠÐ±ÑĥÐ´ÐµÑĤ": 7306, "Ġê°ľ": 14552, "seven": 44476, "Ġbilmiyorum": 48699, "Ġriff": 36798, "ĠSafe": 27030, "Ġmentioned": 2835, "Ġadministrator": 25529, "Ġmeet": 1677, "æľŁ": 16786, "Ġarb": 25613, "ĠHAVE": 30309, "ĠpÃ¤Ã¤": 32764, "Ġstationary": 30452, "Ġëĵ¤ìĸ´ë": 46088, "Ġinsignificant": 43685, "Ġtul": 30210, "Ġendangered": 37539, "Ġheavy": 4676, "ĠYOUR": 25166, "riage": 6200, "ĠKaiser": 42066, "ĠpolÃŃtica": 25029, "Ġmustard": 23659, "ucht": 10084, "ĠTi": 20456, "Ġê´ľì°®": 18286, "èŃ": 11823, "Ġconstituents": 30847, "Ġdiarr": 37565, "Ġmorgen": 36593, "Ġwanted": 1415, "ĠWilly": 42238, "Ð»ÐµÐº": 16170, "ìłķ": 6170, "äºĽ": 13824, "Ġridiculously": 41358, "Ġspite": 22794, "Ġtroubled": 29402, "ĠApplication": 39512, "Ġinfrast": 6534, "hun": 42898, "Ġcombinations": 21267, "ãĤ¸": 14655, "Ã¤g": 50041, "ĠíĸĪìĸ´": 49528, "Ġdolphins": 44835, "Ĩµ": 9999, "ĠëĮĢíķ´ìĦľ": 27382, "ĠØ§ÙĦØ£": 16247, "Ġsuggest": 3402, "ÏĢÎ¿Ïħ": 49434, "ĠwÅĤaÅĽnie": 14234, "ĠSeite": 19748, "Ġdetect": 5531, "Ġì¹ľ": 15801, "Ġowning": 29820, "ĠNev": 22673, "watch": 15219, "Ä±p": 17091, "Ġgosto": 32022, "ĠelÃ©t": 36920, "Ġ250": 11650, "Ġintroductions": 48032, "Ġretrieve": 30254, "Ġ66": 21126, "Ġgiá»Ŀ": 28689, "pered": 40004, "åįĩ": 41670, "Ġtokens": 22667, "inku": 48669, "Ġolive": 15981, "prises": 19547, "Ġmarks": 10640, "Ġworse": 5324, "<|14.26|>": 51077, "ĠHour": 38369, "<|9.74|>": 50851, "ĠíħĮ": 30516, "Ġrelevance": 32684, "Ġcarbs": 30801, "dade": 45894, "Ġkad": 8064, "ĠChristine": 24038, "uÃ©": 42423, "ä¹Łæĺ¯": 22021, "èħ": 21184, "cjÄĻ": 41960, "Ġorgans": 20659, "ìĨ": 5148, "bl": 5199, "Ġclosed": 5395, "Ġshovel": 29789, "Ġbrat": 47869, "Ġsearching": 10808, "æĦ": 4820, "Ġpackaging": 16836, "ĠArmed": 42024, "ĠÃ©ta": 21325, "Ġk": 350, "Ġgymn": 35760, "Ġautomotive": 32866, "Ġë§Įëĵ¤ìĸ´": 39001, "Ãªmes": 31145, "Ġ×Ľ×Ļ": 44826, "ĠRomeo": 33563, "itch": 1549, "ifica": 43377, "ĠSloven": 50122, "ĠPublic": 9489, "<|22.96|>": 51512, "<|29.14|>": 51821, "'m": 478, "ÑĥÑİÑī": 17249, "Ġadversary": 48222, "åĶ": 17198, "Ġraging": 44173, "åĳĬè¨´": 31080, "Ð¸Ð»Ð»Ð¸": 22578, "æŃ¢": 30438, "åĲį": 15940, "ĠBentley": 43147, "existing": 36447, "happy": 17888, "Ġdestroys": 36714, "ĠMush": 38188, "Ġguide": 5934, "Ġelkaar": 35930, "ĠInternal": 47836, "Ġsmo": 24101, "ĠÃ¼bers": 45022, "Ġwould": 576, "osas": 42393, "Ġfacilities": 9406, "Ġinflu": 4015, "Ġì¹´ë©ĶëĿ¼": 46984, "Ġregional": 10964, "ika": 5439, "Ġsignaling": 38639, "ĠÄĩ": 45854, "Ġgenerations": 10593, "netes": 22334, "Ġunbelievable": 16605, "ĠEls": 33437, "JI": 43038, "Ġmultiplying": 30955, "ĠÐ¼Ð½Ð¾Ð³Ð¸Ðµ": 37343, "ĠPsal": 26150, "Ġorganizer": 41363, "sold": 45537, "Ġarc": 10346, "ë": 167, "Ġthumbnails": 46987, "ĠVere": 33110, "HAEL": 21413, "ht": 357, "Ġkasih": 35894, "ĠDavidson": 44401, "uvre": 34171, "Ġexpans": 9672, "{": 90, "vocal": 42809, "³´ëĭ¤": 27655, "Ġê°ľìĿ¸": 36734, "Ġagrees": 26383, "Ġbrewer": 39440, "Ġcumpl": 37483, "leÅŁ": 33284, "ŀ¨": 43369, "ÑĳÑĤÑģÑı": 36651, "Ġspacecraft": 22910, "ĠtroisiÃ¨me": 47582, "Ġsettlement": 18130, "dogs": 42008, "Ãªt": 15519, "ĠGerilim": 30687, "ĠSomebody": 13463, "Ġanother": 1071, "Ġhighest": 6343, "ĠZi": 26190, "å·®ä¸įå¤ļ": 37876, "ĠBed": 19893, "Ġbiology": 14956, "agh": 14842, "Ġdat": 1137, "Ġshedding": 49934, "Ġpassword": 11524, "rel": 4419, "ĠjuÅ¼": 10678, "Ins": 43984, "çĶ¨": 9254, "ãĤĪãģĨ": 17010, "Ġkor": 14784, "<|11.46|>": 50937, "Ġë°Ķë": 9040, "ìĿ´ê°Ģ": 19556, "annel": 11444, "Ġbipartisan": 31954, "Ġfreedom": 5645, "Ġwitch": 14867, "<|ca|>": 50270, "ĠìĤ¼": 32391, "Ġbil": 8588, "ĠPresident": 3117, "ĠÎµÎ¯": 25090, "ankind": 40588, "Ġerad": 33078, "çĻ½": 13558, "ĠMonet": 47871, "Ġì¶¤": 40037, "ĠBusiness": 10715, "Ġstrawberry": 20440, "ĠJerry": 17454, "ĠDann": 7455, "ARK": 36402, "Ġunderstandable": 25648, "Ġquitting": 42789, "brig": 21674, "ĠMensch": 27773, "ĠÑģÑĤÐ°Ð²": 25709, "got": 13178, "Ġdisable": 28362, "ÑĥÐ´": 2955, "ĠDracula": 48950, "ocal": 36483, "Ġsurvivor": 25953, "Ġcollection": 5765, "Ġpurchases": 26762, "ĠChristian": 5778, "Ġincarcerated": 39059, "Ġsolar": 7936, "Ġbons": 33922, "45": 8465, "ÐĴÑĭ": 42392, "ĠYU": 33471, "Ġkir": 33497, "æīĢä»¥åĳ¢": 40685, "Ġ×ĳ×ª": 37613, "ì¢": 14227, "heres": 19464, "íĸĪëĭ¤": 42520, "Ġis": 307, "ulf": 5757, "Ġtuber": 39847, "ĠÐµÐ¼Ñĥ": 18220, "Ġoccupational": 43544, "Ġminced": 36442, "Ġmotive": 28827, "<|4.78|>": 50603, "<|23.00|>": 51514, "ĠÑĤÐµÑĢ": 21168, "ĠfÃŃsica": 46436, "Ġgio": 48508, "ç°": 24579, "Ġgrease": 24867, "vs": 36959, "ĠPitt": 22861, "ikka": 31688, "ãĥĲ": 18593, "Ġtype": 2010, "ĠSwed": 21617, "Ġbanquet": 49796, "edy": 6038, "ĠÑĤÑĥÑĤ": 12848, "Ġtraffic": 6419, "æĬĵ": 43069, "Ãĥ": 49126, "Ġmeant": 4140, "Ġimmens": 36893, "ĠReality": 33822, "Of": 23919, "<|2.42|>": 50485, "Ġìħ": 23567, "ĠSciences": 21108, "ĠWeber": 42690, "enk": 32160, "ĠNag": 18913, "Ġreads": 15700, "Ġciudad": 24329, "Ġhoard": 45940, "Ġcampaigns": 16840, "Ġexcit": 13101, "Sound": 44830, "ĠYeah": 865, "ĠFury": 40327, "Ġgrupo": 20190, "æĶ»": 41530, "Ġembarrassing": 17299, "ĠYoo": 22330, "Ġbikes": 16035, "Ġappointments": 25084, "funding": 45033, "Ġrespuesta": 40585, "Ġchunky": 45392, "Ġdogs": 7197, "ĠPaul": 4552, "ĠIsland": 7637, "Ġarmed": 16297, "ĠbakÄ±n": 43307, "è¨": 5396, "Ġstatistically": 36478, "utation": 11380, "igner": 36596, "Ġbooks": 3642, "Ġidee": 49742, "Ġnurt": 23705, "Ġarrangements": 22435, "Ġbrokers": 47549, "acz": 14875, "Ġ1961": 41720, "ĠTim": 7172, "Ġtails": 28537, ".*": 40538, "ÐµÐ¹ÑģÑĤÐ²": 14377, "ĠmÃºs": 38886, "Ġdimin": 15739, "Ġfetch": 23673, "Ġyear": 1064, "uki": 11788, "ĠÐ½Ð°Ð·": 15006, "yal": 7265, "isation": 7623, "Ġhundred": 3262, "ëĦ": 33386, "ĠCommerce": 34493, "ĠKund": 49759, "ieval": 21129, "Ġpantry": 40689, "ê»ĺ": 14033, "bread": 31051, "íķŃ": 43359, "arius": 27440, "Ġwarri": 13940, "Ġzaj": 33729, "Ġhunter": 22970, "Ġverdi": 40243, "Ġopposed": 8851, "ĠÐ·Ð½Ð°Ðº": 31949, "ĠHerren": 20810, "ÅĦst": 12229, "<|1.42|>": 50435, "ĠMaking": 14595, "Ġphys": 2529, "ð": 172, "cus": 1149, "ĠÐ¼Ð¾Ð¶ÐµÐ¼": 28815, "Ġstain": 16441, "Ġanxiety": 9119, "Ġspac": 39404, "ĠbÄ±rak": 24179, "ĠÐĴ": 2348, "ĠNancy": 18154, "ĠNike": 30397, "Ġfrente": 19873, "osit": 9598, "skin": 45299, "Um": 40937, "ĠWand": 40772, "igma": 16150, "ovich": 44844, "ĠwÅĤaÅĽciwie": 50108, "uties": 17899, "Ġseni": 21897, "entric": 32939, "ĠÐŁÑĢÐ¸": 22059, "Ġtaller": 22406, "Jan": 46356, "Ġmiejsce": 38122, "ĠBesch": 30860, "ĠFO": 23501, "YAN": 25326, "ĠMyst": 28510, "<|0.62|>": 50395, "Ġvegetarian": 25739, "Ġmains": 32519, "Ġwelcomed": 23668, "Ġclamp": 17690, "ĠMarty": 29192, "ĠThailand": 19434, "iscernible": 42758, "<|20.36|>": 51382, "Ġobservations": 18163, "§": 100, "ondere": 33447, "viol": 23566, "lÄ±": 9811, "Ġdoomed": 33847, "Ġtactical": 26323, "Ġintegr": 3572, "Ġ911": 26901, "áº¯c": 30838, "ĠíĬ¹ë³Ħ": 48735, "Ġbord": 25872, "ffe": 16349, "æł": 8987, "Ġlearner": 33347, "Ġearliest": 20573, "ĠÑĨÐµÐ½ÑĤ": 26845, "ëĭĪ": 1425, "inden": 10291, "dish": 40974, "ĠMuh": 15651, "ĠHybrid": 47088, "ĠFoods": 40724, "nt": 580, "Ġcruel": 16022, "ãģ¯ãģ¯": 25935, "ĠSyl": 33349, "ĠDutch": 15719, "å®¶": 5155, "Ġost": 32946, "Ġmaximum": 6674, "ighing": 24412, "ĠBirthday": 29236, "Da": 32409, "ĠSeÃ±or": 35054, "Ġconsiders": 33095, "Ġcatast": 19754, "Ġblade": 10959, "azz": 9112, "ĠCristo": 36524, "Ġlobb": 35673, "ĠLouise": 35962, "astre": 49199, "ĠÐ¿ÑĢÐ¾ÑĦ": 33011, "Ġsext": 42826, "ë§Ī": 15017, "Ġacontec": 35846, "ãģĹãģ¾ãģĹãģŁ": 44499, "å®®": 39194, "ÑģÑĤÐ²": 2981, "ĠPower": 7086, "ĠPerchÃ©": 47978, "Ġnombreux": 43260, "light": 2764, "anna": 1795, "Ð°ÑİÑĤÑĮ": 40381, "Ġloosen": 26169, "cle": 2160, "etzung": 38584, "otic": 9411, "ĠSci": 16942, "ĠBrady": 31773, "super": 48172, "ĵ±": 22205, "ÎºÎµ": 29846, "ĠNuclear": 42528, "Ġboss": 5741, "Ġspend": 3496, "åĪ°äºĨ": 21381, "ĠFact": 33375, "ĠFant": 12885, "urrection": 38451, "ĠOlaf": 48961, "Ġsusp": 6535, "Ġsolemn": 46694, "ĠMeghan": 32597, "Ġingred": 5621, "Ġrevenge": 16711, "ĠCha": 12374, "ĠVold": 48791, "Ġthereby": 28281, "berty": 48501, "Ġcompartment": 26505, "Ġcomplet": 1557, "acaÄŁÄ±m": 16763, "Ġhit": 2045, "ĠÐ¸Ð¼": 7604, "íķĺì§Ģ": 16175, "ĠMis": 23240, "Ġspotted": 21010, "Ø¨ÙĦ": 36150, "ĠTall": 42633, "<|6.74|>": 50701, "Ġtá»Ľi": 47679, "ĠÏģ": 40750, "æ°£": 24090, "<|25.86|>": 51657, "ĠâĤ¬": 17450, "ĠHarr": 13321, "Ġtener": 11640, "Ġgle": 48956, "Connie": 38102, "íķ´ìĦľ": 8275, "Ġshrinking": 41684, "ĠAust": 4126, "sed": 45036, "ĠPeterson": 36943, "Ġregulate": 24475, "rats": 25869, "24": 7911, "ĠÐ¿ÑĢÐ¸": 5082, "ink": 475, "ĠmontÃ³n": 45259, "Ġmencion": 37030, "ĠQing": 20089, "ĠÑĩÐ°ÑģÑĤÑĮ": 24544, "aro": 9708, "<|16.16|>": 51172, "Ġsolitary": 44155, "ĠÐ¼ÐµÐ¶Ð´Ñĥ": 24098, "Ġkomun": 45359, "Ġnuance": 42625, "Ġoccasional": 31644, "wood": 6092, "Ġíģ´ë": 30464, "Ġsweetness": 25702, "isconsin": 17659, "Ġsimultaneously": 16561, "ĠDeswegen": 24864, "ĠGinsburg": 49347, "Ġsodium": 20265, "<|7.72|>": 50750, "Ġkont": 14373, "ĠØ§ÙĦØ·": 41950, "Ġproductive": 13304, "Ġdesperation": 48980, "ĠOnce": 3443, "ĠGuan": 41431, "Ġplot": 7542, "ĠidÃ©e": 34832, "Ġvoid": 22009, "Ġ40": 3356, "Ġmini": 8382, "Ð¾Ð»ÑĮÐ·": 11692, "Ġbir": 1904, "Ġtucked": 36089, "Ġregul": 9837, "Ġanticip": 10416, "ĠÐ¸Ð´Ðµ": 26547, "Ġdisappointing": 25054, "ess": 442, "Ġshared": 5507, "ĠEgyptian": 24257, "ĠKos": 36909, "Ġchose": 5111, "ĠBronx": 41862, "Ġpraise": 13286, "Ġcompleting": 19472, "ĠCarn": 32254, "ìĬ¤íĬ¸ë": 48404, "ĠStage": 25907, "Ġfifth": 9266, "Ġstrategically": 38061, "Ð": 140, "ĠMana": 33711, "æĪĳ": 1654, "<|19.74|>": 51351, "Ã©tat": 49073, "åĪĨäº«": 30855, "Ġmosquito": 23970, "<|25.02|>": 51615, "Ġrefers": 14942, "ĠPrinc": 35841, "Ġdescendants": 31693, "ÑĥÐ¹": 13514, "ĠKardash": 37959, "Ġdownstairs": 20148, "ĠDub": 16488, "ĠlÃ¥ng": 39756, "ĠHann": 33461, "ÙĬØ¯": 25708, "Ġisso": 4616, "Ġdiskut": 36760, "Ġgeograph": 25435, "Ġfalar": 13536, "Ġanalyzing": 23663, "Ġë¶Ļ": 24618, "ĠAndreas": 38785, "ĠìĿ¼ë": 16623, "Ġcode": 3089, "ont": 896, "inis": 25555, "ĠÃ©videmment": 24724, "Ġvur": 40797, "<|12.78|>": 51003, "ĠPK": 49475, "<|20.18|>": 51373, "Ġnotch": 26109, "ĠÐ¾Ð¿ÑĢÐµÐ´": 26961, "oz": 15151, "Ġcomprom": 11482, "çļĦè¯Ŀ": 44575, "Ð¸ÑĤÐµÐ»ÑĮ": 7809, "<|17.86|>": 51257, "<|7.68|>": 50748, "Ġembracing": 31596, "cies": 4629, "$": 3, "Ġwoh": 48471, "Ġactiv": 2430, "ÎŃÏĤ": 24949, "ĠeducaciÃ³n": 48861, "Ġoutrageous": 38685, "Ġ53": 21860, "ĠPrim": 19671, "ĠÃĸ": 9158, "ĠÐ³Ð¾ÑĢÐ°Ð·Ð´Ð¾": 45607, "Ġresist": 4597, "Ġrahat": 43066, "Yo": 27728, "Ġinstead": 2602, "Ġhypocr": 39419, "Ġumm": 28397, "Ġevident": 16371, "ĠEcho": 31887, "ÐµÑĦ": 23854, "Ġleaning": 23390, "Ġyeux": 36163, "Ġcasing": 45109, "Ġneg": 2485, "Ġcrucial": 11462, "Wind": 45813, "Ġcheated": 28079, "éģĭ": 32772, "ĠStÃ¼ck": 31146, "Ġmultiplayer": 27325, "Ġhag": 42386, "Ġparchment": 37208, "Ġmobil": 15891, "uned": 43703, "asures": 20044, "Ġdividends": 39675, "Ġadopted": 12175, "Ġpriorit": 14846, "ĠServer": 25684, "<|12.12|>": 50970, "Ġhouseholds": 22850, "Ġextended": 10913, "Ã¤h": 6860, "92": 21821, "ĠGren": 24913, "ãĤĦ": 7355, "Ġassociate": 14644, "Ġíĸ": 11988, "<|sk|>": 50298, "Ġfurn": 11433, "<|24.30|>": 51579, "<|0.78|>": 50403, "Ġlodge": 47706, "Ġspider": 17614, "ĠZoe": 38234, "ĠÐ¼Ð¸Ð½": 19073, "ĠLord": 3257, "Ġdaran": 24520, "ĠÑģÐ¸Ð¼": 38994, "Ġallergy": 41505, "hour": 18048, "ĠestÃ£o": 14775, "ĠElizabeth": 12978, "Ġhomeless": 12294, "Ġust": 26189, "ĠëıĮìķĦ": 26761, "ĠkÃ¶nnte": 17646, "liv": 45997, "ĠQuebec": 38903, "<|15.32|>": 51130, "ĠAdventures": 48818, "ĠÐ²ÑħÐ¾Ð´": 45746, "gam": 33815, "ĠAbout": 7769, "¦¬ë": 7134, "Ġbáº¡n": 14647, "Ms": 26386, "Ġcider": 40515, "Ġexpressive": 40189, "hale": 8996, "Ġintertw": 44400, "Ġfounded": 13234, "Ġhair": 2578, "inally": 19801, "à¤Ĥ": 31945, "<|6.48|>": 50688, "ĠWalker": 23974, "Î»Î·": 26836, "reated": 26559, "Ġfi": 15848, "Ġemb": 4605, "Ġbelum": 48532, "ĠëĶ°ë": 15933, "ĠTIME": 36096, "Ġbutterflies": 31987, "Ġbean": 16230, "ĠHimself": 26821, "Ġinspections": 46544, "Ġbreathtaking": 48393, "ĠsÃ³lo": 22885, "ividad": 33490, "athon": 18660, "ĠTom": 5041, "Ġsupervisors": 42218, "Ġpist": 12273, "Ġagora": 9851, "Ġtrim": 10445, "ĠtvÃ¥": 34600, "Ġviu": 28383, "Ġpakai": 49062, "Ġgalaxies": 28755, "Ġinstructional": 35716, "Ġpomoc": 48962, "ĠÐ»Ñİ": 5716, "odox": 22189, "ĠpaÃŃses": 23070, "Ġcompetent": 29998, "ĮĢë¥¼": 49946, "Ġakan": 16281, "ĠConstant": 37413, "ĠÐŀÑĤ": 18611, "Ġnotor": 46772, "Ġabsolument": 34508, "ĠFar": 9067, "åĪ°": 4511, "è¶£": 39835, "Ġdeclined": 29213, "<|4.20|>": 50574, "<|11.84|>": 50956, "ĠGesch": 14241, "itations": 31265, "Ġpaints": 28076, "Ġtrigger": 7875, "çŁ³": 36783, "Ġmixes": 37121, "Ġfiling": 26854, "à²": 11891, "ÑĳÑĤ": 11950, "ĠArch": 10984, "cek": 12135, "ĠExerc": 37502, "Æ°Æ¡ng": 24605, "Ġneighbors": 12512, "<|0.06|>": 50367, "wiÄħz": 22620, "ĠfÃ¥tt": 43651, "liyor": 49309, "ĠGra": 8985, "ĠGottes": 49569, "Ġëĭ¹": 12047, "Ġenfant": 44888, "Ġëĸłë": 48158, "ĠgrÃ¡fic": 34613, "ĠÐ¾Ð±ÑıÐ·Ð°ÑĤÐµÐ»ÑĮÐ½Ð¾": 35515, "luding": 20626, "Ġsud": 3707, "ĠHAR": 19819, "ĠHorizon": 40102, "ĠSleeping": 49618, "Ġpremise": 22045, "Ġrecommended": 9628, "ĠSnake": 33885, "Ã¶lker": 40268, "Ġsangat": 31917, "Ġtoxic": 12786, "ĠTax": 23263, "Ġmerits": 40923, "allen": 31181, "Ø§Ø¨": 16758, "chluss": 41372, "ĠCalled": 45001, "ĠgÃ¶rd": 27407, "Ġitt": 47786, "Bay": 29853, "Ġbash": 46183, "buh": 47322, "aram": 12835, "ĠOnePlus": 41352, "Ġconscient": 44507, "ĠÎ£": 26408, "LA": 11435, "anted": 15587, "ĠìĦłë¬¼": 44956, "Ġsqueezing": 36645, "Ġkita": 8965, "rust": 22326, "ĠTara": 32182, "ĠHole": 47635, "Ġlotta": 38144, "Ġhandful": 16458, "Ġinde": 24162, "Ġdepende": 47091, "<|27.86|>": 51757, "iture": 11156, "Ġorganis": 15223, "Ġdeutschen": 39707, "ĠmÃ£": 22410, "Ġmedian": 26779, "books": 15170, "ssen": 8718, "lements": 17988, "Ġadvocates": 25160, "Ġvibr": 11599, "esh": 14935, "ĠTai": 9623, "Ġembed": 12240, "Ġbutton": 2960, "Ġdefect": 16445, "ĠnÃŃvel": 41747, "Ġlinkage": 49118, "ÃŃnh": 26994, "çĮ": 25266, "Ġavailable": 2435, "Ġanticipating": 40568, "Ġproblem": 1154, "wyn": 28284, "Ġjeito": 31478, "Ġevol": 7117, "ĠNÃ£o": 8010, "ular": 1040, "é»": 6173, "<|18.84|>": 51306, "ĠSm": 3915, "ĠAmÃ©rica": 48053, "Ġ×ŀ×ª": 30221, "Ġuniversity": 5454, "plete": 17220, "ÄŁer": 19119, "Ġshy": 12685, "ĠÐ¾ÑĤÐ¼ÐµÑĤ": 47318, "Ġagenda": 9829, "16": 6866, "ĠÏĥÎµ": 23814, "Ġcoron": 10451, "ĠAwards": 22187, "inction": 12987, "Really": 26459, "Ġblinking": 45879, "<|18.76|>": 51302, "Ġbroadcasting": 30024, "Ġconsulting": 23682, "êµ": 3359, "film": 37023, "Ġmotors": 25035, "richten": 40825, "ĠPinterest": 37986, "ĠÐ¿Ð¾Ðº": 7240, "Ġbecame": 3062, "Ġthee": 24800, "ĠEagle": 27926, "Ġmathematical": 18894, "Ġinterested": 3102, "Ġcrossover": 33837, "path": 31852, "ĠOregon": 18664, "ĠÃĩ": 6256, "Ġentertainment": 12393, "gle": 22631, "ĠÑħÐ°ÑĢ": 38795, "BERT": 22184, "Ġwhats": 29625, "Ġtoddler": 44348, "anno": 13484, "Ġshocked": 12763, "ÙĪÙħ": 20498, "Ġdragging": 24385, "Ġburdens": 37882, "Ġrestriction": 29529, "ĠLine": 14670, "Ġbattlefield": 21818, "fan": 20361, "ĠJoan": 25748, "reso": 38021, "Ġdread": 22236, "Ġerrors": 13603, "Ġenhances": 46628, "Ġphysician": 16456, "Ġ11": 2975, "ĠÐ¶ÐµÑģÑĤ": 48111, "ĠÃºnica": 30104, "Ġmiejsc": 32754, "æĿĳ": 39553, "Ø±ÙĬ": 16572, "cond": 18882, "Ġtornar": 41283, "Ġfed": 4636, "Ġrainbow": 18526, "Ġmisunderstanding": 29227, "Ð¼Ð¾Ð²": 43632, "<|9.92|>": 50860, "Ã©rieur": 24608, "ĠPain": 24943, "Ġawakened": 46468, "ä¸įçĶ¨": 24384, "íĨ": 18016, "è§Ĵ": 29389, "Ġdetermin": 15957, "ĠthÃ´i": 34772, "Ġproper": 2296, "ram": 2356, "Ġprzypadku": 41955, "ĠLegion": 33024, "rooms": 32346, "Ġherum": 49675, "nad": 36567, "Ġlistens": 35959, "ĠÑģÐ¾Ð¶Ð°Ð»ÐµÐ½Ð¸Ñİ": 48018, "host": 6037, "Ġmono": 35624, "TI": 5422, "ji": 4013, "ĠFX": 37849, "<|16.02|>": 51165, "ĠMegan": 21332, "Ġnag": 17096, "Ð´": 856, "ĠStrategy": 40915, "<|6.36|>": 50682, "Ġbedroom": 11211, "ĠMenge": 40723, "idable": 38089, "Ġquoting": 41552, "ĠNut": 19861, "Ġconcret": 39481, "Ġoptim": 5028, "ĠInt": 5681, "ĠAw": 6381, "ľë¡ľ": 15636, "Ġinfluence": 6503, "ĠSmoke": 36191, "weg": 12517, "Ġ96": 24124, "Ġbay": 13642, "Ġandar": 50009, "Ġali": 10198, "entry": 48766, "Ġcirculating": 39749, "ĠBR": 10262, "Ġautobi": 45747, ".ï¿½": 42521, "ĠChin": 4430, "ĠProse": 50058, "<|az|>": 50304, "æĢİä¹Īæł·": 48200, "ĠCauc": 44044, "ĠØ§ÙĦØ¯": 32748, "Ġarriba": 28469, "ĠBru": 12792, "ĠUI": 15682, "mble": 8737, "Ġhorm": 11876, "Att": 38151, "ÅĤum": 49166, "ä¸ª": 7549, "Ġzoals": 40040, "ĠÐ¾ÑĢÐ³": 24443, "Ġcorrectly": 8944, "ocide": 27791, "alous": 11553, "ÐºÐ¾Ð¹": 11565, "ĠÑĩÑĥÐ²": 22472, "Ġobs": 3181, "Ġeinige": 28338, "Ġrevive": 36292, "leading": 28012, "igans": 49088, "asil": 13353, "emu": 37552, "baum": 46641, "cific": 22856, "ĠContract": 44659, "Ġseja": 13459, "æĶ¯æĮģ": 35488, "uros": 8977, "Ġdiagnose": 36238, "Ġdazz": 44078, "Ġtactile": 47319, "ĠìĿ¼": 7682, "Tiffany": 37953, "prÃ¼": 48715, "Ġsemana": 20205, "ÐµÐ³Ð¾Ð´Ð½Ñı": 14044, "vet": 9771, "Ġblending": 23124, "ĠKush": 49709, "ĠÐ¦": 18545, "ite": 642, "sticks": 22789, "Ġkindergarten": 26671, "<|7.80|>": 50754, "Ġmoim": 48569, "Ġstations": 13390, "Ð»Ð¾Ð½": 31058, "Ġbacon": 16400, "ĠCrow": 27072, "ĠrealtÃł": 47512, "Ġhold": 1797, "iin": 31463, "Ġê¸Ī": 34120, "ĠJeez": 48516, "Ġradish": 31136, "ä¸įå°į": 15779, "ĠJungkook": 48928, "00": 628, "Ġright": 558, "Ġmenor": 26343, "ĠTerre": 47870, "ands": 2967, "ĠGalile": 46576, "ĠìķĬìĿĦ": 32112, "Î¿": 1800, "Ġtip": 4125, "ĠEquity": 47675, "äº²": 49296, "Ġsniper": 32441, "ĠHowever": 2908, "ĠSelect": 13638, "Ġ100": 2319, "inho": 7775, "Ġhin": 14102, "Ġaa": 40079, "ĠMade": 18330, "Ġê¸°ìŀĲ": 41483, "Ġelasticity": 46260, "ĠJelly": 38815, "Ġ×Ķ×ł": 35743, "ĠLynch": 32345, "Ġconsole": 11076, "ĠCam": 6886, "Ġconstraints": 18491, "Ġrans": 33481, "Ġvenue": 21645, "Ġinspector": 34564, "eln": 9878, "erten": 39990, "Ġstimulating": 43671, "Ġcalories": 14904, "Ġlud": 15946, "<|28.74|>": 51801, "ĠSicht": 36615, "Ġtargeting": 17918, "ĠHQ": 43209, "ç¾ħ": 36004, "Ġcompliments": 35468, "ĠØµ": 20328, "Ġmilligrams": 45147, "ÑĨÑĸ": 12857, "Ġstakeholder": 43406, "arda": 19218, "ĠJi": 9702, "Ġplaythrough": 48752, "Ġelim": 24333, "hma": 22061, "ĠBat": 10066, "ĠÙĬ": 7251, "Ġembedded": 16741, "ĠcÄĥ": 21957, "Ġasta": 43405, "itesse": 46720, "Ġpie": 1730, "Ġrecon": 9993, "lek": 29205, "Ġamazon": 47010, "Ġvideo": 960, "Ġ×Ķ×Ĺ": 26224, "Ġpretty": 1238, "Ġwifi": 35246, "hein": 44448, "Ġbomber": 44889, "Ġstrive": 23829, "cloud": 44495, "Ġ144": 45218, "¥´ë": 22702, "ĠHilfe": 37448, "ĠPharise": 47742, "ëĲ": 25041, "Ġgratitude": 16935, "ĠmÄ±": 9251, "ork": 1284, "ĠìŀĲ": 5650, "ĠBoard": 10008, "akte": 48036, "ĠHond": 45260, "Ġunint": 29466, "Ġphen": 7279, "ĠCel": 19967, "ĠÐ´ÐµÐ»Ð°": 46157, "Ġresurrect": 34338, "feit": 37434, "ĠdÃ¤r": 12976, "Ġbegin": 1841, "ĠScene": 46297, "Ġcredits": 16816, "Ġwhom": 7101, "ĠJazz": 32213, "Ġletter": 5063, "ÄŁlu": 47644, "ĠMovement": 26523, "ĠMB": 28866, "Ġliter": 2733, "forming": 48610, "Ġgebe": 29073, "ĠtrÃ¡s": 46189, "interpret": 41935, "Ð¸Ð½Ñĭ": 18835, "writer": 23681, "Ġbillion": 5218, "Ġannex": 41012, "Ġexatamente": 35937, "<|4.34|>": 50581, "ĠDOWN": 48897, "Here": 17685, "Ġpipes": 21882, "Ġmartial": 20755, "Ġidols": 29959, "Ġcakes": 19932, "Ġbonded": 41194, "Ġenvoy": 35351, "mare": 15455, "ĠÐºÐ¾Ð»Ð¸ÑĩÐµ": 25816, "Ġskeleton": 25204, "Ġvolatility": 25877, "ĠìķĪë": 9658, "Ġgrenades": 43529, "Ġcorps": 18271, "Ġprov": 1439, "!..": 44311, "<|9.96|>": 50862, "ru": 894, "limited": 18692, "Ġê°ķ": 14623, "Ġmasters": 19294, "ĠInnen": 43617, "Ġgrading": 35540, "ĠHAM": 45561, "]": 60, "Ġbundle": 24438, "Ġteaspoon": 17237, "Ġdoubts": 22618, "Ġå¯¹": 30275, "ĠFreddy": 31445, "åĪ": 2437, "Ġinclus": 17204, "<|9.54|>": 50841, "ĠBenedict": 47837, "Ġconfined": 31745, "ĠTheo": 42519, "Ġsolamente": 27814, "cimento": 28317, "Ġthá»Ŀi": 49506, "Ġë³": 2818, "LAUSE": 9174, "Ġviolation": 22840, "Ġjur": 12721, "04": 14565, "hake": 34593, "Ġmehr": 5417, "mus": 18761, "Ġschlecht": 32427, "ording": 3357, "Ġliquid": 6553, "erness": 19416, "Ġdetecting": 40237, "ĠFlor": 8328, "Ġbeispielsweise": 40152, "ents": 791, "ĠMajesty": 10665, "ĠSEN": 47770, "Ġmotorcycle": 20554, "ĠNI": 18482, "Com": 14627, "issent": 25450, "<|15.78|>": 51153, "Ġbasics": 14688, "Ġdemande": 26982, "Ġshrine": 37812, "Ġashes": 32942, "ĠsÃ¤ga": 28013, "Ã©st": 49180, "ĠDelta": 18183, "atif": 36850, "bat": 11980, "irse": 36097, "eez": 22544, "Ġìłķë¶Ģ": 34659, "Ġspin": 6060, "ĠLÃł": 22237, "Ġbloom": 26899, "Ġgrind": 16700, "Ġaleg": 44491, "Ġattribute": 19667, "ĠëıĻ": 11685, "ÃŁer": 30369, "est": 377, "reg": 3375, "Ġbug": 7426, "zh": 41032, "Ġvive": 28927, "bol": 17460, "ĠBeef": 36465, "Ġfires": 15044, "Ġmice": 22257, "Ġclusters": 23313, "Ġbecomes": 3643, "Ġsurviving": 24948, "rais": 20769, "Ġknowledgeable": 33800, "Ġfake": 7592, "ĠSav": 12346, "conds": 28750, "Ġproduit": 35703, "ĠÑģÐ¾Ð±Ð¾Ð¹": 32474, "Ġmobile": 6013, "Ġkenn": 36272, "ĠìĦłíĥĿ": 33126, "ĠÐ¿Ð¾Ð»ÑĮÐ·": 30419, "naments": 23680, "Ġmeny": 46975, "ĠìķĪëħķíķĺìĦ¸ìļĶ": 19289, "Ġweights": 17443, "<|6.60|>": 50694, "Ġeyebrows": 19916, "ĠDeutschland": 14802, "Ġwee": 32753, "Ġspherical": 37300, "Ġfunctional": 11745, "ĠBasil": 43175, "Ġcamb": 18751, "Ġfundo": 40201, "ÅĤÄĻ": 46564, "ëĤľ": 25685, "Ġcar": 1032, "Ġsigma": 12771, "Ġpelos": 38304, "Ġlady": 7262, "Ġoverlapping": 33535, "ĠëĲĺë©´": 35664, "à®³": 10078, "Ġeach": 1184, "Ġsubmarines": 48138, "ãĤ·": 11054, "ĠTight": 47967, "ĠGlo": 10786, "Ġauss": 5730, "ĠManager": 13821, "ĠasÃŃ": 8582, "ĠÐ½Ð¸Ðº": 11295, "Ġperspectives": 16766, "Ġtheoret": 14308, "ÑĥÑģÑĤÐ¸ÑĤÑĮ": 46937, "Ġiterate": 44497, "Ġmolten": 44845, "Ġcried": 16266, "Ġfavorite": 2954, "ĠBatman": 15432, "Ġconsiderations": 24070, "ĠArmen": 22302, "rement": 37934, "sta": 9140, "æĢª": 26798, "uda": 11152, "Ð¸Ð¼ÑģÑı": 32455, "ĠRomania": 36678, "Ġitchy": 47360, "Ġts": 35492, "Ġanimated": 18947, "ospheric": 25145, "Ġsemin": 18288, "Ġexamining": 34662, "ĠYesterday": 19765, "Ġmast": 27055, "ĠTotal": 23170, "Ġrele": 2951, "ĠÐ´Ð°Ð²": 12472, "Ĥ¨": 30856, "Ġburnout": 44841, "ĠSicher": 25292, "ĠFast": 15968, "Ġresponsabil": 29829, "Ġì§ĢìĽĲ": 47284, "Ġsytu": 28275, "Ġcores": 24826, "ĠãģĨ": 42504, "Ġthermal": 15070, "Ð¸Ð»ÑĮ": 7094, "ĠJeÅĽli": 37086, "ĠJews": 11041, "ä¾¿": 27364, "Ġimpedance": 36264, "Ġaccomplishments": 25943, "Ġstud": 972, "ĠDenver": 26270, "izens": 31586, "ĠMaggie": 29107, "Ã¼z": 4934, "Ġescape": 7615, "ĠMitar": 32900, "Ġfilmmaking": 43133, "ĠRE": 10869, "ĠPolitics": 45348, "Produ": 42370, "y": 88, "ĠÐ±ÑĥÐ´Ðµ": 47438, "Ġmathematician": 48281, "Ġcay": 45776, "ĠCar": 2741, "aat": 40841, "ÑĢÐ°Ð²ÑģÑĤÐ²ÑĥÐ¹ÑĤÐµ": 36359, "Ġstell": 30787, "Ġnett": 42084, "Ġselections": 47829, "Ġcalor": 31575, "Ġembarrassed": 16843, "Ġconcern": 3136, "Ġvalidate": 29562, "iyi": 40541, "Ġprevent": 4871, "Ġherman": 39458, "ust": 381, "Ġdra": 1617, "Ġsulf": 22925, "Ġdio": 31965, "Ge": 22766, "pai": 43502, "ĠTank": 28746, "ĠtÄħ": 32294, "lat": 14087, "Ġogr": 34416, "Ġrelational": 38444, "Ġoptimize": 19719, "Ġpsychopath": 47577, "Ġhayat": 26918, "ĠìłĲ": 20060, "Ġmen": 1706, "à¸¶": 25819, "ĠHu": 11874, "icip": 6537, "Ġaggressively": 32024, "ĠUh": 4019, "Ġleve": 33076, "Luc": 43628, "ĠÐ¿Ð¾Ð¿ÑĥÐ»ÑıÑĢ": 46732, "ĠHurricane": 35574, "thon": 11943, "Ġbucket": 13058, "ĠSpike": 46286, "Where": 14436, "Ġrunter": 33295, "iverse": 5376, "ĠAdult": 47987, "Ġsparkle": 48558, "Ġdoll": 2722, "Ġadvances": 25297, "Ġencontra": 43621, "uka": 13599, "Ġbinder": 45630, "Ġvs": 12041, "<|27.42|>": 51735, "elong": 25490, "Ġyells": 48543, "iec": 35733, "ĠTowards": 48938, "Ġsucceeds": 49263, "ĠTwist": 47016, "ike": 1123, "<|20.46|>": 51387, "Ġteacher": 5027, "Ġmetre": 42431, "ilar": 2202, "Ġgears": 20915, "ĠNAS": 10182, "Ġbastards": 49346, "Ġtorso": 34917, "è³ª": 43450, "Î»Î»": 14870, "ĠInter": 5751, "ĪëĦ¤": 39510, "Ġdominated": 23755, "ĠOFFICER": 44724, "ĠBernard": 30116, "Ġcentered": 18988, "Ġpueblo": 33764, "Ġfusion": 23100, "Ġdi": 1026, "Ġlik": 2913, "Ġdisinfect": 33334, "ĠUnt": 8256, "wan": 7916, "Ġpool": 7005, "Ent": 42837, "ä»»": 26443, "Į": 234, "ĠWriting": 32774, "Ġnationalist": 49654, "ĠÎµ": 5958, "Ġfeminist": 26229, "Ġeast": 10648, "Ġoverwhelmed": 19042, "ĠEdition": 25301, "Ġëĭ¬": 21166, "Ġsiempre": 12758, "arest": 17363, "ĠFro": 25028, "Ġdiscard": 31597, "umsy": 41965, "Ġratchet": 45885, "jut": 44090, "Ġmins": 31539, "ĠÐ¼ÐµÑĪ": 44874, "Ġmake": 652, "ĠBoeing": 30831, "Ã©rica": 32716, "oughing": 25875, "ĠMinistry": 19720, "Ġevolving": 21085, "Ġtransact": 46688, "Ġmerge": 22183, "itute": 6559, "ĠKÃ¶n": 29077, "ĠrÃ¤": 39442, "Ġhers": 6820, "stop": 13559, "Kn": 49276, "Ġê²ĥìĿ´": 29665, "Ġanges": 31138, "Ð¾Ð²": 1055, "çĤº": 6344, "ĠSpirit": 7218, "yty": 41944, "Ġpeuvent": 24335, "ĠëĲĺì§Ģ": 43463, "eni": 15711, "ĠAdams": 25214, "Ġbaixo": 30934, "äº«": 27654, "Arthur": 42646, "Ġbolt": 13436, "ĠRo": 3101, "2020": 23095, "ĠKorean": 6933, "ĠLU": 31851, "heart": 12864, "Ð¡": 8068, "Ġfranc": 30514, "Ġhybrid": 13051, "Ġheavily": 10950, "²": 110, "ĠRosa": 30572, "AT": 2218, "Ġimprov": 29424, "ĠJedi": 21746, "jae": 31760, "ĠTik": 15613, "Ŀ¼ëĬĶ": 13182, "Ġprofoundly": 39954, "Ġoke": 40043, "Î±ÏĤ": 15857, "Ġathletic": 22496, "Ġpredicting": 32884, "Ġpiping": 35204, "isexual": 38505, "yani": 49812, "Ġopposition": 13504, "Ġdemain": 44389, "Ġhypotheses": 49969, "ĠAngels": 37950, "Ġ41": 18173, "å¼": 5702, "ĠAri": 9433, "×Ļ×ĺ": 27762, "Ġvaan": 47948, "cool": 28155, "ĠÄĥn": 28657, "Ġantagon": 32590, "it": 270, "ĠIll": 10597, "ĠUsing": 11142, "Ð°Ð½Ð½Ñı": 23521, "Ġradio": 6477, "Ġbackside": 35370, "Ø³": 3794, "Ġbrushed": 40694, "Ġborder": 7838, "ikat": 36300, "Ġphilosophy": 10675, "ì°©": 29784, "æķ´": 27662, "Ġnicht": 1979, "resse": 22603, "å": 161, "asÄ±": 12700, "abilir": 21711, "ĠNFL": 24817, "Ġcaption": 31974, "Ġacross": 2108, "Ġquiet": 5677, "Ġbury": 28919, "ĠIRS": 33848, "Ð³Ð»Ð¸Ð¹": 43249, "Ġdistinguish": 20206, "ĠGene": 18083, "itate": 8086, "ÅĻ": 15781, "aha": 4408, "Ġrat": 5937, "53": 19584, "Ġswear": 11902, "ĠConfederate": 45000, "æĪĳèªª": 34206, "plin": 48102, "rito": 17492, "Ġgaan": 14118, "ÏĪ": 34169, "ĠÐľÐ¾Ð¶ÐµÑĤ": 32786, "Ġìĺ·": 30880, "Ġdiam": 7484, "ĠÑĥÑģÑĤÐ°Ð½Ð¾Ð²": 31866, "Ġcharitable": 44609, "ĠScriptures": 46522, "band": 4235, "ĠVac": 44442, "Ĭ¨": 21588, "Ġness": 39787, "Ġdoorway": 41992, "ithe": 45381, "Ġweirdest": 44807, "ĠRev": 12127, "Ġdestined": 33169, "Ġ×ķ": 7666, "ĠHenderson": 45013, "Ġpolitiques": 46267, "ĠPors": 29416, "Ġeffic": 4703, "oir": 9043, "<|25.54|>": 51641, "Ð¸ÑĤÐµÐ»ÑĮÐ½Ð¾": 15884, "<|ka|>": 50329, "Ġcatchy": 47168, "ĠHaha": 19131, "Ġfren": 33596, "eme": 5729, "Ġfilmmaker": 34700, "ĠOwen": 32867, "Ġpreoc": 18250, "Ġrealistically": 40734, "ĠWestminster": 49714, "ä¸įè¦ģ": 11962, "çİ": 8051, "Ġraus": 17202, "igu": 16397, "Ġmissiles": 23133, "Ġspelled": 34388, "Ġspacing": 27739, "Ġforum": 17542, "ìĿ¸ëį°": 13481, "Ġgenome": 21953, "Ġë½ĳ": 38473, "ĠPolski": 44589, "Ġflute": 33088, "ĠÐ½Ð°Ð³": 30584, "ĠÑģÑĥÐ¿": 32453, "des": 14792, "Ġrewards": 17203, "ĠCec": 38807, "ĠÐ¿ÑĢÐ¾Ð¸ÑģÑħÐ¾Ð´Ð¸ÑĤ": 28548, "Ġsoybean": 44227, "Ġfaded": 36352, "ĺë¥¼": 18855, "Ġnotification": 11554, "ĠKa": 10988, "ĠAlways": 11270, "MM": 17365, "ĠRick": 11224, "ĠðĿĺ": 42341, "ĠLud": 30550, "<|17.52|>": 51240, "ĠHorror": 42993, "Ġremind": 4160, "åįĬ": 30018, "Michael": 23277, "ĠTÃ¼r": 16728, "Ġadvanced": 7339, "ĠëķĮ": 7765, "reme": 5301, "Ġcovered": 5343, "ĠCats": 40902, "ĠPork": 33159, "!\".": 35323, "ç²¾": 34910, "ĠSpr": 7702, "Ġhes": 10453, "ĠÐ½ÐµÐ¿": 17005, "Ġterritory": 11360, "Ġcollar": 20672, "BA": 9295, "Ġreactive": 28897, "Ð¾Ð½Ð¾Ð²": 28137, "ĠmÃ¼ssen": 9013, "Ä±nÄ±n": 21006, "ĠÃ©normÃ©ment": 41595, "ĠëıĻìķĪ": 32589, "ĠChop": 25615, "ĠkoÅŁ": 49251, "Ġprofesional": 42882, "rop": 1513, "Ġendurance": 30325, "ĠÑĢÑıÐ´": 32921, "ĠTil": 45141, "ĠWissenschaft": 38774, "Ġappro": 2075, "Ġtook": 1890, "Ġsocietal": 33472, "Ġ3": 805, "Ġarmored": 41879, "a": 64, "Ġnerves": 23078, "Most": 49101, "Ĕ": 208, "Ġcruc": 28154, "Ġreversible": 44788, "éĽ»": 20545, "Ð°ÑĢ": 2222, "Ġboost": 9194, "ĠSunday": 7776, "ĠAmong": 16119, "Ġamong": 3654, "ĠÑħÐ¾Ð·Ñı": 49791, "e": 68, "Ġnewsp": 10202, "West": 37943, "Ġpermett": 21540, "Ġimagin": 23427, "ato": 2513, "ad": 345, "ARR": 7859, "cemos": 38173, "ĠÑģÐ°Ð¼ÑĭÑħ": 37241, "Ġë³ĳ": 32245, "ĠÙĥØ§ÙĨ": 25961, "aked": 7301, "din": 17557, "Ġkinderen": 48935, "Ġfulfill": 13875, "Ġgeven": 49437, "Ġfig": 2147, "å°Ĩ": 45456, "Oh": 3756, "ense": 1288, "ÑĹ": 8045, "ĠAv": 11667, "Make": 35650, "outhe": 18159, "ĠZealand": 13883, "ĠÃ§Ã¼nkÃ¼": 36336, "chas": 41299, "ĠSich": 47135, "maal": 30371, "<|14.98|>": 51113, "<|25.90|>": 51659, "ãĤĤãģ®": 44726, "bbie": 32383, "Ġaccomp": 18037, "Ġmover": 39945, "ĠÐ¹Ð¾Ð³Ð¾": 44123, "Ġdura": 43416, "ĠÐ¸Ñħ": 9642, "Ġvi": 1932, "ìĻ": 5485, "Ġsev": 15340, "Ġresponses": 13019, "ĠSAS": 33441, "ulars": 42891, "Ġunbelievably": 43593, "Ġgim": 27071, "ortun": 1584, "Ġjoke": 7647, "ĠDie": 3229, "zur": 50210, "Ġwaiver": 42143, "ĠWinds": 43082, "ouched": 36740, "Ġengag": 46730, "Ġtacos": 34776, "Ġdass": 2658, "ĠIstanbul": 36340, "music": 7572, "ä¸ĥ": 29920, "Ġpractical": 8496, "ĠmÃ¤": 25117, "Ġcanopy": 38235, "Ġpeine": 46655, "ÐµÑĤÑĢ": 42850, "Ġcone": 19749, "Ġapostle": 50244, "Ġhá»įc": 46786, "To": 13342, "ĠìĿ´ìķ¼ê¸°ë¥¼": 48974, "Ġsample": 6889, "ĠMutta": 46604, "ãħł": 23518, "alle": 11780, "Ġsystemic": 23789, "Ġenzy": 16272, "Ġsustain": 6769, "Ð¾Ð»Ð¾Ð³": 18347, "Ġoffers": 7736, "Ġspreading": 15232, "Ġdark": 2877, "Ġgather": 5448, "ÑĤÐ¾ÑĩÐ½Ð¾": 24840, "Ġerste": 20951, "ĠSepar": 43480, "Ð¾Ðº": 2637, "Ġdazu": 13034, "ĠìŀĪëĬĶëį°": 19197, "body": 1067, "Øµ": 9381, "Ġda": 1120, "ĠETF": 37436, "Ġevacuation": 42740, "ĠÐ²Ð¾Ð¿ÑĢÐ¾ÑģÑĭ": 48418, "ĠRee": 38231, "Ġinternacional": 37382, "Ġfive": 1732, "unks": 17627, ";;": 35746, "Ġhiding": 10596, "Ġtheorem": 20904, "Ġmissile": 19321, "ĠCouncil": 7076, "Ġcuriosity": 18769, "Ġsubjected": 32153, "Ġmall": 16026, "Ġseverity": 35179, "ĠÐ½Ð°Ð·ÑĭÐ²Ð°ÐµÑĤÑģÑı": 40659, "tle": 10972, "ĠATP": 39202, "Ġkg": 15696, "ĠDAM": 48093, "<|7.56|>": 50742, "<|21.46|>": 51437, "Ġdescobrir": 45900, "Ġumas": 46010, "Ġterritories": 25195, "Finally": 44259, "Ġìłķ": 4980, "cidos": 46579, "Ġthus": 8807, "ĠThankfully": 28344, "Ġëħ": 8727, "Ø¡": 38207, "ë¶Ģë": 35912, "Ġviel": 5891, "Ġintent": 8446, "miral": 35905, "Ø¯Ø©": 41891, "ĠÄĳÃ¢y": 20199, "ĠJaneiro": 44711, "ĠMask": 25414, "Ġaccidentally": 15715, "rÃ¼": 31759, "Ġsurvived": 14433, "ĠInitiative": 26166, "çªģ": 40859, "Ġentry": 8729, "ĠLoch": 49912, "Ġtoday": 965, "Ġinvitation": 17890, "akes": 3419, "Ð¸ÑĤÐµ": 5878, "ĠXavier": 44653, "ĠÄĲ": 13055, "ĠTÃ´i": 43345, "ĠDisplay": 32229, "ĠÐ¿ÐµÑĢÐµÑħÐ¾Ð´": 46888, "Ġhumanitarian": 25096, "listed": 34890, "ĠFernando": 30190, "Ġvigil": 39093, "lei": 35436, "wol": 48481, "Ġshame": 10069, "Ġine": 7167, "ĠInner": 36705, "<|1.72|>": 50450, "<|23.38|>": 51533, "<|15.92|>": 51160, "Ġcatastroph": 28363, "Ġkunna": 32074, "ĠÐ¿ÑĢÐ°Ð²Ð´Ð°": 37136, "sted": 30115, "?!\"": 35271, "Ġdedication": 21813, "Ġdong": 33079, "ices": 1473, "Ġhugely": 27417, "Ġsegu": 8878, "fire": 12037, "Ġremains": 7023, "æ©Ł": 17543, "ĠAce": 24900, "Ġcomprend": 30765, "ĠSeong": 40333, "<|10.82|>": 50905, "ĠHS": 34194, "stream": 9291, "ieve": 11108, "Ġì¹ĺë": 38366, "Ġchildcare": 35330, "Ġlinha": 33768, "Ġmyths": 28205, "Ġacceso": 49284, "IN": 1464, "Ġhabil": 36565, "Ġbeach": 7534, "Ġnenhum": 32584, "<|10.10|>": 50869, "Ġisland": 6077, "Ġìº": 25230, "Ġseniors": 21069, "Ġchrome": 33120, "icop": 14149, "Ġusername": 30351, "åĤ·": 41323, "ĠDetroit": 20887, "Ġanch": 12723, "ÐµÐ³Ð¾": 4353, "<|23.60|>": 51544, "èĢĥ": 26504, "ĠNickel": 45416, "Ġë¶ģ": 33215, "ãģ§ãģĻ": 4767, "ĠÃ¶nce": 22353, "ÑģÑĤÑĮ": 3167, "used": 4717, "ĠProt": 10019, "ĠìŀĪê²Į": 41680, "ĠCareful": 32932, "Ġrecycled": 30674, "ĠStore": 17242, "ÙĨØª": 29399, "Ġsins": 13815, "noÅĽci": 16438, "ÙĥÙĪÙĨ": 30544, "Ġpacket": 20300, "olf": 7491, "ĠTennessee": 21127, "Ġersten": 17324, "Ġsimple": 2199, "ÑıÑĩ": 47832, "Ġconv": 3754, "ĠDIRECTOR": 35929, "Ġoverwhel": 9103, "ĠMolly": 26665, "imeter": 9685, "Rah": 42077, "ĠSchool": 5070, "ĠQuin": 44761, "Ġassaulted": 44910, "Ġdecentralized": 32870, "ç¹": 23141, "ĠKit": 23037, "ĠIz": 30296, "Ġreais": 34823, "Ġwarming": 17983, "Ġdecis": 18206, "Ġreaction": 5480, "Ġacknowledgement": 47227, "Ġprey": 21107, "à¸«à¸¡": 40050, "ĠFur": 11705, "iper": 15402, "Ġtexting": 29897, "ĠLiv": 31738, "Ãºblic": 12715, "Ġquero": 18738, "Ġtelephone": 19800, "Ġcombustion": 28121, "oth": 900, "ÅĤoÅĽci": 35059, "Ġsigned": 8175, "usto": 48260, "Ġdisk": 12355, "Ġcz": 6472, "Ġbooklet": 48469, "akra": 34401, "ĠHamb": 27551, "isp": 7631, "ĠWright": 25578, "OW": 5769, "98": 22516, "ĠìĦłë": 22218, "Ġdemonstrating": 29889, "Ġexploitation": 33122, "ĠÃ¶nem": 31652, "Ġcrian": 27659, "Ġgeg": 23982, "Ġauditor": 33970, "ľë¥¼": 20087, "ãģĳãĤĭ": 39278, "ãģªãģ®ãģ§": 47275, "ugen": 27915, "Three": 46696, "Ġslept": 17400, "ç´¹": 38193, "å¥½åķ¦": 33036, "ÃĹ": 37550, "Ġgrows": 13156, "ĠIndian": 6427, "Ġmimic": 31075, "Ġnovo": 18246, "Ã©ri": 12052, "Ġpouquinho": 31114, "Ġconfigure": 22162, "Ġrallies": 48169, "Ġweapons": 7278, "ĠDynasty": 37339, "Ġkeen": 20297, "Ġlonge": 26052, "aran": 17142, "ĠÑģÑĤÐ°Ð»": 28980, "Ġmoments": 6065, "Ġláº¡i": 23017, "Ġperformers": 30768, "ĠVatic": 36268, "ãģĬãģ£": 49693, "Ġneste": 34739, "nel": 6396, "borne": 23739, "ĠÐ¿Ð¾ÑģÑĤÐ¾": 31299, "Ġrisk": 3148, "ĠStandard": 21298, "Ġauthenticity": 34215, "Ġredesign": 39853, "enge": 3032, "Ġimprisoned": 35332, "Ġconsequence": 18326, "Ġdidn": 994, "Ġinstallation": 13260, "ĠVISTA": 35199, "Ġtri": 1376, "Ġnuanced": 45115, "Ġ×Ķ×Ĵ": 36386, "Ġsupremacy": 35572, "Ġgeri": 41018, "BT": 33853, "itti": 21558, "ĠCoca": 32719, "Ġmedium": 6399, "Ġbreath": 6045, "Ġpanelists": 20162, "ĠSaf": 14152, "ĠYep": 7010, "Ġdiligent": 50251, "ĠApost": 31467, "ĠDAC": 39038, "<|19.34|>": 51331, "Ġways": 2098, "<|my|>": 50346, "Ġprecisa": 18861, "Ġbreathing": 9570, "Ġuncommon": 29289, "<|4.98|>": 50613, "Ġblacks": 30720, "Ġimm": 3397, "Ġë³´ìĿ´": 48189, "Ġíħ": 18575, "Ġë¡ľ": 26142, "Ġtwelve": 14390, "ĠPar": 3457, "ìŀĪëĬĶ": 33670, "ì²ĺ": 34734, "Ŀ¤": 35156, "Ġsug": 22802, "ĠOverall": 18420, "ĠSingle": 31248, "isiert": 42266, "©°": 18095, "ĠÐ¾ÑĪÐ¸Ð±": 40253, "ich": 480, "Ġlessons": 8820, "Ġhugging": 41706, "ĠCaroline": 30245, "ĠÑħÐ¾ÑĩÐµÑĤ": 42175, "ÑıÑĤÐ¸": 21689, "Ġdicen": 33816, "Ġjeunes": 32830, "ĠÐ¿ÑĢÐ¾Ð³ÑĢÐ°Ð¼": 29043, "ĠParl": 29666, "Ġempty": 6707, "ITY": 28853, "Ġinacc": 37957, "ìĹĨìĿ´": 50082, "ĠØ³ÛĴ": 34190, "<|29.02|>": 51815, "Ġcuts": 9992, "arium": 19612, "ĠPure": 29474, "ampa": 26625, "mÃ¤ÃŁig": 43132, "Î²": 14836, "Ġdeposited": 42002, "ĠAmer": 22597, "ĠBrisbane": 32222, "Ġbound": 5472, "Ġcommodity": 29125, "ĠFeel": 14113, "èĮ": 27395, "Ġtranscription": 35288, "oru": 32963, "shore": 27195, "Ø¶": 11242, "Ġpanda": 46685, "ĠErgeb": 34657, "jack": 33614, "Ġpunched": 37842, "ĠHash": 30775, "Ġinicial": 44076, "Ġobrigado": 41774, "Ġfazla": 30611, "okrat": 19795, "Ġletzt": 35262, "Ð¡Ð¢": 40752, "atile": 17445, "ĠPicasso": 49708, "Ġcartridges": 47036, "Ġshields": 33466, "Ġsomethin": 39374, "ĠÐ¿Ð¾Ð¿ÑĢÐ¾Ð±": 34089, "endar": 10292, "Ġtemplates": 21165, "Ã¼p": 42693, "ı¼": 25116, "ELLER": 38025, "arlo": 19457, "Ġsamh": 49864, "ĠFuk": 33043, "æ¦": 22989, "ĠjakÄħ": 46719, "ĠÑģÐ¿Ð°Ñģ": 41895, "ĠEvents": 45314, "ĠHK": 39378, "riends": 11047, "Ġfy": 38777, "Ġprzed": 18334, "Ġberaber": 39855, "ishes": 16423, "Ġsnapped": 41396, "OSE": 40097, "Ġlaptop": 10732, "ĠDarren": 36691, "ä½łåı¯ä»¥": 42766, "<|sd|>": 50332, "ĠFaith": 23642, "ĠCapitol": 25081, "Ġdrag": 5286, "ĠCAL": 50188, "Ġinspired": 7547, "Ġdrainage": 32973, "èıľ": 33025, "DIA": 38931, "ĠÐ¡ÑĤ": 17483, "ĠiPad": 12945, "Ķ": 242, "ĠMÃ¤nner": 36907, "ĠLie": 11197, "liga": 25668, "Ġbigger": 3801, "+,": 46797, "ĠMoto": 37825, "ĠNZ": 41089, "Ġinterpol": 44902, "Ġcolabor": 49629, "Ġëıħ": 39411, "ĠRace": 25908, "ĠCreator": 28208, "ote": 1370, "Ġunlimited": 21950, "ìĬ¤": 7785, "Ġalmighty": 47534, "Ġmomento": 9333, "åģ¥": 44201, "Ġtimeless": 41200, "<|5.38|>": 50633, "Ġteaches": 16876, "Ġ500": 5923, "Ġexempl": 24112, "ĠCreat": 11972, "ident": 1078, "Ġheaded": 12798, "ĠcuÃ¡nt": 44256, "ĠTrustee": 34373, "ĠPresiding": 47365, "ĠIoT": 30112, "Å¼y": 7735, "cano": 18651, "Ġkale": 34699, "æ²¡æľī": 17944, "nicas": 40672, "Ð¾Ð½Ð¸": 21869, "ĠGanze": 35206, "Ġacabou": 38043, "Ġhydrated": 44960, "Ġremembrance": 48083, "ĠÐ¾ÑĤÐ´ÐµÐ»": 50176, "Ġkaikki": 46992, "à¸¡": 6192, "ĠNered": 46352, "Ġsailed": 49339, "ĠABOUT": 50249, "ĠÐ¼Ð¾Ð»": 25634, "Ġstorms": 23288, "epend": 4217, "ĠgrÃ¢ce": 31180, "Sn": 43690, "osely": 24253, "ase": 651, "ĠÐ¿Ð¾Ð»ÑĥÑĩÐ¸ÑĤÑĮ": 41725, "<|11.34|>": 50931, "Ġbananas": 22742, "ĠMi": 10204, "Ġrazem": 40225, "Ġfe": 579, "é£Ł": 25155, "terror": 48024, "Ġsavior": 41327, "Ġbent": 14075, "Ġbriefly": 10515, "Ġblink": 24667, "Ġliteral": 20411, "<|23.20|>": 51524, "Rhett": 38110, "Ġkim": 10776, "Ġterr": 7245, "ĠAgg": 41512, "<|16.30|>": 51179, "Ð¸ÑĤ": 1635, "Ġconvincing": 24823, "Ġgear": 7394, "å¥³": 17015, "ĠÎŁ": 34650, "Ġassembling": 43867, "Î»Î¿": 32043, "Ġav": 1305, "Ġsquares": 19368, "Ġfunds": 8271, "ĠCarbon": 31453, "ĠgÃ¶t": 39630, "Ġind": 1016, "Ġalleviate": 42701, "Ġrides": 20773, "`": 63, "ĠKait": 45791, "ĠÑĤÐ°Ð¼": 8223, "Ġclimbed": 28691, "Ġpartout": 32955, "ê°ľë": 47128, "matic": 25915, "Ġslower": 14009, "Ġaltitude": 24003, "ooooo": 47116, "ĠÐ´ÐµÐ¹ÑģÑĤÐ²Ð¸ÑĤÐµÐ»ÑĮÐ½Ð¾": 27208, "ĠTe": 1989, "licting": 36580, "Ġprogram": 1461, "Ġanalytic": 40358, "ìŀ¡": 46179, "Ġposterior": 33529, "athlon": 41269, "Young": 36605, "Ġcros": 28108, "ĠmÃ©d": 16978, "Ġmaintenant": 14817, "<|3.46|>": 50537, "ê²łìĸ´ìļĶ": 30826, "Ġutil": 4976, "Ġnear": 2651, "<|20.42|>": 51385, "ĠSchul": 21223, "ĠSac": 19356, "Ġfearful": 33014, "rimin": 16796, "ÙĦÙĬ": 20292, "Ġforecasting": 44331, "ĠÃ½": 49291, "Ġfant": 4115, "Ġnecklace": 24563, "æ²»": 30118, "ĠBere": 17684, "Eu": 37611, "Ġwound": 10999, "peror": 11725, "Ġlace": 33469, "ĠFUCK": 26154, "ĠprÃ©": 11127, "Ġyeast": 21629, "Ġkaraoke": 41629, "ĠQuality": 28892, "scheid": 29811, "çħ": 17867, "Ġallowance": 30647, "presa": 42492, "Ġavoiding": 20220, "ĠØ´": 13412, "alyst": 19530, "Ġwebs": 2859, "stadt": 34511, "Ġlandmark": 26962, "Ġintense": 9447, "ĠWinston": 33051, "ĠOptions": 42934, "Exc": 33553, "ĠÐ¿Ð¾Ð´Ð¿Ð¸Ñģ": 27386, "people": 21123, "urf": 21844, "Ñħ": 1157, "esterol": 21947, "ĠDruck": 33320, "ìĿ¸ì§Ģ": 37194, "ĠMickey": 24714, "Ġpetition": 22661, "Ġíķ´ì": 7960, "Ġslightly": 4748, "Ġjustification": 31591, "ÐºÑĥ": 4401, "ÑıÑİÑĤ": 48891, "Î¯": 3721, "Ġdys": 15243, "ç´ļ": 35315, "<|29.92|>": 51860, "ĠmolÃ©": 49300, "dom": 4121, "ĠSÃ¼": 25697, "<|4.46|>": 50587, "ĠIce": 15332, "Ġtháº¥y": 27793, "Ġsufficiently": 31868, "Ġsurgical": 26646, "Ġgiant": 7410, "robi": 20027, "Ġlass": 45829, "isma": 14795, "Ġvengeance": 43818, "Ġrib": 9162, "Ġseating": 32430, "ãģĭãģ£ãģŁ": 25785, "ĠÐ²Ð¾Ð¿ÑĢÐ¾Ñģ": 17611, "orry": 2005, "ĠÐ¿ÑĢÐ¸Ð½Ð¸Ð¼": 44396, "Ġlater": 1780, "è¨±": 40914, "ĠEfendimiz": 50120, "ĠÐµÐ´Ð¸Ð½": 33791, "ãģ®ãģ¯": 35662, "Ġspill": 22044, "abouts": 41620, "Ġconservative": 13780, "ĠShiva": 34729, "Ġpumpkin": 17537, "OMAN": 26418, "Ġessentials": 46884, "<|15.20|>": 51124, "iversity": 2550, "ĠFallout": 38457, "Ġrack": 14788, "Ġinad": 42148, "Ġstrongest": 16595, "Ġextremes": 41119, "ĠChoice": 37080, "Pal": 29141, "Ġsed": 9643, "Ġshutting": 36057, "ãĤĮãĤĭ": 35367, "Ġdetriment": 35430, "ĠRonnie": 46131, "Ġsociet": 14051, "ammen": 11248, "Ä±nt": 42234, "Ġschwer": 23809, "ĠÐ¼Ð°Ñģ": 21466, "Ġciento": 47361, "×ĵ": 7514, "Ġtrabajando": 40473, "!!)": 33826, "Ġhing": 24895, "Ġambition": 22814, "Ġupside": 14119, "ĠHARF": 27602, "ĠCouldn": 35800, "Ġmae": 43783, "Ġãħİãħİ": 45824, "Ġcreatures": 12281, "Ġinclude": 4090, "ĠSubaru": 43044, "Ġìµľ": 14571, "Ġenc": 2058, "Ġbanks": 10237, "Ġposition": 2535, "Ġpatients": 4209, "ãģ³": 38761, "ĠÐ¾ÑĤÐ½Ð¾Ñģ": 44539, "ĠDownload": 32282, "Ġinfluenced": 15269, "Ġpeople": 561, "Ġdecid": 21937, "Ġhypoc": 50207, "ugi": 24780, "Ġhence": 16678, "ä»ĸ": 5000, "Ġvaccination": 16498, "Ġkamu": 20705, "Ġcontrovers": 11542, "Ġrented": 32381, "<|23.76|>": 51552, "ĠãģĤãĤĬ": 49444, "Ġoperated": 20826, "Ġstep": 1823, "ĠPennsylvania": 17963, "Ġdiffic": 2204, "Work": 28846, "ĠÑģÑĤÐµÐ½": 48357, "Ġprotecting": 12316, "ĠJah": 12443, "Ġverdad": 13692, "Ġatheist": 43977, "Ġort": 23564, "Ġcages": 45888, "Æ°á»": 5829, "ics": 1167, "Ġfreakin": 39571, "Ġcopies": 14341, "ĠVall": 48177, "íķĻêµĲ": 48359, "Ġobstacles": 17735, "Ġcultura": 30576, "Ġdeformation": 34364, "ëĵ¤ìĿĦ": 37513, "ĠAtari": 41381, "ledge": 3042, "Ġìµ": 12568, "ĠRoll": 9926, "ĠÑįÐ½ÐµÑĢÐ³": 40804, "Ġwell": 731, "ĠSenator": 10893, "ĠksiÄħÅ¼": 39311, "ĠGrund": 13941, "Ġproportions": 32482, "Ġantibiot": 19388, "ĠSurprise": 36701, "Ġtransmitted": 25355, "ĠEmperor": 17913, "Ġteamed": 47426, "ĠGig": 40489, "Ġcontroller": 10561, "Ġdozens": 18431, "Ġtheatre": 18711, "ĠMorgan": 16724, "Ġsafe": 3273, "ĠAct": 3251, "atherine": 16351, "å¼ı": 27584, "Ġindoor": 24029, "ĠIreland": 15880, "antwort": 21655, "Ġthats": 16777, "Ġpumping": 27131, "gov": 16089, "ITH": 15401, "onian": 43294, "ĠTodos": 35447, "ĠHOW": 30561, "Ġmillenn": 21362, "Ġwaren": 11931, "Ġbloss": 22956, "illeurs": 14810, "Ġcontinuar": 29980, "pol": 12892, "Ġmeditation": 12537, "Ġcommunication": 6101, "Ġinappropriate": 26723, "ĠWoman": 15794, "Ġobese": 50060, "ĠdziÄĻki": 45003, "ĠÑĤÐ¸Ð¿": 26264, "Ġtransitioning": 33777, "ĠìłĢíĿ¬ê°Ģ": 27463, "Ġteams": 5491, "åĢĭ": 3338, "ãĥ³ãĤ¿": 34337, "ats": 1720, "<|13.40|>": 51034, "Ġcloud": 4588, "Ġvalor": 15367, "Ġtastes": 8666, "Ġmarca": 30582, "iksi": 39664, "OTH": 28200, "erte": 10634, "<|7.60|>": 50744, "<|9.58|>": 50843, "Õ¶": 29295, "éĻį": 47421, "75": 11901, "ĠMechan": 30175, "Ġtim": 524, "ÅĽmy": 10513, "ĠìĦł": 11835, "Ã¡tico": 28234, "Ġkids": 2301, "Ġwaited": 15240, "nels": 19936, "ä¸Ķ": 20334, "Ġheavens": 26011, "Ġaverages": 42257, "Ġsistema": 13245, "Ġspar": 45954, "Ġbeds": 18068, "Ġearthquake": 18778, "à¸±": 5981, "Ġinexpensive": 28382, "ĠWilson": 15388, "Ġmothers": 17941, "Ġgranular": 39962, "Ġtan": 7603, "Ġquieren": 36706, "Ġbalancing": 22495, "Ġdrive": 3332, "ĠÐ¿ÐµÑĢ": 4321, "¬": 105, "Ġmouths": 33171, "Ġstatue": 17385, "Ġê·¸ëŀĺ": 7080, "Ġole": 18726, "Ġëĭ¤": 4279, "orted": 14813, "Ġhang": 3967, "<|5.72|>": 50650, "<|23.28|>": 51528, "<|4.72|>": 50600, "Ġbrasile": 28435, "Ġfunnel": 24515, "Sm": 26578, "Ġprobiot": 45710, "Ġadoles": 21383, "ĠSept": 6978, "Ġgimm": 37214, "itchens": 47314, "Ġ1959": 45608, "Talk": 33210, "ĠÐ´ÐµÐ¹ÑģÑĤÐ²": 17136, "plement": 43704, "Ġgrenade": 31527, "ĠSUR": 37269, "ĠHebrews": 44604, "Ġampl": 9731, "Ġfracture": 36877, "áº§u": 23582, "çı": 8434, "ĠAeg": 46085, "<|4.30|>": 50579, "ĠìĪĺê°Ģ": 27345, "ĠLeb": 19437, "ĠëĶ°ëĿ¼": 24453, "ì´ī": 44221, "Ġpolls": 24264, "Ġmush": 11559, "<|24.52|>": 51590, "AH": 10566, "Ġfaud": 38694, "Ġproposing": 29939, "ifts": 8065, "abb": 10797, "ĠÑĦÐ¾ÑĤÐ¾Ð³ÑĢÐ°ÑĦ": 40855, "<|2.74|>": 50501, "jamin": 21241, "white": 28865, "Ġsubmit": 10315, "<|20.64|>": 51396, "<|24.44|>": 51586, "Ġreim": 33433, "Ġops": 44663, "Ġbluetooth": 48225, "Ġexplored": 24016, "ìļ´ë": 40071, "ĠgÃ¶re": 21032, "Ġslogan": 33052, "Ð°Ð»Ð¸": 4071, "éĻĲ": 43446, "Ġcer": 10146, "ĠTun": 21363, "RAY": 48023, "'...": 37474, "Ç": 131, "ĠfÃ¸": 50177, "ĠBrent": 31665, "Ġgoo": 33192, "Ġcama": 50197, "Ġmellan": 46494, "Īë¬": 5520, "Ġerkl": 27570, "enh": 39123, "á»ķi": 38704, "ĠSTACK": 49114, "ĠÃ§al": 16210, "Ġpermitir": 46865, "ĠRepÃºblica": 45917, "ĠRi": 33668, "ÐłÐķ": 42447, "mies": 38374, "Ġd": 274, "ĠDiese": 18993, "Ġser": 816, "Ġpancake": 28916, "Ġshout": 8043, "ĠQuand": 22015, "Ġhacker": 38155, "Ãį": 33662, "Ġmiel": 41392, "rant": 7541, "Ġcouch": 16511, "Ġê¹": 8394, "ĠUltimate": 26570, "<|7.18|>": 50723, "Ġbubbles": 16295, "ÑĥÐ¿": 6907, "ĠÐ´ÐµÐ½ÐµÐ³": 40957, "ÑĨÑĥ": 22542, "Ġê¼Ń": 25881, "Ġinevit": 14481, "Ġfeminine": 24648, "ÑģÑĤÐ¸": 4756, "Ġtweets": 25671, "Ġdopamine": 37219, "Ġscatter": 34951, "Ġroadmap": 35738, "ĠyapmÄ±ÅŁ": 47527, "Ġhabe": 6015, "ĠHorse": 33208, "Ġinher": 9484, "Ġexceeded": 38026, "ichen": 18613, "Ġfounders": 25608, "Ġwarten": 46907, "Ġchemistry": 12558, "ĠÐŁÐ¾Ñģ": 18689, "ĠRat": 24269, "Ġast": 5357, "ochond": 40172, "ĠÐ¢ÐµÐ¼": 44064, "<|3.58|>": 50543, "Ġlifts": 30501, "Ġphotos": 5787, "Ġstruck": 13159, "Ġreopen": 33861, "Ã¶rper": 25533, "ÐºÐ¾Ð½": 33687, "Ġtama": 45342, "Ġíĭ°": 42417, "<|18.92|>": 51310, "ĠJoÃ£o": 21302, "ĠÑģÑĤÐ¾ÑĢÐ¾Ð½Ñĭ": 28360, "è·¯": 24658, "ook": 1212, "Ì": 136, "Ġcoordinator": 27394, "ä½ł": 2166, "clamation": 41411, "Ġsponsors": 22593, "¶ģ": 18879, "Ġteenager": 21440, "Ġobes": 26395, "Ġfades": 32679, "Ġdisgusting": 17552, "Ġlogical": 14978, "taa": 43695, "ĠìŀĪì£ł": 34070, "Ġ55": 12330, "Ġnurture": 41451, "áº£n": 31926, "ĠCait": 28250, "ç°¡": 26612, "ĠElon": 28498, "Ġmustache": 37798, "ĠBugÃ¼n": 48017, "Ġzig": 38290, "rato": 43037, "ĠBash": 43068, "Ġaula": 41642, "Ġfollowing": 3480, "written": 26859, "ĠRemo": 46445, "rium": 13015, "Ġhamb": 25172, "Ġnimmt": 38891, "Ġtavalla": 50132, "Ġlanding": 11202, "Ġcontained": 16212, "ĠHz": 39747, "Ġbajo": 30139, "Ġendors": 37676, "ĠHelp": 10773, "ĠyÃ¼zden": 33454, "ĠFrei": 35939, "ĠBrill": 30132, "gies": 25480, "Ġmalicious": 33496, "ĠAnti": 27757, "Ķë": 3261, "ĠJS": 33063, "ersonic": 44725, "Ġrestart": 21022, "Ġpuppies": 33734, "kar": 12303, "iona": 21758, "Ã©mon": 18039, "Ġstill": 920, "ĠÃ¤n": 26072, "ĠjeÅ¼eli": 23001, "ÙĥÙĦ": 28820, "Ġobras": 47618, "mares": 32760, "Ġmashed": 38964, "<|10.92|>": 50910, "ĠStaat": 45559, "ALI": 11566, "Ġvoice": 3177, "Ġfaz": 4375, "Ġincludes": 5974, "Ġunsure": 32486, "ĠhÃ¶": 13531, "Ġweil": 7689, "Ġwenn": 4797, "Ġpew": 25889, "Ġrema": 28986, "igible": 11292, "Ġkm": 10698, "ç·": 12608, "Ġperseverance": 39674, "ĠÙĪÙĩ": 37037, "Ġsatu": 27679, "Ġbred": 34133, "ĠMong": 19423, "atte": 30466, "Ġdisproportion": 28734, "<|22.98|>": 51513, "Ġcohort": 28902, "Ġquickest": 49403, "ĠRule": 27533, "Ã¤tz": 39983, "Ġgods": 14049, "ĠÑģÐµÐ¹ÑĩÐ°Ñģ": 10241, "ĠintÃ©ress": 23243, "ĠpÃ©riode": 44703, "Ġutterly": 30251, "ĠLes": 6965, "Ñĩ": 753, "Ġteeth": 7798, "Ġrevelation": 23456, "Ġprueba": 48241, "essions": 9069, "Ġjudiciary": 49987, "Ġquot": 9641, "ÄŁimiz": 31930, "pit": 20144, "<|26.26|>": 51677, "Ġprelim": 26414, "Ġpeninsula": 45065, "<|4.76|>": 50602, "Ġcancers": 31063, "],": 10599, "Ġprogressed": 36789, "ĠÐ¿Ð¾Ð´": 4095, "Ä±l": 5492, "ĠSavior": 29310, "oln": 14110, "atas": 37892, "Ġeffectivement": 40126, "ĠÐĿÐ°Ð¼": 46147, "Ġehrlich": 40872, "ĠfÄ±r": 47305, "ìĹĲìļĶ": 16239, "ĠMachine": 22155, "uges": 39064, "tor": 21151, "Ġcrew": 7260, "ĠÐºÐ»ÑİÑĩ": 43398, "ìĦľ": 2393, "Ġthere": 456, "Ġklar": 14743, "stat": 19435, "Ġcrosses": 28467, "Ġ000": 13711, "Ġê°ĢëĬ¥": 25732, "<|22.24|>": 51476, "ĠSurf": 43124, "Ġnauc": 49103, "<|11.96|>": 50962, "ĠNic": 14776, "Ġeff": 1244, "Ġvá»Ľi": 18916, "Ġmembrane": 19651, "Ġlekker": 44125, "usch": 41172, "Ġtrotzdem": 28325, "Ġtrips": 16051, "ĠÎº": 4903, "Ġadorable": 18698, "Ġdeep": 2452, "ıĦ": 1838, "Ġsc": 795, "Ġexemplo": 16496, "section": 11963, "ĠPow": 14762, "Ġchair": 6090, "ramble": 48382, "ĠìķĪëı¼": 42685, "ĠÃ©c": 15175, "Ġkon": 5897, "Ġunited": 18883, "Ġgob": 20489, "care": 5685, "ĠWhile": 3987, "ĠUk": 9816, "onces": 8498, "Ġcheap": 7084, "ĠSharing": 49060, "Ġpunt": 18212, "G": 38, "ĠLinks": 37156, "ĠtatsÃ¤chlich": 20796, "ife": 863, "Ġcapturing": 23384, "Ġshed": 14951, "Ġmeng": 15330, "Ġëļ": 39181, "Ġ2006": 14062, "Ġsurvey": 8984, "Ġscree": 38323, "<|20.80|>": 51404, "Ġpossessions": 40623, "iencies": 31294, "ĠBre": 7090, "ĠStory": 14484, "æľīä¸Ģ": 32241, "ÑĢÑĥÐ´": 20736, "ĠKiss": 24297, "ĠEdwards": 35836, "§Īë": 44636, "hr": 1703, "ĠÎ¾": 33179, "ĠScience": 8976, "ĠKeeping": 30187, "Ġimaging": 25036, "Ġringing": 18423, "Ġsizi": 45327, "<|17.18|>": 51223, "ĠMcL": 38922, "<|25.36|>": 51632, "ael": 4300, "Ġbumpy": 49400, "Books": 48386, "Ġtreated": 8668, "SPEAKING": 37414, "en": 268, "ĠTou": 30850, "ĠcÃ©": 30560, "ĠØ¥ÙĦÙī": 30731, "OM": 5251, "Ġmeaningful": 10995, "Ġê¸°": 7047, "Ġtenido": 33104, "Ã¥r": 6057, "Ġzosta": 23154, "Ġeditors": 31446, "Ġcraziest": 46339, "ĠLearning": 15205, "ÙĮ": 47416, "ĠBrooklyn": 21872, "Ð²Ð°": 20635, "ydia": 37622, "Ġbegan": 4283, "Ġblueprint": 35868, "ĠÐ»ÑİÐ±Ð»Ñİ": 44683, "Ġcrypto": 17240, "ĠìľĦíķľ": 41475, "Ġdescript": 31280, "Ġdrawer": 24039, "Ġheated": 18806, "Ġvolont": 40005, "ĠMAC": 27716, "zyÄĩ": 27150, "iam": 2918, "Ġconcerts": 24924, "ĠVideos": 25903, "Ġreplace": 7406, "çİ©": 19912, "Ġrevolution": 8894, "Ġexperimental": 17069, "ĠUkrainian": 24682, "ĠB": 363, "unda": 11946, "ĠÐ½Ð°ÑĪÐ¸": 36314, "jes": 16549, "Ġending": 8121, "ĠOA": 48424, "¶Ī": 20026, "ĠSilent": 40862, "Ġgrandfather": 14754, "acaks": 23825, "Ġkrij": 27027, "Ġãģ¯ãģĦ": 48159, "Ġleven": 45542, "Ã¨le": 29844, "Ġsteep": 16841, "Ġupset": 8340, "Ġsulla": 33625, "Ġviolence": 6270, "Ġ8": 1649, "Ġìĺ¤ë": 10258, "do": 2595, "Î¬Î½": 16636, "Ġwen": 11472, "Ġemba": 32660, "Ã³st": 45052, "Ġexpand": 5268, "Ġanyways": 13448, "Ġlo": 450, "Ġliken": 36946, "pool": 17374, "guard": 27547, "Ġcommer": 5906, "Ġridic": 9276, "æīĭ": 11389, "140": 49258, "ÑıÐ³": 25217, "ĠÐ²ÐµÑģÑĮ": 29225, "W": 54, "<|28.68|>": 51798, "ĠKrsna": 33035, "dated": 32164, "ĠAny": 2639, "ãģ¤": 9335, "ucher": 41843, "Ġtranscend": 28535, "Ġquota": 45171, "Ġquite": 1596, "ĠÐ¿Ð»Ð°ÑĤ": 34160, "Ġrespective": 23649, "Part": 37012, "oncÃ©": 43752, "Ġadventure": 9868, "iale": 25051, "Ġmating": 49955, "Ġspent": 4418, "Ġdominating": 43306, "Ġlagi": 17742, "Ġê±°ìķ¼": 15928, "ĠBurton": 46011, "Ã¶ÃŁ": 18595, "vo": 3080, "Ġbuck": 14894, "ĠÅĤat": 47759, "ãģĽ": 13702, "ÑĪÐ¸Ð±": 37782, "Ġë©Ķë": 42873, "Ġtend": 3928, "Ġrefle": 36549, "Ġoll": 37995, "ĠÙħØª": 44650, "ĠÐ·Ð°Ð²Ð¸Ñģ": 39673, "ĭ": 233, "Ã¸r": 15499, "Ġë§ĲìĿ´": 44276, "ÐµÑģÑģ": 13254, "ĠØŃ": 11331, "So": 6455, "ÐµÐ¿ÐµÑĢÑĮ": 12429, "ķ": 243, "Ġmeatballs": 44741, "ĠìķĦê¹Į": 25289, "ÑĢÑĥÐ¶": 15449, "igator": 28895, "å¼Ģå§ĭ": 45213, "Ã§ek": 19088, "Ġauthorities": 12076, "crosstalk": 49782, "ĠLil": 23454, "ĠBever": 39236, "Ġcertificates": 32941, "ãĥ¯": 39613, "ĠResource": 35200, "Ġroutine": 9927, "60": 4550, "Ġregulatory": 18260, "Ġhonoring": 38254, "Ġastero": 24711, "Ġoperating": 7447, "Ġleurs": 18341, "?)": 4827, "/": 14, "éĺ²": 35863, "Ġparticipants": 10503, "Ġheader": 23117, "ĠÑĢÐ°Ð·Ð²": 20019, "Ġultra": 14808, "insp": 31637, "Ġfounder": 14917, "illing": 7345, "Ġlose": 3624, "ĠÐ½Ð°ÑĪÐ¸Ñħ": 41525, "Ġgenerosity": 30178, "vez": 10941, "Ġwarnings": 30009, "uz": 3334, "odynamic": 34988, "Ġleagues": 48429, "Ġfuturo": 23953, "ĠGust": 32337, "Ä±s": 12871, "Ġconverge": 41881, "ost": 555, "Ġclearer": 26131, "ĠCau": 49788, "inas": 17094, "Ġoutlets": 27416, "ĠìŀĪìĬµëĭĪëĭ¤": 10552, "ĠvÃª": 30384, "Ġwsz": 38322, "Ġjingle": 49495, "ĠÑģÐ»ÑĥÑĩÐ°": 23775, "agen": 4698, "Ġcáº£": 22227, "Aust": 47215, "<|13.36|>": 51032, "Ġmusic": 1318, "Ġcritical": 4924, "ividades": 41938, "Ġtighter": 30443, "ĠBreat": 20093, "Ġ220": 29387, "ORY": 38847, "Ġie": 43203, "Ġobsc": 22082, "Ġelder": 12995, "Ġnecesita": 45485, "ĠìķĪëħķ": 13810, "kick": 42427, "fry": 35299, "iovascular": 30313, "Ġdrains": 47694, "Ġapoy": 41535, "Ġreligion": 7561, "Ġtheor": 27423, "Ġtraumat": 35099, "aph": 13957, "<|17.40|>": 51234, "Ġplantation": 45328, "rels": 40874, "ĠWah": 24598, "draw": 48848, "Ġlifestyle": 11716, "åľ¨": 3581, "eterm": 35344, "Ġoval": 37175, "Ġcaves": 32288, "illery": 25857, "Ġbow": 4503, "bridge": 18249, "ller": 4658, "Ġíķľë": 10737, "ĠGriff": 23765, "<|5.10|>": 50619, "Max": 36025, "ĠfÃ¤llt": 42870, "Ġshort": 2099, "ĠDeclaration": 40844, "Ġdemasi": 35259, "Ġimposed": 26491, "Ġmoins": 13099, "Ġsimplemente": 33190, "Ġambulance": 26744, "ĠSat": 5344, "Ġfasc": 7184, "<|5.76|>": 50652, "ĠðŁİ": 19034, "Ġwholes": 34228, "Ġdiscovers": 44522, "Ġstrokes": 24493, "Ð¼Ð¾": 20455, "ĠAlmost": 12627, "ĠPBS": 33517, "Ġìĺ¤í": 25586, "ourse": 13656, "ĠSwitch": 13893, "Ġconvey": 16965, "Ġcommute": 36750, "obia": 24613, "Ġdens": 24505, "à¯Ĭ": 19433, "åĳ¨": 37390, "ĠÐ¾Ð¿Ð¸ÑģÐ°Ð½Ð¸Ð¸": 48303, "ĠUnder": 6974, "df": 45953, "ĠmÃ©g": 43510, "×Ļ×ł×Ķ": 48239, "ĠFamilies": 45081, "ÑıÐ·": 11124, "éį": 41668, "issant": 29492, "ĠAnnouncer": 36640, "avant": 35034, "×ŀ×": 9202, "Ġaligned": 17962, "Ġcombining": 21928, "oris": 46198, "ĠEVER": 27843, "Ġìĺ¤ì¼ĢìĿ´": 30567, "ĠCÃ³": 41306, "uting": 10861, "ĠSuk": 37898, "Ġsustainability": 16360, "ĠPod": 12646, "ĠSurv": 40716, "ĠíĶĮë": 28764, "Ġhandout": 48785, "Ġperfekt": 49134, "Ġsunt": 35171, "Ġattachments": 37987, "Ã¢r": 42648, "ĠAlone": 42056, "ĠÐ¼Ð½Ðµ": 8531, "Ġenh": 10944, "Ġzug": 33507, "å°įåĲ§": 47905, "ĠMcC": 12061, "Ġslaves": 18394, "ELIPE": 13013, "ĠWat": 12593, "Ġcontradiction": 34937, "ihad": 43837, "ĠHÃ©": 42318, "best": 25331, "Ġgigantic": 26800, "ĠaslÄ±nda": 34541, "inson": 14321, "Ġcitizen": 13326, "ĠCao": 38176, "Ġdelle": 16485, "electric": 33243, "crowd": 14779, "ody": 843, "okol": 49207, "ĠCollabor": 44483, "vious": 1502, "ÐºÐ°Ñı": 14801, "stre": 26421, "bon": 4351, "imos": 8372, "ĠìłĢê¸°": 33789, "<|sl|>": 50305, "<|1.66|>": 50447, "ä¸įåĪ°": 35728, "ĠnÃ¤ch": 13201, "ĠKELL": 48109, "ãģįãģŁ": 49809, "Ð¸Ñĩ": 3903, "ĠÅ": 4423, "All": 7868, "Ġì¢ĭìĿĦ": 39968, "Ð°Ð±Ð°ÑĤ": 42304, "ĠFinding": 31947, "Ġcoment": 14541, "Ġdeserves": 17037, "cile": 28886, "Ð¸ÑĩÐµÑģ": 9347, "ĠëĬĲëĤĮìĿ´": 29459, "odar": 43211, "ĠÑĤÐ¾ÑĩÐºÐ¸": 47880, "affle": 29264, "Ġwra": 7843, "ĠNvidia": 46284, "<|2.90|>": 50509, "ĠÐ¾Ð±ÑīÐµÐ¼": 26842, "Ġaccount": 2696, "Ġì´Īë": 34417, "icides": 43393, "Ġsabes": 37790, "Ġkimchi": 21656, "Ġmainly": 8704, "Ġprofessors": 15924, "lÄ±ÅŁ": 40840, "Ġë§ī": 14438, "Ġinherited": 27091, "Ġëª°ë": 24833, "Ġannounce": 7478, "ĠAm": 2012, "Ġdestro": 15311, "Ġiss": 1620, "ĠSom": 12297, "ĠBou": 43833, "ĠSinne": 47041, "ĠTraditional": 46738, "Ġgird": 48219, "åīĩ": 46225, "×ķ×¤": 20152, "Ġhad": 632, "naires": 49551, "Ġlok": 43578, "ĠÑĢÐ°Ð´Ð¸": 34748, "ĠMediterranean": 27280, "Ġtik": 44994, "Ġasshole": 28599, "éĴ": 25153, "Ġuma": 2772, "Ġmilligram": 38298, "Ð½ÑĮ": 18399, "Ġattain": 23766, "Ġaba": 46981, "Ġninety": 25063, "ä¸Ģå®ļ": 24272, "Ġelectr": 7072, "Ġincre": 1946, "Ġcoule": 33644, "Ġtrainees": 41316, "å¥½åĥı": 33242, "Ġpastel": 38100, "Ðĺ": 10276, "ĠEun": 17965, "Ġjournalism": 23191, "Ġtractor": 31857, "ĠGus": 40619, "Ġdistingu": 11365, "ìĦ±ìĿ´": 32105, "Ġbelievers": 23125, "insky": 44153, "ÑĭÑģ": 29476, "ĠBulgaria": 47737, "asmine": 28151, "Ġcirculation": 23168, "40": 5254, "<|8.12|>": 50770, "Ġfraction": 14135, "olor": 36182, "Ġremembered": 13745, "ÑĤÐ¾Ð±": 34096, "ħĺ": 36630, "<|5.32|>": 50630, "Ġswap": 18135, "ĠMarines": 39331, "Ġgua": 30081, "Ġmucho": 9824, "<|16.96|>": 51212, "ĠForeign": 20430, "ĠShot": 28845, "home": 25336, "Ġstation": 5214, "Ġì§": 2334, "ĠMember": 16037, "Ġgera": 41289, "<|24.26|>": 51577, "ĠsiitÃ¤": 32705, "ÙĦÙħ": 19528, "quest": 20343, "Ġsteel": 8269, "Ġspirit": 3797, "aleÅ¼": 45494, "ĠVikings": 48761, "Ġ650": 38566, "éĻ": 8842, "Ġparle": 18508, "Ġdonc": 5926, "ographics": 29933, "upun": 34572, "ĠRanger": 34222, "ime": 1312, "aman": 6147, "Ġalgorithms": 14642, "Ġmaint": 3604, "Ġforeigners": 28201, "Ġtiet": 37709, "ĠìĿ´ëłĩê²Į": 5483, "ĠÑĥÑĩ": 13774, "Ġaccompan": 19307, "achen": 11646, "Ġsituation": 2590, "<|19.24|>": 51326, "ĠFat": 16948, "Ġcabeza": 34615, "<|2.70|>": 50499, "<|11.44|>": 50936, "Ġcrypt": 9844, "Ġadmir": 48252, "êµ¬ìļĶ": 23111, "Ð¾Ð»Ð¾Ð´": 16574, "ĠÎºÎ¬": 26751, "rep": 19919, "Ġallez": 18146, "ĠìĪĺëıĦ": 23455, "Ġabnorm": 47104, "Ġdepicted": 30207, "Ġbrighten": 49007, "vantage": 23408, "ĠÕ": 14822, "ìĹ°": 11557, "ispering": 35237, "Ġcompletion": 19372, "Ġcomputing": 15866, "ĠTro": 19406, "width": 21271, "HD": 22859, "Ġconsonant": 43647, "ikke": 38735, "ching": 17354, "uro": 7052, "ĠGil": 17654, "ĠManuel": 34362, "ĠLOU": 49486, "Ġdulu": 31643, "Ġoops": 34166, "isso": 41279, "ĠÐ¿ÐµÑĢÐ¸": 45602, "uary": 6164, "Ġsim": 1034, "ÐµÐ½Ð½ÑĭÐµ": 29643, "åĴ": 8975, "ĠSleep": 19383, "Ġpana": 47296, "<|9.90|>": 50859, "ĠÎĺ": 30128, "ĠASHLEY": 23834, "ternal": 7481, "Ġcentrif": 44828, "Ġfeed": 3154, "ĠPrinci": 38372, "ĠEN": 15244, "ÑĮÑĤÐµ": 30802, "Ġrooft": 34460, "Ġcontempt": 47202, "Ġopposing": 27890, "Ġdilemma": 34312, "Ġbush": 19910, "ĠTrue": 13587, "ĠNorthern": 14335, "æĿ¯": 45458, "Ġdevotees": 46960, "ĠEld": 19705, "Ġsteadily": 36129, "Ġbounces": 46901, "Ġsincerity": 44040, "ĠSchon": 46049, "Ġteor": 40238, "Ġignore": 11200, "Ġficar": 13646, "Ġpolicy": 3897, "pra": 43255, "oires": 40483, "ì²´ê°Ģ": 39881, "ìļ¸": 15580, "ëĭ¨": 8605, "Ġnegotiation": 27573, "Ġ×¢×Ŀ": 31464, "ĠVal": 7188, "Ġchrist": 26586, "Ġgiveaway": 23508, "aggio": 30763, "Ġs": 262, "Ġadequate": 20927, "ĠÐ²Ð¶Ðµ": 40738, "Ġlod": 33311, "Ġregister": 7280, "ĠKommentare": 46203, "Ġhardest": 13158, "ĠNeil": 18615, "¥´ëĬĶ": 39402, "ĠMur": 9373, "ĠFolks": 39275, "inet": 21370, "éľ": 18594, "Ġseasoned": 30111, "Ġconstants": 35870, "Ġslip": 11140, "Ġbelong": 5784, "icano": 38028, "ĠSamsung": 13173, "Ġambush": 38143, "ĠnajwiÄĻ": 48636, "ãĥı": 15927, "ĠFrederick": 35617, "Ġversatile": 25057, "ĠLan": 17482, "ĠvidÃ©os": 25417, "gres": 45189, "Ġapplauds": 20783, "ĠHistor": 25108, "ĠhÃ¶rt": 42243, "ł": 254, "ĠBelow": 36261, "vette": 41440, "ĠìķĦëĭĪê³ł": 32510, "Ġcod": 17656, "te": 975, "Ġvalt": 45912, "ĠSand": 7985, "teok": 25352, "Ġvorstellen": 34346, "ĠFer": 10728, "Ġnee": 41694, "ĠÑĨÐµÐ»": 22750, "Ġflank": 36318, "akukan": 42774, "Dam": 37442, "Ġnasty": 17923, "ìĪĺë¥¼": 45510, "Ġjeszcze": 14168, "ĠToday": 2692, "Ð¾Ð²Ð°Ð½": 44967, "ÙĪÚº": 31320, "Ġvivo": 30689, "Ġvillages": 20444, "Ġasthma": 33409, "ĠÐ±ÑĥÐ´ÑĤÐ¾": 45239, "Ġpine": 15113, "Ġdiplomacy": 35184, "ĠVas": 23299, "Ġusing": 1228, "iciency": 42081, "Ġsched": 5292, "ander": 4483, "éĪ": 41597, "ĠWY": 46410, "ĠÃ®": 11300, "çŃīä¸Ģä¸ĭ": 24554, "<|14.94|>": 51111, "ARD": 13259, "arse": 11668, "Ġsv": 17342, "ĠCiao": 28473, "ĠMartine": 37195, "ĠSacred": 47074, "×ĺ": 10573, "Ġcritic": 7850, "ĠMVP": 37151, "Ġunits": 6815, "cles": 6520, "ĠMOD": 38113, "Ġtempo": 8972, "GÃ¼lme": 45293, "Ġattitude": 10157, "ÐµÐº": 2872, "Ġspatial": 23598, "Ġencourages": 28071, "ĠDean": 13324, "<|16.26|>": 51177, "<|28.76|>": 51802, "Ġverlier": 49331, "idy": 38836, "Ð½Ñĸ": 10793, "Ġillustrations": 34540, "chl": 11439, "Ġìķ½ê°Ħ": 14466, "ĠKhÃ´ng": 49125, "ĠHughes": 41102, "Ġrasa": 41493, "Ġacab": 13281, "Ġapolog": 9472, "thms": 42945, "alth": 1302, "ĠWarsz": 48479, "ĠWindow": 44933, "Ġthrowing": 10238, "ĠPP": 37369, "ĠBrooks": 33493, "ĠDen": 6458, "meal": 32914, "ĠCommunication": 34930, "ĠMolt": 39254, "ĠÐĹÐ½Ð°": 30869, "anders": 41430, "ests": 4409, "ÑģÐºÐ¸Ð¹": 17146, "Ġ93": 28876, "Ġdiscovered": 6941, "rupt": 5428, "éĢĻæ¨£": 8377, "arel": 37675, "Ġeffectively": 8659, "Ġcradle": 48081, "dens": 32468, "Ġmarketplace": 19455, "ĠbaÅŁ": 8694, "Ġwaters": 12975, "Ġmoyen": 42009, "Ġoverdose": 42206, "Ġappeared": 8516, "ĠKu": 20311, "Ġalternating": 40062, "Ġturbulent": 41697, "Ġgrabbing": 23771, "Ã©rt": 33672, "ìĹĪìĬµëĭĪëĭ¤": 24148, "agne": 13887, "ÏĥÏī": 43326, "Ġdisappearance": 37049, "Ġtactic": 31012, "iere": 14412, "ĠPA": 17718, "achine": 34922, "ĠAround": 17633, "à¹Ģà¸Ĥ": 45243, "ĠÐĿÐ°": 11245, "oben": 46213, "<|2.92|>": 50510, "ĠAgain": 3764, "Ġchirping": 36682, "Ġwart": 45124, "ĠWil": 9483, "ìĦ¤": 32610, "Ġdefinite": 25131, "Ġruler": 19661, "Ġrooting": 41572, "ĠHBO": 37409, "Ã±a": 12150, "Ġbrauch": 45522, "Ġpenetration": 35187, "ĠJean": 13854, "Ġtransp": 7132, "orie": 17473, "Ġsqueeze": 13578, "Ġdraining": 42916, "ãģ¨ãģĦãģĨãģĵãģ¨ãģ§": 39341, "<|7.62|>": 50745, "Ġtecn": 20105, "indeer": 44749, "Ġtoget": 1213, "<|1.84|>": 50456, "Ġì¹´": 41703, "Ġware": 17464, "Ġartists": 6910, "While": 46075, "Ġszy": 30526, "ckt": 19951, "Ġcerta": 44438, "gger": 39381, "ÏĢ": 4339, "ĠHighway": 30911, "ĠSmart": 12923, "Ġyet": 1939, "ĠiÅŁ": 8690, "Ġaccounting": 19163, "Ġdepartment": 5882, "è·Łä½ł": 24131, "ĠSah": 18280, "ìĿ´ì¦Ī": 47797, "Ġdeceive": 43440, "Î¼Î±": 11656, "<|29.70|>": 51849, "Ġalien": 12319, "Ġchir": 23782, "Ġê´ľ": 17327, "atever": 7969, "Ġcarved": 28613, "Ġammo": 27340, "Ġoptic": 48269, "ĠÐ¼Ð¾Ð¶ÐµÑĪÑĮ": 46442, "Grand": 45076, "DB": 27735, "Ġincomes": 42458, "çĿ": 14221, "ĠObama": 9560, "ĠÐĲÐ½Ð´": 39583, "Ġchoose": 2826, "Ġdifferentiate": 23203, "ĠArthur": 19624, "íķľ": 3049, "×ŀ×¢": 44390, "ĠÐ²Ð¾Ð·Ð¼Ð¾Ð¶Ð½Ð¾ÑģÑĤÑĮ": 41233, "Ġcontinent": 18932, "ĠID": 7348, "<|1.62|>": 50445, "Ġdiving": 20241, "Ġzo": 5721, "Ġgef": 11271, "°ë¥¼": 38220, "ĠFleisch": 44911, "quiera": 35134, "ĠDif": 35940, "Ġrepeats": 35038, "Ġfonctionne": 49216, "Ġmuffin": 48400, "prove": 46955, "ĠOczywiÅĽcie": 42980, "Ġculprit": 39220, "ĠJosh": 9785, "ĠìĤ¬ê³ł": 40836, "Ġsyndrome": 19371, "Ġfoundations": 22467, "Ġparting": 46607, "Ġmet": 1131, "å¡": 13331, "à®£": 15297, "ĠJoey": 23764, "ylene": 46830, "Ùĩ": 3224, "Which": 33785, "Ġstadium": 18585, "Ġoptimized": 26941, "ĠBaptist": 32410, "Ġimagining": 27798, "Ġrocket": 13012, "ĠMatt": 7397, "Ġdistricts": 16815, "ĠNed": 31355, "ĠÑįÐºÐ¾Ð½Ð¾Ð¼": 41800, "ĠÐ¶ÐµÐ½Ñī": 28393, "Ġadvancement": 35764, "liÅĽmy": 38452, "alay": 35951, "ĠÑĩÐ°": 15369, "Ġcompassionate": 30531, "ĠHinter": 35006, "Ġstomach": 9665, "<|13.02|>": 51015, "Ġfeh": 34741, "<|28.20|>": 51774, "ĠëĤĺëıĦ": 31057, "<|14.48|>": 51088, "ĠRussia": 6797, "Ġvisas": 45922, "ĠpolÃŃtico": 48641, "ĠBay": 7840, "Ġë§ŀëĬĶ": 49953, "Ġquarterback": 31952, "Ġrhyme": 34753, "ĠNode": 38640, "ÎµÎ½": 16430, "apple": 21316, "Ġambiguous": 39465, "ÏĢÏĮÎ½": 47657, "Ġjuego": 21344, "æĲŀ": 41816, "ĠIdea": 47245, "Ġgasps": 43035, "Ġmanipulate": 20459, "Ġsam": 3247, "å¾ħ": 18390, "ĠFrances": 31441, "ateur": 15540, "ĠVed": 26084, "Ġfirm": 6174, "Ġ1920": 22003, "ori": 7386, "ĠAbg": 35407, ")?": 25107, "acÄĥ": 44929, "ĠcoÃ»": 49743, "Ġbrand": 3360, "GH": 4269, "ĠWoody": 40618, "<|27.16|>": 51722, "eled": 31689, "Ġdrowned": 38233, "Ġmarshm": 29817, "Ġtechno": 36728, "Ġobjections": 44649, "Ġbroker": 26502, "Ġgenerating": 17746, "Ġaffect": 3345, "ĠThor": 17777, "Ġinvasive": 30894, "Ġalarming": 44043, "ÑĸÑĤÐ¸": 45844, "Ġìĺ¤ëĬĺëıĦ": 47455, "Ð°ÑİÑģÑĮ": 33963, "ĠìķĦëĭĪìķ¼": 20425, "ĠCNC": 48714, "Ġkittens": 47363, "TY": 23433, "ĠHouse": 4928, "đ": 205, "×Ĳ×": 6106, "<|2.54|>": 50491, "ĠPlug": 40740, "ĠÐ½Ð°Ð·ÑĭÐ²": 20922, "plane": 36390, "ĠItalian": 10003, "People": 35069, "ĠEnjoy": 15411, "æĺİçĻ½": 28430, "ĠthÃ¬": 17510, "Ã¼ssel": 37838, "Ġë³´ìĭľ": 44771, "ÐµÐ²Ð°": 35946, "Ġju": 3649, "Ġlangu": 2510, "åħ©": 16313, "Ġmerging": 44559, "kiego": 42349, "Ġlib": 22854, "uses": 8355, "ois": 7376, "ĠROS": 31904, "ä¸Ī": 38313, "Ġrollers": 46642, "mayÄ±n": 32541, "<|6.16|>": 50672, "ĠBod": 19482, "Ġcrowded": 21634, "Ġexpl": 1490, "Ġnorte": 41966, "Ġbees": 17511, "ĠEH": 39416, "Ġnewspapers": 20781, "ĠìķĦë¬´": 30702, "End": 36952, "Ġê·¼ë": 9564, "Ġfand": 38138, "×ķ×ľ": 9404, "Ġrepublic": 18535, "ĠOkey": 38544, "ropy": 27514, "ination": 2486, "Ġinsects": 20201, "ĠWall": 9551, "Ġkto": 23780, "ĠÐ¿ÑĢÐ¾Ñģ": 21109, "Ġworkers": 5600, "intendo": 11177, "ĠAnh": 23574, "Clint": 28243, "ĠÐŁÐ¾ÑģÐ»Ðµ": 32747, "Ġenhan": 15780, "Ð°Ð±Ð¾ÑĤ": 7237, "Ġweaker": 24286, "rika": 21499, "mile": 44927, "Ġconce": 10413, "Ġmango": 23481, "Ġnaj": 11212, "ĠÎµÏĢ": 26752, "ionar": 33639, "Ġinstrument": 7198, "Ġrob": 3870, "ĠDNS": 35153, "god": 21787, "Ġnumbered": 40936, "Ġ-,": 42123, "Ġtourist": 19806, "ĠPrinzip": 47572, "Ġgoofy": 42995, "Ġnotable": 22556, "æĢİéº¼äºĨ": 46139, "cision": 40832, "ĠnÄĽ": 46911, "Ġswag": 42064, "ĠSpeed": 18774, "Ġersch": 41673, "ĠÃ©gal": 19540, "Ġmanger": 34372, "ĠÑģÐ¸ÑģÑĤÐµÐ¼": 24067, "ĠFEMA": 31519, "Ġfaced": 11446, "WS": 12508, "ãĥĥ": 8276, "Ãªnio": 39266, "ĠExodus": 44472, "Ġvalid": 7363, "Ġdedicated": 8374, "Ġsites": 7533, "ĠÙħÛĮ": 48478, "æķ¸": 30622, "Ġcerteza": 30424, "ĠSandra": 28184, "Ġretain": 18340, "ÑıÐ¼": 10531, "ĠÐ¾ÑĢ": 18448, "ÑĢÐ¸": 4679, "Ġbok": 41882, "itation": 4614, "Ġpromoting": 16383, "Ġbeers": 34159, "Ġcetera": 11458, "bla": 36138, "ĠOK": 2264, "Ġver": 1306, "urs": 2156, "Group": 48711, "ical": 804, "ĠHor": 10691, "<|25.50|>": 51639, "Ġfilter": 6608, "<|28.32|>": 51780, "Ġenviron": 2571, "aint": 5114, "ĠiOS": 17430, "Ġconsidering": 8079, "Ð¸Ð½Ñĥ": 15387, "Ġcelebr": 3886, "Ġprima": 19507, "ĠVirtual": 23887, "istent": 25367, "ĠIdee": 32651, "ĠVou": 24361, "<|15.80|>": 51154, "Ġchallenges": 4759, "Brien": 47999, "Ġmurm": 39729, "Ġwelcoming": 17378, "Ġëľ": 20490, "Ġìļ°": 14995, "ĠquerÃŃa": 37869, "ĠJun": 8492, "around": 25762, "jas": 19221, "Ġgrave": 12525, "UST": 21536, "ĠWatson": 25640, "ĠhÃ¤tten": 33278, "Ġadjac": 22940, "Ġsincer": 30220, "ĠOnion": 46295, "ĠSpeech": 48385, "tat": 27321, "ĠViele": 36022, "Ġancestry": 44729, "ĠhÃ¤t": 15344, "ĠFile": 26196, "Ġsquirrel": 28565, "ĠSophie": 29645, "Ġtrue": 2074, "ĠRelease": 34278, "ĠSplit": 45111, "Ġimplemented": 12270, "Ġtryin": 47452, "ĠSim": 3998, "Ġdin": 3791, "baby": 35036, "oi": 4869, "ression": 2775, "Ġexceeds": 43305, "corn": 21427, "ł×ķ": 32219, "Ġmonthly": 12878, "ĠItÃŃs": 47806, "Ġdiagram": 10686, "ĠÐ¾ÑĤÐ¿ÑĢÐ°Ð²": 38427, "Ġsouthern": 13456, "Ġdetective": 25571, "¡ł": 19332, "Ġwhit": 47548, "Ġsprinkle": 24745, "Ġfertilizer": 31549, "Ġlikely": 3700, "ĠYue": 30166, "Ġencant": 42380, "ĠSit": 14523, "Ġë¿Įë": 41582, "ksi": 20697, "Ġmilestones": 42038, "ĠFighter": 33387, "tar": 23480, "ĠResp": 22480, "Ġgider": 42291, "som": 24154, "èŃ°": 24686, "Ð°Ð¹": 3183, "Ġprova": 28959, "ĠPhil": 7777, "icherung": 48659, "ì§ľ": 6671, "ÄĹ": 22029, "ides": 1875, "<|17.50|>": 51239, "ĠEntre": 27979, "èĤī": 31980, "Ð»Ð¾": 4610, "ìĺĪ": 9170, "LER": 30494, "ĠKY": 41150, "Ġreconcile": 41059, "ĠëĨĵ": 28747, "Ġincluso": 24018, "Ġschool": 1395, "Ġbelts": 33689, "Ġasset": 11999, "ĠÑĩÐµÐ³Ð¾": 19275, "omb": 3548, "ĠOliver": 23440, "ÙĦ": 1211, "ĠÐ¶Ð¸Ð·": 13505, "Ġëģ": 9770, "ĠCisco": 38528, "Ġdryer": 29880, "Ġxen": 49773, "ĠversÃ£o": 41471, "Ġsituated": 30143, "Ġf": 283, "hait": 49966, "ĠSpin": 29185, "Ġgrips": 38037, "åįĹ": 31021, "atori": 39842, "ì§Ģë¥¼": 29003, "Ġyields": 32168, "ĠFlower": 34993, "Ġvisits": 17753, "Ġbalm": 42532, "Ġscientists": 7708, "ĠGospel": 23163, "chester": 17022, "Ġswallow": 20099, "Ġfloods": 35536, "ĠChe": 3351, "ĠBON": 48524, "Ġusers": 5022, "Ġdeveloping": 6416, "ourt": 33403, "oney": 1308, "ãģĵãģ®": 13303, "ĠìķĦì£¼": 22360, "Ġmenstru": 38827, "Ġgucken": 33135, "ĠMars": 9692, "Ġcompanion": 22363, "Ġliquor": 29162, "ktÃ³": 43073, "á»ĵ": 11057, "Ġorient": 8579, "ÙĥØ±": 37983, "è°¢è°¢": 19879, "ĠAgent": 27174, "<|8.74|>": 50801, "ĠIncred": 27792, "Ð»Ð¾Ð²": 21650, "ĠAPP": 22513, "Ġrank": 6181, "year": 5294, "Ġverstehen": 37352, "Ġbacteria": 11763, "Ġrighteous": 16153, "ER": 1598, "ÐĶÐ°": 15839, "ĠAÃŃ": 22175, "working": 22475, "ĠolmasÄ±": 47528, "Ġkinda": 4144, "Ġ450": 26034, "Ġreconstruct": 31499, "Ġascend": 41604, "Ġwhoa": 13310, "Ġveux": 16389, "Ġhints": 27271, "inton": 12442, "igen": 3213, "Ġcoraz": 25899, "ÑĥÑģÑĤ": 15028, "Ġhoor": 43330, "Ġhavia": 28855, "Ġsurround": 6262, "Ġdaring": 43128, "ĠÐĹÐ´": 17613, "ĠMarion": 49270, "ĠlÃªn": 33368, "ĠÐ¼ÐµÑĩ": 42721, "Ġcre": 1197, "éģĬ": 31878, "T": 51, "Ġinspire": 15638, "ĠGolden": 13410, "ĠìķĬ": 6718, "Ġrendering": 22407, "ipes": 38689, "Ġawake": 15994, "ĠHel": 6128, "<|17.62|>": 51245, "Ġfried": 10425, "Ġcors": 46511, "Ġcrate": 42426, "mud": 31916, "arah": 34420, "Ġreplaces": 46734, "Ġrouter": 22492, "Ġdefender": 26537, "ĠÐ·Ð°ÐºÐ»ÑİÑĩ": 49613, "through": 11529, "Ġnood": 8422, "ĠfÃ¼h": 18813, "Ġbik": 26730, "ĠFIFA": 39497, "Ġprepare": 5940, "ĠGente": 38799, "Ã¼mÃ¼z": 42909, "Ġchamber": 13610, "Ġ12": 2272, "<|3.96|>": 50562, "IAM": 30202, "reu": 30844, "Ð½Ð¸ÐºÐ°": 19411, "Ġghee": 45172, "Ġstandardized": 31677, "Ġvaluation": 38546, "ìĿ´ì£ł": 27036, "ĠQuan": 35249, "Ġbowl": 6571, "Ġev": 1073, "Ġsod": 15047, "Ġcham": 8268, "avait": 38307, "Ġpesso": 6818, "Ġpertaining": 49582, "Ġtasks": 9608, "Ġstero": 36407, "Ġcontinue": 2354, "arsh": 7064, "Ġimbalance": 43007, "Ġboast": 46988, "Ġsentences": 16579, "ĠCi": 20188, "íŀĪ": 5905, "Ġallevi": 33201, "ĠìĨĶì§ģ": 40279, "Ġquirky": 49515, "uls": 9468, "onnen": 34269, "Ä±lmÄ±ÅŁ": 48871, "Ġjury": 19516, "ØŃÙħ": 35571, "Ġtradition": 6994, "ĠPompe": 38527, "ĠÐ»Ð¸Ñĩ": 29936, "asm": 14774, "unkt": 14797, "Ġrendez": 40026, "Ġtare": 49423, "story": 24513, "ĠaÃºn": 31676, "Ġrend": 6125, "åĪ©": 23700, "Łī": 24502, "<|19.58|>": 51343, "kien": 42134, "oubt": 26705, "Ġë¸Įë": 21886, "Ba": 33407, "organ": 12372, "Ġfondo": 38101, "Ġsnow": 5756, "Ġregeneration": 43813, "Ġclass": 1508, "Ġig": 8508, "ppings": 28968, "Ġgrounding": 46727, "Ġpermission": 11226, "isÃ©s": 47151, "à¸Ńà¸¢": 19245, "Ð¸Ð¿": 13306, "Ã¡l": 11447, "~?": 26931, "ĠFirefox": 46613, "aga": 9286, "icism": 26356, "ĠRamen": 48728, "ĠÐ¿ÑĢÐ¸Ñģ": 26686, "ĠÑĢÐ°Ð·ÑĢ": 24051, "render": 13292, "Ġsour": 11006, "Ġä¸Ģ": 26923, "ĠAdvanced": 26951, "ãĥģãĥ£": 31771, "Ð¼Ð¾ÑĤÑĢÐ¸": 44443, "Ã¶d": 29747, "ĠìĶ¨": 17394, "ĠFix": 25538, "ĠLibrary": 12806, "Ġë§Į": 14671, "Ñĥ": 585, "Ġerror": 6713, "Ġamps": 43970, "å¸Į": 26496, "Ġhoje": 13458, "pro": 4318, "remlin": 47154, "sings": 40755, "Ġquand": 6932, "èĮ¶": 43499, "enting": 49265, "Ð¢Ñĭ": 37206, "Ġnull": 18184, "amoto": 35858, "vio": 28226, "ç¾İ": 9175, "ĠDemocrats": 12217, "odus": 32419, "pole": 48518, "Ġtame": 45774, "ĠatenÃ§Ã£o": 39044, "Ġphysi": 21265, "ĠStewart": 25951, "Ġpsychologist": 29514, "ĠÐ·Ð°ÑĢ": 17821, "ĠiPhones": 43793, "Ġwireless": 14720, "ĠÐ·Ð°Ð¹": 40133, "Ġsupre": 27283, "indi": 10255, "Ġvic": 26031, "Ġmai": 12698, "Ġihm": 16021, "Ġburner": 36116, "ĠëĳĲ": 11915, "Ð°ÑĨÐ¸Ñı": 21235, "Ġwij": 24770, "Ð½Ð¸ÑĤ": 47264, "ĠWarren": 20538, "Ġpuisque": 28090, "oph": 5317, "Ġacres": 19852, "Im": 31128, "Ġpes": 9262, "Ġcereal": 26199, "ricular": 42750, "ĠMedicare": 19583, "ĲĲ": 35606, "jet": 7108, "Ġnuestro": 14726, "lessly": 12048, "Ð²Ð¾Ð»": 20143, "ĠBrilliant": 34007, "ĠDrag": 8832, "loo": 38511, "ĠMichael": 5116, "Ġeuch": 10403, "å¤ī": 40931, "Ġharmless": 40160, "à¹Į": 23948, "Ġmanifold": 47138, "ocation": 27943, "ĠentÃ£o": 9071, "Ġentend": 16612, "orney": 10423, "ALK": 24477, "ĠÃ¼berhaupt": 20023, "Ġfloats": 37878, "Ġfav": 33801, "would": 43815, "Ġcarbohyd": 26328, "bear": 26738, "ĠpiÅŁ": 47461, "Ġsido": 14444, "iggers": 20942, "Ġexplicitly": 20803, "imes": 1532, "ĠkÄ±z": 15225, "ĠPrevention": 38699, "íķ": 817, "ĠXbox": 14544, "Ġsemantic": 47982, "amiento": 16971, "ĠÑģÐ»Ð¾Ð¶": 30858, "Ġswitching": 16493, "ç¿»": 42716, "ĠAlum": 33134, "employ": 12112, "Ġpim": 33917, "Ġintegrating": 26889, "zyka": 40940, "ĠLatino": 25422, "ç¾İåĳ³": 45511, "ĠCost": 20863, "ĠWhat": 708, "ĠKrie": 35579, "Ġteaspoons": 43996, "ĠCynthia": 38163, "Ġsá»±": 33602, "ìĹ½": 44944, "ĠSex": 29037, "lardan": 41188, "ĠProcess": 31093, "Ġnuggets": 42663, "ĠApple": 6373, "onie": 32242, "ĠÐ¿ÑĢÐ¸Ð³": 42619, "ĠUnknown": 32766, "Ġì¶Ķì²ľ": 40264, "¥¼": 2429, "Ġ×¢×ľ": 15929, "ĠFergus": 36790, "Ġsurprised": 6100, "Ġbeetje": 27459, "Ġrefusing": 37289, "Ġtackle": 14896, "Ġenjoys": 29750, "zed": 11312, "Ġchest": 7443, "Ġanyway": 4033, "Ġsiguiente": 25666, "ÏĦÎ¯": 30393, "Ġrailway": 25812, "Ġthrone": 17678, "Ġfosse": 24528, "Ġmillennials": 45543, "Ġolsa": 44655, "Ġmaritime": 43892, "ãģĵãĤĵ": 31172, "ĠÐ°Ðº": 13790, "Ġbrake": 13997, "Steve": 28910, "schein": 23672, "ĠCrisis": 42846, "Ġë§Ī": 6437, "ëĤ": 8580, "ĠFlip": 28210, "Ġinformative": 27759, "opus": 23280, "Ġprincip": 6959, "Ċ": 198, "ĠÐ¼Ð°ÑĢ": 31609, "Ġdesktop": 14502, "ĠÙĪÛģ": 44291, "Ġauxiliary": 43741, "Ġcowboy": 39174, "Ġgorilla": 45066, "Ġnun": 8905, "ĠquiÃ©n": 35327, "Ġlata": 46722, "ĠâĢ«": 4738, "ĠNP": 38611, "idor": 29718, "<|12.58|>": 50993, "ĠÐ»ÑİÐ±Ð¾Ð²": 45356, "ÏĨ": 12015, "ĠAly": 27008, "Ġfasten": 38716, "Ġtyle": 39293, "ĠIan": 19595, "Ġaggression": 30268, "Ġexca": 24933, "Ġawe": 30912, "<|10.56|>": 50892, "uis": 8479, "Ġmoisture": 13814, "Ġneigh": 4168, "Ġmarried": 5259, "Ġnewer": 17628, "Ġadditive": 45558, "Ġant": 2511, "Ġmanera": 13913, "é¦Ļ": 16017, "Ġhalf": 1922, "adium": 13534, "ĠEssen": 42098, "Ġrico": 41529, "<|3.98|>": 50563, "ĠcuestiÃ³n": 50216, "ĠmarchÃ©": 37441, "uma": 5544, "×ķ×Ĳ×": 36440, "otechnology": 43594, "åł±å°İ": 36235, "ĠíĨµ": 17006, "Ġdang": 21892, "Ġ112": 45835, "agle": 15088, "Ġmanufacturers": 18455, "Ġjeopard": 44295, "raft": 4469, "Ġheter": 20789, "á»ĳc": 24426, "°ķ": 21697, "warm": 49240, "Ġbesides": 11868, "ĠHogwarts": 46539, "ÑĤÐµÑģÑĮ": 48430, "peare": 22446, "Ġwsp": 17757, "Ġexpressions": 15277, "Ġ18": 2443, "anie": 7155, ".Â»": 49335, "Ġìķŀ": 13727, "ady": 880, "æĹ": 4479, "Ġheft": 43674, "energy": 49016, "ĠÐ¼Ð¾Ð³Ð»Ð¸": 37118, "Ġapplication": 3861, "éŁ³": 18034, "ÏĦ": 1781, "<|26.84|>": 51706, "Ô": 144, "ĠTrainer": 48494, "ĠMail": 29164, "exc": 27855, "³´ë": 17420, "Ġfootsteps": 26883, "Ġenhanced": 21191, "ĠÑĥÐ²ÐµÐ»Ð¸Ñĩ": 41511, "Ġpu": 2362, "Ġexample": 1365, "ĠÐ»ÐµÐ³ÐºÐ¾": 39995, "ĠCle": 8834, "Ġsuperheroes": 45417, "ĠLÃ¤nder": 43441, "æĥ³": 7093, "Ġnoble": 20171, "ÙĲ": 11082, "ĠÐ¼Ð¸Ð½Ð¸Ð¼": 45754, "Ġupon": 3564, "Ġchemin": 46006, "estra": 32036, "!...": 34205, "Ġrichness": 44506, "Ġtrillion": 18723, "<|1.40|>": 50434, "ciplinary": 24560, "Ġoutlined": 27412, "Ġgrand": 2697, "Ġplants": 5972, "Ġminist": 16182, "ĠSolutions": 36295, "mel": 10909, "Ġespe": 10049, "Ġflashing": 31049, "Ġeasier": 3571, "Ġassets": 9769, "auen": 11715, "ĠÐ¾Ð¿ÑĭÑĤ": 48530, "Ġparasites": 45289, "Ã¼zel": 13130, "Ġpermits": 30990, "éħĴ": 37486, "ĠUnivers": 14052, "ÑĤÐ¾Ð¼": 17804, "ĠMem": 8731, "chain": 11509, "ested": 21885, "ĠMenschen": 8397, "Ġdispers": 24631, "Ġmodulation": 42288, "quent": 28842, "ĠgÃ©nÃ©ral": 27796, "Ġdumped": 32131, "Ġmasculine": 28992, "ĠRoz": 43313, "ĠSami": 44029, "ĠÐ¾ÑģÐ½Ð¾Ð²": 19217, "ĠWrong": 28150, "<|20.90|>": 51409, "Î¿ÏħÏĤ": 29395, "ole": 4812, "ĠNas": 16151, "Ã¼hren": 29540, "kn": 5457, "llers": 20278, "icient": 24549, "ĠcÃ´t": 16857, "ä»£": 19105, "Ġclub": 6482, "ĠsÃºper": 43282, "07": 16231, "Ġ7": 1614, "ĠAJ": 32759, "ĠJW": 49885, "rib": 2024, "à¸Ńà¸ģ": 37484, "ĠSAT": 31536, "ĠFort": 11002, "Ġfoil": 22444, "indo": 10306, "Ġsac": 4899, "<|16.10|>": 51169, "onia": 16999, "Ġmalfunction": 50229, "ĠCome": 2492, "ĠVu": 37703, "crates": 50243, "Ġê°Ģìł¸": 36434, "Ġmant": 10845, "acional": 13608, "ĠOrb": 44329, "ÑİÑĤ": 7329, "antee": 10527, "ĠbÃªn": 43730, "ĠPepsi": 42311, "äºĶ": 21001, "Ġsimilarities": 24197, "Ã¼f": 39733, "Ġaparece": 37863, "ĠPeg": 28007, "\"...": 18332, "Ġpeng": 17289, "Ġsubjective": 25972, "emetery": 25558, "ĠchociaÅ¼": 48929, "ĠAppreciate": 37601, "ĠBrave": 38545, "áº¥y": 13417, "Ġdisso": 20088, "ĠREM": 45991, "ĠGallery": 29733, "ĠFly": 25294, "Ġrece": 2268, "Ġgesch": 13511, "otle": 30773, "<|9.40|>": 50834, "Ġaspects": 7270, "ĠBel": 6248, "Ġuk": 26769, "Ġenergized": 49231, "Ġ1966": 39157, "Ġeveryday": 7429, "ĠTree": 22291, "ĠÐ½Ð°Ð±Ð»ÑİÐ´": 47147, "Ġfailing": 18223, "ìŀĳ": 10492, "ĠëĬĲëĤ": 11796, "Ġlavender": 43757, "Ġhistorically": 16180, "Ġteammates": 20461, "ÃŃ": 870, "ĠGTA": 35575, "Ġdimension": 10139, "Ġscientist": 12662, "¡Ŀ": 11737, "Ġayud": 20333, "ĠdoÅĽwiad": 46661, "bs": 929, "esper": 34698, "ĠdemiÅŁ": 46334, "ĠÐ¿Ð¾Ð´Ð°ÑĢ": 43564, "ĠColorado": 15786, "Ġinc": 834, "Ġbraid": 33109, "Ġzur": 7147, "ĠDaddy": 15323, "edsiÄĻbior": 40494, "Ġhalfway": 15461, "ĠLak": 37327, "Ġtopic": 4829, "Ġdie": 978, "ĠÐ´Ð²Ð¸Ð³": 30618, "ĠSU": 9872, "åĮĸ": 23756, "Ġexplore": 6839, "Ġconvin": 9854, "ĠVale": 26415, "ured": 3831, "ĠDivision": 17183, "Ġfragen": 39129, "Ġrelig": 4039, "Ġwater": 1281, "ĠRivers": 36646, "Ġdisplaying": 36834, "Ġsimultaneous": 46218, "Ġjedes": 36119, "Ġclique": 44467, "Ø±ÛĮ": 44823, "Ġreported": 7055, "ĠZahlen": 44096, "Ġterus": 35977, "é¨": 38168, "Ġresignation": 49494, "Okay": 8297, "Ġprzest": 44264, "Ġunderneath": 7223, "ĠXY": 48826, "ULL": 42615, "tÄ±r": 20637, "Ġfilos": 46045, "Ġpull": 2235, "Ġconnectors": 31865, "å¼Ł": 19630, "Dear": 42712, "ĠÑĥÑģÐ¿": 23944, "ities": 1088, "×ª×Ļ": 22100, "beh": 29437, "Î´": 8385, "ÐµÐ»Ñİ": 34791, "ĠVamos": 10894, "ĠÐ±ÑĸÐ»ÑĮ": 47692, "inished": 35923, "Ġsliding": 21169, "Form": 49855, "å°±æĺ¯": 5620, "Ġpodcast": 7367, "Ġlist": 1329, "Ġnoss": 24970, "ĠYoutuber": 49219, "Ġflags": 23265, "Ġdemek": 32491, "Ġë°ĺë": 23142, "Ġaquesta": 24062, "anu": 48136, "ĠIR": 16486, "<|15.72|>": 51150, "Ġbelieving": 16594, "okay": 26061, "wed": 26896, "ĠHospital": 15645, "Ġrespectfully": 45201, "ningar": 29895, "Ġentirety": 31557, "Ġfirewall": 36109, "ìĽ": 3860, "ĠÑģÐ¾Ðº": 38419, "à": 156, "Ġinfant": 16757, "ĠProject": 9849, "ĠIvy": 38592, "Ġgreetings": 33667, "Ġdirecting": 26979, "ĠnÃ©cessaire": 46396, "elles": 19787, "lock": 4102, "ÙĩÙħ": 16095, "æĺİ": 11100, "Ġbekommt": 33429, "licht": 20238, "Ġpanel": 4831, "Ġíİ": 10981, "ĠGiant": 29391, "Ġresp": 1597, "ìĿ´ë¥¼": 35150, "Ø±Ø¬": 47341, "åĳĢ": 15348, "Ġì¹": 6639, "ĠDamn": 11907, "ĠAtl": 11000, "Ġmonumental": 43105, "ãģĹãģ¦": 8822, "Ġbiraz": 19696, "ĠPopular": 37637, "Ġê¸ī": 44728, "ĠëŃĲê°Ģ": 39713, "Ġable": 1075, "Ġcomum": 44324, "ĠRise": 34482, "ç¾İåľĭ": 21228, "Ġdesired": 14721, "è¨´": 28953, "ese": 1130, "Ġparad": 13480, "ĠManchester": 27180, "Ġprend": 9866, "ĠRec": 9647, "Ġcomparison": 9660, "ĠBrah": 36569, "Ġì§Īë¬¸": 39217, "lais": 21232, "ĠGREEN": 47262, "Ġgirlfriends": 46558, "making": 12402, "ĠìĿ´ê²ĥ": 23088, "ometers": 34675, "<|24.46|>": 51587, "ãħ": 4143, "à¸": 839, "Ġged": 19238, "Ġpatri": 18311, "bli": 32117, "ĠGall": 14588, "Ġobserved": 13095, "Ġexist": 2514, "Ġassumptions": 17695, "Ġrepres": 2556, "Ġflirt": 40532, "ulations": 4136, "<|5.68|>": 50648, "itan": 9670, "Ġswinging": 29500, "ĠcafÃ©": 25118, "åľ": 2523, "Ġoutlet": 20656, "<|6.56|>": 50692, "OH": 31187, "ĠShip": 38407, "ĠZombie": 48952, "Ġnaar": 12762, "OOK": 24213, "orta": 36403, "ĠÐ½ÑĢÐ°Ð²Ð¸ÑĤÑģÑı": 33652, "ãĤ¨": 26215, "éģł": 34489, "Ġadvertisers": 42679, "Ð°ÑİÑĤÑģÑı": 15955, "Ġlacked": 41481, "str": 9733, "ĠsiÃ¨cle": 40830, "Ġconventions": 33520, "Ġhak": 35720, "Ġnerd": 23229, "ĠCult": 41550, "Ġbeet": 16658, "ĠÐ¿ÑĢÐ¾Ð¿": 23497, "geord": 36161, "åŁº": 26008, "Ġvictories": 38259, "boro": 46669, "Ġselfies": 34814, "rico": 23776, "ichi": 18543, "Ġdile": 25623, "nesota": 13689, "ĠPhilosophy": 43655, "ruit": 18891, "Ð¾ÑĪ": 6824, "Ġsupernatural": 25678, "Ã¼mÃ¼": 48326, "Ġpunish": 9842, "Ġmagnificent": 23690, "Ġíģ¬ë": 27680, "ĠìķĦë¹ł": 41281, "Ġpare": 7448, "larda": 40658, "Ġresponding": 16670, "Ġtolerance": 23368, "Ġconfiance": 43213, "ential": 2549, "ibal": 34764, "atin": 22685, "ĠWise": 46933, "rough": 6160, "gas": 10549, "Ġtrolls": 47749, "Ġrebuild": 16877, "Ġvulner": 8184, "Ġincub": 33345, "ĠSir": 6144, "Ġwrench": 25406, "ìĹŃ": 18015, "ĠìĥģíĻ©": 24581, "Ġliquids": 38960, "Ġsmashed": 33269, "ieder": 5653, "Ġuncon": 35847, "Ã¨ge": 44924, "lls": 43909, "Ġtravel": 3147, "Ġspecifics": 28454, "ĠnÃ¤m": 17534, "Ġdemokrat": 49432, "quality": 11286, "Ġstand": 1463, "Ġzombie": 20310, "Ġsubs": 2090, "ĠLandes": 22031, "Ġlangue": 40318, "Ġsustained": 23389, "Ġviolating": 42201, "Ġrefresh": 15134, "Ġtule": 27954, "âĦ": 26920, "ĠDigital": 15522, "Ġbasta": 45282, "Ġbites": 26030, "Ñį": 7570, "Ġrefined": 26201, "ĠÐ´ÐµÐ»Ð°ÑİÑĤ": 48732, "ĠChampions": 14391, "being": 13054, "Ġtense": 18760, "Ġunf": 3971, "ëĭ¹íŀĪ": 44180, "ìĿ´ëĿ¼ëĬĶ": 32103, "loud": 29221, "Ġdagen": 49638, "ĠOttawa": 40767, "Ġwhen": 562, "Ġnim": 24887, "å¥½åĲĥ": 34669, "ìĭľë": 10426, "åľ°æĸ¹": 30146, "ermaid": 32124, "Ġtekn": 32533, "ĠATM": 46455, "Ġtheft": 28508, "Ġroyalty": 40929, "yen": 16580, "otine": 39658, "éļ¾": 46531, "ĠTwo": 4453, "ogens": 35325, "Ã¼h": 7254, "<|13.24|>": 51026, "ĠÃ©v": 20090, "wah": 37360, "kit": 22681, "imens": 37294, "<|7.02|>": 50715, "Ġreorgan": 41203, "ficiente": 26863, "ĠEvent": 13222, "Ġmammal": 49312, "Ġdiligence": 40046, "Ġë²ł": 28672, "Ġdeterminant": 41296, "Ġponer": 19149, "Ġrecovery": 8597, "ĠÃ³r": 44083, "Ġholder": 20349, "ramento": 34706, "ocalyptic": 47407, "Ġquarters": 20612, "gend": 9395, "Ġneol": 49512, "æĶ¯": 24400, "Ð¸Ð¼Ð¸": 11426, "ĠDI": 11953, "Ġwardrobe": 29065, "ĠÐĿÐ°Ñĩ": 48493, "Ġgitti": 37700, "!!!!": 8153, "ĠÑĤÐ¸": 39317, "Äģm": 43642, "estyle": 9985, "Ġdrives": 11754, "Ġdage": 41557, "Ġexpose": 19219, "ĠEc": 28993, "Ġbending": 22487, "ĠBie": 34972, "ĠQuiet": 32193, "Ġshrim": 13958, "Ġlump": 25551, "Ġqualities": 16477, "<|uz|>": 50337, "ĠBundesregierung": 46876, "Ġfriend": 1277, "Ġnosso": 14347, "ĠBo": 3286, "Ġdurch": 7131, "Ġcells": 5438, "ê²ģ": 45798, "Ġaven": 18469, "ĠDriving": 44028, "Ġbursting": 45713, "ĠTen": 9380, "<|9.18|>": 50823, "ĠLuca": 42076, "ĠGreeks": 31029, "ĠReturn": 24350, "Ġdoe": 35319, "ëĦ¤": 17507, "ĠTage": 29724, "Ġcontagious": 40666, "Ġdimensional": 18795, "ĠÐºÐ¾ÑĢÐ°Ð±": 42830, "Ġolhos": 47944, "<|0.64|>": 50396, "×Ļ×©": 16732, "Ġharbor": 36947, "Ġmira": 30286, "cons": 21190, "Ġportfol": 11688, "Ġlowered": 28466, "EN": 2195, "Ġinforms": 45320, "Ġsequence": 8310, "Ġposed": 31399, "just": 3424, "ĠPittsburgh": 33626, "Christ": 19171, "Ġsurge": 18989, "ĠVolvo": 43381, "Ġvam": 41864, "Ġdelight": 11627, "ĠGard": 12882, "Ġidentifies": 34597, "åİ»": 6734, "inski": 38984, "ĠOu": 11710, "<|19.32|>": 51330, "reb": 22692, "ĠPete": 19013, "Ġ1990": 13384, "Ġcerto": 22261, "Ġenjoyed": 4626, "Ġdinosaur": 23627, "Ġrais": 4000, "ĠFood": 11675, "ault": 5107, "mat": 15677, "ĠYin": 33254, "Ġarbitrary": 23211, "ĠDoll": 20059, "cuts": 26158, "acia": 28000, "ãģĹãģĭ": 32156, "Ġsinking": 28148, "flow": 10565, "Ð¸ÑĩÐµ": 23468, "Ġplup": 45312, "Ġdemographic": 26331, "ĠHeights": 44039, "Ġseasons": 15050, "Ġe": 308, "Ġdiarrhea": 41282, "lying": 7310, "íķľíħĮ": 15863, "Ġhele": 16812, "Ġiki": 20739, "Ġentreprene": 8354, "Ġllega": 40423, "Ġvel": 14610, "Ġweave": 29145, "jÄĻ": 11115, "Ġshrimp": 15600, "colored": 42820, "åıĭ": 14765, "ãĦ": 29210, "<|24.34|>": 51581, "ĠClick": 8230, "Ġiterations": 36540, "ĠSnow": 14827, "nous": 47008, "Å³": 28102, "Ġtopl": 41017, "ĠPv": 41896, "laÅŁ": 16803, "Ġupcoming": 11500, "between": 32387, "Ġsupercomputer": 36708, "Ġhighlight": 5078, "ĠÄ°ns": 45379, "ificaciÃ³n": 40802, "ĠKA": 31233, "Ġpresenter": 35594, "Ġpec": 42451, "Ŀ¼ë": 9316, "Ġrepente": 42884, "ĠFoster": 38756, "ĠpÅĻ": 31631, "sÃ¥": 19773, "dr": 16753, "alties": 26471, "Ġvos": 13845, "Ġterm": 1433, "Ġtract": 24207, "Ġbrows": 8333, "Ġdeconst": 49473, "<|28.00|>": 51764, "auth": 40198, "Ġteleport": 28050, "ĠEE": 33685, "ood": 1816, "Ġ59": 24624, "Ġfaites": 29902, "Ġpainful": 11697, "aqu": 23761, "ĠAlaska": 19553, "æª": 40741, "<|21.20|>": 51424, "ĠPalestine": 33030, "Ġdistant": 17275, "ĠQuá»ĳc": 41494, "ĠFahr": 19843, "ĠÑģÐ¼": 6871, "Ġproduce": 5258, "Ġvie": 4941, "Ġdebug": 24083, "ĠJoy": 15571, "Ġvast": 8369, "Ġconstruir": 38445, "ĠÐĸ": 18977, "ĠmieÄĩ": 35612, "pos": 30010, "Ġtripod": 28020, "ĠAlfred": 28327, "Ġglued": 28008, "Ġmold": 11102, "ĠÐµÐ²": 42402, "Ġanat": 21618, "ĠÐ¾Ð±ÑĬ": 16646, "ĠÐ³Ð¾Ð´Ñĥ": 22688, "Ġtoothp": 27003, "zil": 8790, "Ġcurt": 28087, "Ġtit": 3459, "Ġ1982": 31352, "Ġdocumentaries": 41630, "Ġavons": 18990, "Ĳ": 238, "powered": 27178, "Ġlemonade": 44374, "Ġworker": 11346, "inea": 31940, "achus": 19024, "ĵ": 241, "Ġold": 1331, "ëĬ": 1052, "iendo": 7304, "ĠdÃ¼r": 23637, "irmi": 49110, "Ġboiler": 39228, "á»ĳi": 24273, "lamation": 43233, "zd": 31278, "ĠìŀĪëĭ¤": 27468, "ĠPlaid": 30030, "Ġmailbox": 43602, "ynthesis": 45601, "ieme": 44940, "ĠìļĶ": 10161, "Ġhigh": 1090, "duct": 5020, "ophren": 38562, "ĠBangladesh": 35260, "<|17.46|>": 51237, "Ġaudio": 6278, "Ã¡nt": 27525, "ĠJennifer": 14351, "Ġnue": 10412, "ikut": 49971, "Ġvert": 6509, "Bill": 49783, "aine": 7119, "Ġparents": 3152, "Ġresigned": 41180, "Ġhonestly": 6095, "Ãľ": 12272, "oker": 16722, "Ġperpetual": 48216, "Ġcompiler": 31958, "Ġmeasurements": 15383, "Ġimag": 2576, "ĠAdditionally": 19927, "Ġà¤®": 48449, "ĠGOT": 36525, "Ġdl": 37873, "ĠNos": 18749, "ĠUA": 32765, "Ġquin": 42215, "Ġshooters": 45526, "Ġ1400": 46795, "Ġernst": 43412, "icion": 18899, "ĠIntrodu": 27193, "sil": 30605, "Ġvisa": 18589, "ëĭ¤ëĬĶ": 10520, "Ġko": 8384, "Ġmorality": 29106, "Ð¾ÑĢÐ¾Ð½": 48040, "ĠLAUGHTER": 46760, "Ġglobally": 18958, "mac": 37065, "<|en|>": 50259, "acao": 50195, "Ġorth": 19052, "Ġdefe": 7486, "ĠGrammy": 47332, "Ġmonte": 35437, "ĠÐ¿Ð¸Ñģ": 39739, "ÑĭÑĩÐ½Ð¾": 35214, "Ġbanyak": 25808, "æĪĳè¦ģ": 32186, "èµ": 5266, "Ġstap": 27284, "Only": 35773, "Ġrevolutionary": 22687, "ĠÑĩÐ°ÑģÑĤÐ¸": 29168, "ĠWanna": 24336, "Ġ2008": 10389, "Ġbio": 12198, "ĠNov": 31948, "Ġcircumstances": 9121, "Ġsomeplace": 37126, "ĠÐĿÐ°Ð¿ÑĢ": 36552, "Ġsweet": 3844, "ostat": 39036, "ĠSame": 10635, "Ġê·¸ëłĩ": 13773, "ĠaÃ±os": 11424, "ege": 2828, "ĠVad": 24788, "Ġpoorest": 44925, "<|21.16|>": 51422, "Ġtoler": 11125, "Īë": 2196, "oko": 13704, "akter": 33557, "Ġprimary": 6194, "Ġmerely": 17003, "Ġprol": 24398, "illos": 47476, "ĠLeo": 19344, ",âĢĭ": 40271, "Ġì±ħ": 33623, "ĠTheater": 26548, "ĠStation": 14467, "ĠCongress": 6426, "Ġà¤": 8485, "ros": 2635, "ıĻìķĪ": 48608, "ĠZimmer": 37243, "ĠKhan": 18136, "Ġyounger": 7037, "acco": 18662, "Ġderived": 18949, "ĠEnviron": 19286, "ĠAristotle": 42368, "olar": 15276, "ĠRight": 1779, "ĠÐ·Ð½Ð°ÐµÐ¼": 45491, "ÃŃss": 36375, "Ġ1970": 14577, "Ġê·¸ëłĩì§Ģ": 32667, "ĠHuawei": 28542, "Ġrights": 4601, "ĠÐºÑĢ": 7502, "ĠOnun": 40379, "sub": 30131, "inger": 6911, "vu": 32257, "Ġsenin": 19402, "iantly": 42580, "Ġlogically": 38887, "orama": 32988, "Ryan": 32106, "åĥ": 9502, "Ġì£¼ë": 16410, "Ġmig": 6186, "Ġproposed": 10348, "ĠGa": 10384, "ĠLiver": 28010, "ĠÐ±Ñĭ": 2768, "atorium": 41679, "ĠìĬ¤ë": 40420, "Ġculinary": 39273, "ĠBened": 39753, "ĠÐĺÐ·": 24588, "ĠKanal": 38643, "Ġbliver": 45329, "Ġgenuine": 16699, "Ġprevented": 27314, "Ġobsessed": 16923, "monary": 46386, "ĠAlien": 32396, "Ġrehearsal": 24884, "ĠLad": 12106, "ĠforcÃ©ment": 31358, "Ġextension": 10320, "lling": 2669, "Sad": 47801, "ĠÐ²ÐºÑĥÑģ": 28295, "Ġalright": 5845, "OD": 14632, "ĠÐ·Ð°Ñī": 31107, "Ġtocar": 35631, "Ġdesarrollo": 38295, "Ġwallpaper": 43293, "Ġ57": 21423, "ÑĢÐµÐ´": 10278, "Ġignorant": 29374, "Ġblurry": 37644, "ĠAlexand": 28800, "ĠaÃ±": 37837, "Ġassum": 5339, "ĠPost": 10223, "ĠTherap": 36812, "and": 474, "§Ī": 8667, "ĠJoh": 19180, "Ġcell": 2815, "Ġcollect": 2500, "imp": 8814, "ban": 5144, "Ġaccelerator": 39889, "0000": 33202, "ĠJa": 3530, "Ġ2021": 7201, "ĠPRESID": 42508, "Ġoverhe": 29807, "Ġrefuse": 16791, "Ġmarche": 32631, "ams": 4070, "Ġsells": 20897, "ĠmÃ©di": 42436, "Station": 19468, "Ġtekrar": 45847, "ç": 163, "<|24.62|>": 51595, "åĪĨ": 6627, "ÏģÎ¿": 11904, "ridge": 15804, "<|20.20|>": 51374, "<|18.20|>": 51274, "Ġheal": 10526, "Ġvalley": 17636, "Ġdelicious": 4809, "ls": 11784, "ĠAk": 9629, "æĪĳåľ¨": 40528, "Ġtemple": 10184, "ĠspÃ©cial": 34141, "Ġresides": 47157, "Ġtraining": 3097, "Ġcreativity": 12915, "oldown": 40625, "ÅĤoÅĽÄĩ": 44742, "ĠIsrael": 5674, "Ġirr": 29413, "Ġawaken": 43566, "aja": 12908, "ĠìłĦë": 19617, "irez": 50231, "ĠTot": 11236, "Ġsogar": 19485, "Ġbones": 10491, "×ľ×Ļ": 42468, "Ġsustaining": 49097, "Ġfil": 1387, "ê¹ĮìļĶ": 16474, "ĠBib": 31520, "ĠElectric": 24677, "restrial": 34539, "Ġjemand": 21717, "ÑıÑĤÑĮ": 8773, "ĠDienst": 43932, "Ġsekarang": 29047, "ĠÃ§oc": 19156, "adian": 42985, "Ġarms": 5812, "ĠÐ¿Ð¾Ð¼Ð¾ÑīÑĮÑİ": 36387, "zer": 4527, "Ġsigh": 29472, "ĠgÃ¶rÃ¼n": 49676, "ì±ħ": 36648, ",'": 12529, "zilla": 26403, "Ġmillor": 48638, "Ġcharging": 11379, "Ġbonuses": 33205, "vor": 8453, "ĠFarm": 19991, "ĠìĤ´": 21155, "ĠGoodnight": 45889, "ĠTurn": 7956, "Ġbeeps": 27722, "Ġdialect": 24652, "Ð°Ñĩ": 8314, "Ġinvestigating": 22858, "ĠëĤ®": 38601, "Ġpont": 18770, "Ġowl": 34488, "ĠWeihn": 42181, "Ġgymnastics": 48461, "íĮ": 7827, "Ġcommunicated": 34989, "otte": 13079, "Ġgarant": 22251, "Ġreports": 7122, "Ġdescriptive": 42585, "ĠJoining": 40229, "Ġheadlines": 23867, "Ġveut": 14873, "Ġcocktails": 49006, "Ġwhose": 6104, "Ġransom": 38279, "ĠGran": 23554, "Ġrapper": 26457, "ylie": 34579, "Am": 16833, "Ġif": 498, "Ġstrengthened": 38942, "Ġdeepest": 28288, "ologic": 36661, "chemical": 34114, "ĠHola": 22637, "Ġaquell": 33635, "iggles": 19469, "Ġvirus": 5752, "ĠÑĢÐ¾Ñģ": 44935, "å·±": 17200, "Ġincon": 20972, "<|3.48|>": 50538, "Ġfirefighters": 37218, "Ġresearchers": 10309, "ÑĥÐ½Ðº": 26533, "ĠbÃ©": 15807, "Ġexactly": 2293, "Ġíķ´ì£¼": 23281, "Ġpowdered": 35615, "gart": 49330, "ĠÐ¸ÑģÐ¿": 11265, "íĴ": 11055, "Ġstarred": 39438, "ĠTamara": 40424, "ĠRow": 20309, "ĠwÅĤas": 43572, "Ġdiferen": 18959, "ÅĤa": 5024, "iatric": 17252, "Ġíķ¨ê»ĺ": 21469, "Ġwicked": 22663, "ĠSS": 12238, "Ġwom": 1579, "time": 3766, "<|15.22|>": 51125, "ĠQUE": 46026, "Ġedges": 8819, "Ġfiltered": 37111, "~": 93, "Ġwording": 47602, "ĠSense": 33123, "Ġambassador": 25445, "ĠVitamin": 33515, "ĠOperations": 36381, "kÃ¤": 21036, "uria": 37299, "ĠBog": 24339, "Ġappointed": 17653, "zial": 17787, "Ġbunun": 31697, "<|0.30|>": 50379, "ĠJAM": 26238, "Ġmorte": 37392, "<|11.50|>": 50939, "ĠReynolds": 29516, "Ġmechanic": 23860, "Ġtide": 24662, "Ġmindful": 14618, "¦¿": 44293, "Ġpurposes": 9932, "stÃ¤": 24019, "×Ļ×¡": 27199, "Ġgee": 24105, "Ġinsp": 3741, "ĠBew": 40512, "Ġrecorder": 37744, "Ġrecognise": 23991, "Ġperks": 36991, "ĠâĢĳ": 41395, "Ġimportantes": 27963, "<|29.84|>": 51856, "Ġserv": 1658, "ĠCivil": 13405, "<|23.94|>": 51561, "ĠdifÃŃcil": 17258, "ĠAmerica": 3374, "ĠPoland": 15950, "ĠìķŀìĹĲ": 42004, "tan": 20356, "<|11.06|>": 50917, "Ġremoving": 12720, "ĠëĬĲ": 34378, "cence": 25434, "Ġdime": 36330, "Ġresponds": 27331, "ĠðŁĳ": 36276, "<|24.64|>": 51596, "ÃŃculo": 34365, "Ġmerger": 48002, "ĠÂ§": 49803, "indruck": 41824, "Ġãģ¦": 23822, "ĠHob": 22966, "Ġepile": 41855, "Ġbesonders": 25258, "ida": 2887, "Ġstakeholders": 17779, "IA": 6914, "Ġchew": 21200, "Ġfees": 13370, "Ġproduz": 28093, "Ġshowcase": 20388, "Ġcand": 3955, "ĠZusch": 48333, "ningen": 23137, "ĠTodo": 26466, "Ġloads": 12668, "ê³Ħ": 14597, "ď": 203, "Ġelectronics": 20611, "Ġconsistency": 14416, "ĠPortland": 25020, "Ġlan": 9326, "empt": 4543, "Ġmodulus": 42287, "Ġfolklore": 49195, "Ġtonight": 4440, "Ĳëį°": 43429, "ND": 13360, "uration": 8167, "angs": 28686, "Ġib": 39073, "nikÃ³w": 47447, "ammers": 48414, "Ġdejar": 24391, "rones": 25562, "Ġsuddenly": 5800, "ĠÐ·Ð½Ð°ÐºÐ¾Ð¼": 40909, "Ġmam": 13524, "ĠYet": 10890, "iph": 24595, "Ġspoon": 12453, "Ġmá»Ľi": 37328, "Ġlimite": 39946, "ĠLo": 6130, "wasser": 48309, "Ġfahren": 25593, "Ġcensus": 23725, "ĠAnnual": 46030, "Ġkings": 21581, "after": 18837, "Ġodds": 17439, "Ġreservoir": 26316, "Ġconf": 1497, "NEN": 21317, "Ġdru": 38864, "inal": 2071, "ĠÐ¾ÑīÑĥÑī": 44966, "ĠRidge": 32313, "íĬ": 5963, "<|nn|>": 50342, "Ġdeterm": 3618, "Ġhaber": 15811, "temps": 30537, "Ġconstit": 23079, "ĠEller": 45719, "Ġcigarettes": 29244, "ĠTWO": 48664, "quarter": 43363, "Ġaffiliate": 23975, "Ġletzte": 35236, "rates": 12507, "Ġverf": 40660, "avam": 22561, "ĠTort": 48415, "æĸ¹éĿ¢": 39604, "amar": 45207, "Ġabbiamo": 22815, "Ġadvance": 7295, "Ġempresa": 22682, "ĠCrim": 30691, "ĠMainly": 47468, "Ġfro": 9795, "ĠHelen": 26294, "ĠYoshi": 45676, "ĠHundred": 32869, "ĠÃİ": 46104, "åĪ»": 45500, "Ġdig": 2528, "Ġmisconception": 41350, "Ġclog": 34455, "Ġsource": 4009, "aden": 14771, "ĠÑģÐ°Ð¼Ð°": 40517, "je": 2884, "Ġsecurely": 38348, "ĠëĺĲ": 7992, "Ġbully": 29123, "ß": 155, "ervation": 6864, "Ġ25": 3552, "places": 34840, "ĠTH": 3578, "ancies": 32286, "Ġhelper": 36133, "Ġsowie": 35874, "ĠSuperintendent": 49623, "Ġdecent": 8681, "lage": 22519, "ĠHonors": 48801, "Ġvil": 15349, "Ġbrag": 41995, "inery": 23194, "ieten": 25868, "Ġgebracht": 40744, "Ġpassions": 30640, "íĶĮ": 34905, "ĠDebbie": 35834, "noon": 6376, "ĠÐ½Ð°Ð¹ÑĤÐ¸": 31993, "Ġenforce": 24825, "Ġcuisine": 25257, "Ġoversized": 49408, "ĠÃł": 1531, "Ġretrouver": 36511, "Ġenfin": 25059, "ĠSenhor": 43792, "al": 304, "Ġmisery": 32309, "Call": 46113, "Ġblossoms": 47789, "Ġdecir": 10235, "Ġhappening": 2737, "Ġ56": 19687, "Ġmafia": 36412, "Ġtremb": 37708, "Ġresulted": 18753, "Ron": 45532, "ÏĥÎ¹": 29756, "ãĥ¼ãĥ«": 35307, "Ġdeliberate": 30515, "Ġuploads": 48611, "cej": 20811, "Ġhá»į": 27700, "Ġê³łë": 18556, "Ġcualquier": 21004, "ĠCreek": 24200, "Ġgemaakt": 49666, "å«": 38291, "ĠÃ¾": 43219, "ĠBank": 8915, "chuckling": 32312, "ĠStacy": 43644, "Ġsinks": 43162, "ijn": 6041, "Ġmul": 14077, "ä¸Īå¤«": 39642, "l": 75, "ĠMonth": 24255, "ĠGab": 11995, "Ġministre": 31122, "Ġscholars": 8553, "wurf": 31515, "Ġgaps": 15031, "Ġilgili": 43542, "ĠIslam": 8571, "Ġmandates": 48662, "Ġdonations": 22705, "Ġresilient": 23699, "ĠEdit": 33241, "Ġquel": 7178, "ĠÐ·Ð°Ðº": 10264, "´ìĹĲ": 19086, "Ġgrace": 10042, "ĠTransform": 27938, "å®ĮæĪĲ": 41509, "ĠAnyways": 15585, "Ġspare": 13798, "Ġplane": 5720, "Ġladies": 9974, "ĠAurora": 40663, "Ġthickness": 14855, "ĠLyn": 15214, "ä»¶": 20485, "ĠCommons": 34894, "yle": 2072, "Ġvar": 1374, "<|4.16|>": 50572, "Ġfingers": 7350, "Ġwidth": 11402, "ĠCheese": 23738, "atters": 37690, "Ġrecurs": 20560, "ĠDi": 8789, "ĠCR": 14123, "Ġ×ŀ×Ĳ": 26295, "Ġ42": 14034, "Ġsearch": 3164, "ĠAtt": 7298, "ĠGuess": 17795, "ĠÃ©po": 21354, "Ġprostate": 36108, "Ġuhhh": 38594, "Ã¤re": 12277, "ppo": 27000, "orns": 27128, "Ġcolonialism": 50033, "Ġcovid": 25616, "Ġvector": 8062, "Ġcuenta": 17868, "ĠÐ±ÑĢÐ¾Ñģ": 47718, "Ġrecht": 24261, "Ġà®ĩ": 12894, "ê°ĳ": 27358, "<|11.08|>": 50918, "Ġpasser": 18509, "ÃŃveis": 34934, "Ġhairst": 30658, "Ġmax": 11469, "ieben": 38243, "ĠIPS": 50021, "tered": 40665, "ĠpeÅĤ": 43205, "Ġrevenir": 44899, "ĠÑģÐ»ÑĥÑĪ": 41839, "ĠÑįÐ»ÐµÐºÑĤ": 31314, "ĠAustralian": 13337, "Ġlink": 2113, "Ġlime": 22035, "Ġobject": 2657, "Ġmodal": 39745, "uetooth": 17281, "Ġgosh": 6502, "éļ¨": 48890, "Ġpercentage": 9668, "ÙĤØ·": 47432, "ando": 1806, "issy": 28617, "ĠBeen": 32839, "Ġpassing": 8437, "erem": 7333, "Ġredemption": 35644, "Ġfamously": 34360, "Ġrestored": 23143, "ĠVernon": 47516, "Ġcompensation": 19644, "åıį": 22138, "<|23.74|>": 51551, "<|17.60|>": 51244, "Ġreb": 12970, "Ġtelevis": 40638, "ĠWA": 26915, "Ġtheology": 27927, "ierto": 20747, "bern": 26848, "Ġz": 710, "Ġì¹´ë©Ķë": 37680, "Ġdrums": 20420, "<|24.24|>": 51576, "¦¬ê³ł": 7290, "Ġbeloved": 14553, "ocol": 4154, "Ġgeometry": 18426, "Ġpresenting": 15578, "Ġcivilization": 18036, "æģŃ": 38954, "Ð¾ÑĩÐ½Ð¾": 47083, "Ġcoriander": 34013, "Ġbekannt": 39167, "<|18.88|>": 51308, "ud": 532, "ĠÐ²ÐµÐ´": 35126, "Ġ×Ķ×Ĳ": 42876, "ê¾": 23536, "denly": 18185, "ĠBrian": 10765, "Ġcharac": 1926, "Ġornaments": 47233, "Ġemphasize": 16078, "Ġfella": 49820, "èģ¯": 43942, "ĠÑĢÐµÐ¶": 28418, "ĠHyp": 45649, "Ã¨t": 18177, "Ġãħĭãħĭãħĭ": 49249, "Ġholes": 8118, "Ġonboard": 24033, "ĠForm": 10126, "Ġenthusiasts": 45873, "Ġcasino": 36278, "Ã¡rias": 24952, "Ġ:(": 35495, "ĠLook": 2053, "ĠBabe": 44127, "Ġpartes": 31210, "Ġloca": 47965, "ĠNico": 15115, "asan": 40336, "ĠgustarÃŃa": 45896, "Ġsuburban": 40138, "Ġseconds": 3949, "ĠDivine": 26098, "Ġbelonging": 22957, "Ġdrawing": 6316, "Ġreplaced": 10772, "Ġpreguntas": 39722, "ĠJune": 6928, "Ġëĭ¤ìĭľ": 15463, "Ġquartz": 48280, "Ġradiant": 49430, "ĠLanka": 42765, "aiser": 34786, "<|17.36|>": 51232, "<|4.68|>": 50598, "×ĳ×": 12665, "Ġpigeon": 37886, "æĪĳåĢĳ": 5884, "Ġsemi": 12909, "äºİ": 37732, "å¨": 19976, "chez": 30196, "Ġsilver": 8753, "Ġmales": 20776, "Ġgangster": 50104, "ĠGenerally": 21082, "æĳ": 34783, "Just": 12794, "Ġë³´íĨµ": 41701, "ĠCra": 11138, "Ġpicks": 16137, "Ġservir": 29463, "ĠMarco": 26535, "LS": 19198, "Ġconsumers": 11883, "ĠLAURA": 10105, "ĠsÄĥ": 15446, "ĠØº": 32771, "åĵª": 17028, "èĪī": 42828, "ĠAPIs": 21445, "vag": 42586, "ĠBig": 5429, "ultur": 26099, "Ġunrealistic": 42867, "ĠÐ·Ð°Ð¿": 10333, "ritt": 18579, "<|28.58|>": 51793, "ĠHack": 35170, "è§īå¾Ĺ": 29992, "Ġphotography": 13865, "ĠTig": 44550, "ĠFashion": 32782, "uins": 44790, "Ġheroic": 32915, "unya": 27521, "åĵ": 3858, "Ġrout": 4020, "ĠÑģÐ¾Ð²ÐµÑĢÑĪ": 26227, "VES": 46467, "ĠWrite": 23499, "Ġcosm": 22207, "ĠSix": 11678, "Ġparts": 3166, "ÎµÎ¹": 6452, "Ġngh": 29338, "cely": 42879, "<|8.28|>": 50778, "ú": 182, "Ġbarriers": 13565, "<|5.30|>": 50629, "Ġcongestion": 40816, "Ġexcited": 2919, "<|19.92|>": 51360, "Ġpretending": 22106, "ĠÐ¼Ñĭ": 4777, "Ġchime": 40921, "Ġê´Ģë": 25201, "ĠÐ¶Ð¸Ð·Ð½Ð¸": 21415, "ating": 990, "Ġskilled": 19690, "Ġmakers": 19323, "Ġremainder": 29837, "Ġextraord": 10149, "Ġwyb": 45780, "ĠPare": 31189, "ext": 3828, "ĠPatienten": 46294, "Ð¸Ð²Ð°ÐµÑĤÑģÑı": 39864, "Ð¸ÐºÐ°": 17286, "Ã¶tzlich": 44638, "Ġalliance": 20995, "<|15.16|>": 51122, "ĠPrecis": 48746, "gos": 18674, "Ġdisent": 37313, "Ġvacun": 38581, "ĠÃ´ng": 34835, "Ġmemo": 35900, "ĠAboriginal": 36577, "ĠAufg": 29648, "Ø¹": 3615, "Ð½Ð°ÐºÐ¾": 32088, "Ġpartially": 18886, "ĠUniversity": 3535, "<|18.06|>": 51267, "ĠEph": 35445, "à¹Ħà¸£": 39180, "ĠÐ¿ÑĢÐ¾Ð±": 15122, "Ġconsig": 40233, "ĠJudith": 45395, "anship": 27140, "ĠëĮ": 28088, "ĠRaj": 16745, "ĠWass": 42998, "Ã¼yor": 18644, "Ġchampagne": 33336, "ĠqualitÃ©": 42106, "Ġtonnes": 41402, "Ġscreaming": 12636, "Ġcompass": 10707, "Ġtom": 2916, "Ġeighteen": 31755, "Ġìĸ¼êµ": 25233, "Ġerm": 25253, "ĠMK": 30770, "roz": 27857, "ĠAg": 2725, "<|29.72|>": 51850, "Ġprofess": 2668, "<|27.36|>": 51732, "ãģĦãģĨ": 9444, "Ġfibre": 36738, "ĠRahmen": 39070, "ronics": 37042, "Ġê³łë¯¼": 41936, "íķĺ": 2240, "×ķ×ľ×Ŀ": 39383, "<|8.16|>": 50772, "uxe": 43344, "igos": 13348, "ĠPale": 50007, "he": 675, "ĠTails": 49888, "Ġabajo": 30613, "Ġendings": 42474, "ĠyapÄ±yorsun": 36964, "ĠDash": 23453, "coal": 28037, "ettes": 16049, "Ġexhibits": 39205, "Ġdisrupted": 42271, "Ġcommanders": 42932, "uni": 24307, "Ġfaj": 34001, "untu": 45605, "udos": 35063, "<|25.40|>": 51634, "spr": 18193, "Ġmass": 2758, "))": 9383, "ĠdoÄŁru": 28297, "Ġhandmade": 39446, "aan": 21326, "Ġrelating": 23968, "ĠPaste": 43827, "Ġvraag": 46485, "Ġproteins": 15577, "Ġzien": 23735, "Ġtoilet": 11137, "ĠFebru": 8534, "lers": 11977, "ĠÎ´Î¹Î±": 38744, "Ġnaught": 13138, "ĠDed": 41300, "ĠTabii": 41770, "ĠdÃŃas": 19527, "<|18.56|>": 51292, "×¢": 7924, "Ð¸ÐµÐ¹": 48580, "Ġisol": 7381, "ÐºÑĢÐµÑĤ": 48503, "ĠdiffÃ©rentes": 35438, "Ġgi": 1735, "ĠLions": 48335, "Ġadvising": 35598, "Ġgenug": 33194, "ĠhÃ¤lt": 40751, "Or": 21520, "åĦĦ": 25459, "Ġrepublican": 39286, "Ġillusions": 49836, "Ġessen": 41749, "Ġsou": 6926, "Ġdrifting": 37973, "prof": 29175, "ÛĮÚº": 14768, "Ġsar": 13782, "Ġallein": 37673, "Ġprefix": 46969, "Ġvandaag": 41901, "ĠAbd": 27548, "Ġao": 8130, "Ġinfections": 19478, "ymm": 32497, "ĠBuzz": 29209, "Ġautism": 21471, "ĠseÃ±or": 22188, "Ġfuer": 17669, "pass": 9216, "ruption": 11266, "ĠpowiedziaÅĤ": 48539, "ĠPTS": 31218, "Ġmeter": 9255, "ĠìķĦì¹¨": 41812, "éĹ®é¢ĺ": 34069, "ALL": 15921, "inner": 19166, "ě": 215, "Ġphrase": 9535, "luk": 42563, "Ġsavoir": 19345, "ĠBattery": 47410, "ĠJest": 24918, "oland": 30063, "ifs": 18290, "Ġreflections": 30679, "Ġcivilians": 26073, "vil": 20202, "åĽŀåİ»": 49925, "Ġë¬¼": 14403, "ĠVince": 34876, "Ġspecjal": 46433, "ĠÑģÐ¿Ð¾ÑģÐ¾Ð±": 23677, "Ġcin": 6539, "Ġrut": 41324, "ĠRAM": 14561, "Ġunaware": 32065, "Ġsquid": 28015, "ĠÏ": 2467, "ĠHey": 1911, "Ġrejection": 26044, "Ġknowledge": 3601, "<|15.34|>": 51131, "ĠThem": 37354, "ĠAP": 5372, "Ġwhereby": 36998, "Ġnghi": 46889, "Ġcomplexes": 43676, "Ġmomencie": 40883, "Ġpillars": 26729, "ĠFau": 48820, "apers": 14441, "Ġpork": 10208, "ì¦Ī": 20235, "ĠÐµÐ³Ð¾": 6448, "ĠDul": 50115, "Ġtrabajo": 18099, "Ġave": 3472, "Ġíİĺ": 48574, "nuts": 29251, "ĠCHAN": 39235, "nova": 39486, "ĠderriÃ¨re": 31465, "Ġconceptual": 24106, "annÃ©e": 36533, "iej": 7764, "ĵł": 6646, "Ġrapp": 8125, "Ġtheirs": 22760, "Ġimpacted": 15653, "Ġrhymes": 47917, "eremos": 19065, "ĠAnimals": 47164, "Ġcontacted": 21546, "IR": 7740, "pres": 14508, "<|29.10|>": 51819, "ĠBoris": 27158, "ĠRey": 17547, "Ġpathways": 22988, "Ġliterature": 10394, "Ġdaw": 43438, "64": 19395, "ĠÑģÐµÑĢÐ´": 38479, "Ġpissed": 23795, "Ġreconsider": 40497, "ì¹´": 30327, "Ġfinns": 17152, "ĠFuel": 46837, "Ġencontrar": 17525, "Ġarticulate": 30305, "Ġverdict": 33957, "plo": 21132, "Ġnic": 6201, "å¤ł": 31649, "ĠGore": 45450, "isto": 9334, "Ġinmates": 39479, "ĠÐ½ÐµÐ¼Ð½Ð¾Ð¶ÐºÐ¾": 44382, "ĠBlo": 9865, "Ġpale": 19546, "Ġhello": 7751, "ologie": 20121, "ÑģÐ¾Ð»ÑİÑĤ": 29419, "Ġtriang": 19335, "ĠBloomberg": 40363, "ãĤ¯": 10825, "Ġcolours": 16484, "Ġch": 417, "Ġwilderness": 27613, "ĠÐ¿Ð¾Ð·": 12188, "ĠOri": 23621, "aur": 3463, "ĠaixÃŃ": 40217, "eko": 34241, "Ġastronomy": 37844, "Ġagua": 19330, "ĠGeme": 31266, "ì°¨ë": 44208, "Ġproductos": 46363, "Ġsurviv": 12324, "Ġtv": 16364, "Ð¼ÐµÑĢÐ¸Ðº": 27502, "GHT": 41976, "Ġcotton": 13764, "Ġhurdle": 47423, "fits": 13979, "ĠVir": 7566, "Ġperception": 12860, "ĠØ®": 16490, "Ġimportante": 9416, "ĠLakes": 36932, "ĠfÃ¼rs": 46577, "Ġash": 12588, "ê°Ŀ": 47155, "ĠÐ¿Ð¾Ñĩ": 12079, "tu": 9179, "Ġvoz": 30005, "Ġimplementing": 18114, "<|cs|>": 50283, "niejsze": 44258, "BERG": 46233, "Ġalguns": 20210, "Ð±Ð°": 29788, "Ġtoxicity": 45866, "Ġinterconnected": 36611, "ok": 453, "Ġhandwriting": 39179, "ĠÎºÎ¹": 47328, "ĠnomÃ©s": 40052, "Ġeasy": 1858, "ĠVAN": 49090, "Ġparse": 48377, "ĠWhich": 3013, "<|24.36|>": 51582, "ĠPikachu": 35785, "Ta": 35676, "Ġtomar": 22048, "ĠëĤĺìĺ¨": 34396, "ensch": 26590, "cesso": 43611, "Ġrealt": 41133, "ĠMoreover": 19838, "Ġperfectly": 6239, "Ġfinale": 23510, "Ġstreak": 35634, "iempo": 11571, "ðŁĳ": 31017, "Ġla": 635, "jo": 5134, "<|18.64|>": 51296, "Ġplayground": 24646, "ĠBirds": 41456, "ĠLar": 11569, "j": 73, "ĠRais": 43374, "ĠAirlines": 38788, "INO": 40901, "Ð½Ð¸Ð¼": 8444, "Ġgrew": 6109, "æ¡": 21416, "ĠMinnie": 47654, "urance": 5683, "Ã¼ne": 21148, "Ġbrom": 50134, "Ġfictional": 28911, "ĠR": 497, "ĠÐ²Ð¾Ð·Ð¼Ð¾Ð¶Ð½Ð¾": 26740, "pts": 39280, "Ġt": 256, "ĠwÃ¼rde": 11942, "ÐµÐ½": 1008, "Ġsquish": 31379, "ĠUT": 35514, "ĠDang": 29580, "NÃ£o": 48204, "Ġcylinders": 42166, "adaki": 48457, "Ġintestine": 42446, "ìĸ´ìķ¼": 21637, "Ã¼nÃ¼z": 38740, "ĠÐ´ÐµÑģÑı": 32233, "Ġestado": 18372, "uest": 11493, "Ġpassage": 11497, "Ġwhich": 597, "Ġgroans": 44657, "Ġhubs": 46870, "Ġconnais": 45784, "ĠFinish": 31583, "ĠSaints": 39022, "Ð¼Ð¸": 6293, "gia": 40550, "Ä±": 699, "Ġcore": 4965, "Ð°ÑĪÐ°": 34461, "Ġtries": 9898, "Ġbrigade": 47501, "Ġreproductive": 33569, "ĠÐ±Ð¾Ð»ÑĮÑĪÐµ": 12846, "ĠÐ´ÑĥÑħÐ¾Ð²": 46373, "ĠCarl": 14256, "ãģĦãģį": 39886, "adelphia": 20850, "äºķ": 31989, "ĠSum": 8626, "ĠDominican": 45486, "iembre": 49772, "Ġdost": 20568, "Ġflames": 23743, "ĠKenny": 33681, "Ġcompeting": 15439, "bek": 25714, "cultural": 50155, "Ġíķĺë£¨": 33918, "Ġ×ľ×§": 45904, "ĠIsh": 42854, "Ġtechnology": 2899, "Ø§Ùģ": 31845, "Ġê²ĮìŀĦ": 23927, "ĠSlide": 26405, "æĪĳçļĦ": 14200, "Ġpassages": 31589, "ĠÐ·Ð°ÐºÑĢÑĭ": 43993, "<|9.34|>": 50831, "ĠprÃ©sent": 26056, "Ġlocal": 2654, "ĠProp": 21944, "ĠmÃ¶chten": 49699, "ĠìºĲë": 45024, "ĠSalem": 49619, "ĠArsenal": 49156, "ÑĥÐ»ÑĮÑĤÐ°ÑĤ": 27248, "nect": 1569, "ĠMassachusetts": 19979, "Ã¼hl": 21692, "Ġcomplementary": 40705, "ĠíĦ°": 39565, "rÃ©e": 37735, "fficient": 7816, "fÃ¶": 49323, "ayd": 43389, "áº¹": 26965, "ĠXV": 44707, "Ġvictims": 11448, "abel": 18657, "Ġstudio": 6811, "ĠSmith": 8538, "Ġpreced": 16969, "ãģĤãĤĬ": 14498, "ãģ§ãģĹãĤĩãģĨ": 38711, "Ġwie": 3355, "Ġpursued": 34893, "Ġstage": 3233, "å¥½çļĦ": 20715, "ĠMarian": 37497, "Ġimplied": 32614, "Ġbulb": 21122, "Ġmun": 11864, "Ġtransactions": 16856, "Sa": 45393, "ĠíĿ": 14473, "Ġtrophy": 28639, "Ġimpacto": 49687, "ĠDurham": 46540, "inki": 41917, "ÙĬØ©": 10632, "<|23.96|>": 51562, "Ġsexy": 13701, "Ð¾Ð»Ð°": 44342, "ulation": 2776, "Ġspezie": 48682, "Ġì»¬ëŁ¬ë": 39177, "áº£i": 18166, "Ġrotary": 45811, "Ġesperando": 46587, "Ġplan": 1393, "ÑĸÐº": 27281, "Ġgrandi": 45155, "ĠConstitution": 14505, "ĠJournal": 16936, "endas": 45252, "ĠÐĴÐ°Ð¼": 43670, "Ġpayments": 14348, "apore": 13823, "ĠnastÄĻp": 39662, "è¦ĭãģ¦": 33363, "ĠVice": 13276, "irrel": 24704, "Ġcounties": 20583, "ĠespaÃ±ol": 31177, "æİ°": 29336, "ĠProte": 43371, "ĠDisc": 19839, "Ġclaw": 32019, "ĠPhantom": 34689, "Ġaxe": 30195, "ÅĽ": 1788, "Ġscal": 15664, "ĠMohammed": 41910, "rail": 44765, "Ġconsolidated": 49008, "<|4.42|>": 50585, "cede": 29815, "Ġtrafficking": 25843, "ĠLia": 47844, "Ī¬": 20435, "ĠSQL": 19200, "ĠmÃ¡qu": 39701, "ĠÎĮ": 43692, "Ġprivile": 8670, "Ġdamaged": 14080, "Ġpiggy": 39349, "Ġoriginally": 7993, "Ð»Ð°Ð¼": 35768, "ĠìķĦëĭĪëĿ¼": 22948, "Ġpopped": 21545, "ìĿ¼ë": 22809, "Ġsche": 25690, "åĽłä¸º": 34627, "Î¯Î¿": 49669, "ĠØ§ÙĦØµ": 31767, "Ġdelays": 28610, "Ġrecomm": 2616, "iritual": 47923, "wend": 20128, "Ġdemonstrations": 34714, "uffled": 33974, "ĠNamen": 38771, "Ġhour": 1773, "too": 32599, "ĠdÃ»": 42300, "ĠGaming": 30288, "Press": 20516, "Ġcollected": 11087, "Ġtestimony": 15634, "Ġbeh": 1540, "ĠcaÅĤ": 35224, "Ġscheint": 47906, "Ġ199": 4303, "Ġbypass": 24996, "Ġstays": 10834, "Ġcav": 13971, "Ġë¶Ģë": 10201, "rew": 2236, "Ġdok": 25037, "ĠRic": 21215, "ĠWord": 8725, "ÑĥÑİ": 3924, "ĠLouis": 9763, "irm": 3692, "Ġblindness": 46101, "Ġsisters": 11589, "inator": 31927, "Ġfork": 17716, "ĠFlorida": 9117, "ĠPretty": 10693, "Ð½Ð¸ÐºÐ¾Ð¼": 43882, "ived": 3194, "Ġprotesters": 34509, "ĠBÃ¼rger": 28514, "ĠWit": 42299, "Ġjumper": 44061, "ĠÐ²Ð°Ð¼Ð¸": 24166, "ĠEve": 15544, "ĠChill": 41368, "Ġclipping": 49320, "ĠPas": 14199, "Ġheut": 42793, "ĠCL": 12855, "Ġleading": 5775, "Ġsketches": 34547, "Ġincumbent": 45539, "Ġpeoples": 16915, "eden": 6876, "Ġavait": 11853, "Ġoutcome": 9700, "Ġfinishes": 23615, "ICH": 15478, "ĠpolÃŃticas": 45931, "bral": 32728, "empor": 11840, "ĠmÃ£o": 31639, "Ġfurther": 3052, "ym": 4199, "ĠNortheast": 42150, "å¥½": 2131, "llo": 1913, "ĠCock": 39410, "Ġleverage": 13982, "ĠÙĩØ°Ùĩ": 29538, "Ð¸Ð²Ð°ÑĤÑĮ": 20566, "ĠKas": 28059, "Ġacute": 24390, "ĠquÃ¡": 38338, "Ġmajority": 6286, "Ġlacking": 20889, "Ġzeros": 35193, "ury": 2598, "ĠØ´ÙĬ": 44049, "Ġpassion": 5418, "Ġpeanut": 19209, "imiz": 12526, "Ġfollowers": 13071, "Ġinsulation": 30508, "Ġsave": 3155, "ANO": 48129, "Ġaspiring": 45405, "ĠPeki": 36598, "<|ha|>": 50354, "Ġpivotal": 39078, "ĠSerÃ¡": 42968, "isons": 23886, "Ġstreams": 15842, "ĠEmm": 28237, "nat": 12241, "ÐºÑĢ": 22274, "ĠPierre": 28461, "Ġspeeches": 29982, "opath": 27212, "ĠHA": 11979, "Ġpergunta": 34908, "Ġsek": 17215, "æĢİéº¼æ¨£": 34253, "ìĪĺ": 8449, "Ġsalvation": 17456, "ixed": 40303, "onto": 7556, "ĠWalking": 26964, "ĠrzeczywiÅĽcie": 44922, "ĠaÃ±ad": 44980, "ĠnÃ³s": 9738, "pannt": 36424, "Ïį": 6956, "uÃŁ": 43796, "Ġdebated": 42212, "ĠDomin": 18027, "ktor": 28359, "ĠDeborah": 39695, "Ġuit": 12528, "ISTIN": 40346, "ths": 32184, "<|23.06|>": 51517, "phoria": 50107, "ĠMOS": 44219, "iÅŁ": 9496, "Ġãģ¡": 44692, "Cal": 31279, "Ġmotivations": 39034, "Ġà¶": 35139, "ĠCapital": 21502, "speed": 22746, "ĠImagine": 11739, "ĠRP": 14105, "Ġins": 1028, "Ġê·¸ë¦¬ê³ł": 8785, "Ġfingertips": 27715, "ĠTory": 48743, "Ġgreed": 29230, "Ġfert": 10700, "inking": 12408, "Ġbrushing": 33130, "ĠÐºÐ¾ÑĤÐ¾ÑĢÐ¾Ð¼": 39818, "Ġzob": 25100, "Ġstron": 45766, "ishi": 27537, "Ġcopy": 5055, "ĠSharon": 28573, "ãģªãģı": 40252, "Ġlitres": 49259, "falls": 18542, "<|11.62|>": 50945, "ĠYout": 10717, "ikal": 41216, "ciones": 23469, "Ġchauff": 49211, "levant": 25638, "Ġcocaine": 33933, "Ġrealiz": 22828, "Ġwunder": 47736, "<|12.84|>": 51006, "ĠÑģÐµÐº": 22869, "Ġoutside": 2380, "akov": 39879, "æ®º": 45528, "ijk": 6940, "ĠSnap": 18254, "ĠGilbert": 39003, "350": 36027, "ouri": 20175, "Ġbacks": 19513, "Ġoverl": 15986, "Ġjab": 33475, "åħĥ": 14812, "ĠMilliarden": 44784, "Ġgross": 11367, "Ġathlete": 18002, "Ġdisci": 6507, "HA": 4983, "iell": 32562, "ĠÑįÑĤÐ¾Ð¼": 10755, "Ġvirt": 4480, "ĠBelle": 31905, "Ġmism": 23220, "Ġinterfaces": 28416, "Ġting": 17922, "Ġorientation": 14764, "ĠÐŁÐµÑĢ": 20426, "adors": 29816, "ĠRiley": 31373, "<|21.54|>": 51441, "ĠJet": 28730, "Ġreload": 25628, "ìłľë¥¼": 48284, "'re": 434, "olis": 16466, "Ð´Ð°": 3444, "ĠczÄĻ": 18544, "Ġmobility": 16199, "bst": 9690, "ĸ×Ķ": 7889, "Ġorg": 14045, "ìĺ¨": 28888, "Ġforce": 3464, "ĠEVERY": 35163, "outez": 48903, "Ġhart": 36644, "Ġstitched": 48992, "ĠtenÃŃan": 47596, "Ġpista": 49516, "wiad": 32997, "Ġ<<": 47425, "ĠScot": 9534, "Ġë¨¹ê³ł": 26077, "ÑıÐ½Ð¸": 21311, "Ġcafeteria": 42230, "Ġcurd": 47443, "ĠMeh": 29337, "ĠkarÅŁ": 21742, "Ġczego": 36559, "Ġsectors": 18373, "ĠÄĳáº¥y": 39370, "anger": 3176, "Ġpreparing": 10075, "ĠConnor": 33133, "<|ur|>": 50290, "Bob": 22547, "Ġdirectory": 21120, "Äĥng": 34705, "éĢĻæĺ¯": 16600, "mals": 34978, "ĠFlying": 34287, "Ã¤lle": 31447, "Ġenfim": 48937, "Ġlocking": 23954, "Ġkabul": 46925, "ĠJAMES": 35510, "Ġmissing": 5361, "Ġperiod": 2896, "ieurs": 17743, "Ġrevised": 35228, "Ġíĭ": 22114, "Ġä¸įè¦ģ": 50181, "×ķ×ª": 5071, "ĠAnk": 42483, "ĠFriends": 14042, "Ġexpresses": 39204, "LAN": 36527, "Ġpicky": 41099, "ãĤĬãģ¾ãģĹãģŁ": 36941, "ĠÑħÐ¾ÑĤ": 11515, "Ġvu": 9732, "Can": 11531, "Ġinstincts": 38997, "ĠÃľ": 10713, "Ð°ÑİÑī": 18718, "Ġconversations": 7315, "ĠëĤ´ì": 25097, "Ġprops": 26173, "riment": 30591, "feito": 35417, "ĠCit": 18435, "×ķ×": 1683, "Ġfooting": 45959, "Ġboot": 11450, "Ġ1980": 13626, "âĹ": 38347, "Ġvá»ģ": 25652, "USIC": 5791, "¬¸": 8357, "Ã¡s": 2490, "Ġinformation": 1589, "Sud": 42545, "Ġgag": 34833, "Ġ2050": 38308, "incarn": 41801, "ÏĦÎ¬": 19389, "à®Ļ": 17167, "Ġë°ĿíĺĶ": 48437, "Ġhazardous": 40020, "Ġcui": 22929, "ĠSkills": 27856, "Ġzinc": 29062, "Ġaxle": 31192, "Listen": 35819, "Ġode": 45711, "Ġteen": 8921, "Ġblockchain": 17176, "Ġknight": 26054, "ĠBreathe": 36323, "Air": 46016, "å¤ĸ": 12022, "Ġescrever": 44909, "ĠÃ©": 1136, "ensation": 35292, "Ġgefragt": 42638, "ĠAAA": 34347, "áº¥t": 12436, "Ġresulting": 16505, "Ġmalf": 41318, "Ġgjort": 37420, "Ġduas": 19463, "gew": 21306, "éĢ²": 18214, "zzle": 9260, "Ġair": 1988, "ĠGlue": 49832, "Ġaids": 28447, "een": 10685, "Ġdemos": 33788, "Ġtossed": 42768, "Ġcarriage": 31811, "ctica": 29041, "Ġgros": 18638, "Ġvista": 22553, "breaks": 35656, "Ġsang": 9980, "Ġproc": 9510, "pic": 37509, "Ġteilweise": 46748, "Ġthrill": 32935, "Ġtrenches": 48245, "hai": 18230, "Ġpandemic": 5388, "Ġcheesy": 32549, "<|0.60|>": 50394, "ues": 1247, "ĠItu": 39109, "<|19.78|>": 51353, "ĠAlan": 16442, "ãĥ©": 11353, "Ġspokesperson": 45775, "Ġoverlap": 19959, "Ġsina": 43400, "áº£ng": 45815, "Ġpsychologists": 41562, "Ġrespe": 40792, "ĠEli": 16943, "ĠìĿ´ìĥģ": 20362, "Ġ1969": 32090, "ĠAN": 5252, "ĠNapole": 28298, "ĠíĹĪíĮĿ": 41756, "Å¥": 27101, "ĠLinked": 19322, "á»Ŀ": 21270, "Ġìĸ¼": 22142, "Ġelsewhere": 14517, "ĠMÃªme": 42027, "Ġmoje": 36383, "Ġlicence": 49047, "Ġconversion": 14298, "íķĺìĦ¸ìļĶ": 15377, "Ġdoch": 9243, "gence": 15260, "Ġtoolkit": 40167, "ĠAlej": 44568, "Ġsmoking": 14055, "Ġpersone": 29944, "ÐµÐ»ÑĮ": 3908, "Ġinserted": 27992, "Ġmortal": 27624, "ĠTelevision": 37329, "360": 34099, "kil": 33534, "ĠÑĪÐ¸ÑĢ": 44583, "ĠAssociate": 28520, "Ġpsi": 20304, "ä¸įèµ·": 26451, "ĠgÃ©": 38462, "Ġhierarchy": 22333, "ikt": 9874, "Ð½Ð¸Ð±": 23302, "Ġfluores": 32471, "Ġvibes": 27636, "Che": 15683, "ĠReligion": 40127, "æ©Łæľĥ": 46520, "ÐµÐ½Ñı": 30710, "ĠJer": 8139, "Ġì¢ĭìķĦìļĶ": 22482, "Ġsocks": 17564, "ªħ": 8792, "Ġterra": 26298, "ÑĥÑĢÐ°": 49305, "apse": 11145, "Ġëĵľë": 13356, "Ġafterwards": 10543, "pei": 46238, "ĠyÃªu": 49107, "ĠOxford": 24786, "ĠOmaha": 49575, "zeug": 19303, "Ġindicates": 16203, "ĠëĪĦêµ¬": 36385, "Ġunforgettable": 46194, "Ġneglected": 32701, "Ġonion": 10916, "ìĹ´": 37628, "Ġcaller": 48324, "Ġidiots": 36454, "Ġrobe": 37213, "NG": 30237, "Ġeel": 47521, "Ġcorrespondence": 38135, "Ġupbringing": 47268, "ĠLt": 44451, "ĠÐºÐ¾ÑĢÐ¿": 45284, "Ġseperti": 28693, "ĠPicture": 35730, "Ġspoilers": 32237, "åĦ¿": 22933, "ì°¨": 15886, "ĠREALLY": 37117, "Ġlongitudinal": 48250, "Ġuseful": 4420, "Ġeffect": 1802, "Ġtyre": 44087, "Ġcamer": 38946, "ĠnÃ¥got": 36586, "ended": 3502, "Ġì²«": 22707, "asion": 6822, "ances": 2676, "ĠØ°": 29910, "à¥ĭ": 33926, "Ġtopped": 38781, "Ġobstruction": 49711, "Ġeks": 30724, "ĠíĸĪ": 8154, "ĠTapi": 25386, "ĠÑħÐ¾Ð´": 23571, "ĠÐ¼Ð¾Ð½": 32457, "anc": 4463, "Ġcurso": 31085, "Ġhelicopter": 19803, "laud": 7739, "univers": 41421, "Ġgen": 1049, "ĠÐ¿ÑĢÐ¾": 4178, "Ġchu": 40215, "ĠParam": 34882, "emet": 24370, "Ġexisting": 6741, "ìķł": 28408, "Ã³mo": 20436, "ĠNE": 12384, "ĠTestament": 15473, "<|27.96|>": 51762, "<|25.70|>": 51649, "erve": 3768, "Big": 32023, "åĭ": 7978, "Ġmound": 49034, "Ġstripe": 42957, "Ġmama": 18775, "Say": 42263, "Ġdecentral": 26515, "Ã¶h": 23817, "ĠÑģÑĥÑīÐµÑģÑĤÐ²": 30447, "ĠPi": 17741, "ĠElmo": 38722, "osition": 5830, "Ġprze": 8325, "gra": 20735, "uo": 18655, "Ġchuck": 20870, "Ġunut": 37997, "ĠiTunes": 33017, "irts": 9899, "arson": 19358, "Ġtrans": 1145, "ç±": 22113, "Ġbuscando": 46804, "ĠëĲĺë": 20603, "tur": 24906, "Ġlove": 959, "Ġbeeping": 34800, "introdu": 38132, "ĠApps": 32231, "<|21.90|>": 51459, "Ġzmian": 43591, "Ġvalve": 15294, "Ġdescub": 32592, "Ġchwil": 41941, "Ġwaterproof": 27974, "Ġacknowledge": 10692, "Ġtamb": 3629, "Ġcaregiver": 44305, "ause": 5241, "Ġretiring": 45770, "ĠEssential": 49736, "Ġsystems": 3652, "Ġa": 257, "ĠvÃ©": 19050, "ãģĹ": 2849, "ĠÐ¼ÑĭÑĪ": 45009, "Ġmultif": 39824, "å¸¸": 11279, "ĠMel": 7375, "Ġë§Ĳ": 7058, "Ġlek": 30863, "cciÃ³n": 14735, "Ġmedical": 4625, "Ġpublisher": 25088, "Ġlooks": 1542, "Ð°ÑĤÑĮ": 2209, "Ġ720": 40881, "itime": 33228, "ĸĪ": 4341, "Ġdegener": 40520, "arded": 22803, "Ġgrabbed": 18607, "Ġsnap": 13650, "Ð¾Ð»Ð¶": 21403, "Ġbardziej": 27209, "Ġ;": 12562, "ĠMinister": 6506, "ĠKab": 25848, "ĠlÃ¶": 25209, "Ġthumb": 9298, "Ġê°ĻìĿ´": 16358, "ĠJose": 8635, "Ġfailure": 7763, "ĠÐ¾ÑģÐ¾Ð±ÐµÐ½Ð½Ð¾": 35817, "ĠItaly": 10705, "Ġunderstand": 1223, "ĠìĦ±": 14409, "ĠIsso": 14887, "Ġunicorn": 28122, "occup": 46819, "<|28.72|>": 51800, "Ġuses": 4960, "ĠJuliet": 33532, "Ġhanya": 46291, "ĠØ§ÙĦØ¬": 25724, "Us": 29211, "ĠFord": 11961, "hh": 3454, "Ġbarrel": 13257, "este": 8887, "ĠÐ¾ÑĤÐ²ÐµÑĩ": 47859, "ĠSver": 29490, "æİ§": 48707, "æĪĲ": 11336, "Ġjourney": 4671, "politik": 46424, "ĠÑĤÐµÐ¿": 38923, "Ġwrists": 41876, "otzdem": 23934, "ĠbÄĻd": 8218, "ĠØ§ÙĦ": 2423, "íĮħ": 27086, "ĠType": 15576, "Ġclaro": 16742, "<|3.36|>": 50532, "uffs": 28296, "urer": 9858, "Ġdefin": 1561, "Ġfootprints": 45715, "Ġvoters": 14073, "AB": 13868, "Ġmade": 1027, "Ġreminder": 13548, "ĠÐ½Ð¸Ð¼Ð¸": 42371, "ĠDemokrat": 27802, "ÐµÐ²": 3515, "Ġorbiting": 48985, "ĠCute": 29121, "Ġpneum": 30039, "still": 40306, "ĠLÃ¤ndern": 48321, "ĠMARC": 49433, "ĠMÃ¶glichkeit": 30662, "ollow": 49082, "Ġinterfere": 23946, "ÐµÑģÑĤÐ½Ð¾": 28779, "Ġkayak": 22438, "<|24.82|>": 51605, "Ġgleichen": 49069, "ekkÃ¼r": 31629, "ĠReporter": 26520, "ĠÃ¡reas": 48088, "ÐµÐµ": 7752, "ĠAfD": 28413, "Ġdomestic": 10939, "ĠG": 460, "ĠmitÃ¤": 30451, "ÐµÐ¹ÑĩÐ°Ñģ": 8427, "Ġprevalence": 42583, "Ġpolynomial": 26110, "ĠArrow": 40269, "world": 13217, "ology": 1793, "Ġczasu": 40860, "El": 17356, "Ġatte": 42783, "Ġstarter": 22465, "57": 19004, "Ġseid": 38041, "<|22.28|>": 51478, "Ġpero": 4768, "Ġìłľë": 23406, "Ġchef": 10530, "Ġcommunist": 29347, "Ġmaneu": 22474, "Ġë°": 2391, "metro": 45400, "Cu": 35222, "Ġreminders": 43458, "<|12.90|>": 51009, "mn": 40459, "Ġregistered": 13968, "ĠÐ²ÑĢÐ¾Ð´Ðµ": 41079, "Ġfears": 15649, "Ġcalf": 31893, "inta": 16071, "azon": 6317, "Ġintegrate": 13365, "(?)": 20396, "<|3.08|>": 50518, "ĠCC": 12630, "only": 25202, "č": 201, "Ġconcise": 44882, "Ġsunny": 20412, "ahl": 10722, "wel": 45512, "Ð¸Ð²Ð°ÐµÐ¼": 33395, "ĠPad": 18691, "ĠÑĩÑĤÐ¾": 2143, "Ġfoto": 19176, "whistle": 46435, "ĠSr": 38988, "eb": 34727, "ĠÐ·Ð´Ð¾ÑĢÐ¾Ð²": 29638, "enan": 45008, "Ġgeek": 36162, "éĶ": 23049, "Ġbaht": 49254, "Ġetti": 41523, "Ġsurn": 39270, "month": 23534, "ĠÐ±Ð¸Ð·Ð½ÐµÑģ": 47054, "otch": 32785, "inka": 38989, "ë§Ĳ": 11023, "Ġveloc": 7806, "ople": 548, "Ġweitere": 30020, "Ġresponsibility": 6357, "Ġpoet": 20874, "ĠUSB": 10109, "Ġtornado": 27935, "ÏģÎ³": 32300, "rou": 13122, "Ġaplic": 18221, "Ġgelernt": 49224, "Ġreject": 8248, "ĠParadise": 35053, "<|17.38|>": 51233, "ç§į": 39810, "ĠÐĲÐ»Ðµ": 45043, "Ð»ÑİÑĩ": 11833, "Ġreviews": 10229, "lette": 36563, "gasping": 47230, "Ġdug": 22954, "Ġdistributor": 49192, "illion": 11836, "Ġbitten": 34608, "Ð¸ÑĩÐµÑģÐºÐ¸": 38187, "ĠVermont": 34754, "Ġê±°ëĬĶ": 46821, "omie": 40120, "ë³µ": 26773, "ĠAW": 25815, "Ãªncias": 32715, "Ġtoll": 16629, "Ġbullying": 25633, "Ġlag": 8953, "ĠSchw": 17576, "ĠÑĸÐ½": 29858, "Ġtrek": 33646, "Ġado": 22450, "Ġhood": 13376, "Ġbegun": 16009, "Ġcovering": 10322, "ĠJunior": 21954, "Ġpropaganda": 22968, "<|24.94|>": 51611, "Ġobtaining": 36749, "Ġvia": 5766, "Ġkannst": 20853, "Ġzou": 22934, "ĠíĽĦë³´": 40089, "ãĥŁãĥ¼": 42956, "Ġsphere": 16687, "Ġsupportive": 14435, "Ġelk": 44818, "ÐµÑĢÐ¾": 21146, "ĠGlÃ¼ck": 33508, "ĠNASA": 12077, "éĸĢ": 37232, "Ġmountain": 6937, "Ġsuccesses": 26101, "Ġrigid": 22195, "Ġsilos": 48893, "ĠnÃªn": 40606, "<|23.44|>": 51536, "íĬ¸ë": 18903, "ĠTruth": 20522, "ĠStar": 5705, "ĠCliff": 33638, "ĠBunu": 35919, "frage": 40449, "Ġcourt": 4753, "Ġíĥ": 8675, "Ġrequ": 1724, "å¹´": 5157, "Ġeggplant": 43018, "ĠbÃ¶yle": 11018, "ĠDemon": 29683, "Ġinsurance": 7214, "ÑĸÑĪ": 39011, "Ġenergetic": 24935, "Ġoxidation": 36767, "ĠÎµÎ¯Î½Î±Î¹": 15974, "ĠSoc": 43627, "bnb": 36237, "Ġprawd": 41175, "iber": 5331, "Ġvictorious": 42557, "ĠIO": 39839, "Af": 32104, "Ġgar": 3691, "Ġfrig": 34697, "Ġbloody": 18938, "ĠÐ¢Ð¾Ð»ÑĮÐºÐ¾": 36021, "izzy": 49393, "ĠBruce": 15429, "acht": 3589, "ĠShim": 32683, "Ġrealise": 18809, "ION": 12841, "Ġacids": 21667, "Ġesse": 6755, "oll": 1833, "ãģ£ãģ¦": 6102, "Ġmudar": 42281, "Ġsamp": 34098, "ĠÐ¿Ð¾Ð¼Ð¾Ð³": 27097, "ĠWR": 44175, "Ġoverride": 42321, "ĠÎŃÏĩ": 21807, "<|13.20|>": 51024, "ĠIts": 6953, "<|8.56|>": 50792, "Ġcontinuous": 10957, "çĽ´æİ¥": 43297, "æĦıæĢĿ": 16697, "ĠNummer": 47034, "Ġguarded": 44157, "Ġlend": 21774, "å½ĵ": 16233, "Ġplant": 3709, "Ġrelationships": 6159, "Ġ2012": 9125, "owiÄħ": 47886, "Ġgener": 1337, "ĠCRIS": 49256, "Ġintellig": 5613, "ìĦľëıĦ": 29326, "ĠNor": 6966, "Ġsources": 7139, "<|11.20|>": 50924, "Ġlot": 688, "ideo": 24589, "ĠGanz": 32496, "Ġãĥ": 15096, "Ġreturned": 8752, "[": 58, "Ġphysical": 4001, "<|8.44|>": 50786, "ĠÐ·Ð½Ð°ÐµÑĪÑĮ": 38423, "Ġbo": 748, "ĠPeace": 13204, "ĠKNOW": 39429, "Ġsequencing": 32693, "czenia": 38517, "ĠÐ³Ð¾ÑĤÐ¾Ð²": 17137, "Ġextern": 30360, "Ġoleh": 50051, "Ġhistor": 4058, "Ð°ÐºÐ¾Ð²": 34119, "Ġalerts": 28061, "Ġuno": 8526, "Ġ1957": 46256, "Ġresponsible": 6250, "Ã©rence": 41635, "ĠÐĵÐ¾Ñģ": 47206, "Ġcomma": 22117, "iders": 6936, "Ġgrocery": 14410, "åĹİ": 7434, "Ġlol": 10065, "ivel": 36504, "ĠAlÃ©m": 44457, "Ġsubway": 24953, "jets": 25349, "Ġrook": 24692, "Ġfer": 7202, "Ġspared": 49577, "zieh": 28213, "Ġgefallen": 39935, "Ġpharm": 13105, "cellent": 5866, "Ġdej": 21259, "ĠNept": 45560, "very": 448, "ãĤª": 18743, "£Į": 21305, "Ġcalculus": 33400, "Ġentertained": 44783, "ìģ": 15404, "ĠRome": 12043, "ĠRobert": 7977, "ĠFinger": 37318, "Ġpave": 28870, "cience": 6699, "Ġniye": 30493, "åĬ©": 37618, "ĠØ§ÙĦÙĨ": 28239, "Ġfollows": 10002, "Ġsometime": 15053, "Ġguessing": 17939, "Ġuniform": 9452, "ĠShadow": 19036, "įĶëĿ¼": 39898, "ĠëĦĪ": 12963, "Ð°Ð½Ðµ": 32456, "×©×Ļ×Ŀ": 34643, "ãĢĤãĢį": 35704, "ĠDart": 30271, "post": 23744, "Ġmaps": 11317, "Ġanalytical": 29579, "Ġfaith": 4522, "Ë": 135, "FR": 34658, "Ġdeja": 38260, "ÑıÑī": 16076, "ĠPaula": 31663, "hta": 39903, "Ġhijos": 42590, "Ġasteroids": 50230, "Ġbrought": 3038, "Ġprophetic": 46174, "worth": 13136, "abyrin": 46800, "âĢķ": 39682, "Ġminimal": 13206, "ico": 2789, "tr": 6903, "Ġì£": 5442, "ä»¥åıĬ": 40282, "Ġevento": 40655, "ĠFinancial": 25560, "Ġcongest": 31871, "Ġlevar": 34538, "Ġremark": 7942, "ĠSherlock": 37769, "ãģ¨": 3193, "Ġnav": 5947, "<|14.74|>": 51101, "ÙĬØ±Ø©": 48923, "Ġíĺ¸": 26932, "<|28.12|>": 51770, "Ġencompasses": 49866, "ĠÐ¹": 24540, "ast": 525, "ÐµÐ»Ñı": 15292, "ç·Ĭ": 30172, "ĠGob": 24287, "è§£": 17278, "ĠBenjamin": 22231, "Ġkimse": 42005, "Ġdemocracy": 10528, "Ġë´": 8649, "Ġtele": 4304, "Ġcop": 2971, "ĠíĹĪ": 26893, "kannt": 29680, "Ġtijd": 26966, "right": 1938, "Ġammonia": 46833, "ĠMat": 6789, "Ġwriting": 3579, "Ġbegged": 47653, "Ġoil": 3184, "ixon": 23226, "Ġ:": 1982, "ĠÐ·Ð½Ð°Ñİ": 16315, "Ġê·¸ëĭ¤ìĿĮìĹĲ": 45137, "Ġwizard": 25807, "Ġutilizz": 40355, "Ð±Ð¸": 34843, "P": 47, "Ġkein": 13424, "Ġfum": 43845, "ĠAunque": 45068, "ĠìĹŃ": 19427, "ple": 781, "Ġsupp": 1003, "Ġneat": 10654, "ĠRen": 12883, "ĠPhill": 18433, "ÑĢÐ°Ð»": 45463, "Ġfandom": 41591, "Ġexplores": 45473, "Ġyan": 17700, "annah": 15143, "<|21.88|>": 51458, "Ġelectricity": 10356, "Ġou": 2820, "st": 372, "æĪĳä¸įçŁ¥éģĵ": 47826, "Ġwhatnot": 25882, "Ġtapped": 38693, "Ġchase": 15359, "Ġrecently": 3938, "Ġdeliveries": 46448, "ahn": 12140, "Z": 57, "ĠRough": 42791, "ĠRum": 31963, "ina": 1426, "æĶ": 5917, "ĠSor": 21421, "dar": 20327, "×ķ×Ĺ": 25400, "ä¸Ĭ": 5708, "ECT": 39904, "Ġphysicists": 48716, "ìł¸": 17383, "Ġdestroy": 5293, "Ġnam": 8835, "ĠArkansas": 31386, "ĠJe": 2588, "è·Łå¤§å®¶": 47349, "éı": 46241, "Ġupdating": 25113, "Ġpredictive": 35521, "?</": 27381, "Ġskipping": 31533, "Ä±yÄ±": 48684, "Ġorganise": 50110, "iyorsun": 24556, "ĠAncient": 28352, "ĠClara": 32048, "Ġexcus": 20974, "Ġholders": 29274, "ãĤĵãģł": 26983, "èı": 16616, "Ġride": 5077, "ward": 1007, "125": 48804, "ĠÐŃ": 5381, "ŀĮ": 22855, "Ġpit": 10147, "ĠIndust": 16018, "Ġtranqu": 17640, "ãĤ¸ãĥ£": 48405, "Ġautomobile": 38809, "Ġappreciated": 17169, "ĠRolling": 36457, "Ġapprove": 18827, "ĠgÃ¶z": 23234, "ihat": 41650, "åĨįè¦ĭ": 30177, "ĠMinnesota": 13996, "Ġadvantages": 14906, "ĠÑĢÑĭÐ½": 37314, "Ġreadily": 26336, "ĠbÃ¶": 41715, "ĠSched": 44926, "Ġgameplay": 11421, "Ġprobl": 15201, "Ġeyel": 13197, "Ġeyelashes": 37017, "Ġoutcomes": 10070, "ĠÐ¸Ñģ": 12410, "ĠìĬ¤íĥĢìĿ¼": 45881, "nor": 19048, "Ġìĸ´ëĸ»": 12580, "à¸Ĥ": 20512, "hip": 1210, "ĠiP": 5180, "Ġesf": 41614, "Ġapparatus": 38573, "Ġunders": 16692, "à®²": 6993, "?]": 7507, "ĠÐ¸ÑģÑĤÐ¾ÑĢÐ¸Ñı": 41531, "ãģ¯ãģĦ": 11050, "19": 3405, "Ġhashtags": 50016, "olics": 33763, "Ġothers": 2357, "Ġpon": 9224, "isha": 16546, "ubs": 5432, "Ġchurches": 15381, "Ġgoes": 1709, "ĠRails": 48526, "ibr": 6414, "Ä±mÄ±": 22569, "Ġcuid": 20770, "ĠGroup": 10500, "Ð°Ð³": 5583, "Ġmuita": 21025, "ĠMini": 18239, "ê·¹": 38053, "Ġslash": 17330, "ĠNikki": 37907, "da": 2675, "ĠDoc": 16024, "Ġ240": 26837, "anten": 29646, "ĠRest": 13094, "Ġein": 1343, "asses": 26615, "Ġcub": 10057, "alah": 16434, "Ġsor": 9359, "ĠXu": 23082, "ioÃ¨": 35983, "Ġcaught": 5415, "ĠFranc": 8686, "ÐµÑĤÑģÑı": 7299, "Ġwitnessed": 21519, "ê¸°ëĬĶ": 23375, "ĠÑĩÐµÐ»Ð¾Ð²": 10347, "Ġcreation": 8016, "Ġoperate": 9651, ")]": 8245, "ĠëĤ´ê°Ģ": 10474, "Ġ×ŀ×¢": 34413, "Ġentender": 20054, "Ġaussi": 6212, "Ġeta": 32415, "ĠJavaScript": 15778, "Ġanten": 18858, "Ġcommittees": 25998, "Ġnavigation": 17346, "Ġbut": 457, "ĠGiving": 28983, "Ġpresumably": 26742, "ĠSims": 33289, "çļĦè©±": 21358, "ĠNova": 27031, "Ġtraff": 21073, "Ġ×©×ľ×Ļ": 48982, "Ġber": 5948, "ãĤĤãģĨ": 16324, "Ġexclus": 15085, "Ġtried": 3031, "Ġlengths": 26329, "Ġbzw": 39998, "Ġenhancement": 40776, "ĠÐ¨": 18428, "Ġsens": 2923, "éģ¸": 21625, "Ġsensations": 36642, "Ġmo": 705, "Ġservant": 17896, "Ġsellers": 31276, "Ġfuture": 2027, "ĠìĦłìĥĿëĭĺ": 37974, "original": 29042, "Ġstands": 7382, "è¡¨ç¤º": 40053, "ailleurs": 19400, "Ġbunu": 18155, "Ġpreset": 32081, "jen": 15378, "ĠAgency": 21649, "Ġdescribe": 6786, "Ġmeal": 6791, "Ġterrifying": 18106, "Ġtrait": 22538, "usc": 32601, "ĠíķĦìļĶ": 22731, "Ġdenied": 17774, "ãģ§ãģį": 43200, "Ġstake": 10407, "ĠKeys": 43733, "Ġaquela": 25996, "Ġ×Ĳ×ĸ": 25624, "Que": 24011, "Ġpetrol": 32377, "Ġmar": 1849, "Ġnovel": 7613, "ĠDate": 31805, "å°±": 3111, "ĠMilk": 26986, "ĠGraham": 22691, "Ġnorthwest": 36930, "Ġabsent": 25185, "Ġperpendicular": 26734, "wart": 29587, "Ġrecomend": 40292, "ĠìĽĢ": 40481, "ĠND": 40709, "Ġphotograph": 8348, "Ġatual": 39241, "ĠPakistan": 15985, "Ġpept": 41781, "Ġpensa": 46909, "Ġvenom": 34322, "Ġcompletely": 2584, "War": 45696, "å°ĩ": 34168, "Ġscheme": 12232, "Ġë³´ë": 10035, "%": 4, "ç´Ģ": 42184, "54": 19563, "lish": 1933, "ĠduÅ¼": 21783, "Ġfit": 3318, "Ġremove": 4159, "ĠdÃ©c": 9198, "chan": 3484, "ĠÐºÐ½Ð¸": 32178, "<|15.62|>": 51145, "Ġmeeting": 3440, "Ġsoit": 12703, "Ã©rcito": 48723, "Ġinversion": 43576, "opt": 5747, "ÐµÐ·Ð´": 26510, "ĠBeni": 44460, "ÑĸÑĢ": 36154, "Ä±yla": 25077, "ĠSis": 33514, "Ġamph": 40077, "Ġbringing": 5062, "ĠtÃ©c": 25564, "ĠBlake": 23451, "lv": 14574, "Ġsenza": 36208, "Ġwelded": 49227, "Ġheats": 41035, "ĠÐ¾Ð½Ð¾": 25369, "ĠTerm": 19835, "Ġdecorate": 24229, "Ġblocking": 17776, "ĠTT": 32576, "Ġup": 493, "FX": 36092, "ĠWake": 21062, "Ġluxury": 15558, "ATH": 17026, "DO": 26649, "Ġìĭ¤í": 37403, "Ġìĸ´ëĶ": 41802, "Ġ330": 45374, "<|0.42|>": 50385, "Ġguessed": 21852, "cip": 11371, "Ġfucked": 22518, "Ġ97": 23399, "ES": 2358, "Ġemotion": 8913, "hit": 37068, "ç¥¨": 41925, "ãģ¡ãĤĩ": 17411, "ĠTP": 44462, "ormuÅŁ": 46336, "æ¯į": 35744, "uli": 25484, "urm": 26717, "Ġmetros": 34761, "Ġflesh": 12497, "<|29.88|>": 51858, "Ġimports": 41596, "<|19.82|>": 51355, "ĠSnapchat": 31579, "<|21.22|>": 51425, "ichten": 24681, "Ġchanging": 4473, "ĠTough": 48568, "ÑĭÑĩ": 21097, "ĠHug": 46892, "Ġlicensing": 29759, "ĠerklÃ¤ren": 46528, "ĠKentucky": 22369, "Ġrecharge": 31366, "ĠNik": 13969, "<|2.76|>": 50502, "Ġindispensable": 47940, "ÑĢÐ¾": 9938, "×Ľ×ķ×ľ": 32822, "ĠaprÃ¨s": 13274, "ĠìĽĲ": 13499, "ening": 4559, "Ġìī½": 33561, "Ġspat": 15000, "Ġescaping": 32554, "ĠLondon": 7042, "Ð²Ð¾ÑĢ": 21087, "Ġindepend": 4819, "Ġsáº½": 17208, "Ġsupplement": 15436, "æ": 162, "acity": 19008, "Ġwhack": 42877, "Ġweakness": 12772, "sam": 19988, "Ġsuitable": 12873, "ĠìĹŃìĭľ": 34522, "Ġsind": 3290, "Ġinning": 49989, "ĠQueensborough": 40722, "Ġ71": 30942, "ìĸ´ì": 2782, "Ġmarched": 43565, "Ġpredict": 6069, "Ġdaughters": 17070, "Ð¨": 26541, "<|23.02|>": 51515, "ify": 2505, "Ġprototypes": 42197, "ĠStudies": 17515, "<|22.12|>": 51470, "ac": 326, "Ġerrand": 45810, "Ġaqui": 3871, "ĠÑĤÑĢÐµÑĤÑĮ": 45305, "ÑĸÐ²": 9718, "ĠGedanken": 44612, "ĠMans": 23167, "Ġcomplic": 16060, "yll": 34353, "ìĬ¤ê°Ģ": 40408, "Ġwinner": 8507, "Ġintro": 12897, "ussian": 21948, "Ant": 35807, "ĠPers": 14006, "æħ¢æħ¢": 41439, "Ġequipped": 15218, "rians": 28145, "Ġcomentarios": 36842, "Ġmixed": 7467, "Ġ60": 4060, "arle": 36153, "<|19.22|>": 51325, "ĠParr": 47890, "igious": 21883, "Ġdegradation": 40519, "Ġbring": 1565, "Ġunex": 11572, "ĠPG": 40975, "ĠSecurity": 11164, "Ġbathroom": 8687, "Ġtart": 22491, "uÃ©s": 12430, "beeping": 43616, "ĠÐĶÐ°Ð²": 17853, "display": 35238, "Ġpequ": 26758, "Ġlamb": 10097, "Ġdisfr": 37114, "ĠãĤĵ": 42961, "Ġcrunch": 13386, "Ġfingerprints": 42170, "Ġfamiliarity": 49828, "Ġwrapper": 46906, "ĠLost": 23422, "Ġgadgets": 37635, "Ġinfantry": 30887, "Ĥ¬": 9915, "Ġetcetera": 22066, "Ġmaintains": 33385, "Ġbefore": 949, "Ġloose": 9612, "Ġshifting": 17573, "ĠÐºÑĢÐ°": 38585, "Ġserver": 7154, "<|25.26|>": 51627, "ĠÑİ": 29488, "ĠØ¢Ù¾": 46201, "archy": 13988, "rze": 13503, "is": 271, "Ġrequests": 12475, "ĠQual": 13616, "ĠDarr": 44007, "åĳ½": 25236, "åħĪ": 10108, "Ġinnate": 41766, "Ġgeology": 48788, "Ġthat": 300, "ĠSN": 13955, "Ġhelt": 24821, "<|7.76|>": 50752, "<|17.94|>": 51261, "Ġundoubtedly": 35211, "<|16.92|>": 51210, "Ġremarks": 19151, "ĠregiÃ£o": 45697, "Ġrecipients": 32440, "Ġtransformed": 16894, "ĠEnvironmental": 27813, "Ä±nda": 8431, "antha": 31303, "Ġstock": 4127, "ĠRud": 18636, "à¯Ī": 8402, "ympt": 34029, "Ġunfamiliar": 29415, "obed": 44904, "Ġ×Ķ×Ĳ×": 20079, "tro": 38604, "ĠìĿ´ë¦Ħ": 28581, "Ġathlet": 7650, "outheast": 20468, "Ġì¸¡": 41696, "..'": 47145, "ogan": 21576, "ĠÑĩÐµÑĤ": 38140, "ĠØ§ÙĦÙĦ": 13672, "Ġgoed": 16987, "ĠINTER": 30219, "ĠFoot": 20989, "ĠëĤ¨": 11689, "Ġmontre": 44132, "ocket": 31380, "Ġexecuting": 32368, "Ġspoil": 18630, "Ġadvertisement": 31370, "ãģ£ãģ¦ãĤĭ": 45350, "Ġprescribed": 29099, "ĠÐ´Ð²ÑĥÑħ": 32360, "ÑĨÑĭ": 14180, "erv": 1978, "Ġgets": 2170, "×ŀ×ķ": 34183, "ĠÐ¿ÑĢÐ¸ÑĢ": 41640, "Ġdelegates": 45756, "won": 14693, "Ġclapping": 19978, "ĠAbr": 31717, "Ġfluid": 9113, "half": 25461, "Ġlang": 2265, "<|4.32|>": 50580, "Ġopportun": 2070, "Ġassess": 5877, "cur": 14112, "Ġvet": 12423, "<|3.88|>": 50558, "ĠëĿ¼ë": 44831, "Ġundermine": 39257, "omatic": 13143, "ãģłãģķãģĦ": 24034, "Ġfile": 3991, "Ġhelfen": 29966, "ĠLem": 16905, "Ġdisse": 17581, "irable": 21493, "Ġredu": 2783, "spl": 46535, "ĠExhale": 31911, "Ġkernel": 28256, "ÃŃo": 20492, "Perfect": 48153, "ĠDorothy": 41105, "fs": 16883, "atched": 24102, "ĠMexico": 8612, "ĠHaf": 47933, "è°": 8897, "<|16.34|>": 51181, "åħ¬": 13545, "we": 826, "Ð¾Ð¶Ñĥ": 45621, "oused": 45478, "ĠvÃ¶llig": 35670, "Ġweekends": 23595, "Ġcollabor": 5091, "Ġintention": 7789, "Ð¢": 8556, "atives": 4884, "ĠFried": 17605, "ends": 2581, "Ġ49": 16513, "Ġislands": 17402, "Ġescri": 30598, "Ġunanim": 29710, "Ġadap": 23169, "gre": 33248, "Ġíķł": 8981, "Ġpolish": 20452, "Ġspice": 19436, "ĠMaya": 21695, "kaa": 47068, "ìĿ´ëĿ¼": 27568, "ĠBarr": 28694, "×¥": 45966, "ĠÐ¿Ð¾ÑĢÑıÐ´": 36681, "<|15.12|>": 51120, "Ġcave": 11730, "...)": 10050, "Ġ3000": 20984, "Ġflaw": 13717, "Ġfats": 29885, "ĠÅŀu": 33583, "ĠmÃ¥ste": 23958, "Ġnossas": 44041, "Ġwritings": 30083, "ĠHarold": 36076, "Ġspokes": 25378, "Ġ105": 33705, "Ġrotten": 31977, "Ð°Ð½Ñģ": 15720, "Ġimpul": 41767, "Ġê³": 3352, "Ġmeus": 28033, "Ð°Ð¹Ð½": 32920, "boxing": 45047, "Ġaccompl": 6548, "aug": 20056, "fern": 28958, "ĠØ§ÙĦØ°ÙĬ": 43527, "Ġdeployment": 19317, "Ġplastic": 5900, "Ġcentral": 5777, "Ġprobability": 8482, "ÑĥÐºÐ°": 38394, "ĠBand": 15462, "ÅĽl": 19212, "etr": 27965, "Ġinjections": 47178, "aban": 18165, "Ġtah": 23059, "Ġals": 3907, "Ġlanguage": 2856, "Ġunreasonable": 41730, "Ġpi": 3895, "Ġwhereas": 9735, "prem": 29403, "ãĢı": 16604, "CROSSTALK": 39721, "çİ°": 20204, "Ġespect": 38244, "ĠUndert": 48649, "Ġtightening": 42217, "Ġnumer": 7866, "ĠDylan": 28160, "Ġanunci": 39350, "Ġrese": 2025, "size": 27553, "Ð»ÑĮ": 6762, "ĠÐ±ÑĢÐ°ÑĤ": 43333, "Ġbridges": 21114, "Ġdeeds": 24539, "Ġmerit": 24527, "Ġballoon": 16994, "Ġ}": 49870, "Ġ1995": 22601, "ĠAaa": 35820, "ÐµÐ½Ð¸Ð¸": 15573, "Ġmillions": 6803, "ĠTransit": 48870, "Ġbuses": 20519, "ĠTokyo": 15147, "Ġcelebrities": 23200, "Ġsitt": 43709, "ÑĸÐ¼": 28198, "ĠmÃ©l": 41953, "uet": 15382, "ĠdeÄŁild": 49587, "Ġpensar": 18321, "ĠMehr": 30782, "lus": 3063, "à¥Ģ": 31881, "ĠCornell": 43257, "Ð¸Ð»Ñı": 50211, "Ġjuvenile": 38486, "theme": 36965, "mit": 3508, "Ġhacia": 21365, "ologÃŃa": 29987, "Ġavent": 36399, "Ġcountless": 19223, "ĠBringing": 45241, "ĠMacBook": 31737, "Ġtilde": 45046, "ãģĤãģĤ": 18430, "Ġstronger": 7249, "Ġburial": 35751, "Ð¾Ð»ÐµÑĤ": 37083, "ĠMart": 5807, "Ð²Ð¸": 43726, "ĠNano": 43511, "ĠCell": 28859, "ĠMobil": 47188, "Ġchiar": 47454, "quela": 41462, "Ġpresup": 47640, "Ġpronunciation": 23338, "Ġspell": 9827, "UC": 23967, "Ġprecio": 46916, "itarian": 13707, "Ġsympathetic": 36032, "ĠKickstarter": 41288, "Â¡": 24364, "Ġturret": 34544, "Ä±nÄ±": 7760, "Ġabdomen": 36494, "ĠBan": 13850, "Ġbloque": 41592, "ĠOT": 38617, "Ġaffecting": 17476, "outhern": 8409, "Ġpolity": 36066, "Ġwollten": 46019, "íķľëį°": 35859, "hetic": 17151, "Ġvisibility": 19883, "ĠGLORIA": 24074, "Ġhangs": 35947, "dan": 10312, "hil": 42829, "ĠKI": 47261, "Ð»Ð°ÑģÑĤ": 32465, "Ġconnector": 19127, "Ġimportance": 7379, "Ġadmission": 24668, "Ġtrava": 16020, "ĠEST": 47140, "ĠÑģÑĤÐ¾": 13552, "Ġsmelled": 40453, "Ġëĺĳ": 29142, "based": 6032, "onymous": 18092, "ĠCreed": 39103, "Ġmovimiento": 43180, "ĠÐ²Ð»Ð°Ð´": 46458, "ĠAvoid": 41061, "<|16.72|>": 51200, "<|19.06|>": 51317, "ĠInaudible": 48655, "Ġott": 42772, "ĠÐ°Ð»Ðµ": 46923, "Ġhassle": 39526, "Ġcou": 1384, "zelf": 34686, "Reporter": 35918, "Ġcarefully": 7500, "MY": 25859, "Ġroles": 9604, "ĠÏĢÎ¿Î»Ïį": 36047, "åħ·": 39806, "Ġstudios": 24593, "Ġlens": 6765, "squ": 33292, "ĠTalking": 22445, "ĠIrish": 16801, "be": 650, "Ġincumb": 39854, "å¤§": 3582, "ĠÐ·Ð½Ð°Ñĩ": 27605, "ĠJim": 6637, "Ġspinner": 44849, "Ġgenere": 41553, "Ġlisten": 2140, "Ġauster": 49867, "otherap": 20194, "æ¨£": 6180, "åıĹ": 23151, "Ġlaz": 19320, "Ġconclud": 9312, "Ġì¤ĳêµŃ": 39712, "Ġratt": 27081, "Ġavis": 34588, "Ġdisasters": 27966, "ĠBut": 583, "Ġbrightly": 47418, "Ġpixels": 18668, "Ğ": 218, "Ġgamma": 15546, "ĠTuc": 42272, "Ġaffir": 36315, "ĠCox": 41576, "Ġloudly": 22958, "ÐµÐ½ÐºÐ¾": 37794, "Ġjuven": 32641, "Ġliqu": 5664, "Ġmarketers": 48003, "×ľ×§": 43185, "ì²ł": 39432, "arness": 16937, "fall": 6691, "Ġì§Ħì§ľ": 7106, "Stop": 26163, "Ġdisorders": 20261, "Ġrotates": 42133, "Ã¼ckt": 37532, "Ġbetrayal": 42700, "My": 8506, "Ġhonored": 14556, "acie": 30805, "Ġbombers": 50055, "ĠRochester": 39895, "ĠJake": 15822, "lya": 45106, "co": 1291, "è»Ĭ": 25941, "Ġobjective": 10024, "Ġremoved": 7261, "Ġturmoil": 44554, "We": 4360, "Ġsitten": 23186, "Ġtiming": 10822, "Ġê²½": 9537, "orsa": 38822, "ec": 3045, "ìħĶìĦľ": 31832, "Ġdisrespect": 27058, "Ġmu": 2992, "Ġcombo": 16859, "ãĥ¼ãĥł": 44265, "ĠÐ²ÑĭÐ³Ð»ÑıÐ´": 30449, "Ġsnare": 45018, "ĠNSA": 47299, "Ġwire": 6234, "Ġindicator": 16961, "Ġsway": 27555, "Ġconducting": 21749, "Ġsteer": 30814, "ĠÐ¾Ð±ÑĢÐ°ÑĤ": 29851, "Ġfundament": 6073, "elujah": 26138, "Ġhogy": 14601, "Ġ===": 7793, "Ġswim": 7110, "æİ°æİ°": 48166, "zers": 41698, "ĠEgg": 16960, "ĠÏĥÏĦÎ·Î½": 31766, "Ġwasn": 2067, "ĠEA": 35747, "Ġpalms": 30819, "<|3.78|>": 50553, "¤ë": 2990, "<|21.26|>": 51427, "Ġliving": 2647, "aji": 29319, "Ġtechnical": 6191, "<|28.06|>": 51767, "Ġcontrib": 4226, "ĠÐ»": 2344, "Ġaman": 42943, "ĠÑĢÐ°Ð·Ð±": 26868, "Ġsorting": 32411, "Ġpreca": 25651, "èħ³": 49595, "Ġpumpkins": 49053, "Î¿ÏħÎ½": 20867, "ĠBCE": 49369, "ĠPorsche": 31044, "Ġesos": 22411, "ĠShaun": 49363, "Ġprinces": 41536, "ĠCharacter": 36786, "ĠCloud": 8061, "ngth": 3674, "gens": 23212, "Ġchopsticks": 39443, "ĠCatherine": 23098, "Ġpouvait": 45913, "<|24.66|>": 51597, "ìĿ´ìĬ": 37641, "Ġfearless": 44139, "ĠBaz": 42220, "Ġmeat": 4615, "Ã¨tement": 27236, "....": 2751, "ayer": 11167, "dah": 40232, ".....": 13556, "ĠOlÃ¡": 41811, "ido": 2925, "Ġemphasized": 34068, "Ġacronym": 39195, "Ġinvalid": 34702, "Ġstretchy": 48865, "ĠÐ´": 1070, "çī": 6935, "Ġinve": 32957, "ikk": 26301, "ìł": 2179, "esse": 7357, "Ġlos": 1750, "<|12.68|>": 50998, "ì²´": 16260, "ĠÂ¡": 6514, "Ġsimplest": 22811, "<|2.28|>": 50478, "room": 2861, "pt": 662, "<|26.78|>": 51703, "Ġstimul": 14572, "ĠBeyonce": 48416, "Ġcentimeter": 31914, "velope": 19278, "Ġdisposable": 41578, "ÑĦÐ¾ÑĢÐ¼": 18190, "Ġcertification": 21775, "Ġegg": 3777, "Ġrespiratory": 27038, "ĠWOR": 30029, "Ġreceptors": 34102, "ç´": 7732, "ĠFortune": 38508, "undai": 43014, "Ġquase": 28875, "42": 15628, "Ġlifelong": 27232, "Ġmember": 4006, "Ġalone": 3312, "Ġstructures": 9227, "Ġsmells": 10036, "fahren": 34394, "Ġmalaria": 45182, "Ġagric": 9682, "Ġesperar": 37577, "Ġabundance": 23391, "Ġcertainty": 27022, "Ġequipment": 5927, "<|7.28|>": 50728, "ĠLaure": 27270, "æĩ": 13183, "Ġê·¼ëį°": 9907, "ĠÐ¿Ð¾ÑĤ": 6364, "ĠVC": 41922, "Ð½ÐµÐ¼": 23977, "Ġfiring": 16045, "Ġsynagogue": 49169, "Ġall": 439, "Ġneutral": 10598, "Ġblossom": 38524, "ĠMER": 47234, "Ġrelev": 25916, "ei": 17067, "Ġtracing": 25262, "Ġawful": 11232, ",)": 36881, "Ġworkout": 12169, "clockwise": 48685, "è§ģ": 23813, "Add": 36189, "orm": 687, "Ġpurse": 28345, "ĠÐ´Ð¾ÑģÑĤÐ°ÑĤÐ¾ÑĩÐ½Ð¾": 28562, "Ġaisle": 30916, "Ġrefugee": 25622, "ĠWorkers": 42375, "bi": 5614, "Ġteaching": 4571, "Ġhomosexual": 30490, "Ġderiv": 10151, "assing": 42705, "ĠparlÃ©": 38570, "Ġcrispy": 17509, "ĠMaxwell": 39594, "Ð«": 16214, "Ġagencies": 9504, "ĠìĨĶì§ģíŀĪ": 46337, "ĠCooper": 20355, "Ġada": 11063, "Ġmassive": 5994, "Ġë³¸": 19387, "Ġcrises": 31403, "Ġpersonagem": 49502, "burst": 46239, "Ġempezar": 31168, "ĠKirk": 27834, "Ġabonn": 40676, "Ġpresenters": 36987, "ì§Ī": 18529, "Ġcharts": 17767, "Ġchecks": 13834, "ensity": 6859, "Ġspicy": 9127, "Ġìĭľì²Ń": 41123, "ĠCompetition": 43634, "izard": 17523, "įĶë": 12890, "oken": 8406, "kward": 10618, "Ġinstallations": 41932, "Jon": 33938, "Ġautonomy": 27278, "Ġuniversities": 11779, "Ġhav": 26139, "Ġviews": 6809, "Ġspe": 768, "ĠÐ¿Ð¾ÐºÐ°Ð·": 21147, "Ġhug": 8777, "Ġcrisp": 22952, "ĠClaro": 33380, "Ġantibiotic": 37828, "Ġcompression": 19355, "ĠNorm": 8702, "Ġhots": 36121, "íĦ°ë": 21412, "Ġlinger": 45657, "Øª": 2655, "ĠWin": 10427, "Ġdragons": 27240, "Ġplayable": 37146, "Ġ//": 29178, "Î¹Î¿": 26330, "ĠamÃ©ric": 39902, "<|24.90|>": 51609, "cida": 37200, "Ġoportun": 24237, "<|2.38|>": 50483, "Ġsiblings": 20571, "Ġcoworkers": 43465, "Ġnode": 9984, "Ġoni": 36317, "usst": 26340, "ONY": 48235, "Ġencaps": 38745, "ej": 40779, "Der": 49853, "ĠWik": 23377, "ĠSilva": 50171, "ÐµÑĩÐ°ÑĤ": 35534, "åħ": 2347, "Ġfl": 932, "Ġzod": 39979, "ĠOhh": 21847, "Ġjurisdiction": 27285, "Ġcosplay": 39403, "ĠÐ±Ð»Ð¸Ð·": 37060, "×ķ×ĳ": 16097, "ĠAlly": 46776, "ĠNatomiast": 36210, "Ġworkplace": 15328, "ĠSa": 6299, "ispiel": 11935, "Ġsteady": 13211, "Ġpuisqu": 43459, "è¹": 39540, "inse": 22134, "think": 21074, "ĠBaker": 25780, "ĠÐ¿Ð°Ð»ÑĮ": 47226, "Ġbuddy": 10340, "à¸ª": 13715, "ariat": 41115, "å¿ĺ": 26677, "Ġboring": 9989, "ĠTem": 8095, "ĠSPEAKER": 12081, "Ġdisplaced": 33692, "Ġselect": 3048, "'ll": 603, "ourd": 21764, "Ġsalary": 15360, "Ġparagraph": 18865, "Ġë²ķ": 31461, "ĠPlatform": 28707, "ĠAccording": 7328, "ĠOw": 12773, "Ġtakeaways": 45584, "ç¬¬": 7536, "inese": 48629, "ÑĥÐ¶Ðµ": 28285, "ĠÐ½Ð¾Ð¶": 46718, "Ġizquier": 46428, "ĠOpening": 41137,
[...]
